<unk>	0
།	-3.47949
▁།	-3.61011
་	-3.97182
▁	-4.16391
་དང་།	-4.55143
་ལ	-4.67997
ས	-4.70678
་དང	-4.75431
༔	-4.93196
འི	-5.02682
་ནི	-5.09797
ར	-5.3116
་དེ	-5.6185
་མ	-5.66736
་ནི།	-5.79897
་པ	-5.83089
་ལས	-5.86549
འོ།	-5.88779
་ན	-5.89844
་རྣམས	-5.97099
་དུ	-6.02077
་ཡང	-6.03794
་ལ།	-6.06654
་ནས	-6.07054
▁དེ	-6.13363
་མི	-6.20047
་ཀྱི	-6.21118
་བ	-6.24579
་ཐམས་ཅད	-6.2911
་སྟེ།	-6.35783
་གྱི	-6.37518
་སོགས	-6.39669
་འདི	-6.42631
་ལ་སོགས་པ	-6.55165
་ཀྱང	-6.69317
ི	-6.71047
་གཉིས	-6.72188
་ཆེན་པོ	-6.72949
་ཞིང	-6.74899
་སྟེ	-6.75809
་དག	-6.7842
▁དེ་ནས	-6.81343
་ལས།	-6.81852
་གསུམ	-6.84917
་རྡོ་རྗེ	-6.86646
་གི	-6.87393
ས།	-6.88497
་ཡིན།	-6.89635
-	-6.90415
ོ	-6.90855
་པའི	-6.92389
་ན།	-6.93218
་ཆོས	-6.93354
་སུ	-6.95735
་ཏེ།	-6.96617
་ཀྱིས	-6.99467
་ལྟར	-6.9976
་གཅིག	-7
འི་	-7.00834
བྱང་ཆུབ་སེམས་དཔའ	-7.02794
་དོན	-7.05002
འང	-7.06408
་ཏེ	-7.0792
་ཡིན་ནོ།	-7.09793
ེ	-7.10727
་གང	-7.1301
་བཞི	-7.1479
་མེད་པ	-7.16235
་ལྷ	-7.18105
་ཉིད	-7.20094
་ན་	-7.20736
་ཞེས་བྱ་བ	-7.20847
་གནས	-7.21088
་ཅན	-7.22596
་གཞན	-7.24316
་རྣམས་ཀྱི	-7.24433
་ས	-7.24436
་གྱིས	-7.25188
འི་ཕྱིར་རོ།	-7.25386
་མེད	-7.25706
་མཆོག	-7.25915
་ཤིང	-7.26149
▁མ	-7.27191
་སངས་རྒྱས	-7.27261
་ནས་	-7.27462
ན	-7.27859
་རྒྱུ	-7.27999
་ཡེ་ཤེས	-7.28376
་ཅིང	-7.29641
་ཁ	-7.31609
་ཀུན	-7.33252
་སེམས	-7.33275
ག	-7.34398
་དང་	-7.35684
་ཞེས	-7.36959
▁ཞེས	-7.37393
▁།དེ	-7.375
་ནས།	-7.38658
་བྱེད	-7.40177
་ཞིག	-7.40359
▁མི	-7.41263
་བདག	-7.41661
ང	-7.42763
་དབང	-7.42779
་བསྟན་པ	-7.4314
▁དེ་ལྟར	-7.43551
་ལམ	-7.4377
་ཡི	-7.43815
མ	-7.44686
་ཙམ	-7.44817
་བྱེད་པ	-7.44929
་ལྔ	-7.45163
འི་ཕྱིར།	-7.45188
་་་་་	-7.4523
་ཤེས་པ	-7.46331
་ཡོད་པ	-7.46841
་བྱ	-7.47308
་རང	-7.48589
་ཀ	-7.50084
▁དེ་ལ	-7.507
་ཆེན	-7.51784
་ཡུལ	-7.51815
ར་འགྱུར་རོ།	-7.51891
་སྐྱེ་བ	-7.5229
་འབྱུང་བ	-7.52554
་ཏུ	-7.53117
་མེད་པར	-7.53528
▁ཡང	-7.53728
་ཕྱིར	-7.53905
་དང་བཅས་པ	-7.54583
༴	-7.54775
འམ	-7.54867
་ལྟ་བུ	-7.55495
བ	-7.5589
་སོ།	-7.56159
་རྣམས་ཀྱིས	-7.57702
་བླ་མ	-7.57844
་རྟོགས་པ	-7.58093
་བྱ་བ	-7.58247
་བཞིན	-7.5921
་སྣང་བ	-7.59272
་ལུས	-7.60166
་རྣམས་ལ	-7.60266
་ཡིན་ལ།	-7.61351
་པོ	-7.62206
་ཆུ	-7.6229
་དེ་དག	-7.63335
་ཡིན་ཏེ།	-7.63806
འམ།	-7.64723
་དེ་བཞིན་གཤེགས་པ	-7.64904
་ཚུལ	-7.65058
▁རྡོ་རྗེ	-7.65075
་བར	-7.65673
་མོ	-7.6584
ལ	-7.65954
་དེ་ཉིད	-7.66265
་གོ	-7.66332
་སྐུ	-7.6665
་རིགས	-7.667
▁པ	-7.6781
་རབ་ཏུ	-7.67821
་པས	-7.68595
་དེ་ལ	-7.68637
▁འདི	-7.68984
་དུས	-7.69211
་བཅོམ་ལྡན་འདས	-7.70542
་རེ	-7.70543
▁བ	-7.70572
་རྒྱུད	-7.70803
་ཇི་ལྟར	-7.71175
་དྲུག	-7.71229
་འཛིན	-7.71495
་ཚེ	-7.72162
་བཞིན་དུ	-7.72735
་ཤིན་ཏུ	-7.73098
་མེ	-7.73943
་ཞིང་།	-7.7413
་ལྡན	-7.74769
▁༑	-7.75289
▁གཉིས་པ	-7.75491
་ཡི།	-7.76461
་ཨ	-7.76598
▁ཨོཾ	-7.77273
་འབྲས་བུ	-7.77553
▁ཆོས	-7.77998
་བུ	-7.78173
་ཐོབ་པ	-7.78753
ད	-7.78957
་སྒྲ	-7.79004
་འཛིན་པ	-7.79063
་ཤ	-7.79071
་མེད།	-7.79283
་གཞི	-7.79445
་དང་ལྡན་པ	-7.81184
་པར	-7.81278
་རབ	-7.81734
་རྣམ་པར	-7.82087
་ཆ	-7.82461
▁སངས་རྒྱས	-7.8332
་དཀྱིལ་འཁོར	-7.83437
་སྟོན་པ	-7.83579
་ཆོས་ཅན།	-7.83798
ས་	-7.83852
་རང་གི	-7.84022
་རྒྱལ་པོ	-7.84334
་ཚིག	-7.84629
▁དེ་ཡང	-7.85347
་བརྒྱད	-7.861
་ཡང་།	-7.86172
་ཡོངས་སུ	-7.86248
འི་ཕྱིར	-7.86741
་པ།	-7.86993
ཕ་རོལ་ཏུ་ཕྱིན་པ	-7.87022
་མཐོང་བ	-7.8717
་ཅིག	-7.87336
་ལོ	-7.8796
་ཚོགས	-7.88716
་སྤྱོད་པ	-7.89673
་ཐམས་ཅད་ཀྱི	-7.89678
་བློ	-7.89827
▁༈	-7.89917
་གཟུགས	-7.90317
འི་དོན	-7.90434
་རི	-7.90447
་འཁོར་ལོ	-7.90669
་སྒྲུབ་པ	-7.90789
་དེས	-7.90853
▁ལྷ	-7.90953
་བདེ་བ	-7.90995
་ནི་	-7.91116
་རྩ	-7.91226
་པདྨ	-7.91238
་བྱས་པ	-7.91265
་རླུང	-7.91321
་བྱ།	-7.91518
་གནས་པ	-7.91951
་རྟེན	-7.92138
་ཅི	-7.92247
▁བཅོམ་ལྡན་འདས	-7.92341
་ཞེས་པ	-7.92397
་སྔགས	-7.92415
་ཡིས།	-7.9281
་གྲུབ་པ	-7.93553
་འདིར	-7.93775
་སྟོང	-7.93954
་རིན་ཆེན	-7.9409
་རུ	-7.94141
་དགུ	-7.94188
་ལ་	-7.94512
་རང་བཞིན	-7.95293
་དེ་ནི	-7.95959
་བཅས	-7.95973
་ཡིན་པ	-7.96888
་རིན་པོ་ཆེ	-7.97099
་ཡོན་ཏན	-7.97244
ཾ	-7.98108
འི་དཀྱིལ་འཁོར	-7.98341
▁དང་པོ	-7.98399
▁གལ་ཏེ	-7.98744
་དང་པོ	-7.99365
་འགྲོ་བ	-7.99409
་བཅུ	-7.99927
་བརྗོད་པ	-8.00077
་ཡིན་པས	-8.00262
་མང་པོ	-8.00591
་བཤད་པ	-8.00628
་དེ་ལྟར	-8.00669
་མ་ཡིན་པ	-8.00772
་ཕྱོགས	-8.01341
▁བླ་མ	-8.01399
10000270	-8.01586
་རྣམ་པར་དག་པ	-8.02023
་ཁོ་ན	-8.02286
ས་སོ།	-8.02296
་དགེ་བ	-8.02839
་དགོས་པ	-8.03205
་འདོད་པ	-8.03212
་པ་དང་།	-8.03828
་གསུམ་གྱི	-8.04164
་སྡུག་བསྔལ	-8.05113
▁ཧཱུྃ༔	-8.05118
▁དེས	-8.05704
ར་གྱུར་པ	-8.0579
འི་ཆོས	-8.05818
་སྙིང་པོ	-8.06066
▁དེ་བཞིན་གཤེགས་པ	-8.06155
་འདི་ནི	-8.06264
་སྣ་ཚོགས	-8.06455
?-	-8.06636
་ཀྱང་།	-8.06669
་དངོས་པོ	-8.06777
་ག	-8.0695
▁ས	-8.06984
་བདུན	-8.07574
ས་ཀྱང	-8.077
་དམ་པ	-8.08063
་སྟོང་པ་ཉིད	-8.08485
་ཡིན་ཏེ	-8.08639
་རོ	-8.08682
▁།ཞེས	-8.09023
་ཁྱོད	-8.09713
་ལ་སོགས	-8.09816
་སེམས་དཔའ་ཆེན་པོ	-8.09986
ར་འགྱུར་བ	-8.09987
▁།དེ་ནས	-8.10747
▁དེའི	-8.10903
་དངོས	-8.10943
་དུ་མ	-8.11029
ཿ	-8.113
་ཉིད་དུ	-8.11955
་ཡ	-8.12218
▁།གཉིས་པ	-8.12333
་འཁོར	-8.12411
་གིས	-8.12762
་རིག་པ	-8.13107
▁རང	-8.13509
་གཅིག་ཏུ	-8.13579
་ཅན།	-8.13687
་ཁམས	-8.14136
་མཛད	-8.14182
▁ཨ	-8.14243
་ཐབས	-8.14534
་ལ་སོགས་པའི	-8.147
་ལུགས	-8.14748
་དག་པ	-8.14926
་ཚད	-8.15053
་མིན	-8.15097
་ར	-8.15467
ར་འགྱུར།	-8.15593
་ཡིན་པའི་ཕྱིར།	-8.15603
་སློབ་དཔོན	-8.1592
་ཟླ་བ	-8.16281
་རྟགས	-8.16901
་ཅན་གྱི	-8.17156
་ལ་ཕྱག་འཚལ་ལོ།	-8.17383
་སྤྱི	-8.17387
་སྣང	-8.1756
▁དང་པོ་ནི།	-8.17579
་བསྐྱེད་པ	-8.17589
་སྒྲུབ	-8.17649
་ལ་ཡང	-8.17666
▁སེམས	-8.17764
འི་སྒོ་ནས	-8.18104
▁ལས	-8.18566
་བསྒོམ་པ	-8.18896
་ཤེས་རབ	-8.19175
་དམིགས་པ	-8.19236
་ཉི་མ	-8.19315
་འཇུག་པ	-8.194
་མཆོད་པ	-8.19516
་ཞལ	-8.19783
་ཤེས	-8.19855
་མིག	-8.20106
་མཛད་པ	-8.20131
▁བདག	-8.20141
་འཇིག་རྟེན	-8.20238
་ཅིང་།	-8.20277
▁༼	-8.20422
▁དེ་དག	-8.20921
▁གང	-8.20924
་བའི	-8.21205
་སེམས་ཅན	-8.21696
་ལེགས་པར	-8.2191
་ཡིན	-8.22479
་སྦྱོར་བ	-8.22515
་ཡོད	-8.2274
་འགྲོ	-8.22749
▁དོན	-8.23135
་སྟོན	-8.23441
་རྫས	-8.23468
་སྣ	-8.23491
་བུམ་པ	-8.23558
་དེར	-8.24103
་དཔལ	-8.2413
་གསལ	-8.24162
་རྟོག་པ	-8.24271
་གསལ་བ	-8.24274
་ངེས་པ	-8.24315
་ནང	-8.2442
་འོད	-8.24517
་དེ།	-8.24678
་ནུས་པ	-8.24694
་དེའི	-8.24893
་༼	-8.25245
་འདི་ལ	-8.25408
ར་བྱེད་པ	-8.25515
ས་པ	-8.25627
▁གཞན	-8.25764
་ཡི་གེ	-8.25959
ར་བྱའོ།	-8.25994
▁གསུམ་པ	-8.25996
་བྱུང་བ	-8.26009
་ལྟ་བ	-8.26154
▁དེས་ན	-8.26288
་ནི༔	-8.26482
འི་ཚེ	-8.26836
▁ལ	-8.27143
་ཐོབ	-8.27337
་ལུང	-8.27374
་ཏེ་	-8.27687
▁འདིར	-8.27965
་རྒྱ	-8.28157
་དཀར་པོ	-8.28385
▁ལུས	-8.28498
་ཆེ	-8.28507
▁ཡེ་ཤེས	-8.28578
་ཉམས	-8.28804
་སྐྱེས་པ	-8.2885
་བས	-8.28956
་རྣམས་ནི	-8.29059
་རྒྱ་མཚོ	-8.29201
་ཡིད	-8.29364
་ཕྱི	-8.29403
པ	-8.29901
་འདོད	-8.29953
འི་ཡེ་ཤེས	-8.30004
་རྣམས།	-8.30253
་གཉིས་ཀ	-8.30298
་སྒོ	-8.30403
་རྒྱས་པ	-8.30561
་དངོས་གྲུབ	-8.30871
་མཚན	-8.31383
་བཟང	-8.3167
་བསོད་ནམས	-8.32037
་སྟོང་པ	-8.32094
▁།དེ་ལྟར	-8.32413
་རྣམ་པ	-8.32662
་བཟང་པོ	-8.3318
་སོ	-8.33438
་མེད་པའི	-8.33463
་ང	-8.3353
་འབྱུང	-8.33678
་ཅུང་ཟད	-8.33742
་ཞི་བ	-8.33749
་མཐའ	-8.33985
་བྱའོ།	-8.34081
་དབང་པོ	-8.34149
་འགྱུར	-8.34298
་བསྟན	-8.34443
་སོ་སོར	-8.3475
་གསུང	-8.34901
་དོ།	-8.3504
་དཀར	-8.35055
་ནག་པོ	-8.3512
▁།མ	-8.35182
་བྱང་ཆུབ	-8.35517
་ཡིག	-8.36146
་གཉིས་པ	-8.36286
▁ཇི་ལྟར	-8.36427
▁རང་གི	-8.36689
▁ཅེས	-8.36737
་སྦྱིན་པ	-8.36948
འི་གནས	-8.37032
་བསམ་པ	-8.371
་ཧ	-8.37423
་མིང	-8.37516
་ད	-8.37533
་མཐོང	-8.37807
་ལའང	-8.37901
▁གཞན་ཡང	-8.38363
་བྱུང	-8.38471
འི་རྒྱུ	-8.38702
་འཁོར་བ	-8.38957
་དགའ་བ	-8.39106
་རྣལ་འབྱོར	-8.39178
་བཀོད་པ	-8.39256
འི་རང་བཞིན	-8.39367
་དགེ་སློང	-8.39772
▁འབྲས་བུ	-8.39831
་འཕགས་པ	-8.39859
▁རྒྱུ	-8.40053
་ཆེ་བ	-8.4043
་སྒོམ་པ	-8.40443
་ཆོས་ཀྱི	-8.40831
་བདག་ཉིད	-8.41086
་རྒྱལ	-8.41613
▁སློབ་དཔོན	-8.41811
་ངོ་བོ	-8.41836
ར་བྱ་བ	-8.42247
་ཐིག་ལེ	-8.42379
▁དེ་ནི	-8.42524
་ཞེས་བྱའོ།	-8.42972
▁དེ་བཞིན་དུ	-8.43284
་སྡོམ་པ	-8.43321
་སྦྱོར	-8.43409
ར་	-8.43739
་གཉིས།	-8.43856
་ནད	-8.43906
་གསུངས་པ	-8.43929
▁།འདི	-8.4393
་རྣམས་དང་།	-8.43931
་ཆུང	-8.442
་མཚན་ཉིད	-8.44269
་བདེ	-8.44404
་དམར་པོ	-8.4443
་ངེས་པར	-8.4448
་དང༔	-8.44606
▁ཡུལ	-8.4462
་ཐུགས	-8.44699
་དེ་	-8.44827
་འཇུག	-8.44963
▁གནས	-8.45025
▁།དེ་ལ	-8.45131
་ལ༔	-8.45149
་འདྲ	-8.45278
་ཏ	-8.45368
འི་ཚུལ	-8.45405
་ཡང་དག	-8.45506
་གཙོ་བོ	-8.45573
་བཞིན་ནོ།	-8.46157
་ཧཱུྃ	-8.46176
་ཕྱག་རྒྱ	-8.46505
་རྗེས་སུ	-8.46561
་བདུད་རྩི	-8.46567
་དཔེ	-8.46792
་རྟ	-8.4681
་གཏོར་མ	-8.47105
▁སེམས་ཅན	-8.4771
་ལ་ནི	-8.47741
▁སྐུ	-8.47957
%-	-8.4796
་གསུངས།	-8.48077
་ཤིང་།	-8.48101
་སྐྱེ	-8.48156
་བདེན་པ	-8.48157
་ཕྱག	-8.48164
་ཀུན་ཏུ	-8.48177
10000220	-8.48229
་བཤད	-8.48249
་བཛྲ	-8.48326
་མང	-8.48341
་བརྒྱ	-8.48675
▁།དང་པོ་ནི།	-8.48734
་བཞིན།	-8.48808
བྱང་ཆུབ་ཀྱི་སེམས	-8.48922
་རྣམ	-8.49037
་ཀུན་གྱི	-8.49039
་རྩེ	-8.49151
་རྒྱུན	-8.49169
་དམ་ཚིག	-8.49506
▁(	-8.49564
་གཉིས་ཀྱི	-8.49947
་མགོ	-8.50076
་ཡང་དག་པར	-8.50138
་གཉིས་སུ	-8.50291
་མེ་ཏོག	-8.50294
་སྔར	-8.50411
་ལྟ	-8.50687
་གྲུབ	-8.51067
་རྣམས་ཀྱང	-8.512
▁ཨོཾ་བཛྲ	-8.51391
་བདག་གིས	-8.51447
▁ཆུ	-8.51559
འི་ལམ	-8.51979
▁།མི	-8.52155
་ཕྱི་མ	-8.52284
་ཞེ་ན།	-8.52343
▁ཁྱོད	-8.52392
▁འདི་ནི	-8.52419
་ངེས	-8.52459
་སྤྱོད	-8.52509
▁།རྡོ་རྗེ	-8.52824
ས་ན	-8.52963
་མཆོད	-8.53078
༑	-8.53327
་ཤིག	-8.53387
་བཀའ	-8.53475
▁ཁ	-8.53879
་ཡེ་ཤེས་ཀྱི	-8.53934
▁།སངས་རྒྱས	-8.53968
་སྐབས	-8.54141
་སྔོན	-8.54555
.-	-8.54601
་གཞུང	-8.54755
/-	-8.54802
་འདི་དག	-8.54885
འ	-8.55121
༽	-8.55428
་ཙ	-8.55582
་བྱིན་རླབས	-8.55939
་མངོན་པར	-8.56032
་མགོན་པོ	-8.56158
་དེ་ཡང	-8.56213
་ནོ།	-8.56244
་དག་གིས	-8.56378
་སྐྱེས	-8.56598
་དགོངས་པ	-8.56835
་སྔ་མ	-8.56896
་བདག་གི	-8.57053
ཱ	-8.571
་འདུག	-8.57176
་རྒྱལ་བ	-8.57388
་བཞག	-8.57389
་སྙིང	-8.57416
་ལ་བརྟེན་ནས་	-8.57458
་སྲོག	-8.57515
་ལེགས	-8.57653
་རྗེས	-8.57881
་བྱིན་གྱིས་བརླབས	-8.57881
་ནང་དུ	-8.57991
་རྫོགས	-8.58086
▁འཇིག་རྟེན	-8.58214
་དང་བྲལ་བ	-8.58378
་ཕུན་སུམ་ཚོགས་པ	-8.58459
་སྒོམ	-8.58486
་ལོངས་སྤྱོད	-8.5875
་མདོ	-8.58828
་སྟོབས	-8.58961
་སངས་རྒྱས་ཀྱི	-8.59106
་ཕྲིན་ལས	-8.59251
འི་འབྲས་བུ	-8.59423
ར་བྱེད་དོ།	-8.59718
་མེད་དོ།	-8.59931
་དམ	-8.59963
ར་འདོད་པ	-8.60075
་ཡིན་པར	-8.6011
་མཐར	-8.60151
་ནམ་མཁའ	-8.60167
་སྨྲ་བ	-8.60356
་གང་ཞིག	-8.60377
་འགོག་པ	-8.60383
་བསྡུས་པ	-8.60493
་ཉིད།	-8.60591
་ཕུང་པོ	-8.60799
་བསྒྲུབ་པ	-8.6094
་ཁྲི	-8.61107
་དབང་ཕྱུག	-8.61149
་རྒྱན	-8.61265
་ཟླ	-8.6129
་ཉོན་མོངས་པ	-8.61503
་གོས	-8.61773
་ཡེ	-8.61784
▁མེ	-8.61887
་གཏོར	-8.61899
་ཛ	-8.62018
་ཚད་མ	-8.62028
་ཅེས	-8.62313
དག་པར་རྫོགས་པའི་	-8.62344
་སོགས་ཀྱི	-8.6237
་དྲན་པ	-8.62439
་མཚམས	-8.62541
་ཉེ་བར	-8.62914
ུ	-8.6298
འི་དུས	-8.63008
▁དེ་ཉིད	-8.6313
་ཕ	-8.63359
༵	-8.6336
་སྨན	-8.63518
་པས།	-8.63672
▁འོ་ན	-8.63709
་གསུམ་པ	-8.63725
་དངོས་སུ	-8.63781
་རྩ་བ	-8.63906
་མེད་པས	-8.64006
་གྲགས་པ	-8.64135
.	-8.64271
འི་ཚུལ་གྱིས	-8.64301
་དམར	-8.64307
▁ལམ	-8.64357
ར་བྱ།	-8.64714
འི་དུས་སུ	-8.65164
་སྐྱོན	-8.65277
་ཤེས་རབ་ཀྱི་	-8.65349
་ཝ	-8.65395
ར་བྱེད།	-8.65491
་དང་ནི	-8.65649
་འོད་གསལ	-8.6599
གས	-8.66009
▁དཀྱིལ་འཁོར	-8.66061
་སྡེ	-8.66131
འི་བར་དུ	-8.66204
་འགྲུབ་པ	-8.66318
་ལྷ་མོ	-8.66324
་བྱས	-8.66349
་སྟེ་	-8.66396
▁ཐམས་ཅད	-8.66426
་གསང་བ	-8.66671
་ཁྱད་པར	-8.67017
་ནམ	-8.67159
ར་གྱུར།	-8.67231
་རྟོགས	-8.67282
་བརྗོད	-8.67543
་ངོ	-8.6791
▁།དེས་ན	-8.67938
་འགྱུར།	-8.67973
▁འཕགས་པ	-8.68033
་འདི་ལྟར	-8.68075
▁དཔེར་ན	-8.68117
▁སྒྲ	-8.68123
་དར	-8.68307
་བསམ	-8.68375
་ལྟར།	-8.68462
་རིག	-8.68621
་དཔག་ཏུ་མེད་པ	-8.68962
་མར	-8.68993
་རྐྱེན	-8.69088
་ཆགས་པ	-8.69146
་འདུས་པ	-8.6934
་སྤོང་བ	-8.69487
་ཚུལ་ཁྲིམས	-8.69532
▁།ཆོས	-8.69611
་པའོ།	-8.69712
་རྗེ	-8.69723
་ཡན་ལག	-8.69771
་ཉིད་ཀྱིས	-8.69822
་རྫོགས་པ	-8.69975
་ནོར	-8.70016
་གསེར	-8.70093
་ཡིས	-8.70365
་རྟག་ཏུ	-8.70452
་ངོ་།	-8.70713
་དགྲ	-8.70747
་ཆོས་ཐམས་ཅད	-8.71027
▁དབང	-8.71184
འི་སྐུ	-8.71296
་ལ་འཇུག་པ	-8.71442
▁དུས	-8.71577
ར།	-8.71682
འི་ཡུལ	-8.71688
་རེ་རེ	-8.71716
▁སུ	-8.71881
་འོད་ཟེར	-8.71936
་མཆོག་གི	-8.71976
་ནག	-8.72055
འི་རྣམ་པ	-8.72063
འི་ཚོགས	-8.72419
ར་ཐལ།	-8.72535
འི་ཏིང་ངེ་འཛིན	-8.7269
་ཉེས་པ	-8.72735
་འབར་བ	-8.72818
་མཛད།	-8.72995
་སྲིད	-8.72996
་ཐོག	-8.73085
་ལ་གནས་པ	-8.73145
་རྒྱས་པར	-8.73279
་གྲོལ	-8.73395
▁གཟུགས	-8.73821
་ཡོད།	-8.73848
་གནད	-8.74119
▁པདྨ	-8.74155
▁།གལ་ཏེ	-8.74162
་ཞུ	-8.74183
་ཆོ་ག	-8.74252
་མིན།	-8.74329
་ངན	-8.74377
་མཐའ་དག	-8.74409
་སྤྲུལ་པ	-8.74554
་ཡོངས་སུ་རྫོགས་པ	-8.74636
་ལགས།	-8.74656
▁སྔགས	-8.74699
་ལས་བྱུང་བའི	-8.74836
▁3	-8.74843
་གཞན་དུ	-8.75129
་གང་གིས	-8.75407
་བཀྲ་ཤིས	-8.75514
་ཡིན་པས།	-8.75616
་སྔོན་པོ	-8.75748
་ཏི	-8.75752
་ཙམ་གྱིས	-8.75789
་བརྟན་པ	-8.76042
▁བཞི་པ	-8.76167
་དད་པ	-8.76204
་མང་དུ	-8.76256
་གསུངས་སོ།	-8.76316
▁ཁྱད་པར	-8.76422
་ཐུན	-8.76425
་དབང་བསྐུར་བ	-8.76462
་མ་ཡིན་ནོ།	-8.76466
་སྐོར	-8.76522
▁ང	-8.76605
▁།ཞེས་སོ།	-8.7661
▁ནི	-8.76737
འི་སྟེང་དུ	-8.76783
▁།གསུམ་པ	-8.77026
▁།ཡང	-8.77071
་ཤར	-8.77233
▁ཀ	-8.77334
་རང་བཞིན་གྱིས	-8.7737
་མ་ཡིན།	-8.77414
་རྒྱས	-8.77469
▁།ཞེས་པ	-8.77478
་ཡུམ	-8.7753
འི་ཕྱིར་དང་།	-8.78037
་དང་༔	-8.78242
་འབྲས	-8.78301
་སྦྱིན	-8.78329
▁བཅོམ་ལྡན་འདས་	-8.78428
་གྲངས	-8.78481
འི་ངོ་བོ	-8.78595
་བསྐྱེད	-8.78596
་བསམ་གྱིས་མི་ཁྱབ	-8.78673
་མངོན་སུམ་དུ	-8.78686
▁ཤ	-8.787
་བོ	-8.78737
་འགལ་བ	-8.7878
འི་བར	-8.79052
་ཟབ་མོ	-8.79213
་ས་བོན	-8.79253
་རྣམས་སུ	-8.79364
་མཁས་པ	-8.79373
འི་མཚན་ཉིད	-8.79378
་ཁང	-8.79498
་ལན	-8.79615
ད་པ	-8.7963
་བྱང	-8.79634
་བརྡ	-8.79753
་སམ	-8.8001
་བསྒོམ	-8.80473
▁ད	-8.8056
་གར	-8.80571
་གང་ཞེ་ན།	-8.80619
འོ	-8.80707
་མཁའ་འགྲོ	-8.80753
་ལེན	-8.80863
་ཏིང་ངེ་འཛིན	-8.81042
་ལ་གཉིས་ཏེ།	-8.81226
▁)	-8.81355
་བརྗོད།	-8.81641
་སྲིད་པ	-8.8171
འི་སྒྲ	-8.81864
་བཞི་པ	-8.82109
འི་དོན་དུ	-8.82514
་སྦྱར་བ	-8.82593
འི་ཐབས	-8.8261
་བྱང་ཆུབ་སེམས་དཔ	-8.82803
་ཡབ་ཡུམ	-8.82861
་བསྟན།	-8.82929
་ཆོས་ཉིད	-8.83044
་དབང་བསྐུར	-8.83213
་ཕ་རོལ་ཏུ་ཕྱིན་པ	-8.8322
་མ་ཡིན་ཏེ།	-8.83335
་ཀླུ	-8.83404
འི་རིགས	-8.83455
་དགེ་འདུན	-8.83629
སངས་རྒྱས	-8.83661
་སེམས་ཅན་ཐམས་ཅད	-8.83671
▁དེ་ལྟར་ན	-8.83786
▁ཚེ	-8.83887
▁ཡང་ན	-8.83901
་རྣམ་པར་ཤེས་པ	-8.83969
་གཅིག་པ	-8.84057
་དབྱེ་བ	-8.84115
འི་ཡོན་ཏན	-8.84171
་འདི་ཉིད	-8.84175
་མཆོག་ཏུ	-8.84336
་དྲག་པོ	-8.84358
་མ་ཡིན	-8.84439
འི་ནང་དུ	-8.84674
འི་ཆོ་ག	-8.84966
་སློབ་མ	-8.85091
▁གཉིས་པ་ནི།	-8.85226
་བཞུགས་པ	-8.85318
་བདག་ལ	-8.85348
་བྱུང་།	-8.85516
▁རྒྱུད	-8.85624
ྃ	-8.85646
་རྡོ་རྗེའི	-8.85648
་དྲི	-8.85733
དེ	-8.85739
་དགའ	-8.85834
▁རྒྱལ་པོ	-8.85869
་ཞི	-8.85951
་འདུལ་བ	-8.85956
་གནོད་པ	-8.8596
་རྟག་པ	-8.86174
འི་སེམས	-8.86204
་ཆད	-8.86383
་སྤངས་པ	-8.86415
་འགྱུར་བ	-8.86657
▁རླུང	-8.86676
་ཞབས	-8.86677
་བྲལ	-8.86724
▁ཞེས་པ	-8.86792
་ཁྲིད	-8.86809
་བཟླས་པ	-8.8707
་ཆོས་སྐུ	-8.87211
་སྙིང་རྗེ	-8.87285
་བྱེད།	-8.87392
་གཞན་གྱི	-8.87474
▁དུ	-8.87676
་མ།	-8.87784
་འདྲ་བ	-8.88115
་གཉིས་ཀྱིས	-8.88313
་བསྒྲུབ་བྱ	-8.88349
▁2	-8.88601
་གཡས	-8.88669
་སྒྱུ་མ	-8.88686
་བདུད	-8.88897
་མཚན་མ	-8.88968
▁།དེ་ནི	-8.89037
་བ་དང་།	-8.8908
་དེ་དག་གི	-8.89107
་རྙེད་པ	-8.89165
་གཅིག་གིས	-8.89191
་བཅུ་གཉིས	-8.89202
་ཅེས་བྱ་བ	-8.89264
་མངོན་སུམ	-8.89349
་ཐམས་ཅད་ལ	-8.89454
་འཕེལ་བ	-8.89622
་མིན་པ	-8.89745
་ཉམས་པ	-8.89873
་རིང	-8.89978
▁དེར	-8.90032
▁དེ་ནས་	-8.90079
་ཡིན་ན	-8.90218
▁།བ	-8.90282
ངས	-8.90431
་གྱུར	-8.90501
་སོ་སོ	-8.90508
▁།དེ་དག	-8.90594
་ཉོན་མོངས	-8.90682
་ཆེ།	-8.90685
་བཞུགས།	-8.90689
་ཁྱོད་ཀྱིས	-8.90715
་ལོག	-8.90781
་གསང	-8.909
་མེད་ཅིང	-8.91126
་སྐྱེས་བུ	-8.91131
་ཨཱ	-8.91151
་སྭཱ་ཧཱ།	-8.91188
་འབྱུང་།	-8.91234
▁འདི་ལྟར	-8.91282
་དགག་པ	-8.91404
་དགོས	-8.91445
་བཞག་པ	-8.91615
་ཕྱེད	-8.91644
་གསུམ་དུ	-8.91724
་ཕྱིར།	-8.91744
▁འདི་ལ	-8.91815
་ཐ་དད	-8.92069
་ལས་བྱུང་བ	-8.92113
འི་ཚེ།	-8.92129
་པ་ལ	-8.92381
་དེ་བཞིན་དུ	-8.92529
ར་ཡང	-8.92622
་རིམ	-8.92644
▁རྩ	-8.92729
▁.	-8.92765
་ལུས་ཀྱི	-8.92822
་ཞུ་བ	-8.92847
་གང་ཟག	-8.92872
་ཆགས	-8.9288
འི་ཁྱད་པར	-8.92898
་ཡོད་དེ།	-8.93011
་འདིས	-8.93164
▁དངོས་པོ	-8.93268
་དག་གི	-8.93268
▁:	-8.93414
་འཁྲུལ་པ	-8.93505
▁རང་བཞིན	-8.93622
་དག་ནི	-8.93624
་ལྟུང་བ	-8.93742
་གཅིག་ལ	-8.93788
▁སྤྱིར	-8.93884
་གསུང་།	-8.94089
▁བདེ་བ	-8.9409
་ཆེན་པོའི	-8.9417
་མ་ལུས	-8.94249
་བྱས།	-8.94411
་གསུམ་གྱིས	-8.94438
་དགེ	-8.94487
་ཙམ་དུ	-8.94558
་ལྡོག་པ	-8.9473
་མྱུར་དུ	-8.94736
་ཐོས་པ	-8.94825
་དུག	-8.94949
་རིགས་པ	-8.95063
་ལྡན་པ	-8.95082
འི་ས	-8.95094
་ཟེར	-8.9518
་ཤོག	-8.95299
་ལེན་པ	-8.95473
་རྣམ་དག	-8.95522
་ལྟ་བུའོ།	-8.95628
་བཞུགས	-8.95779
་བཟློག	-8.95826
་ཕྱིས	-8.95879
་འཆད་པ	-8.96077
་དང་བཅས	-8.96085
་ཚ	-8.9609
▁ནང	-8.96145
་བསྒོམ།	-8.96262
་སྣོད	-8.96463
་ནོར་བུ	-8.96583
་གྲོལ་བ	-8.96599
་རྟོག	-8.96692
▁བུམ་པ	-8.96731
་མཁན	-8.96862
་ཟད	-8.96913
་རང་ཉིད	-8.9692
་ཐང	-8.96962
་སེམས་བསྐྱེད	-8.97038
་སྐད	-8.9709
་བྱམས་པ	-8.97097
ས་ནི	-8.97131
འི་ལས	-8.97185
འི་སྙིང་པོ	-8.97225
▁།དེ་ཡང	-8.97235
་ཅེས་པ	-8.97261
་སེམས་ཀྱི	-8.9729
འི་རྒྱུད	-8.97564
་མྱི	-8.97582
྄	-8.97615
་གནང་བ	-8.97674
་གསུམ།	-8.97719
་མཛོད།	-8.97879
ར་གྱུར་ཅིག	-8.9788
་ཟ	-8.97882
▁༄༅།	-8.97952
▁0-	-8.98148
▁།དེ་བཞིན	-8.9828
་སྨྲ	-8.98464
་ལྷག་མ	-8.98577
་མྱོང་བ	-8.98588
་སོ་སོའི	-8.98592
་ཚངས་པ	-8.98639
འོ་ཞེས	-8.98696
བས	-8.98715
▁འདོད་པ	-8.98718
▁སྣ	-8.99273
་འབྲེལ	-8.99362
་མྱ་ངན་ལས་འདས་པ	-8.99474
་བསྲུང་བ	-8.99523
་མཚོན	-8.9954
་ཡིན་ན་	-8.99553
་བཤད།	-8.99556
་གང་།	-8.99675
▁ན	-8.99763
་བདེ་ཆེན	-8.99769
་ཟས	-8.99791
་ཁྱད་པར་ཅན	-8.99794
འི་སྐབས	-8.99802
འུ	-8.99867
་པ་དང	-8.9992
་བྱས་པས	-9.00017
་ལོ།	-9.00064
་ཤེས་བྱ	-9.00074
་གཞན་ལ	-9.00212
་དུ་གྱུར་པ	-9.00232
་ཡོད་པར	-9.00334
་ཐ	-9.00479
་གང་ལ	-9.00548
་བཟུང	-9.00551
་ལ་མི	-9.00879
་ངན་པ	-9.00954
་རྒྱུ་བ	-9.01075
་ལྟ་བུར	-9.01087
▁བཛྲ	-9.01126
་བི	-9.01269
་དེ་ལྟ་བུ	-9.01378
འི་ཚིག	-9.0141
་མུ	-9.01451
▁དཔལ	-9.01545
་བསམ་གཏན	-9.01607
་འཇིགས་པ	-9.01686
▁རྗེ	-9.0172
▁།ཡེ་ཤེས	-9.01725
་གཏེར	-9.01785
་སོགས།	-9.01827
▁གཞི	-9.01836
▁།དང་པོ	-9.01861
་བསྒྲུབ	-9.01864
་བརྒྱུད	-9.0189
མཁྱེན་པ་ཉིད	-9.0195
་གཉིས་ལས།	-9.01979
་ཀྱི་	-9.02026
་འབྲུ	-9.0212
་འཇིག་པ	-9.02436
་ཅིའི་ཕྱིར་ཞེ་ན།	-9.02452
་རིམ་གྱིས	-9.02694
་སེང་གེ	-9.02725
་བྱང་སེམས	-9.02728
་ཐེག་པ	-9.02876
་ཉིད་ཀྱི	-9.02987
▁།དེ་ཡི	-9.02988
་སྒྲིབ་པ	-9.03061
▁དགེ་སློང	-9.03129
་ཐ་དད་པ	-9.03168
་འབུམ	-9.03397
▁རིགས	-9.03406
་ཨོཾ	-9.0344
▁ཤེས་རབ	-9.03571
འི་དངོས་པོ	-9.03635
་ཟེར་བ	-9.0384
་བཅུ་དྲུག	-9.03842
འི་ཕྱིར་ཏེ།	-9.03856
▁དེ་ལས	-9.03868
▁དགེ་བ	-9.03929
▁རྣལ་འབྱོར	-9.04119
་འགའ་ཞིག	-9.0425
ལ་བ	-9.04292
་བསྐོར་བ	-9.04361
་དྲན	-9.04438
<-	-9.04474
ྱ	-9.04511
ར་འགྱུར་ཏེ།	-9.04577
་རོལ	-9.04644
ས༔	-9.04732
▁འཁོར་བ	-9.04862
་མཁྱེན་པ	-9.04914
འི་རྒྱལ་པོ	-9.05006
་གསལ་བར	-9.05019
་མེད་དེ།	-9.05116
འི་ལྷ	-9.05122
་བསྡུ་བ	-9.05126
▁ཤེས་རབ་ཀྱི་	-9.05211
་དག་ལ	-9.05305
་ཀྱིས།	-9.05341
ས་མ	-9.05359
▁ཤིན་ཏུ	-9.05378
་ནང་གི	-9.05397
་ཡིན་པའི་ཕྱིར	-9.05519
་དམིགས	-9.05583
་མ་ལུས་པ	-9.05882
་ཡོངས་སུ་དག་པ	-9.06002
ཱི	-9.06097
་གྱིས།	-9.06156
་བྱས་ནས་	-9.06173
་ཁ་དོག	-9.06326
་སྡིག་པ	-9.06419
་འཕོ་བ	-9.06443
▁ཅི	-9.0646
་ཐ་སྙད	-9.06551
▁།གཉིས་པ་ནི།	-9.06612
▁།ལྷ	-9.06676
▁དེའི་ཚེ	-9.06738
་དང་བཅས་པའི	-9.06782
་འཆི་བ	-9.06794
▁།འཇིག་རྟེན	-9.06889
▁ཕྱི	-9.07056
་མི་རྟག་པ	-9.07129
ག་པ	-9.07143
་འཇོག	-9.07301
་ཡོད་དོ།	-9.0749
▁བདག་གི	-9.07631
་གོང་མ	-9.07658
་འདི།	-9.07689
་དག་ཀྱང	-9.07735
་དོན་གྱི	-9.07757
ཀ	-9.07779
ར་ཤོག	-9.08018
▁ལོ	-9.08059
་གྱུར་པ	-9.08112
་གནས་སུ	-9.08144
་བ།	-9.08267
་དོ	-9.08419
ྭ	-9.08428
་བར་ཆད	-9.08506
་གྲགས	-9.086
▁ག	-9.08688
་གཅིག་གི	-9.08763
་མཚོ	-9.0894
་ཕྱག་རྒྱ་ཆེན་པོ	-9.0908
་དཀོན་མཆོག	-9.09188
་གདུལ་བྱ	-9.09277
་མཉམ	-9.09283
་མཐུ	-9.09313
▁དམ་ཚིག	-9.09318
་སྔགས་ཀྱི	-9.09443
་ཐམས་ཅད་ཀྱིས	-9.09471
▁སྐྱེ་བ	-9.09496
▁།ཇི་ལྟར	-9.09501
་གཞན་གྱིས	-9.09506
་བྱེད་ཀྱི	-9.09542
་ལྔ་པ	-9.09553
▁ཟླ་བ	-9.09604
▁།འོ་ན	-9.09634
་ཚང	-9.09718
▁།དོན	-9.09868
་གྲོགས	-9.0989
་དེ་བཞིན	-9.09982
་རྫོགས་པའི	-9.09987
་ཟློག	-9.10013
་རྟེན་འབྲེལ	-9.10166
་རལ་གྲི	-9.10225
▁རྟགས	-9.10268
་འགྲུབ	-9.1035
་མངོན	-9.10351
་ཁྲག	-9.10379
་གསུམ་པོ	-9.10457
་རྣལ་འབྱོར་མ	-9.10478
་ཐམས་ཅད་མཁྱེན་པ	-9.10613
་བརྟག་པ	-9.10649
་འདུ	-9.10737
གས་པ	-9.1077
་དབུས་སུ	-9.10809
་སྤྲིན	-9.10812
་ཞུགས་པ	-9.10813
▁སློབ་མ	-9.10876
་ཕོ	-9.10895
་ཡིན་གྱི།	-9.10908
་གཅིག་པུ	-9.11214
ར་གྱུར་ཏོ།	-9.11261
་རུང	-9.1127
་ཞག	-9.11279
་དཀྱིལ་འཁོར་གྱི	-9.11377
་བསྟན་ཏོ།	-9.11408
ཀྱིས་བཀའ་སྩལ་པ།	-9.11425
་འདུག་པ	-9.11516
་ལྷུན་གྲུབ	-9.11524
▁¡·	-9.11529
་རིས	-9.11664
འི་རྣལ་འབྱོར	-9.11794
▁ཡིད	-9.11829
འི་སྔགས	-9.11861
་ཆུང་ངུ	-9.11965
་དང་ལྡན་པའི	-9.12148
▁མཚན་ཉིད	-9.12213
▁སེམས་ཅན་ཐམས་ཅད	-9.12241
་དེ་ལས	-9.12242
▁གཏོར་མ	-9.12346
་འཆར་བ	-9.12423
་གུ	-9.12454
▁།གཞན	-9.12585
་ཐ་མ	-9.12603
་བཟོད་པ	-9.1261
་བཟློག་པ	-9.12652
འི་བློ	-9.12655
་ངག	-9.12702
་ལྟ་བུའི	-9.12811
་གྱུར་ཅིག	-9.12876
་འདུས	-9.13055
་ཁྱབ་པ	-9.13078
▁དེའི་ཕྱིར	-9.13221
▁རྣམ་པ	-9.13337
་ཆེན་མོ	-9.13394
་བློ་གྲོས	-9.134
་གནས།	-9.13509
་དྲུག་གི	-9.13509
་གདན	-9.13559
ང་བ	-9.13568
▁བུ	-9.1359
▁རྟེན	-9.13702
་སམ།	-9.13757
▁མཐར	-9.13772
་ཟིན	-9.13784
འི་རིམ་པ	-9.13853
་སྐུ་གསུང་ཐུགས	-9.13879
▁ཡོན་ཏན	-9.13928
▁།རང	-9.13933
་བསྟོད་པ	-9.14048
་ཐམས་ཅད་ཀྱང	-9.14097
▁མིག	-9.14116
་ཚོགས་པ	-9.14118
་འདོད་ཆགས	-9.1429
འི་དབང་གིས	-9.14293
་མན་ངག	-9.14303
་ཧེ་རུ་ཀ	-9.14348
་མེད་པ་དང་།	-9.14409
་གྷ	-9.14438
▁ཆོས་ཐམས་ཅད	-9.14533
་ཆེན་པོས	-9.14548
་སྟེང	-9.14649
་ཉ	-9.14763
་ཟད་པ	-9.14838
་ཁྲོ་བོ	-9.14871
་དག་ཏུ	-9.14922
་ཆད་པ	-9.14999
▁ཕྱོགས	-9.15112
་བཞུགས་སོ།	-9.15376
འི་ཆ	-9.15409
འོ༔	-9.15509
་ཁྱོད་ཀྱི	-9.1553
་ཤི	-9.15609
་དབྱེར་མེད	-9.15705
▁རང་ཉིད	-9.15737
▁དབང་པོ	-9.15743
་ལས་ཀྱང	-9.1585
་ཆར	-9.15861
་སེལ་བ	-9.16013
་དབྱིངས	-9.16018
མ་པ	-9.16084
་དེའི་ཚེ	-9.16094
འི་གཞི	-9.16117
་གསང་སྔགས	-9.16199
་རྟག	-9.162
་འདུ་ཤེས	-9.16213
་གསོལ	-9.16313
་གང་དུ	-9.16325
་སྟོང་ཉིད	-9.16444
▁¡¶	-9.1656
་དཔའ་བོ	-9.16565
་ལ་བརྟེན་ནས	-9.16616
་རྡོ	-9.16675
་སྐད་ཅིག	-9.16722
▁།ཞེས་དང་།	-9.16765
་མ་གྲུབ་པ	-9.16771
▁མཆོད་པ	-9.16952
་ཟིན་པ	-9.17047
་ལྡོག	-9.1709
་ཀུན་ལ	-9.17103
་དབང་གི	-9.17149
་རིམ་པ	-9.17155
▁།ཞེས་གསུངས་པ	-9.17185
་མཛོད	-9.17204
་བསྡུས	-9.17242
▁འོན་ཀྱང	-9.17392
་ནུས	-9.17547
▁རྣམ་པ་ཐམས་ཅད་	-9.17657
་བཅུད	-9.1767
་ཡར	-9.18015
འི་རྟགས	-9.1802
▁སྡུག་བསྔལ	-9.18036
་གཞོན་ནུ	-9.18118
▁རྒྱལ་བ	-9.18127
་ལས་ཀྱི	-9.18204
འི་སྐྱོན	-9.18212
་གླིང	-9.18325
▁རབ་འབྱོར	-9.18356
་ཐོད་པ	-9.18383
་ཟུར	-9.18451
▁སྔར	-9.18489
་ཐུབ་པ	-9.18502
:	-9.18505
་བཏགས་པ	-9.18532
རྡོ་རྗེ་སེམས་དཔའ	-9.18546
▁ཧཱུྃ	-9.18562
་ལམ་གྱི	-9.18567
▁།བླ་མ	-9.18569
▁བློ	-9.18575
་ཉི་ཤུ	-9.18678
་འབྲེལ་བ	-9.18812
▁དང་།	-9.18854
་བྱས་ནས	-9.18953
་མདའ	-9.18961
་གཉེན་པོ	-9.18989
་བསལ་བ	-9.19003
▁རིག་པ	-9.19013
་རྡོ་རྗེ་འཆང	-9.1907
་ཡིན་པའི་ཕྱིར་རོ	-9.19189
་ལི	-9.19243
་ཡིན་ན།	-9.19331
འི་དབང	-9.19422
ར་མ	-9.19545
ར་བྱས་པ	-9.19582
་ཡིན་ནོ་ཞེས	-9.19643
་གང་དག	-9.19651
་སྲུང	-9.19746
▁ཉོན་མོངས་པ	-9.19781
▁ནི།	-9.19815
་སྨིན	-9.19833
་རྫོགས་པར	-9.19853
་ཁྱིམ	-9.19875
་རྒྱལ་མཚན	-9.19915
འི་གཟུགས	-9.2003
་དྲི་མ	-9.20064
འི་འཁོར་ལོ	-9.20081
▁ཡི་གེ	-9.2009
་གསོལ་བ	-9.20308
་པྲ	-9.20369
་སྐྱབས	-9.20529
་སེར་པོ	-9.2054
་དབྱངས	-9.20559
་བླ	-9.20601
་གདོང	-9.20684
་ཁྱོད་ལ	-9.20719
▁སྔོན	-9.20786
་གཏོང་བ	-9.20908
་གཡོན	-9.20921
་སྡོམ	-9.21012
་ཆོག	-9.21058
་མོས་པ	-9.21072
་རྐང་པ	-9.21102
་ཞེས་བྱ་བ་ནི	-9.21233
་དྷ	-9.21344
་ཐོག་མར	-9.21396
་དབུ	-9.21504
་ལྷག	-9.21634
་མཉམ་པ	-9.21725
་དབུས	-9.21867
ར་འགྱུར	-9.21954
་སྒྲུབ་པའི	-9.2198
་ཆང	-9.2199
་ཟེར།	-9.22004
་ལ་བརྟེན་པ	-9.22202
▁འཁོར་ལོ	-9.22246
་བཟུང་བ	-9.22313
ར་མཛད་པ	-9.22313
་སྤང	-9.22325
་སར	-9.22338
▁འགྲོ་བ	-9.22359
་སྐྱེད	-9.2237
▁སྣང་བ	-9.22432
་སྨོན་ལམ	-9.22568
་བདེན	-9.2264
་རྣམས་སོ།	-9.22821
་འདྲེན	-9.22921
་སེལ	-9.23077
་བྲམ་ཟེ	-9.23146
་རྐང	-9.23195
་ཕན་ཚུན	-9.23208
▁དེ་དག་གི	-9.23233
་ཆུང་བ	-9.23243
་ཊ	-9.23354
་བྷ	-9.23374
་དྲུག་པ	-9.2338
་སྲས	-9.23404
་བྱས་པའི	-9.2341
་བྲིས་པ	-9.23442
་དེ་རྣམས	-9.23538
་ཆེས	-9.23729
་འཆི	-9.23771
▁ཨོཾ་	-9.23788
ན་པ	-9.23789
་ཟབ	-9.23863
་ཐམས་ཅད་དུ	-9.23876
་གཉིས་ལ	-9.2394
་སྤོང	-9.2398
་བྱས་ལ།	-9.24042
་སྤྲུལ	-9.24064
་ཐེག་པ་ཆེན་པོ	-9.24104
ར་གནས་པ	-9.24122
་ཐག	-9.24155
་འོག་ཏུ	-9.24191
▁ཞེས་དང་།	-9.24191
༢༽	-9.24194
▁།དེ་ཉིད	-9.24263
་སོགས་ཀྱིས	-9.24299
▁ཤེས་པ	-9.24367
་གོང	-9.24386
▁སོགས	-9.244
ར་བ	-9.24403
ྀ	-9.24416
▁།གང	-9.24419
་དེ་ཡི	-9.24441
་རྨི་ལམ	-9.2461
འི་རྒྱུ་མཚན	-9.24612
་བར་དུ	-9.2463
་དུས་སུ	-9.24674
་བསྒྱུར	-9.24707
་ལག	-9.24756
་ལ་སོགས་པས	-9.24783
་ཐར་པ	-9.24933
་ཆེར	-9.25042
་མཚུངས་པ	-9.25065
་བུད་མེད	-9.25067
་ཁ་ཅིག	-9.25114
་ཉིད་ལ	-9.25161
་སྐྱོང	-9.2517
▁དེ་ལྟ་བུ	-9.2518
་འཇིག་རྟེན་གྱི	-9.2524
▁།སེམས	-9.25262
་ཉིད་དོ།	-9.25262
་འཇིག	-9.25271
ར་མི	-9.25283
་ཡོངས	-9.25288
་རྗེ་བཙུན	-9.25327
ར་བྱ་བའི་ཕྱིར	-9.25339
་འགལ	-9.25339
་རྒྱུད་ཀྱི	-9.254
་གསུངས	-9.25418
་གནང	-9.25476
འི་ལུས	-9.25519
་མདུན་དུ	-9.25558
་བསྟན་པའོ།	-9.25567
་ཡིས༔	-9.25663
་ཕལ་ཆེར	-9.25716
་ཧཱུྃ།	-9.25757
་བུམ	-9.25783
་ལྕགས	-9.25804
▁ཞ	-9.25817
▁རིན་ཆེན	-9.25954
་མོ།	-9.26019
▁སྦྱོར་བ	-9.26109
་འཇོག་པ	-9.26192
་ཙམ་གྱི	-9.26211
་གང་རུང	-9.26404
་བཤད་དོ།	-9.26603
་བཅས་པ	-9.26658
་རྣམ་རྟོག	-9.26658
འི་སྐབས་སུ	-9.26677
་ཐུགས་རྗེ	-9.26687
་སྤེལ	-9.26691
▁འཁོར	-9.26823
▁།འདིར	-9.26887
་བརྟན	-9.26915
་ཚོར་བ	-9.271
ཏ	-9.27227
▁རོ	-9.27292
་སྟེང་དུ	-9.27382
ས་དེ	-9.27388
་འཕེལ	-9.27516
་བཀོད	-9.27556
་ལས་འདས་པ	-9.27559
་གོ་བ	-9.27596
་ཀུན་རྫོབ	-9.27639
་དགོངས	-9.2768
་བདེ་བ་ཆེན་པོ	-9.27686
་ཅན་དུ	-9.27737
=-	-9.27741
་སྤྱན	-9.278
་ནས༔	-9.27823
▁ཉི་མ	-9.27848
་སློབ	-9.27898
༡༽	-9.27912
༣༽	-9.27969
་གཟུང་བ	-9.27986
་བོད	-9.2802
་ཏོ།	-9.28031
་མཛེས་པ	-9.28062
▁བདག་ཉིད	-9.28073
་མ་རིག་པ	-9.28112
་ཚང་བ	-9.28132
་རྩལ	-9.28149
▁སངས་རྒྱས་ཀྱི	-9.28193
་རང་རང་གི	-9.28296
་མྱེད་པ	-9.28326
་དུས་ཀྱི	-9.28335
▁གཡོན	-9.28429
་དང་པོར	-9.28441
▁བྱང་ཆུབ་སེམས་དཔ	-9.2846
ས་ན།	-9.28477
་ཆོས་ཀྱི་དབྱིངས	-9.28543
་སྤྲོས་པ	-9.28566
་ཨེ	-9.28626
་བླ་ན་མེད་པ	-9.28628
་བྱིན་གྱིས་རློབས	-9.28688
་ཕྲེང་བ	-9.28707
་དང་ལྡན	-9.2871
་འདྲེན་པ	-9.28892
་རྒྱུད་ལ	-9.28898
་བྱོན	-9.28907
▁ཇི་སྐད་དུ།	-9.2891
་ཕན	-9.28933
་ནུབ	-9.28958
▁རྩ་བ	-9.29018
ས་སྨྲས་པ།	-9.2909
10000240	-9.29151
་སོང	-9.29191
་མཁའ་འགྲོ་མ	-9.29197
ས་སུ	-9.29244
ར་བཤད་པ	-9.29247
བཅོམ་ལྡན་འདས་ཀྱི	-9.29313
ར་འགྱུར་ཏེ	-9.2954
་ཤར་བ	-9.29573
▁།ཐམས་ཅད	-9.2965
་འདུ་བ	-9.29686
་རིག་འཛིན	-9.2973
་སྦྱར	-9.29921
་ཉེ	-9.30044
་གཟུང	-9.30054
་བརྒྱུད་པ	-9.30055
་དོན་ལ	-9.30211
་ཕུར	-9.30219
▁ངོ་བོ	-9.30243
་རིན་པོ་ཆེའི	-9.30253
▁སླར་ཡང	-9.30311
་འབུལ་བ	-9.30392
་མཐུན	-9.30517
་མར་མེ	-9.30602
་ལ་གསུམ་སྟེ།	-9.30624
་གཅོད	-9.30652
་འཁོར་དང་བཅས་པ	-9.30743
བྱང་ཆུབ་ཏུ	-9.30755
་གཙང	-9.30783
▁སྤྱི	-9.3091
▁བྱ	-9.30922
འི་མན་ངག	-9.30933
▁རྒྱ	-9.30994
འཇིག་རྟེན་གྱི་ཁམ	-9.31211
་མ་ཧཱ	-9.31227
ཾ།	-9.31249
་ཞུགས	-9.3138
ང་།	-9.31462
་ཡང་དག་པ	-9.31643
་རྡུལ	-9.3172
་ཎ	-9.31721
་སི	-9.31735
་གཡོ་བ	-9.31896
▁ཤིང	-9.31906
་དང་ལྷན་ཅིག	-9.31936
་ཐིག	-9.31946
་འབའ་ཞིག	-9.31977
▁ཞེས་པས	-9.31978
་ངས	-9.32011
་ལ་མ	-9.32102
་ཏྲ	-9.32107
་ཁྱབ	-9.32149
▁བསྟན་པ	-9.32343
་ལེགས་པ	-9.32373
་གཉིས་མེད	-9.32567
་ཟ་བ	-9.32607
་དང་འདྲ་བ	-9.32675
▁དེ་ཡི	-9.32678
་ཐོབ།	-9.32761
འི་ཁམས	-9.32772
་ལ་འདི་སྐད་ཅེས	-9.32855
་མོད།	-9.3292
▁བདག་གིས	-9.33166
▁།ཞེས་བྱ་བ	-9.33195
་ཀུན།	-9.33245
་རྣམ་པར་རྟོག་པ	-9.33284
་དྲོད	-9.33302
ཻ	-9.33348
་ཡང་	-9.33402
▁དམིགས་པ	-9.33434
་འོང	-9.33457
་ཡུལ་དུ	-9.33583
་ལས་	-9.33591
▁བཙུན་པ	-9.33675
་བསྟན་བཅོས	-9.33908
་ཐུབ	-9.33914
་ནམ་མཁའི	-9.34005
་འབུལ	-9.34039
་སེར	-9.34135
་དོན་དམ	-9.34148
་བཞི་པོ	-9.34186
་དགག	-9.3419
་ཚན	-9.34192
་དངོས་གཞི	-9.34213
་བྱེ་བ	-9.3431
་དང་འགལ་བ	-9.34424
▁དང	-9.34481
་རིགས་ལྔ	-9.34507
་ལམ་དུ	-9.34521
་ལྷ་ཚོགས	-9.34527
་བསྲུང	-9.34588
་ལུས་ལ	-9.34627
་ཆེན་པོར	-9.34632
་བྱང་ཆུབ་སེམས	-9.34676
▁ལྔ་པ	-9.34755
་ད་ལྟ	-9.34769
འི་མིང	-9.34777
་བཀག་པ	-9.34781
་སྨད	-9.34804
་མའི	-9.34897
འི་རྟེན	-9.3493
▁རྣམ་པར	-9.34941
་གཞན་ཡང	-9.35038
་མེད་ན་	-9.35075
་བྱིན	-9.35096
་སྐྱེད་པ	-9.35104
འི་ཕྱག་རྒྱ	-9.35114
་བརྟག	-9.35167
་འམ།	-9.35288
འི་སྤྱོད་པ	-9.35291
▁།འདི་ནི	-9.35375
འི་སྡུག་བསྔལ	-9.35385
་གལ་ཏེ	-9.35407
▁རྣམ་པར་ཤེས་པ	-9.3543
་འོང་བ	-9.35445
▁ནམ་མཁའ	-9.35497
་བོ།	-9.35524
▁།ལས	-9.35587
▁དཔེ	-9.35792
་ཕྲེང	-9.3583
་བསླབ་པ	-9.35867
▁ཏིང་ངེ་འཛིན	-9.36008
་གཉིས་པོ	-9.3604
▁གསང་བ	-9.36205
▁ཞི་བ	-9.36206
སངས་རྒྱས་ཀྱི་ཞིང	-9.36223
▁རབ་ཏུ	-9.36233
་སརྦ	-9.36253
་བསྐལ་པ	-9.36277
▁།ཞེས་གསུངས་སོ།	-9.36306
་བཞིའི	-9.36327
་སླར	-9.36354
▁བྱང་ཆུབ	-9.36397
▁ཡ	-9.36438
་ལྕེ	-9.36447
་ཏྲི	-9.36468
▁།བདག	-9.3648
་ཆོས་ཅན	-9.36484
་གང་ཡིན	-9.36572
་གང་གི	-9.36579
▁ཚིག	-9.3681
▁བར	-9.36847
་སྤྱི་བོར	-9.36864
་འཁྲུལ	-9.36884
▁མེ་ཏོག	-9.36901
▁གང་ཟག	-9.36907
་རེག	-9.36917
་རས	-9.3711
་བསྙེན་པ	-9.37155
་རྣམ་ཤེས	-9.3717
་མེད་པའི་ཕྱིར།	-9.37226
▁གང་ཞིག	-9.3726
་ང་རྒྱལ	-9.37307
་རང་ལ	-9.37361
་གྲུ	-9.37379
▁རྟོག་པ	-9.37393
▁སརྦ	-9.37431
་འདས་པ	-9.37589
་མ་ཡིན་པར	-9.3762
འི་གནས་སུ	-9.37638
་འཕགས	-9.37679
་འདོན	-9.37785
▁གཉིས	-9.37792
་འཇིགས	-9.37871
་དབུ་མ	-9.37882
་ཛྙཱ་ན	-9.37891
་བཏགས	-9.37907
་མཛེས	-9.37928
༤༽	-9.37989
?	-9.38005
་སྦྱོང	-9.38036
་ཐོགས་པ	-9.38047
་ཁྱེད	-9.38184
ཽ	-9.38271
་གཏོང	-9.38355
་གཅོད་པ	-9.38458
་འདི་ལྟ་བུ	-9.38471
་རྔ	-9.38507
་མེད་ན	-9.38542
་པ་ནི	-9.38588
་སྤྲུལ་སྐུ	-9.3859
་ངོར	-9.38655
་འབྱོར	-9.38731
▁།བཞི་པ	-9.38737
་ཐུན་མོང་མ་ཡིན་པ	-9.38769
▁རྗེ་བཙུན	-9.38772
་སྔ	-9.38775
་བསྒོམས་པ	-9.38812
▁དེ་བཞིན	-9.3883
་སྤྱད་པ	-9.39096
་མཁར	-9.39133
▁ཆོས་ཀྱི	-9.39146
ས་ཤིང	-9.39175
འི་དབུས་སུ	-9.392
་ཀུ	-9.39304
་ལན་གསུམ	-9.3935
་བཅད་པ	-9.39439
༩༽	-9.39476
་གསེར་གྱི	-9.39559
▁ཞེས་བྱ་བ	-9.39638
3-	-9.3967
་ཆོས་ཀྱི་སྐུ	-9.39707
▁དངོས་གྲུབ	-9.39752
་འདུལ	-9.39799
འི་ས་བོན	-9.398
་མ་ཡིན་ཏེ	-9.39824
་ཏིང་འཛིན	-9.39855
ོ།	-9.39905
་དེ་དག་གིས	-9.39932
་རང་གིས	-9.39961
▁མདོ	-9.40136
་ལགས་སོ།	-9.40172
་སྤང་བ	-9.40203
་དཀའ་བ	-9.40219
་རཏྣ	-9.40323
▁.%-	-9.40363
་ཟུང་འཇུག	-9.40492
་འདྲ།	-9.40532
་མེད་ཀྱང	-9.40536
་བསྟན་པའི	-9.40568
་མཚུངས	-9.40656
་མ་སྐྱེས་པ	-9.40681
▁།རང་གི	-9.40708
་བསྔོ་བ	-9.40725
་འཕྲོ	-9.40731
་བཞི།	-9.40774
▁རིན་པོ་ཆེ	-9.40787
་ལས་གཞན	-9.40803
་དཔལ་ལྡན	-9.40826
་བག་ཆགས	-9.40922
་རླུང་གི	-9.41009
འི་སྒྲུབ་ཐབས	-9.41015
འི་དགོངས་པ	-9.41038
་རྩོད་པ	-9.41072
་ཞེན་པ	-9.41093
་ཞེས་བྱ	-9.41121
་དེ་ཁོ་ན་ཉིད	-9.41184
་རྩེ་མོ	-9.41197
▁/	-9.41261
་ཐལ་བ	-9.41384
འི་སྒོ	-9.41398
འི་གང་ཟག	-9.41463
་ཕྱོགས་སུ	-9.41641
་དཔྱད	-9.41713
་གཏམ	-9.4175
▁ལྟ་བ	-9.41754
་ཆོད	-9.41842
་སྤྱད	-9.41893
་མཐའ་ཡས་པ	-9.41903
་ཀུན་ནས	-9.41925
དེ་བཞིན་གཤེགས་པ	-9.41937
▁སྒྲུབ་པ	-9.42018
་མ་མཆིས་པ	-9.42036
▁ཚོགས	-9.42039
་ཀྱི་དོན	-9.42042
་འདོད་པའི	-9.42106
འི་ཆེད་དུ	-9.42212
་ཆས	-9.42219
▁ལུང	-9.42306
▁ཐོག་མར	-9.42392
་རྩི	-9.42431
▁ཞལ	-9.42459
་འབྱེད་པ	-9.42484
་གདམས་པ	-9.42523
་གཏད	-9.42531
འི་སྦྱོར་བ	-9.42544
ར་གྱུར	-9.42606
་རོ།	-9.42669
་ཡིད་ལ	-9.42698
་དགྲ་བཅོམ་པ	-9.42711
་ཡིད་ཀྱི	-9.42711
་ཐོས	-9.42729
་ལ་མཁས་པ	-9.43037
འི་དབང་པོ	-9.43086
་མགོན	-9.43097
་དོན་དུ	-9.43124
་མཎྜལ	-9.43232
་འབབ་པ	-9.43309
▁ཕྱག	-9.43332
ར་སྣང་བ	-9.43346
་བསྐྱེད།	-9.43442
ས་པའི	-9.43449
་གདུང	-9.43461
་དྲག	-9.43489
▁ཨོྃ	-9.435
་འོག	-9.43524
▁ཀླུ	-9.43582
༥༽	-9.43726
་སྔོ	-9.43727
་ཚར	-9.43788
་ཡོད་པས	-9.438
▁།གནས	-9.43806
་ཆོས་དབྱིངས	-9.43829
་བདག་པོ	-9.43878
་ཙམ་ཞིག	-9.43926
་བྲག	-9.43933
▁རིགས་ཀྱི་བུ	-9.44078
་གནས་སྐབས	-9.44266
༦༽	-9.44282
་མི་དམིགས་པ	-9.4431
་གསང་བའི	-9.44324
་སྤྱན་རས་གཟིགས	-9.44341
་མདོག	-9.44345
་འདས	-9.44374
ོག	-9.44408
་ཡོད་ན་	-9.4441
འི་བཤེས་གཉེན	-9.44625
▁ཡུམ	-9.44792
་བསྐུལ་བ	-9.448
་བྱིན་གྱིས་བརླབ	-9.44878
་བྱས་ནས།	-9.4488
་ངམ	-9.44943
་ཀྱི་རང་བཞིན	-9.44988
་འོག་མ	-9.45019
▁འདོད་ཆགས	-9.45045
་ལས༔	-9.45106
་མཚོན་པ	-9.45113
་དྲི་མེད	-9.45145
་མཛད་པའི	-9.45149
་གོང་དུ	-9.45198
▁གཡས	-9.45232
་གཟུགས་བརྙན	-9.45301
▁གཅིག	-9.45393
་མཁན་པོ	-9.45496
་ཁྲུས	-9.45511
ངས་པ	-9.4558
་ཉི་ཟླ	-9.45633
▁ཁ་ཅིག	-9.45646
▁།སེམས་ཅན	-9.4568
་རྒོད	-9.45751
་དྲིལ	-9.45887
་བསྔགས་པ	-9.45925
▁ལུས་ཀྱི	-9.45928
▁ཁམས	-9.45999
་ཡབ	-9.46027
་ཡོད་དེ	-9.46105
་ལྷན་ཅིག་སྐྱེས་པ	-9.46174
་དབང་གིས	-9.46187
ར་བྱེད་པའི	-9.46301
▁མཚན	-9.4638
་བྱོན་པ	-9.46394
་འགའ	-9.46394
༨༽	-9.46402
་ཡིན་གྱི	-9.46412
▁ཁྱོད་ཀྱི	-9.4649
་ལག་པ	-9.46566
་པའི་	-9.46603
་ཕྲ་མོ	-9.46661
༧༽	-9.4672
E	-9.46728
་གཙོ	-9.46751
་གཏི་མུག	-9.46791
་མེད་པའི་ཕྱིར	-9.46833
་ཡི༔	-9.46873
་གང་ཡིན་པ་དེ་ནི	-9.46956
▁།དེ་བཞིན་དུ	-9.47041
▁སྒོ	-9.47061
་དམན་པ	-9.47072
▁སྲིད་པ	-9.47178
་སྤོས	-9.4726
་ཕུལ	-9.47314
▁མདོར་ན	-9.47344
་གསུམ་ལ	-9.47367
་འབྱུང་ངོ་།	-9.47396
་དྲི་མ་མེད་པ	-9.474
་དེ་དག་ལ	-9.47459
་ཡོངས་རྫོགས	-9.47472
འི་སྣང་བ	-9.47483
་སྲུང་བ	-9.47504
་གུ་རུ	-9.47508
་བརྩོན་འགྲུས	-9.47672
་གཡོ	-9.47786
▁རི	-9.4779
་ཉིད་ཀྱང	-9.47816
་གཏན་ཚིགས	-9.47952
་ཡོན	-9.47986
་སྦྱངས	-9.47987
་མཐའ་ཡས	-9.48064
་བཅོ་བརྒྱད	-9.48077
་མེད་དུ	-9.48099
་ཕྲ	-9.48123
་རུང་བ	-9.48369
་མི་སྲིད་པ	-9.48382
་སྤངས	-9.48461
་བྱིན་པ	-9.48504
་བསྒྱུར་བ	-9.48548
འི་སྟོབས	-9.48624
་བར་དོ	-9.48683
་སྦྱོང་བ	-9.48683
འི་བདག་ཉིད	-9.48717
་སྨྲས་པ	-9.4876
་སོར	-9.48779
་ལ་གཉིས།	-9.48814
▁་་་་	-9.49023
▁10000220	-9.49024
་ཁར	-9.49036
་ཇི་བཞིན	-9.49054
་གཟིགས	-9.49109
་བཏང་བ	-9.49137
་བསྐུལ	-9.49138
་སྙན	-9.49144
་འདྲེ	-9.49151
་མཆོད་རྟེན	-9.49191
་སྒྲོལ་མ	-9.49198
་རེག་པ	-9.4928
འི་ངོ་བོ་ཉིད	-9.49298
འི་ཡན་ལག	-9.49303
▁སྟོང་པ་ཉིད	-9.49389
་གཙོ་བོར	-9.49439
་རྣལ་འབྱོར་པ	-9.49446
་སྟོད	-9.49543
་གཟིགས་པ	-9.49576
་ཡོད་ན	-9.49591
་ལ་དམིགས་པ	-9.49728
་དེ་གཉིས	-9.49747
་འབྱུང་པོ	-9.49771
་དུ།	-9.49792
་ཐོད	-9.49839
▁དྲི	-9.49847
་གཟུངས	-9.49871
་བསྟོད	-9.49897
་བྱས་ཏེ།	-9.50003
་ཐུགས་ཀྱི	-9.50098
་ལུགས་ཀྱི	-9.50106
་ཀྱི་སྒོ་ནས	-9.50137
་ཐོ	-9.50159
་སྒྲུབ་བྱེད	-9.50176
སྙོམས་པར་འཇུག་པ	-9.50204
▁།ཅེས	-9.50248
་འཆད	-9.50252
ས་མི	-9.50346
་མུན་པ	-9.50404
་འདིའི	-9.50421
་བཞེད་པ	-9.50452
་ལྷ་ཡི	-9.5049
▁དངོས་གཞི	-9.50495
▁ཡོངས་སུ	-9.50503
▁ཅེས་པ	-9.50549
་ལྷའི	-9.50633
་ལོག་པ	-9.50683
་ཤུགས	-9.50709
▁དེ་རྣམས	-9.5073
་ཤེས་པར་བྱའོ།	-9.50742
▁ནད	-9.50776
▁།ཞེས་སོགས	-9.50805
▁གཞུང	-9.50807
▁ཐུགས	-9.50917
་ཐོགས	-9.50918
་འབྲིང	-9.50924
་རྙེད	-9.50986
་ཁྱི	-9.51027
་ཞེ	-9.51058
་དག་པའི	-9.51108
▁ཕྱི་མ	-9.51202
་གནས་པའི	-9.51221
འི་མདོ	-9.51223
་བགེགས	-9.51348
་རྒྱ་ཆེར	-9.51371
་སྡིག	-9.51385
་བདུན་པ	-9.51451
ར་བྱེད	-9.51461
་དུར་ཁྲོད	-9.51488
་ཌ	-9.51499
་བསྟེན་པ	-9.51534
་མཁས	-9.51601
་འཛིན་པའི	-9.51612
་རྒྱབ	-9.51635
་འཛིན།	-9.51681
▁?	-9.51715
་ཐེ་ཚོམ	-9.51824
་འདུ་བྱེད	-9.51843
་དང་ལྡན་པས	-9.51867
་ཟློག༔	-9.51875
་ལྟ་བུ།	-9.51912
༠༽	-9.51917
་ཀྱི་བར་དུ	-9.51925
བྱང་ཆུབ	-9.51943
་ཞེ་སྡང	-9.51983
་འགྲེལ་པ	-9.52084
▁གང་གིས	-9.52137
་མཁྱེན	-9.52142
▁ཡན་ལག	-9.52155
་དབྱིབས	-9.52205
་མོས	-9.52224
འི་བདེ་བ	-9.52247
་སྤུ	-9.5225
་ཚོ	-9.52266
་སྐྱོང་བ	-9.52267
་ཕྱེ	-9.52346
▁སྙིང་པོ	-9.52385
་བྱིས་པ	-9.52411
འི་གནད	-9.52445
་དགེ་བའི་རྩ་བ	-9.52548
་བརྟེན་པ	-9.52559
འི་ཤེས་པ	-9.52574
་ཡིན་ཞེས	-9.52614
་ཤྲཱི	-9.52649
་བྱས་ལ	-9.52808
་གཤེགས	-9.52832
་དུ་འགྱུར་བ	-9.52847
་ཧི	-9.52868
▁གསང་སྔགས	-9.52876
་ཉི	-9.52961
་བྱེད་པའི	-9.53025
▁ཀྱི	-9.53029
▁ད་ནི	-9.5314
འི་དཔེ	-9.53167
ར་གསུངས་པ	-9.53183
▁གང་ལ	-9.53299
་ལེ	-9.53317
་ལྟེ་བ	-9.5332
་བྲལ་བ	-9.53438
་ཀྱི་ངོ་བོ	-9.53454
༦	-9.53491
▁;	-9.53581
་སྐྲ	-9.5362
▁སྐྱེས་བུ	-9.53647
▁འཇམ་དཔལ	-9.53681
་རྒྱུ་འབྲས	-9.5379
་སྤྲོ་བ	-9.53792
་མཐར་ཐུག	-9.53806
་མི་དགེ་བ	-9.5381
ན༽	-9.53817
ས་ཏེ	-9.53918
་ཕུལ།	-9.5394
་དཔྱད་པ	-9.53988
་སྤྱིར	-9.5399
་བག	-9.54018
་སེ	-9.54129
་འཆར	-9.54205
་བྱེ་བྲག	-9.5437
་དང་མཐུན་པར	-9.54392
་གདམས་ངག	-9.54422
▁ཕྱིས	-9.5448
་སྐྱེ་མཆེད	-9.54511
་བྲིས	-9.54555
ཞལ་གཅིག་ཕྱག་གཉིས	-9.54571
་སྐྱེ་བོ	-9.54595
་བཅོས	-9.54622
▁སྟོན་པ	-9.54623
▁གསུམ	-9.54666
འི་འོད	-9.5481
་ལས་ནི	-9.54825
་འབྲེལ་པ	-9.54831
▁སྲོག	-9.54897
་ཕུང	-9.54932
་སྟན	-9.54933
་པ་ནི།	-9.5494
ར་གྱུར་པའི	-9.54947
▁།ཡང་ན	-9.54994
་ཞེས་པ་ནི	-9.55031
་ཚོད	-9.55065
་ཀུན་དུ	-9.55129
་སྣ་ཚོགས་པ	-9.55141
་ཕྱིན	-9.55274
་རྩིས	-9.5531
་རྟོགས་པའི	-9.55375
་དྲིལ་བུ	-9.55376
་སྐྱ	-9.55386
▁ཕ	-9.55386
▁དེ་གཉིས	-9.55387
▁མ་ཧཱ	-9.55519
་དེ་ནས	-9.5552
་ཁྲོ	-9.55542
་བླ་ན་མེད་པ་ཡང་	-9.55579
་ཐུགས་རྗེ་ཆེན་པོ	-9.5565
▁།དུས	-9.55746
་བཟོ	-9.55797
འི་རྩ	-9.55805
འི་བྱ་བ	-9.5581
▁ལུ	-9.55822
་ཁྱད	-9.55875
་ཆོས་སྐྱོང	-9.55879
་མེད་ཀྱི	-9.55899
་གྲུབ་པའི	-9.55901
▁སྔ་མ	-9.55938
་གང་ཡིན་པ་དེ	-9.56016
་བདུད་རྩིའི	-9.56038
་བཞེས	-9.56063
▁ངག	-9.56154
་བསྟེན	-9.5619
་དུང	-9.56224
འི་ཚུལ་དུ	-9.56301
་ཆོས་རྣམས	-9.56302
་ངོ་མཚར	-9.56471
་རྒྱ་ཆེན་པོ	-9.56496
▁སྟོང་པའི་ངང་ལས	-9.56513
་བཅད	-9.56542
▁ཞེས་གསུངས་པ	-9.56553
་ཧྲཱིཿ	-9.5656
་རང་བྱུང	-9.56592
་ཞེ་ན	-9.56611
་ཕྱི་རོལ	-9.56689
་གདོན	-9.56714
་བཤད་པའོ།	-9.56749
་གཉིས་ཏེ།	-9.56771
་དང་བཅས་པས	-9.56926
་འགྲེལ	-9.56947
་དགོས།	-9.56998
འི་བུ	-9.57113
་གང་བ	-9.57217
▁ཆ	-9.5731
་བློས	-9.57405
་དགེ་སློང་མ	-9.57471
་བརྒྱད་པ	-9.57478
▁སྤྱོད་པ	-9.57562
་རགས་པ	-9.57637
་ཀུན་གྱིས	-9.57666
་འཐད་པ	-9.57789
བ༽	-9.5782
་གྲོང་ཁྱེར	-9.57827
་ཡན་ཆད	-9.57853
ཱ་ཡ	-9.57909
་དབེན་པ	-9.57971
▁ལྕེ	-9.57977
▁ཙ	-9.58004
་ཐ་དད་དུ	-9.58082
▁དག	-9.58104
་ཡུལ་གྱི	-9.58201
་ས་ལ	-9.58258
་ལྔ་བརྒྱ	-9.58263
▁།རྒྱལ་བ	-9.58274
་གང་ཡང	-9.58289
་ལ་གནོད་པ	-9.58316
ར་བྱ་སྟེ།	-9.58376
▁འདུ་བྱེད	-9.58425
་རོལ་མོ	-9.58473
་བསྡུ	-9.58531
▁ཞེས་སོགས	-9.58564
་སྨྲས་སོ།	-9.58629
་སྨིན་པ	-9.58743
་འབར་བའི	-9.58811
་ཧཱུྃ༔	-9.58873
▁བྱ་བ	-9.59078
▁ཉོན་མོངས	-9.59107
་བྱེད་པ།	-9.59129
་སྤང་བྱ	-9.59161
ར་མི་བྱའོ།	-9.59167
་འོད་ཀྱི	-9.59219
▁ཧཱུྃ།	-9.59254
་འཚོ་བ	-9.59329
་ཟོར	-9.5934
▁པར	-9.59346
་གཏན	-9.59349
་པ་རྣམས	-9.59485
་བཟོད	-9.59514
་གོམས་པ	-9.59519
་བསྒོམས་པས	-9.59573
་ཀུན་གཞི	-9.5958
▁ཕྱག་རྒྱ	-9.59614
▁=-	-9.59625
་སོང་བ	-9.59659
འི་ལུགས	-9.59717
ར་བསམ།	-9.5973
་བསྐོར	-9.59768
▁གཙོ་བོ	-9.59769
་དུ་བ	-9.59779
་ངོ་བོ་ཉིད	-9.59806
འི་སངས་རྒྱས	-9.5981
ར་མི་འགྱུར་རོ།	-9.59812
་ཨུ	-9.59821
་བསྐྱེད་རིམ	-9.59826
་བྱས་ཏེ	-9.59856
་གླང	-9.59866
▁མིང	-9.59888
་གསོ	-9.59948
་ཕ་རོལ	-9.59961
་ལེའུ	-9.59979
▁ཁམས་གསུམ	-9.59989
▁ཐ་མ	-9.60059
▁ད་ལྟ	-9.60062
༥	-9.60202
་མ་ངེས་པ	-9.60214
▁ཆོས་ཉིད	-9.60256
་ལ་བརྟེན་པའི	-9.60306
འི་མཐའ	-9.60328
་གྲོང	-9.60398
་དེ་དག་ནི	-9.60588
་ལོངས་སྐུ	-9.60611
་སྡུག	-9.60621
་མཐོང་།	-9.60623
་པུ	-9.60639
▁བསམ་པ	-9.6065
་འཛིན་པ།	-9.60661
་མི་བསྐྱོད་པ	-9.60664
་བུ་མོ	-9.60708
་བསལ	-9.60744
་བཅོ་ལྔ	-9.60819
▁ལྷ་མོ	-9.60841
▁ས་མ་ཡ༔	-9.60847
འི་རྐྱེན	-9.60894
་སྦྱང	-9.60924
་ཅེ་ན།	-9.60985
▁སོ་སོ	-9.61033
་ཉེར	-9.61094
▁སྐུ་གསུང་ཐུགས	-9.61094
་ན་ཡང	-9.61149
་ཞེན	-9.61159
་འདོན་པ	-9.61201
་བླ་མེད	-9.61299
▁།རྣལ་འབྱོར	-9.61384
་ཞོ	-9.61407
་མདུན	-9.61433
▁པོ	-9.61502
་ཞེས་སོགས	-9.61514
་ཅི་ཞིག	-9.61535
་གནས་སོ།	-9.61608
▁དགའ་བ	-9.61724
ེ།	-9.61727
▁ཐབས	-9.61753
་ཉིན	-9.61807
་འགོག	-9.6184
་སེམས་པ	-9.61848
་རྨོངས་པ	-9.61889
་ཉམས་སུ་མྱོང་བ	-9.61937
་ཉན་ཐོས	-9.61963
▁བདུད་རྩི	-9.61971
་སྦྲུལ	-9.61988
འི་ལུང	-9.62066
་ཡིན་ཞིང་།	-9.62088
▁<	-9.62142
་དེ་བཞིན་ཉིད	-9.62144
▁དྲུག་པ	-9.62172
▁གསུམ་པ་ནི།	-9.62205
་འཇོམས	-9.62296
འི་གཞུང	-9.62299
་ཡིན་ལ	-9.6232
་ཕན་ཡོན	-9.62345
▁རབ	-9.62358
▁རྫས	-9.62374
་བབ	-9.62417
་ཀྱི་དཀྱིལ་འཁོར	-9.62423
་ཚིགས་སུ་བཅད་པ	-9.62433
འི་སླད་དུ	-9.62445
་ཉམས་ལེན	-9.62463
་འདི་ལྟ་སྟེ།	-9.62463
་ཡན	-9.62531
་རྣམ་པ་བཞི	-9.62554
་གསོལ་ཏོ།	-9.62585
་ཕམ་པ	-9.6264
▁བསམ་གཏན	-9.6273
་ལ་གནས་པའི	-9.62745
་ལྔ།	-9.62796
▁ཧ	-9.62825
་མེད་དེ	-9.62825
་ཡོད་པའི	-9.62829
་ཕུན་ཚོགས	-9.62891
་བརྒྱད་ཀྱི	-9.62965
་གྱུར་པ།	-9.62976
ོད	-9.62983
་གསུང་གི	-9.6299
་འཁོར་བཅས	-9.63005
་ཞུས་པ	-9.63017
▁རྟག་ཏུ	-9.63021
་རང་རིག	-9.63031
་ཆོས་རྗེ	-9.63079
་སྐད་ཅིག་གིས	-9.63107
▁།འགྲོ་བ	-9.63219
་བཙན	-9.63229
་དཔོན	-9.63267
་གམ	-9.63395
་༡༽	-9.63405
་ཕོ་ཉ	-9.63423
་དབུགས	-9.63432
༨	-9.63435
་གཞུག	-9.6347
▁ཀུན	-9.63545
་རིགས་ཀྱི	-9.63546
ྲྀ	-9.63557
་རྭ	-9.6366
་སྤེལ་བ	-9.63671
་བླང་བ	-9.63768
་གང་ཡིན་པ	-9.63798
་མཐུན་པ	-9.63879
་ཉམས་སུ་ལེན་པ	-9.63914
▁བསོད་ནམས	-9.63936
་ལོང	-9.63963
་མཛད་པ།	-9.6401
་ཡིད་ལ་བྱེད་པ	-9.64023
▁འབྱུང་བ	-9.64056
་མངོན་པར་རྫོགས་པ	-9.6411
ས་ནས	-9.64112
་ཡོངས་སུ་གྱུར་པ	-9.64166
་བྱེད་དོ།	-9.64183
་གསར	-9.64249
་དགྲ་བཅོམ་པ་ཡང་	-9.64262
ར་བྱ	-9.64299
ས་པས	-9.64332
་དྲེགས་པ	-9.64334
་འདིའི་རྗེས་ཟློས	-9.6436
▁ཛ	-9.64366
་རྒྱུད་སྡེ	-9.64369
འི་ཞལ	-9.6439
འི་ཉེས་པ	-9.644
་འཚོ	-9.64412
་ལས་ཀྱང་།	-9.64415
ར་མི་འགྱུར་བ	-9.64472
▁ལྷག་མ	-9.64537
་འདུས་བྱས	-9.64573
་རོལ་པ	-9.64618
་རྣམ་པར་སྨིན་པ	-9.64649
་ས་མ་ཡ	-9.647
་ཐལ	-9.64706
e	-9.64712
་ལ་སྤྱོད་པ	-9.64758
་ཕུ	-9.64805
▁དེ་ཕྱིར	-9.64833
་ན༔	-9.64835
་སེམས་དཔའ	-9.64873
་རྣམས་དང	-9.65038
་མང་བ	-9.65038
་དཀའ	-9.6504
་སླ	-9.65057
▁0:	-9.65188
་ཀྱི་མཚན་ཉིད	-9.65204
འི་ཆུ	-9.65206
་བཟླས	-9.65234
▁གཉིས་ཀ	-9.6524
་ཁོང	-9.65307
་སླར་ཡང	-9.6532
༠	-9.65341
་བསྐུར་བ	-9.6535
▁དུས་གསུམ	-9.65363
་དབྱིངས་སུ	-9.6537
་བྱས་ན་	-9.65412
10000300	-9.65461
་དོགས་པ	-9.65537
་མྱོང	-9.65636
་མི་འགྱུར།	-9.65718
▁ཚུལ་ཁྲིམས	-9.65726
་མེ་ལོང	-9.65752
་མི་འཐད་པ	-9.65758
་བཏང	-9.65794
འི་རྫས	-9.65859
▁བཀྲ་ཤིས	-9.65934
་མདོ་སྡེ	-9.6594
་ནམ་མཁའ་ལ	-9.65957
་འཇམ་དཔལ	-9.65979
་ལྕགས་ཀྱུ	-9.6603
མས	-9.66038
▁རྟ	-9.66048
་ཟུང	-9.66074
་བཏབ	-9.66076
་དམག	-9.66188
་ཧོཿ	-9.66222
་བགྱིས་པ	-9.66356
་རྒྱ་མཚོའི	-9.66389
▁བི	-9.66396
་ལོ་ཙཱ་བ	-9.6642
▁གོས	-9.66423
་དྲང་སྲོང	-9.66454
▁།རྒྱུ	-9.66531
▁སླར	-9.66538
▁2-	-9.66566
་གྱི་	-9.6658
་འབྱིན་པ	-9.66591
འི་ཕྱོགས	-9.66733
་ཤཱཀྱ	-9.66813
ེའུ	-9.66852
ས་མཛད་པ	-9.66863
▁ཞིང	-9.66867
་མྱེད་དོ།	-9.66883
་སེམས་བསྐྱེད་པ	-9.66964
་གསུང་བ	-9.66967
་ཧཱུཾ	-9.66971
་ཟབ་པ	-9.67017
▁རེག་པ	-9.67057
་ལྟར་ན	-9.67157
འི་ཡི་གེ	-9.67222
་སྐུ་གསུམ	-9.67243
་བདག་ཅག	-9.67244
་སྤྲོས་བྲལ	-9.67253
་བྱ་སྟེ།	-9.67267
འི་མཐར	-9.67269
འི་ཕུང་པོ	-9.67282
་དཔུང	-9.67305
་ན་གནས་པ	-9.67324
་ཀརྨ	-9.6736
་བཞིར	-9.67427
་རྡོ་རྗེ་འཛིན་པ	-9.67503
་བཟུང་།	-9.67531
་ཀོ	-9.67539
་མཐོང་ལམ	-9.67539
་ནི་དེ	-9.67569
▁རྗེས	-9.67571
་འབུལ།	-9.67591
་བཞིན་དུ།	-9.67605
་འབབ	-9.6761
་བཀག	-9.67658
་འཐོབ་པ	-9.67711
་ཁས་བླངས	-9.67804
ས་བདག	-9.67856
་ཛཿ	-9.67881
▁བཀའ	-9.67899
་མ་གཏོགས	-9.67913
▁།རིན་ཆེན	-9.67914
3	-9.67941
་དགྱེས	-9.67958
▁བྲམ་ཟེ	-9.67975
་ཕྲ་བ	-9.68013
་མ་མོ	-9.68019
འི་རྩ་བ	-9.6802
་དམ་པའི་ཆོས	-9.68063
་ཚོན	-9.68094
▁།རྟག་ཏུ	-9.68115
་ཆེད་དུ	-9.68144
▁བདེན་པ	-9.68161
་གནོད་སྦྱིན	-9.68243
་རྫོང	-9.68252
་སྟོང་པ་ཉིད་ཀྱི	-9.68362
་ཤེས་པས	-9.68449
་གྲྭ	-9.68474
་དཀྱིལ	-9.68493
▁།དཀྱིལ་འཁོར	-9.68517
༧	-9.68535
ཀྵ	-9.68617
▁ཕུང་པོ	-9.68647
▁0	-9.68719
་སྤྲུལ་པའི་སྐུ	-9.68729
་ཥ	-9.68827
▁འདོད་ན།	-9.68878
་སྐད་ཅིག་མ	-9.68882
་པོ།	-9.68883
▁ཚད་མ	-9.68975
༩	-9.69153
་མཐོ	-9.69212
་འགག	-9.69269
་པའི།	-9.69353
▁མཁའ་འགྲོ	-9.69398
▁དང་པོ་ལ	-9.69418
▁།ཤེས་རབ	-9.69441
ར་བགྱིའོ།	-9.6947
་འབྱོར་པ	-9.69472
▁ཁྱོད་ཀྱིས	-9.69525
་འབྱིན	-9.69605
་སུམ་ཅུ	-9.69614
་ཞེས་པས	-9.697
་ཡོད་ཀྱང	-9.69717
་ཚད་མེད་པ	-9.69741
་སྒྲུབ་ཐབས	-9.69846
་ཀ་ར	-9.69874
་ཟན	-9.69914
་འདྲེས་པ	-9.69974
་མངོན་དུ	-9.69989
▁།ལུས	-9.70024
▁།ཉོན་མོངས	-9.70117
་ཕན་པ	-9.70133
་སོ་ཞེས	-9.70174
་དགྲ་བགེགས	-9.70196
▁དག་པ	-9.70276
་ཕྱིན་པ	-9.70319
ཨོཾ་སརྦ་ཏ་ཐཱ་ག་ཏ	-9.70328
་ལ་ཆགས་པ	-9.70351
▁ཕྲིན་ལས	-9.70353
་བཟུང་ནས	-9.7037
་ཁོ་ནར	-9.70429
་མི་ཤེས་པ	-9.70431
འི་རྡོ་རྗེ	-9.70491
་སྒྲིབ	-9.70626
་གྲི	-9.70675
་ཐོག་མ	-9.70694
་ཡོད་པའི་ཕྱིར།	-9.70713
་ཡང་ཡང	-9.70749
▁དེའི་སྟེང་དུ	-9.708
་ཐོག་ཏུ	-9.70868
་བྱ༔	-9.70983
་ཉལ	-9.71003
▁མཐའ	-9.71096
་རང་གི་ངོ་བོ	-9.71111
་འཇོམས་པ	-9.71252
་ཡོད་མེད	-9.71347
་དྲག་ཏུ	-9.71352
་སྒྲོལ	-9.71499
འི་རྣམ་པར་ཤེས་པ	-9.71513
་ཙམ་ལ	-9.7155
▁བདག་ཅག	-9.71559
་བསྟན་པ་ནི།	-9.7165
་ལ་ཞུགས་པ	-9.71667
་འཁོར་བའི	-9.71675
་བདག་མེད	-9.71741
་འབྱེད	-9.7178
་གདུགས	-9.71784
་སྔོན་གྱི	-9.71812
་སྟག	-9.71822
འི་སྡོམ་པ	-9.71873
་མངོན་པར་རྟོགས་པ	-9.71904
་ཚུར	-9.71997
ས་ཤིག	-9.72033
་འགག་པ	-9.72079
་སྦྱིན་སྲེག	-9.72099
་མཆོད།	-9.72143
▁མཁས་པ	-9.72145
་རཀྟ	-9.72161
་བདེ་གཤེགས	-9.72189
༣	-9.72202
་བཅས།	-9.72207
་སོགས་ལ	-9.7221
▁གསུང	-9.72221
ས་བསྐོར་བ	-9.72252
་བྲི།	-9.72282
་ཞིག་གིས	-9.72354
་རྣམ་གྲངས	-9.72383
▁+	-9.72404
་དད	-9.72421
2	-9.72541
▁ཀྱང	-9.72544
་རྣམས༔	-9.72628
་གྲ	-9.72695
▁ཚངས་པ	-9.72699
་བྱས་ཏེ་	-9.72733
འི་གསུང	-9.72744
་ཡོ	-9.72754
ར་མཛད།	-9.72762
་མི་མཐུན་པ	-9.72788
་ཕ་མ	-9.72825
་ལྡན་གྱི	-9.72858
་སྔོན་འགྲོ	-9.72923
་ཐེག་ཆེན	-9.72977
འི་དམ་ཚིག	-9.73016
་ཇི་ལྟ་བ་བཞིན་དུ	-9.73025
་འཁྲུགས	-9.73102
་སྦྱར།	-9.73157
་བྱེད་པ་པོ	-9.7316
་གཟི་བརྗིད	-9.7321
འི་མཆོད་པ	-9.73301
་ཏིང་ངེ་འཛིན་གྱི	-9.73368
་ཕུལ་བ	-9.73409
་ལ་ཕྱག་འཚལ་བསྟོད	-9.7342
་རང་མཚན	-9.73442
་གཞལ་བྱ	-9.7358
འི་ནང	-9.73608
་བསྟན་ཏེ།	-9.73634
་དཔལ་གྱི	-9.7365
▁།ལམ	-9.73665
༞	-9.7367
་འམ	-9.73691
་ལ་ཐིམ།	-9.73791
འི་མཚན	-9.73798
འི་སྟོབས་ཀྱིས	-9.73823
▁རིག་འཛིན	-9.73832
་མན་ཆད	-9.73952
་ཚ་བ	-9.73978
་ཡང་མི	-9.7398
་བགྲོད་པ	-9.74103
་ཙིཏྟ	-9.74201
▁།ཨོཾ	-9.74334
་ཉུང	-9.74361
་གཟའ	-9.74362
▁ཐིག་ལེ	-9.74419
▁སྟོང་པ	-9.74451
་ཁས་བླངས་པ	-9.74481
་སློབ་དཔོན་གྱི	-9.74505
▁ཨཱ	-9.74865
་ལྷན་སྐྱེས	-9.74907
་རྫུ་འཕྲུལ	-9.74927
་སྡུད་པ	-9.74945
་ཨཱཿ	-9.74969
▁།འབྲས་བུ	-9.7504
ང་གི	-9.7504
་ཁོ	-9.75069
་དབང་།	-9.7511
་གཞན་དོན	-9.75111
ས་ཀྱང་།	-9.75136
▁ཐུན	-9.7522
་བཙལ	-9.75304
་ཕྱི་ནང	-9.75328
་ཤུ	-9.75329
་ཏོ	-9.7533
▁ཡེ་ཤེས་ཀྱི	-9.75375
▁།རང་བཞིན	-9.75404
▁།འདི་ལ	-9.75475
་ལས་སྐྱེས་པ	-9.75529
་བརྩོན་པ	-9.75693
▁རྣ་བ	-9.75753
འི་ཐུགས	-9.75801
འི་སེམས་ཅན	-9.75821
་ཤོག༔	-9.75826
་ཀྱི།	-9.75829
་རྒྱུ་མཚན	-9.75927
འི་དུས་ན	-9.7595
▁སྙིང་རྗེ	-9.75984
▁མེད་པ	-9.76153
འི་ཕྲེང་བ	-9.76167
་འདི་རྣམས	-9.76199
ས་བརྒྱན་པ	-9.76216
་དགུ་པ	-9.7624
་བལྟ་བ	-9.76291
ར་མཛོད།	-9.76302
▁།དེ་ཕྱིར	-9.76304
▁སྣ་ཚོགས	-9.76309
བ་པ	-9.76313
་བཤགས	-9.76453
་འཁོར་འདས	-9.76492
་ལ་གསུམ།	-9.76591
་རབ་འབྱམས	-9.76666
་འདུས་པའི	-9.76715
▁བྷ	-9.76757
་འཕོ	-9.768
R	-9.76823
་བརྟེན	-9.76858
་མི་འདྲ་བ	-9.76888
དང	-9.76906
▁སྨན	-9.76978
▁ཐེག་པ་ཆེན་པོ	-9.77047
འི་མཆོག	-9.77079
▁ཏ	-9.77184
་སྙམ་ན།	-9.77196
་མེད་པ།	-9.77255
▁གནས་པ	-9.77258
་ཁུག	-9.77269
£	-9.77271
་དང་མི	-9.77275
ོན	-9.77413
་ལྷུང་བཟེད	-9.77426
་པར་བྱེད་པ	-9.77484
▁།ཆུ	-9.77487
་ཡོང	-9.77497
་ལྟུང	-9.77506
་ཉན	-9.77547
▁དང་པོ་ནི	-9.77585
ོང	-9.77589
▁དབུ་མ	-9.77742
་འཕྲོ་བ	-9.77887
་ཅན་གྱིས	-9.77951
▁བུད་མེད	-9.78003
་སྡུག་བསྔལ་གྱི	-9.78042
་ཨི	-9.78064
▁བྱམས་པ	-9.78076
་ལྡན།	-9.78122
▁སྦྱིན་པ	-9.78238
་ཟག་མེད	-9.78316
་མི་འགྱུར	-9.78341
▁དགེ་འདུན	-9.78357
་མི་སྐྱེ་བ	-9.78364
▁༡	-9.78377
▁དཔལ་ལྡན	-9.78461
་སྤྱི་བོ	-9.78522
་འདི་ཡང	-9.78529
་བཞེད	-9.78559
་དམ།	-9.78587
་འབར	-9.78616
▁སྡོམ་པ	-9.78646
་བགྲོད	-9.78648
▁བསམ	-9.78676
༡	-9.78787
ར་བཅས་པ	-9.78838
་གཉིས་སུ་མེད་པ	-9.78838
▁རྣམ	-9.78853
་ཁྲིམས	-9.78859
་རམ	-9.78861
་སུ་གྱུར་པ	-9.78863
▁།ཡུལ	-9.78879
་ཕུར་བུ	-9.78884
ར་འགྱུར་ལ།	-9.78898
་གནོད་བྱེད	-9.78913
་མ་ཡིན་པའི	-9.78945
་སྦྱང་བ	-9.78961
འི་ཤེས་རབ	-9.78973
་སྤྱོད་ཡུལ	-9.79052
▁།ཅེས་པ	-9.79075
་རུ།	-9.79083
་སུམ	-9.79095
་བརྟགས་པ	-9.79099
འི་བཀའ	-9.79185
་འཆང་བ	-9.79196
་དགོན་པ	-9.79277
་ས་པ་རི་ཝཱ་ར	-9.79284
་གཉིས་སོ།	-9.7931
▁།ཡོན་ཏན	-9.79347
་ལ་སེམས	-9.79354
་བ་དང	-9.79383
ྷ	-9.79423
▁།ཨ	-9.79433
་དང་འབྲེལ་བ	-9.79434
་སྭཱཧཱ།	-9.79447
་ཆོས་གོས	-9.79448
་ཕུར་པ	-9.79463
འི་བསམ་པ	-9.79464
་དངོས་གྲུབ་སྩོལ༔	-9.79549
▁ཆོས་རྗེ	-9.79633
་ཙཀྲ	-9.79667
་དང་བྲལ	-9.79673
་མཐར་ཕྱིན་པ	-9.79687
▁༢	-9.7969
ནྟ	-9.79696
▁སྒྲུབ	-9.79763
་ཅིའི་ཕྱིར	-9.79796
་བསམ།	-9.79824
་ཐུགས་ཀར	-9.79833
་གསུངས་ཏེ།	-9.7999
ུན	-9.79997
་གཞལ་ཡས་ཁང	-9.80042
་ཐུང	-9.80074
ཤ	-9.80166
་རྨ	-9.80244
▁ན་མོ	-9.80256
▁ཕྱིར	-9.80277
་ལས་འདས་པའི	-9.80282
་བྱས་པས།	-9.80289
▁ཀྱེ	-9.80318
▁སྣང	-9.80332
▁རྐྱེན	-9.80374
་རེ་ཞིག	-9.804
་སངས	-9.80428
▁བཞི	-9.80474
ར་མཛད་དུ་གསོལ།	-9.80508
་བསགས	-9.80542
▁ལས་ཀྱི	-9.80548
་རྣམ་པར་སྣང་མཛད	-9.80548
▁དེའང་	-9.80591
ུང	-9.80623
་སྤྲོ	-9.80664
།་༢༽	-9.80672
་སྤྲུལ་པའི	-9.8068
་རྣམ་པ་གསུམ	-9.80682
་མཐར་ཐུག་པ	-9.80684
་སྙམ་པ	-9.80735
▁རྟོགས་པ	-9.80739
▁ི	-9.80745
▁ཐུགས་རྗེ	-9.80759
་སེང	-9.8079
འི་དྲུང་དུ	-9.808
་མི་ནུས་པ	-9.80824
་བཅུ་གསུམ	-9.80862
་ལིང	-9.80972
་ནི་མ་ཡིན་ནོ།	-9.81005
▁འདི་ལྟ་སྟེ།	-9.81014
་འགྲུབ།	-9.81015
་གཞག	-9.8104
▁འོད	-9.81044
ཕ་རོལ་དུ་ཕྱིན་པ	-9.81044
་འཆི་མེད	-9.81076
་རྣ་བ	-9.81079
་མགྲིན་པ	-9.8116
་འབྱུང་བའི	-9.81215
▁མགོན་པོ	-9.81225
▁ཨོཾ་ཨཱཿཧཱུྃ	-9.81302
་སྡུད	-9.81317
▁།དབང	-9.81351
་བླངས་པ	-9.81371
་དེ་འདྲ	-9.81425
་གཟུགས་ཀྱི	-9.81432
་སིདྡྷི	-9.81477
་བས།	-9.81523
་མན	-9.8153
འི་རྒྱན	-9.81577
འི་རྣམ་པར	-9.81697
་ཁས་ལེན་པ	-9.8174
▁།འཁོར་བ	-9.81753
(	-9.81798
་མདངས	-9.81806
་མི་རྟག	-9.81856
་ཕྱོགས་ཀྱི	-9.81865
་སྙིང་གར	-9.81885
་ཁྲ	-9.8193
▁ཉན་ཐོས	-9.81934
▁མཆོག	-9.82007
▁མཐར་ཐུག	-9.82009
་མཆོད་བསྟོད	-9.82068
་བཏབ་པ	-9.82074
་མཚོན་ཆ	-9.82112
༤	-9.8222
▁མོ	-9.82224
▁གཉིས་པ་ལ	-9.82277
་མོད་ཀྱི།	-9.82297
་སྟོང་ཕྲག	-9.8231
་ཀུན་དགའ	-9.82329
་ལྷ་རྣམས	-9.82364
་གསན	-9.8237
་གླུ	-9.82371
▁G	-9.82382
་སྐྱེ།	-9.82433
་མི་གཡོ་བ	-9.82446
▁སེམས་ཀྱི	-9.82491
་གཏུམ་མོ	-9.8259
་གནོད	-9.82607
་སྔ་ཕྱི	-9.82617
་ཁྱེར	-9.82668
་ཕག	-9.82771
▁ཡང་དག	-9.82805
་སྟབས	-9.82878
▁དགེ་སློང་དག	-9.82883
་རུས	-9.83008
་མི་བྱ།	-9.83023
་བརྩོན	-9.83083
་ཕུག	-9.83134
་འཕེན་པ	-9.83188
▁དབུས	-9.83193
་དབྱེ	-9.83197
ས་ཁྱབ་པ	-9.83201
་གསར་དུ	-9.83204
་འབྲི	-9.83214
་ཀྱི་ཡེ་ཤེས	-9.83219
་ཧོ	-9.83222
་དྲུག་ཅུ	-9.83234
་སྔར་གྱི	-9.83254
་འཁྲུགས་པ	-9.83267
་བཞི་དང་།	-9.83276
།་་་་	-9.833
6	-9.83326
་ཤེལ	-9.83359
་ཞེས་སོ།	-9.83404
་བརྟུལ་ཞུགས	-9.83431
་མངའ	-9.83457
▁ཡང་།	-9.83464
་ཞེས་པ་ནས།	-9.83497
3?-	-9.83591
་སྭཱ་ཧཱ༔	-9.83659
་ཀྵ	-9.83711
འི་ཕྲིན་ལས	-9.83713
་འོ	-9.83736
་དེའི་ཕྱིར	-9.83758
▁།དེའི་ཕྱིར	-9.83881
་ཆུ་བོ	-9.83926
་བྱེད་ཅིང་།	-9.83968
ས་ཀྱི	-9.83979
་རྣམ་པར་གྲོལ་བ	-9.83987
▁=	-9.84005
་ཕུད	-9.84044
་ལྗང	-9.84062
་ཁམས་གསུམ	-9.84087
▁ཆོ་ག	-9.84159
་སྡིག་སྒྲིབ	-9.84164
▁འོད་ཟེར	-9.84215
་ལྔའི	-9.84228
▁གཞན་གྱི	-9.84246
་ཟངས	-9.84277
▁ནང་གི	-9.8431
་འདེབས	-9.8434
་གྱི་སྟེང་དུ	-9.84461
་ལྷག་པར	-9.84533
འི་རླུང	-9.84646
་ཡི་དམ	-9.84649
་ཚེ་དང་ལྡན་པ	-9.84705
་ཀྱི་ཁྱད་པར	-9.84723
▁བསྐལ་པ	-9.84741
་རྣམས་	-9.84769
▁།ཕྱོགས	-9.84806
▁།གསུམ་པ་ནི།	-9.84892
་བརྗོད་བྱ	-9.84965
་ཆོས་ཀྱི་འཁོར་ལོ	-9.84985
་ཉིད་དང་།	-9.85004
་དང་འདྲ་བར	-9.85005
་བརྒྱད།	-9.85016
་ལྔ་པོ	-9.85121
འི་གཏན་ཚིགས	-9.85166
་གཉིད	-9.85205
་སྔར་བཞིན	-9.85229
་འགོད་པ	-9.85269
་རིན	-9.85293
འི་རྒྱུན	-9.85296
▁དབང་བསྐུར	-9.85299
་འཁྲུལ་བ	-9.85311
་བཅུ་གཅིག	-9.85333
་རག	-9.8536
་༽	-9.85361
་རབ་གནས	-9.85371
་དེ་དག་ཐམས་ཅད	-9.8538
་ཙི	-9.85393
་འདོད།	-9.85482
▁དངོས	-9.85518
▁།སྔགས	-9.85546
▁ཆེན་པོ	-9.85579
་སེམས་ཅན་གྱི་དོན	-9.85599
▁རྒྱན	-9.85735
་རྒོལ་བ	-9.85777
་ལུས་ངག་ཡིད་གསུམ	-9.85782
▁ལོངས་སྤྱོད	-9.85802
་འཆང	-9.85821
་དེ་ཉིད་ཀྱི	-9.85911
▁ཆོས་སྐུ	-9.86006
་བྲན	-9.86066
▁།སྣ་ཚོགས	-9.86078
་དེ་དང་དེ	-9.86123
▁བདུད	-9.86141
་བླ་མ་དམ་པ	-9.86255
་མིན་ཏེ།	-9.86318
་དཔག་མེད	-9.86328
འི་ལྟ་བ	-9.86389
་དབྱར	-9.86397
་པད་མ	-9.86408
་བལྟ	-9.86417
་དང་བྲལ་བའི	-9.86505
▁དོན་དམ	-9.86514
་གནས་ལུགས	-9.86518
་རྩོམ་པ	-9.86542
་བར་མ	-9.86549
་སྟོབས་ཀྱིས	-9.86566
་མྱུ་གུ	-9.8664
རྐྱེན་ཀྱིས་ཚོར་བ	-9.86646
་ག་ལ	-9.86687
▁བདེ་གཤེགས	-9.8669
་གདངས	-9.86712
་དབང་བཞི	-9.86796
་གྱེན་དུ	-9.868
་རིམ་བཞིན	-9.86807
འི་རྟོག་པ	-9.86809
་ཐོགས་མེད	-9.8681
དུ	-9.86822
་ཕེབས	-9.86822
་ས་གཞི	-9.86866
་བསགས་པ	-9.869
་ལྟོས	-9.86907
་ཁོང་དུ་ཆུད་པ	-9.86943
▁།ཡང་དག	-9.86968
་སྟེར་བ	-9.86994
་ཞུས་པས།	-9.87008
་ཅན༔	-9.87016
་རྗེས་གནང	-9.87033
་མེད་པའི་ཕྱིར་རོ	-9.87048
་ཕྱག་མཚན	-9.87077
་ཕོ་མོ	-9.87099
▁གོ	-9.87102
འི་རྗེས་སུ	-9.87153
▁>	-9.87195
▁གསེར	-9.87208
་རྣམ་པར་དག་པས།	-9.87226
་བྱས་ཀྱང	-9.87258
་ཡིན་ཏེ་	-9.87276
་གསུང་རབ	-9.87293
▁སོ	-9.87312
་སློབ་དཔོན་གྱིས	-9.87322
▁།ཅེས་སོ།	-9.87338
་སྨོན་པ	-9.87399
་གཤིན་རྗེ	-9.87428
་ཚོགས་ཀྱི	-9.87469
▁ཀུན་རྫོབ	-9.87482
་ཐིམ་པ	-9.87507
▁།བྱང་ཆུབ	-9.87508
9	-9.8751
་ཞིང་	-9.87529
▁འཇུག་པ	-9.8757
་ཆོས་ལ	-9.87638
་རྣམས་ལས	-9.87656
་བྱ་ཞིང་།	-9.87669
་ཉེས	-9.87691
་འཕྲིན་ལས	-9.87694
▁སྙིང	-9.87715
▁ཟ	-9.87735
འི་ནུས་པ	-9.87782
་ཡོ་བྱད	-9.87931
་གུར	-9.87934
དགེ་སློང	-9.8795
་འཇམ་དབྱངས	-9.87955
་དམྱལ་བ	-9.87986
▁སྟོང་ཉིད	-9.88006
་དུས་གསུམ	-9.88018
▁ཚོར་བ	-9.88022
་རེ་བ	-9.88067
▁ཞེས་གསུངས་སོ།	-9.88101
་མྱུར	-9.88121
ར་འགྱུར་བ་དང་།	-9.88121
▁༥	-9.8815
་སྟོན་པའི	-9.88182
་འཆིང་བ	-9.88221
་ལོགས་སུ	-9.8827
འི་བདག་པོ	-9.8827
་སློབ་པ	-9.88289
་དྲི་བ	-9.88334
་སྣང་།	-9.88347
་རྩ་གསུམ	-9.88375
་སྔོན་དུ	-9.88416
་ན་རེ།	-9.88482
་ལ་དགའ་བ	-9.88523
▁ནོར	-9.88679
་བཅིངས་པ	-9.8868
་ཤེས།	-9.88754
་ལུ	-9.88817
་མཛད་དོ།	-9.88821
་བསྙེན	-9.88826
འི་འདུ་ཤེས	-9.88833
་མཐར་ཕྱིན	-9.88865
་བྱས་ན	-9.88869
་སྐལ་ལྡན	-9.88903
་རྣམ་གསུམ	-9.88946
་སྦས	-9.88949
་ཐུགས་དམ	-9.89026
▁1	-9.89081
་སྟོན།	-9.89084
་ཀྱང་	-9.89172
་འགགས་པ	-9.89308
ར་འགྲོ་བ	-9.89309
་ནའང	-9.89321
འི་དཔལ	-9.89366
་གདུང་བ	-9.89375
▁།ཁ	-9.89402
▁ཞེས་སོ།	-9.89427
་བརྗོད་ཅིང	-9.89445
་ཤིང་རྟ	-9.89485
་མ་འོངས་པ	-9.895
་མཁའ	-9.89516
་དཔག་ཚད	-9.8956
་ཏུ་གསོལ།	-9.89584
་འདབ་མ	-9.89668
་ལས་བྱུང	-9.89677
་ཕར	-9.8968
▁གང་དག	-9.89747
་ལྷག་པ	-9.89765
་ཞེས་པའི	-9.89828
་སྒྱུར	-9.89887
་བརྗོད་དོ།	-9.89912
▁།སྒྲ	-9.89929
▁།པདྨ	-9.89935
་ཐོབ་པའི	-9.89958
་མཆེད	-9.89978
་དཀར་མོ	-9.90041
▁ཚེ་དང་ལྡན་པ	-9.90066
)	-9.9013
་དོན་དམ་པར	-9.90188
་སྦས་པ	-9.90276
▁འཁོར་འདས	-9.90296
▁།དམ་ཚིག	-9.90306
་གསོལ་འདེབས	-9.90355
་ངང་དུ	-9.90394
་གཤེགས་པ	-9.90455
▁ལག་པ	-9.90472
་ཞེས་བྱ་སྟེ།	-9.90502
▁ཆོས་ཀྱི་དབྱིངས	-9.90518
་བཏང་།	-9.90581
▁འདི་དག	-9.90599
▁བྱང	-9.90619
་ལུང་བསྟན	-9.90647
་དགེ་སློང་གི	-9.90654
་ཀྱི་ཆོས	-9.90659
་གཟེར	-9.90681
་གྲི་གུག	-9.90705
ྱེ	-9.90739
འི་གནས་སྐབས	-9.90803
་གཡོག	-9.90835
་ཙམ་ལས	-9.90973
་སྙམ་དུ	-9.9098
་ཆོ་འཕྲུལ	-9.9098
་ལྷོ	-9.9098
་ཆེན་གྱི	-9.90981
་གཟུགས་ཅན	-9.9103
་འདུན་པ	-9.91066
▁།གཟུགས	-9.91071
▁འདོད	-9.91112
▁ཁྱེད	-9.91117
་དགེ་འདུན་གྱི	-9.91135
་དེ་ཉིད་ལ	-9.91135
▁ནས	-9.91158
▁སྐྱེ	-9.91185
་བཀྲ	-9.91261
་ཡིན༔	-9.91369
ེན	-9.91405
འི་ལྷ་ཚོགས	-9.91409
་བྱོན།	-9.91478
་རྣམ་པ་ལྔ	-9.91516
་སྒྲོན་མ	-9.91531
་དེ་དག་ཀྱང	-9.91548
▁སློབ་དཔོན་གྱིས	-9.91549
་ཕྲག	-9.91595
་ཀཱ	-9.91608
་རིལ་བུ	-9.91608
▁རྟག་པ	-9.91726
་བཾ	-9.91736
་ལག་ལེན	-9.91741
་ངོས	-9.91763
▁སྔགས་ཀྱི	-9.91797
་བཅུ་བཞི	-9.91857
་ཞེས་བྱ་བར	-9.91864
་ཁུ	-9.91899
་གྱི་སྒོ་ནས	-9.91904
་བྱེད་པ་དང་།	-9.91939
▁སྨྲས་པ།	-9.91991
་ཀི	-9.92028
་ཁང་པ	-9.9203
་ནི་མི	-9.9207
་བཞུགས་པའི	-9.92079
་འཁོར་གྱི	-9.92099
འི་སྐྱེས་བུ	-9.92119
་བཞི་ལ	-9.92134
0	-9.92171
་སྲོག་ཆགས	-9.92195
འི་བསྟན་བཅོས	-9.92317
་དེ་ཉིད་ཀྱིས	-9.92363
་ཁོ་བོ	-9.92421
ར་མྱེད་སོ་སོ་མ་	-9.92425
་གཉེན	-9.92429
་ཀྱིས་	-9.92474
▁།ཀུན	-9.92544
་སྲི	-9.92569
ཱ་ཡ།	-9.92632
་ཐ་སྙད་དུ	-9.92698
་བསྐུར	-9.92699
་ཉན་ཐོས་ཀྱི	-9.92707
འི་དགེ་བ	-9.92747
་རང་བཞིན་གྱི	-9.92768
་མཉེས	-9.92797
་ཐུགས་ཀ་ནས	-9.92869
▁།གཞན་ཡང་	-9.9288
▁།ད	-9.92891
་ལྡང	-9.92902
▁དུར་ཁྲོད	-9.92927
▁སྤྲུལ་པ	-9.92937
་ཀུན་འདུས	-9.92943
▁ཞེ་སྡང	-9.92963
▁རྣལ་འབྱོར་པ	-9.92964
་བསྐྱེད་པའི	-9.93068
འི་དབྱེ་བ	-9.9309
་ལས་སྐྱེ་བ	-9.93111
་ཚེ།	-9.93125
་སོགས་སོ།	-9.93128
་མནན་པ	-9.93135
་ནམ།	-9.93152
་དཔྱོད་པ	-9.93199
་ཁུ་བ	-9.93274
་སེམས་ཅན་རྣམས	-9.93316
་པར་བྱའོ།	-9.93342
▁འགྲོ	-9.93347
་མི་འཐད་དེ	-9.93387
་ལ་ཕན་པ	-9.93407
་གསུམ་ལས།	-9.93425
་ཞགས་པ	-9.93427
་དོར་བ	-9.93446
་ཚེས	-9.93448
་ཆོས་འབྱུང	-9.93503
་བདག་ནི	-9.93584
་འཇིགས་བྱེད	-9.93629
་རི་བོ	-9.93687
▁ཨེ	-9.93694
▁ཐེག་ཆེན	-9.93696
འི་གདམས་ངག	-9.93736
་སྤྱན་དྲངས།	-9.93745
་བདེན་པར	-9.9376
་སྦྱངས་པ	-9.93761
་བཏང་སྙོམས	-9.93784
▁ཤེས	-9.93839
འི་མེ་ཏོག	-9.93847
་འབུམ་ཕྲག	-9.93875
་བབས	-9.93884
་མེས	-9.93912
་ལྷན་ཅིག	-9.93917
▁གུ་རུ	-9.94098
འི་ཐ་སྙད	-9.94124
ར་བགྱི།	-9.94178
་བཞིས	-9.94185
་གོ་རིམ	-9.94185
་གཡང	-9.94214
་མ་གཏོགས་པ	-9.94256
འི་དམིགས་པ	-9.94303
འི་གཉེན་པོ	-9.94408
▁ཐེག་པ	-9.94419
▁།རིགས	-9.94429
▁དེ་དག་གིས	-9.94433
་གཡུ	-9.94499
▁8	-9.94545
་ཁོ་ན་ལ	-9.94546
་ཡིན་ཡང	-9.94558
▁འ	-9.94589
་ཕབ	-9.94593
▁རྣམ་ཤེས	-9.94599
འི་ཐེག་པ	-9.94614
་ཕོ་བྲང	-9.94654
་སོང་།	-9.94672
་གནས་ཀྱི	-9.94681
་སེམས་ཉིད	-9.94684
་སྙིང་རྗེ་ཆེན་པོ	-9.94778
་བྲི	-9.94848
་བསད	-9.9486
▁འོད་གསལ	-9.94877
▁ལྟེ་བ	-9.94903
4	-9.94908
་ཀུན་མཁྱེན	-9.94921
▁ཁ་དོག	-9.94946
་སྦྱར་རོ།	-9.94975
་གཉིས་ལས	-9.94986
▁།བདག་གི	-9.95023
▁ཡིད་ཀྱི	-9.95048
་བཤགས་པ	-9.95068
་ཞིང་ཁམས	-9.95152
་ཧཱུྃ་ཕཊ།	-9.95154
▁ལྟུང་བ	-9.95191
་ཀུན༔	-9.95255
ཡིན་ཐ་མྱི་དད་དོ།	-9.95272
་བྱུང་ན	-9.95273
་ལ་མཆོད་པ	-9.95315
▁ཆོས་དབྱིངས	-9.9536
་གྱུར།	-9.95378
་མི་འབྱུང་བ	-9.95411
་མ་དག་པ	-9.95493
▁གཡོན་པ	-9.95524
་ངར	-9.95524
་དགོས་ཏེ།	-9.95529
▁¡	-9.95531
དག	-9.95544
▁དྲན་པ	-9.95573
ིང	-9.95585
་ཤི་བ	-9.9559
་རྣམ་སྨིན	-9.95613
▁བཟླས་པ	-9.95649
་བསྒྲལ	-9.95693
་མི་རྟོག་པ	-9.95714
▁སྟོང	-9.95726
▁མཚན་མ	-9.95818
་གྱུར་ན།	-9.9582
འི་དགེ་སློང	-9.9594
་སྡོད	-9.95946
▁།ཅི	-9.95953
་གཙང་མ	-9.95991
་ཀྱི་ཕུང་པོ	-9.96053
་བོད་ཀྱི	-9.96088
ས་ཆོག	-9.96153
▁།དེས	-9.96235
་ཚུགས	-9.96246
་ཚིགས	-9.96261
་མངའ་བ	-9.96285
་སྟོང་པ་ཉིད་དང་།	-9.96295
▁།རྣམ་པ	-9.96299
▁དང་པོ་ལ།	-9.96316
▁གཏི་མུག	-9.96337
▁བདེ་ཆེན	-9.96344
་རི་རབ	-9.96391
་ཀྱི་བར	-9.96412
འི་རྒྱུད་ཀྱི	-9.96416
་གཉིས་ནི	-9.96458
་སྐྱེ་མེད	-9.96471
་གཡས་པ	-9.96491
་སོགས་སུ	-9.96492
་འོ་མ	-9.96501
་པའི་ཕྱིར	-9.96558
▁།ཕ	-9.96591
▁།བློ	-9.96611
་དྭངས་མ	-9.96613
་མནན	-9.9662
་ཞེས་གསུངས་པ	-9.96659
▁ཡང་དག་པར	-9.96672
་མ་དམིགས་པ	-9.96681
་བྱང་ཆུབ་ཀྱི	-9.96687
ར་བྱས་ནས་	-9.9673
་མ་བྱས་པ	-9.9679
་ཐུན་མོང་གི	-9.96851
▁དགྲ	-9.96872
་ཇི་སྲིད	-9.96874
་བཙུན	-9.96923
་མཆིས	-9.96933
་སོ༔	-9.96934
་རབ་ཏུ་བྱུང་བ	-9.96956
་མཚན་མོ	-9.97047
་མ་ཚང་བ	-9.97066
▁ཚུལ	-9.97083
་སྨྲས	-9.97084
་ཀུན་ཏུ་བཟང་པོ	-9.9709
་ཀློང	-9.97101
▁གནོད་སྦྱིན	-9.97107
་གསལ།	-9.97146
་ཡང་དེ	-9.97151
▁རྣམས	-9.9716
་བཤད་པ།	-9.97229
་འདི་སྐད་ཅེས	-9.97256
་ཐར	-9.97332
▁དཔའ་བོ	-9.97346
▁།སྐུ	-9.97368
་ནམ་ཡང	-9.97414
་དམན	-9.97458
འི་དངོས་གྲུབ	-9.97512
་འཁོད་པ	-9.97543
་དང་མཐུན་པ	-9.97558
་སེམས་ཀྱིས	-9.97565
ར་གྱིས།	-9.97598
་འོད་གསལ་བ	-9.97649
་སེམས་ཅན་གྱི	-9.97665
་སྤྲོས	-9.97684
ེད་དེ་གཉིས་སུ་བྱ	-9.97707
▁དང་པོར	-9.97732
་རིགས་ཀྱི་བུ	-9.97744
▁ཏུ	-9.97796
་སྔོན་དུ་འགྲོ་བ	-9.97817
་བདུད་ཀྱི	-9.97824
▁བདུན་པ	-9.9783
་འདི༔	-9.97857
་སྲེག	-9.97861
▁འགྲེལ་པ	-9.97897
▁།དགེ་བ	-9.97994
་འཛིན་གྱི	-9.97999
་གོ།	-9.98044
་དམ་བཅའ	-9.98066
་སངས་རྒྱས་ཐམས་ཅད	-9.98096
་སྟོང་གི	-9.98124
་ཡིན་པར་ཐལ།	-9.98168
་པའི་ཕྱིར།	-9.98215
ར་འདུག	-9.98243
་ལ་གནས	-9.9826
་ལུག	-9.98278
་ཇི་སྙེད་པ	-9.98312
▁ཟས	-9.98351
་གསལ་བྱེད	-9.98399
་གོ་ཆ	-9.98484
་ཆེ་ཆུང	-9.98493
་རིག་པའི	-9.985
་གཉེར	-9.98509
་ལས་གྲོལ་བ	-9.9853
▁།སྡུག་བསྔལ	-9.98544
་དང་ལྡན་པ།	-9.98561
་སྐུ་མདོག	-9.98573
་མི་དམིགས	-9.98624
་ཆབ	-9.98651
་རྗེས་སུ་དྲན་པ	-9.98716
▁།སློབ་དཔོན	-9.98758
་ཡ།	-9.98797
་བདེ་སྟོང	-9.98891
འི་ཚུལ།	-9.98917
་རྣམ་ཐར	-9.98932
འི་རྐྱེན་གྱིས	-9.98936
▁བྱིན་རླབས	-9.98941
ཙ	-9.98946
▁རྗེས་སུ	-9.98967
▁དེ་བས་ན	-9.9898
་ཐོན	-9.99007
འི་མཚན་མ	-9.99023
▁ཡོད་པ	-9.99131
ར་བྱ་སྟེ	-9.99201
་ཕྱག་ན་རྡོ་རྗེ	-9.99219
▁ཕྱི་ནང	-9.99219
་སྙན་པ	-9.99225
་མཆིས་པ	-9.99254
་མེད་ཅིང་།	-9.99268
་ལ་བརྩོན་པ	-9.99289
▁རྨི་ལམ	-9.99295
་སྟ	-9.99314
་གཞན་དག	-9.99399
▁བཅོམ་ལྡན	-9.99408
་ཁྱད་པར་དུ	-9.99482
་མཐོང་བས	-9.99492
སངས་རྒྱས་ཀུན་གྱི	-9.99494
་སྒོར	-9.99497
་མཉམ་པར	-9.99504
་སྦྱིན།	-9.99533
འི་འགྲེལ་པ	-9.99536
་རིང་བ	-9.99547
▁འདུ་ཤེས	-9.99573
་ཁོ་ནས	-9.9958
་བཟའ་བ	-9.99646
་དབང་བསྐུར་བས༔	-9.99682
་བྱིན་བརླབས	-9.99708
་གསུམ་སྟེ།	-9.99729
་འོང་།	-9.99738
་མངོན་རྟོགས	-9.99739
་མི་བྱེད་པ	-9.99794
▁སྡིག་པ	-9.99802
་གསུམ་དང	-9.99822
་སྐྱབས་འགྲོ	-9.99853
་ནུབ་པ	-9.99905
་ཨོ་རྒྱན	-9.99932
འི་གཙོ་བོ	-9.99954
་གྲུབ་མཐའ	-10.0002
་ཤིང་གི	-10.0004
་རྣམ་པ་གཉིས	-10.0008
་སྦ	-10.0009
་ལས་སྐྱེས་པའི	-10.0023
་ལྟེ་བར	-10.0027
་སེམས་ལ	-10.0027
▁།གང་ཞིག	-10.0028
་ཚོམ་བུ	-10.0031
་མེད་ལ།	-10.0032
་ཕྲན	-10.0037
་ལྟར་ན།	-10.004
་ཚེ་དཔག་མེད	-10.0042
་དགོད་པ	-10.0045
་འཇིག་རྟེན་པའི	-10.0047
་ཧཾ	-10.0056
▁གང་དུ	-10.0056
་མཆུ	-10.0056
་གནས་ནས	-10.0058
་གསུམ་མོ།	-10.006
་བཅོམ་པ	-10.0061
་སྟོང་པར	-10.0064
▁བྱང་དུ	-10.0068
་གསོ་སྦྱོང	-10.007
▁ཤར	-10.0073
་ཀུན་བཟང	-10.0074
་བསྲེག	-10.0075
་ཡིད་ཀྱིས	-10.0083
་ལ་གསོལ་བ་འདེབས།	-10.0085
་རི་མོ	-10.0088
་མཉམ་པ་ཉིད	-10.0088
▁།བུ	-10.0089
་དེས།	-10.0091
་རྒན	-10.0092
་ལྗང་གུ	-10.0103
་ལ་སྦྱོར་བ	-10.0103
་ལས་འབྱུང་བ	-10.0112
▁ཡང་དག་པ	-10.0114
འི་བྱིན་རླབས	-10.0114
་ཡིག་འབྲུ	-10.0117
་བླང	-10.0118
▁ཁྱད་པར་དུ	-10.0119
ར་བསྟན་པ	-10.012
་བདེ་བར	-10.0121
་བཞག་གོ	-10.0121
་དགྱེས་པ	-10.0122
འི་ཆོས་ཉིད	-10.0123
་རིང་པོ	-10.0124
་རྗེས་དཔག	-10.0124
་ནོ	-10.0128
་ཆ་ཤས	-10.0128
▁ཧྲཱིཿ	-10.0128
འདི་ལ་གཉིས་སུ་མྱ	-10.013
་ལགས	-10.0131
་ཚུལ་བཞིན	-10.0132
འི་སེམས་ཀྱིས	-10.0133
▁དྲག་པོ	-10.0134
་བསྟན་པ་དང་།	-10.0134
་འཕྲོག	-10.0135
▁ཆོས་ཅན	-10.0139
▁མཚམས	-10.0144
་ལ་འཇུག	-10.0144
▁།ཚེ	-10.0159
་བརྗོད་པས	-10.0161
་མཇུག	-10.0163
་བ་ལ	-10.0166
་འཇམ	-10.0166
་སྲང	-10.0167
▁།ཐུགས་རྗེ	-10.0168
་སྙམ	-10.0175
་ཡངས་པ	-10.0179
་ཕྱེ་བ	-10.0181
་རྐྱང	-10.0183
▁ལན	-10.0187
་དུ་འགྲོ་བ	-10.0188
་མྱང་འདས	-10.0188
་འགྲོ།	-10.0189
ཡང་དག་པར་རྗེས་སུ	-10.0189
་དབེན	-10.0193
་བརྩེགས	-10.0196
་དོར	-10.0198
་ལ་སོགས་པར	-10.0199
་དྷི	-10.0209
་ཟླུམ་པོ	-10.0211
་བུདྡྷ	-10.0212
འི་བྱེ་བྲག	-10.0212
▁འབྲིང	-10.0214
་རབ་བྱུང	-10.0218
་ཐམས་ཅད་དང་།	-10.0225
་བཀོད།	-10.0225
ར་སྨྲ་བ	-10.0227
་མཐའི	-10.0229
་ཉིད་ནི	-10.0233
མི	-10.0236
་རྐྱང་པ	-10.0237
་སུམ་ཅུ་རྩ་གཉིས	-10.0239
▁ནུབ་ཏུ	-10.024
ག་གི	-10.024
་གྲུ་གསུམ	-10.0241
ས་བསྡུས་པ	-10.0243
་བསད་པ	-10.0245
▁ལན་གསུམ།	-10.0245
༢	-10.0247
་མ་གྲུབ	-10.0248
▁དཀོན་མཆོག་གསུམ	-10.0249
་གཟུང་འཛིན	-10.0252
་གཙུག་ཏོར	-10.0253
ས་མཚན་པ	-10.0265
་ཐབ	-10.0265
་གྲངས་མེད་པ	-10.0277
་བཤད་པ་དང་།	-10.0279
་རེད།	-10.0281
་ཇི་ཙམ	-10.0283
▁10000270	-10.0288
▁དད་པ	-10.0289
འི་འཁོར	-10.029
་གང་ཡང་རུང་བ	-10.0294
་ཟེར་རོ།	-10.0298
འི་ལྟེ་བར	-10.0299
་གཤེགས་སུ་གསོལ	-10.03
་དགོན	-10.0302
་རྒྱལ་བའི	-10.0304
་མཐོང་ངོ་།	-10.0305
་ཞེས་པའོ།	-10.0307
▁བརྡ	-10.031
¿	-10.0312
་སྒྲུབ་པ་པོ	-10.0315
་སྒོམ་ལམ	-10.0322
▁སྒྱུ་མ	-10.033
▁ཤཱ་རིའི་བུ	-10.0333
་མངོན་གྱུར	-10.0337
་གསོ་བ	-10.0345
▁མ་རིག་པ	-10.0345
▁གདུལ་བྱ	-10.0346
་སྒྱུ་མ་ལྟ་བུ	-10.0349
▁ས་བོན	-10.0349
་སྤོ	-10.035
་པཎྜི་ཏ	-10.0352
འི་བླ་མ	-10.0353
་ཉེར་གཅིག	-10.0356
་ཁམས་ཀྱི	-10.0356
▁L	-10.0356
་འཛུམ	-10.0358
་བྱུང་བའི	-10.036
་གནང་།	-10.0367
་ཐུན་མོང	-10.0377
▁སྟོབས	-10.0382
▁PAG	-10.0383
▁དགོས་པ	-10.0385
་དལ	-10.0388
་ཟོ	-10.0392
་གྱི་ཁྱད་པར	-10.0393
་བྱི	-10.0399
་གནམ	-10.04
་ན་དེ	-10.0404
▁།དངོས་པོ	-10.0405
▁དགྲ་བགེགས	-10.0413
▁མདུན་དུ	-10.0413
་ཁུངས	-10.0414
་གྲོ	-10.0417
་ལུང་བསྟན་པ	-10.0421
▁དེ་བས	-10.0427
་མི་མཐུན་ཕྱོགས	-10.0431
་འཚལ།	-10.0431
▁ཞབས	-10.0433
་དཀོན་མཆོག་གསུམ	-10.0434
▁ཁོ	-10.0436
་བརྒྱད་ཅུ	-10.0437
འི་དབང་ཕྱུག	-10.0437
་སྐབས་འདིར	-10.0438
▁ཡང་	-10.0443
་རང་སེམས	-10.0445
ར་སྣང	-10.0446
་ཕྱུང་བ	-10.0451
་དོན་དམ་པ	-10.0453
་ལ་ཐིམ་པས	-10.0458
▁།ཤིན་ཏུ	-10.0465
་གསུམ་དང་།	-10.0467
▁།དང་པོ་ལ	-10.0471
ར་བྱ་བ་དང་།	-10.0472
ར་འགྱུར་རོ་ཞེས	-10.0473
▁གསལ་བ	-10.048
་པ་དེ	-10.0488
་མགོ་བོ	-10.0496
་ཡེ་ནས	-10.0504
་ཆུད	-10.0505
་ཞུས	-10.0507
འི་བག་ཆགས	-10.0511
་སྐབས་སུ	-10.0512
་དྲུག་པོ	-10.0512
་བླ་མའི	-10.052
་ཚིགས་བཅད	-10.0521
་འཕེན	-10.0524
▁ཉེས་པ	-10.0529
འི་ངོ་བོར	-10.0531
་རྟག་པར	-10.0532
་རྒྱས་པར་བཤད་པ	-10.0532
་ཟློག་པ	-10.0533
་རྣ	-10.0534
་ཆག	-10.0534
འི་ཆོས་རྣམས	-10.0535
་ཆོས་ཀྱི་རྒྱལ་པོ	-10.0545
་སྲོལ	-10.0546
་རྡོར	-10.0552
▁ལྷོ	-10.0557
་རྣམ་གཉིས	-10.0558
་མ་ཐག་ཏུ	-10.056
་བྱས་སོ།	-10.056
▁བཤད་པ	-10.0561
▁སྐྱོན	-10.0561
▁།དང་པོ་ལ།	-10.0568
་ཉན་པ	-10.0573
་ཕྱུང	-10.0579
▁འཆི་བ	-10.058
་སོགས་དང་།	-10.0582
་བཅུ་པ	-10.0583
་རྫོགས་རིམ	-10.0586
་བྱུང་ན་	-10.0591
་པར།	-10.0591
་ར་བ	-10.0594
་རྩོད	-10.0595
་ཚོར	-10.0596
་ངམ།	-10.0599
་ཟླ་བའི	-10.06
་ལ་ལྟོས་པ	-10.0602
▁དཀྱིལ་འཁོར་གྱི	-10.0604
་སྤངས་པའི	-10.0604
%?-	-10.0606
་ཞག་བདུན	-10.0606
་སྲིན	-10.0607
་བརྒྱན་པ	-10.0608
▁རྐང་པ	-10.061
་རྒྱལ་སྲིད	-10.0617
་འཕྲུལ	-10.0623
ཥ	-10.063
▁བདག་ལ	-10.0631
▁དགེ་སློང་མ	-10.0635
་ལའོ།	-10.0638
་དྲུག་ཏུ	-10.0638
་གུང	-10.0641
་སྐྱེ་བ་མེད་པ	-10.0651
ཱུ	-10.0656
་གཡོན་དུ	-10.0656
་བཤད་པ་ནི།	-10.0659
་སྙིང་ག	-10.0659
▁།གསང་བ	-10.0665
་སྒྲོག	-10.0666
འི་ནད	-10.0667
་བརྒྱ་རྩ	-10.0671
་མ་ཡིན་པར་ཐལ།	-10.0671
་དྷརྨ	-10.0676
་ཀར	-10.0679
་རིག་བྱེད	-10.0683
▁འདུལ་བ	-10.0684
་རྒྱལ་མཚན།	-10.0691
་གོང་གི	-10.0694
་དགོས་སོ།	-10.0697
▁སྐལ་ལྡན	-10.0698
་མི་རུང་བ	-10.0699
་མཚན་ཉིད་པ	-10.0699
▁ཤེས་བྱ	-10.07
་བྱུང་ངོ་།	-10.0702
་ལོན་པ	-10.0704
་ལྟས	-10.0705
་དང་ལྡན།	-10.0706
་ཤཱཀྱ་ཐུབ་པ	-10.0707
་ཡེ་ཤེས་པ	-10.0708
་མྱ་ངན	-10.0709
▁༄།	-10.0711
་ཐོན་པ	-10.0711
་ནས་ཀྱང	-10.0717
་བཞུགས༔	-10.0719
འི་མེ	-10.0719
་འགྲོ་བའི	-10.072
་གཞུ	-10.0721
▁རང་བྱུང	-10.0723
་ཡེ་ཤེས་ལྔ	-10.0726
་སྐྱོ	-10.0726
▁མགོ	-10.0727
་རང་གྲོལ	-10.0738
▁།མཁས་པ	-10.0741
་ཕྱིར་རོ།	-10.0744
་དང་ནི།	-10.0762
རབ་ཏུ	-10.0762
1	-10.0764
་གསོད་པ	-10.0765
་དབབ་པ	-10.0772
་སྣང་བའི	-10.0772
་བཞེངས	-10.0774
▁འཇིག་རྟེན་གྱི	-10.0774
▁དར	-10.0776
▁དགེ	-10.0781
འི་ཚད	-10.0786
་རྒྱུན་དུ	-10.0787
་ཅན་ལ	-10.0787
▁སྐྱེས་པ	-10.0788
འི་རྣམ་གཞག	-10.0789
ཎ	-10.0794
་སྨོས་པ	-10.0795
▁།ཡིད	-10.08
་མདོར་བསྡུས	-10.0802
་འགགས	-10.0804
་བསིལ	-10.0805
་ལྟ་བུ་དང་།	-10.0806
་འདུས་མ་བྱས	-10.0807
་མཉེས་པ	-10.0808
་འོངས་པ	-10.0816
་མཐིང	-10.0818
་དྲ	-10.082
་བཟང་བ	-10.0829
་སད	-10.083
་རཱ	-10.083
་དང་མཚུངས་པ	-10.0834
ར་བྱེད་པ་དང་།	-10.0835
▁དབུ	-10.0837
་གྱི་རྣམ་པ	-10.084
▁སྐབས	-10.0843
་ཞེས།	-10.0843
་ཇི་སྙེད	-10.0851
་གནོན	-10.0852
་ཇི་ལྟ་བ་བཞིན	-10.0857
་དང་འདྲ།	-10.0858
འི་ནང་ནས	-10.0858
▁བཟོད་པ	-10.0864
ར་གྲགས་པ	-10.0864
་རཱ་ཛ	-10.0865
པའི་སངས་རྒྱས	-10.0868
00000000	-10.0869
་དབུལ་བ	-10.0875
་ཐེག་ཆེན་གྱི	-10.0876
་སྲུང་མ	-10.0879
ར་བྱས།	-10.088
ཤ་ར་དྭ་ཏིའི་བུ	-10.0881
་བདུན་གྱི	-10.0886
་དུ་འཇུག་པ	-10.0887
་དེ་ཉིད་དུ	-10.0888
་སྐོང	-10.0893
་གཙུག་ལག་ཁང	-10.0898
་སྡུག་བསྔལ་བ	-10.0899
་མིན་པར	-10.0903
འི་འོད་ཟེར	-10.0908
་ལ་བརྟེན	-10.0909
་ནུ	-10.091
་ཧཱུྃ་ཕཊ༔	-10.0911
་མཱ	-10.0911
ར་འཛིན་པ	-10.0911
་འགོ	-10.0912
ར་རིག་པར་བྱའོ།	-10.0912
་རྨོངས	-10.0913
▁ཕྱི་རོལ	-10.0914
▁ནམ	-10.0921
▁འདིར་ནི	-10.0925
་སྨོས	-10.0931
5	-10.0932
འི་ཕན་ཡོན	-10.0936
འི་བརྡ	-10.094
་དང་ལྷན་ཅིག་ཏུ	-10.0943
▁ཉ	-10.0943
▁ནས།	-10.0943
▁པྲ	-10.0947
▁རྒྱལ	-10.0949
ཛ	-10.0953
་ཐབས་ཀྱི	-10.0955
བསྐྱེད་པའི་རིམ་པ	-10.0955
་ལྡན་དུ	-10.0957
་གྱི་བར་དུ	-10.0957
་ནེ	-10.096
་མི་རུང	-10.0962
་རང་གི་མཚན་ཉིད	-10.0963
་ཁུར	-10.0969
་མཐོང་ནས་	-10.0972
▁དེ་ལ་	-10.0973
་དུ་འགྱུར་རོ།	-10.0974
་ཁྱིམ་བདག	-10.0978
ཧ	-10.0981
་རྒྱལ་པོའི	-10.0987
་མཛད་ཅིང་།	-10.0993
་གྲིབ	-10.0995
▁།ལྔ་པ	-10.1
་་་་	-10.1
་བཞེངས་པ	-10.1001
འི་སྣོད	-10.1003
་འཕགས་པའི	-10.1006
▁བསྟན	-10.1008
་ཆིངས	-10.1009
་འབྱུང་གནས	-10.1012
་ཡིད་དུ་འོང་བ	-10.1014
་ཁྲུ	-10.1015
འི་འཇིག་རྟེན	-10.1016
▁།དཔལ	-10.1016
་ལྡན་པའི	-10.1017
་ཡོད་ལ།	-10.1017
▁སྐུ་གསུམ	-10.1018
་དངོས་མེད	-10.1019
་གྱུར༔	-10.102
་བྲི་བ	-10.1022
་ཐུག	-10.1028
་མཚན་གཞི	-10.1036
ཥྚ	-10.104
་དེ་ཁོ་ན	-10.1042
▁མཐོང	-10.1049
འི་བུམ་པ	-10.1053
▁ཀུན་དགའ་བོ	-10.1066
༼	-10.1066
་དཱ	-10.1067
་གཉན	-10.1067
་བབས་པ	-10.1068
་ཇ	-10.1069
ས་ཏེ།	-10.1072
་བྲེ	-10.1078
▁དེ་ལྟ་ན	-10.108
་དང་བཅས་པ།	-10.1081
▁།དངོས་གྲུབ	-10.1082
▁བྱང་སེམས	-10.1085
་དྲག་པོའི	-10.1087
་དུམ་བུ	-10.1088
་བཟའ	-10.1089
ནི	-10.1094
▁དམ་པ	-10.1096
་ལྷུན་གྱིས་གྲུབ	-10.1097
་བསྟན་འཛིན	-10.11
་ཐུགས་རྗེའི	-10.1102
ར་གྱུར་ན་	-10.1103
་དྲུང	-10.1108
་སྤྱོད་ལམ	-10.1111
་ལོངས	-10.1111
་ངག་གི	-10.1112
▁གི	-10.1113
འི་དོན་ལ	-10.1114
ས་མཛད་པ།	-10.1115
་བཀའ་སྩལ་ཏོ།	-10.1121
་རྫ	-10.1123
་ཇེ	-10.1125
་བསྒྲུབས་པ	-10.1131
་རྩོམ	-10.1131
་འབད	-10.1132
་རང་གི་སེམས	-10.1136
▁ཉིད	-10.1136
▁ཨོ་རྒྱན	-10.1137
་ཉོན	-10.1139
་ཁས་ལེན	-10.1139
འང་།	-10.1143
་ཚུལ།	-10.1144
་གསོས	-10.1145
འོད་ཟེར་འཕྲོས་པས	-10.1145
་ཁུང	-10.1147
་རེ་རེ་ལ	-10.1149
་མུ་ཁྱུད	-10.115
སོགས	-10.1154
འི་མོས་པ་མཛོད།	-10.1155
▁དེ་ཡང་	-10.1157
་སད་པ	-10.1163
་གླེགས་བམ	-10.1165
་མི་འགྱུར་བ	-10.1167
▁།རྒྱལ་པོ	-10.1167
་བཞིན་པ	-10.1179
་རཾ	-10.1181
་མ་མཐོང་བ	-10.1182
་ཀ་བ	-10.1186
་དཀྱིལ་འཁོར་དུ	-10.1188
་སྤྱན་འདྲེན	-10.1188
▁ཕྱོགས་བཅུ	-10.1189
▁10000300	-10.1191
་རླུང་གིས	-10.1192
་ལ་སྙོམས་པར་ཞུགས	-10.1197
་ཚིག་གི	-10.1201
་འགྱུར་མེད	-10.1202
་རྩིབས	-10.1205
་དགེ་སློང་གིས	-10.1207
་མངོན་དུ་བྱེད་པ	-10.1209
་གོང་བཞིན	-10.1214
▁མ་འོངས་པ	-10.1214
་གསུངས་ཤིང་།	-10.1218
་ལ་སོགས་པའོ།	-10.1219
་སྟ་གོན	-10.1221
་རབས	-10.1222
་དང་པོའི	-10.1226
ར་རོ།	-10.1227
་བརྗོད་པར་བྱའོ།	-10.1229
་ཡང་དག་པར་རྫོགས་	-10.1229
་ངང	-10.1232
▁དོན་དམ་པ	-10.1232
་ཕྱོགས་བཅུ	-10.1233
་བདག་བསྐྱེད	-10.1234
▁རང་རིག	-10.1234
་གསུངས་པས།	-10.1235
འི་གཏམ	-10.1239
▁།བདེ་བ	-10.1241
་༡	-10.1242
་དུ་མི	-10.1245
་མཁའ་སྤྱོད	-10.1259
་གུས་པ	-10.1259
་དྲངས	-10.1262
▁རྒྱ་རྒྱ་རྒྱ༔	-10.1264
་ཀྱི་རྣམ་པ	-10.1267
་ནན	-10.1273
་གཞག་པ	-10.1273
་ཞིག་ཏུ	-10.1277
ར་བསམས་ལ།	-10.1287
་སྤྱོད་པའི	-10.1288
་འཁོར་ལོའི	-10.129
▁ཞི	-10.1291
▁བར་དུ	-10.1292
▁ཀྱང་།	-10.1294
་ཡིད་འོང	-10.1294
▁ཕྱག་རྒྱ་ཆེན་པོ	-10.1298
་ཞེས་བྱ།	-10.1298
▁བྱས་པ	-10.1303
་མུན	-10.1306
་རྣམས་ཀྱིས།	-10.1308
་བགྱི་བ	-10.131
་བརྟགས	-10.1315
▁ནང་དུ	-10.1316
་དུ་གནས་པ	-10.1319
་ལ་བསྟོད་པ	-10.1322
ྲི	-10.1322
་ཐུན་མོང་བ	-10.1324
▁ལྔ	-10.1328
▁།ཕྱི	-10.133
་སེམས་ཅན་དམྱལ་བ	-10.1334
བསྙེན་པར་རྫོགས་པ	-10.1336
▁ཉམས	-10.1336
་གེགས	-10.1342
་མིག་གི	-10.1346
་ཚུལ་ནི།	-10.1348
་རྒྱ་གར	-10.1351
་གསན་པ	-10.1353
▁དྷ	-10.1353
▁དགེ་བའི་རྩ་བ	-10.1355
་ལས་གཞན་དུ	-10.1356
་བརྒྱ་རྩ་བརྒྱད	-10.136
་རྫོགས་སོ།།	-10.1361
་གསོལ་བ་བཏབ་པ	-10.1366
▁ནུབ	-10.1369
ཊ	-10.1371
ཁ	-10.1373
་འཕང	-10.1375
འི་དྲི་མ	-10.1375
་ཨ་བྷི་ཥིཉྩ	-10.1375
▁མྱི	-10.1376
་འདབ	-10.1377
་མ་ཡིན་པས	-10.1381
་གསང་སྔགས་ཀྱི	-10.1381
་ཇི	-10.1383
་རྦད	-10.1389
་འདོད་ཡོན	-10.1392
▁།ནམ་མཁའ	-10.1392
▁བསྒྲུབ་བྱ	-10.1394
་བཙུན་པ	-10.1395
་འཛིན༔	-10.1395
་བརྙེས་པ	-10.1397
་རྣམ་རྒྱལ	-10.14
་སྨོན	-10.1402
་ཡིན་གསུང་།	-10.1403
་ཡུལ་ལ	-10.1404
་དང་ཆོས	-10.1408
འི་ཞལ་ནས།	-10.1409
འི་ཐིག་ལེ	-10.1414
་དབུལ།	-10.1414
▁གནས་སྐབས	-10.1418
▁།འཕགས་པ	-10.1434
་དེ་ལྟ་བུའི	-10.1434
་འཆིང	-10.1434
་གསོལ།	-10.1436
་སྦྱངས།	-10.1437
་འོངས	-10.1439
་འདའ་བ	-10.144
་གན	-10.144
འི་ཚུལ་ཁྲིམས	-10.1447
ཆོས་ཀྱི་རྣམ་གྲངས	-10.1453
་པ་སྟེ།	-10.1457
་རལ	-10.1462
་ང་ལ	-10.1466
་འདྲི	-10.1468
་ཀྱང་དེ	-10.1482
་ཧུ	-10.1484
་དེས་ན	-10.1487
་བཙུན་མོ	-10.1489
་གང་ཡིན་པ་དེ་ནི།	-10.1489
་ངན་སོང	-10.1491
▁མར	-10.1492
ར་གྱིས་ཤིག	-10.1494
▁མུ	-10.1499
་དག་དང་།	-10.1503
་མངོན་དུ་གྱུར་པ	-10.1504
་ཁྱེད་ཀྱིས	-10.1506
་སྭ	-10.151
ྣ	-10.151
་གཅེས	-10.151
2-	-10.1511
་ཤར་དུ	-10.1512
་མི་དགོས་པ	-10.1514
་འགྲོས	-10.152
་འདེབས་པ	-10.1521
་བསྙེན་བཀུར	-10.1531
་ལ་ཕྱག་འཚལ་ལོ	-10.1534
་ཁྱིམ་པ	-10.1537
་བཟླ།	-10.1546
་རེས	-10.155
་ཞི་གནས	-10.1556
▁།འོན་ཀྱང	-10.1556
་བརྗིད	-10.1558
་ཚལ	-10.156
▁།བསྟན་པ	-10.1561
་མངོན་པ	-10.1561
▁3-	-10.1563
ར་ནུས་པ	-10.1564
་ལ་སྤྱོད་པའི་ཚེ།	-10.1568
་ཡོད་མ་ཡིན།	-10.1573
ུལ	-10.1576
་དབང་དུ	-10.1577
་སྙིང་གི	-10.1577
་ཡུམ་གྱི	-10.1581
▁གཤིན་རྗེ	-10.1582
ར་བྱའོ་ཞེས	-10.1583
▁གང་གི	-10.1584
་འདི་ན	-10.1585
་མེད་དོ་ཞེས	-10.1586
་རྒྱལ་སྲས	-10.1587
་བྱ་བ་དང་།	-10.1587
▁།མེ	-10.1589
་གསུངས་ཏེ	-10.1592
་བླང་དོར	-10.1593
ོལ	-10.1593
་མཱ་ར་ཡ	-10.1595
་གཡས་སུ	-10.1598
8	-10.1599
་མཁའ་ལ	-10.16
▁།འདོད་པ	-10.1602
▁།འདོད	-10.1603
ས་ལུས	-10.1603
▁དམ	-10.1604
ར་བཤད།	-10.161
ྒ	-10.161
▁གྲུབ་པ	-10.1613
་ཏཱ	-10.1616
་རིགས་པས	-10.162
▁བླ་མེད	-10.1624
་ཕྱག་འཚལ	-10.1627
འི་གཏོར་མ	-10.1628
་ཇི་ལྟ་བ	-10.1631
་ཀྱི་རྒྱུ	-10.1631
་དུ་གསོལ།	-10.1633
འི་དབང་དུ་བྱས་པ	-10.1635
་ཆུང་མ	-10.1637
ྨ	-10.1637
་དེ་ཆོས་ཅན།	-10.164
▁མཎྜལ	-10.1642
་སྐྱོབ་པ	-10.1643
ར་མཛད་དོ།	-10.1645
་གཉིས་དང་།	-10.1646
་འཇིག་རྟེན་པ	-10.1646
་རོལ་པའི	-10.1648
་ཡོང་བ	-10.1648
་བཟང་ངན	-10.1651
་དགྲ་བོ	-10.1653
་འདོར	-10.1655
▁འཛིན་པ	-10.1658
་ལྟར་སྣང	-10.1658
་རྟེན་ཅིང་འབྲེལ་	-10.1659
་འདོད་པས	-10.1661
་བཞུགས་སོ།།	-10.1663
་སྐྱེ་བར	-10.1666
འི་ངོར	-10.1667
▁རེ	-10.167
འི་མཐུ	-10.1672
▁ཚ	-10.1672
་ཕྱིན་ཅི་མ་ལོག་པ	-10.1673
▁།ཁྱོད	-10.1676
་གད	-10.1676
་འདྲེས	-10.1678
་རྣམ་བཞི	-10.168
་གོམས	-10.1681
་མོས་གུས	-10.1682
▁སློབ་དཔོན་གྱི	-10.1683
་དགག་པའོ།	-10.1689
་ལྡང་བ	-10.1689
་རིལ	-10.1689
་ཁྲག་འཐུང	-10.169
་སྐུར	-10.1691
་གསོད	-10.1692
▁།དེ་ལྟར་ན	-10.1692
▁སོགས།	-10.1693
་མི་ཤེས	-10.1693
་བརྒྱ་ཕྲག	-10.1695
▁རྣམ་རྟོག	-10.1704
་ཕྱི་རོལ་གྱི	-10.1708
་གྲགས།	-10.1709
་ཇི་ལྟ་བུ	-10.1712
་ཐམས་ཅད་	-10.1713
་འབྱུང་སྟེ།	-10.1713
▁གཉིས་མེད	-10.1713
་དྷ་ར	-10.1713
▁འབྲས	-10.1713
་གྲགས་པའི	-10.1714
་འཐུང	-10.1715
ིག	-10.1717
་བམ	-10.1719
་བྱེད་ཅིང	-10.1719
་ཕྱེད་པ	-10.172
་རྡོ་རྗེ་སེམས་དཔ	-10.1721
་ཙམ་ཡང	-10.1727
་འབྲུག	-10.1736
ར་སྐྱེ་བ	-10.1739
་ཅན་དང་།	-10.174
▁ཧཱུཾ	-10.1749
་རྙིང	-10.1752
▁བསྟོད་པ	-10.1754
ཙྪ	-10.1754
་ཉམས་སུ་བླང་བ	-10.1755
་ལ་འགོད་པ	-10.1761
▁།བྱང་ཆུབ་སེམས	-10.1763
་མི་གནས་པ	-10.1764
▁༤	-10.1765
་དྲིས་པ	-10.1767
ི་ཏ	-10.1773
ར་ངེས་པ	-10.1773
་པའི་ཚེ	-10.1774
▁བོད	-10.1774
▁།རྣམ	-10.1776
་ལོག་པར	-10.1778
▁།གང་གིས	-10.1779
་པོའི	-10.1779
འི་དགོས་པ	-10.1782
་དམར་མོ	-10.1791
མས་པ	-10.1792
་སྐམ	-10.1793
▁ཤེས་རབ་ཀྱི	-10.1797
་བསྒོ་བ	-10.1799
་ཅིང་	-10.1804
་རྣམས་ལ།	-10.181
་ཐིམ་པས	-10.181
་ཕྱིར་མི་ལྡོག་པ	-10.1812
་འཕྲོས	-10.1813
་སྔགས་ཕྲེང	-10.1817
▁འདུས་བྱས	-10.1819
་དངོས་པོ་མེད་པ	-10.1824
་བཱ	-10.1831
▁དུག	-10.1831
▁ཁྱིམ	-10.1832
▁བརྒྱད་པ	-10.1834
ལས	-10.1836
▁ཁྲོ་བོ	-10.1838
▁ལ་ལ	-10.184
་འདིར་ནི	-10.1842
་རྩྭ	-10.1842
་སཾ	-10.1843
་རྣམ་སྣང	-10.1849
་བགྱིད	-10.1858
་བསྐྱེད་རྫོགས	-10.1859
་འཕྲལ	-10.1864
ར་བསམ་མོ།	-10.1864
་གང་ཡིན་པ་དང་།	-10.1867
་གཉུག་མ	-10.1868
་ཞེས་བརྗོད་པ	-10.1871
་འཐོབ	-10.1874
་གཏད་པ	-10.1875
་དེ་ལྟ	-10.188
ུ་རུ	-10.1891
འི་རྣམ་ཐར	-10.1893
་བྱད	-10.1894
▁དབྱེ་བ	-10.1895
་དང་མཐུན་པའི	-10.1896
འི་ལན	-10.1897
་མཇལ	-10.1897
▁ཁྱབ་པ	-10.1898
་སྐར	-10.19
▁།འཁོར	-10.1901
▁ས་མ་ཡ	-10.1901
་བསླབ	-10.1903
་གཉིས་དང	-10.1905
་ངོ་སྤྲོད	-10.1906
་གནས་ཏེ།	-10.191
▁ཀུན་ཏུ	-10.1911
་ཀྱི་དོན་དུ	-10.1912
་རྟ་མགྲིན	-10.1913
འི་ཆ་ནས	-10.1914
འི་གདམས་པ	-10.1914
▁གཞོན་ནུ	-10.1916
་གསུང་ངོ་།	-10.1918
་བརྩེ	-10.1919
་ཤཱ་རིའི་བུ	-10.192
་གཡས་གཡོན	-10.192
་རིག་མ	-10.192
▁།བཅོམ་ལྡན་འདས་	-10.1927
་བརྒྱད་པོ	-10.1928
འི་གོ་འཕང	-10.193
▁གཉེན་པོ	-10.193
་ཡོད་པ་དེ	-10.193
་མཐོ་བ	-10.1931
་སང	-10.1933
་དང་མི་ལྡན་པ	-10.1933
་འཁོར་བར	-10.1934
▁།འཁོར་ལོ	-10.1938
་རྒྱ་ཆེ་བ	-10.1943
་འཐད	-10.1944
་གཡོན་པ	-10.1945
་སྤྱན་དྲངས	-10.1949
་བདེ་མཆོག	-10.195
▁བརྩོན་འགྲུས	-10.1955
་འགྲུབ་པར	-10.1957
་མི་སྣང་བ	-10.1961
་དེ་ཡིས	-10.1963
་བརྒྱ་བྱིན	-10.1967
▁ཞག	-10.1969
་སྐུ་ཡི	-10.197
་ལྟར་རོ།	-10.197
་ཞ	-10.1971
/	-10.1972
་ཅོ	-10.1972
་མཆི	-10.1974
་མེད་པའོ།	-10.1976
▁དབུས་སུ	-10.198
<	-10.1981
་ནང་ནས	-10.1981
▁&	-10.1982
་ཚད་མས	-10.1986
་དང་མ	-10.1989
་དུ་སོང་བ	-10.1993
འི་དཀྱིལ་འཁོར་དུ	-10.2
འི་ལེའུ	-10.2001
་ཨོཾ་ཨཱཿཧཱུྃ	-10.2001
འི་གྲངས	-10.2002
་བཀའ་དྲིན	-10.2003
▁¿	-10.2007
འི་སློབ་མ	-10.2008
་དགག་བྱ	-10.2019
་ལས་འོད་ཟེར	-10.2022
་དེ་བཞིན་དུ།	-10.2023
▁ཐམས་ཅད་མཁྱེན་པ	-10.2024
▁འབྲུ	-10.2026
▁མི་རྟག་པ	-10.2026
་ཕྱིའི	-10.2031
མ་བུ	-10.2031
▁།ཚོགས	-10.2032
་བྲོ	-10.2037
་སྲེད་པ	-10.204
་ནག་མོ	-10.2044
་བཤམ།	-10.2044
་འཕངས་པ	-10.2044
་ཐིམ	-10.2045
་བཅོམ	-10.2049
་རཀྵ	-10.2051
་བསམས་པ	-10.2051
▁ཕོ	-10.2054
་ཡིན་པས་སོ།	-10.2055
་བླངས	-10.2057
▁གང་གི་ཚེ	-10.2062
་གླུད	-10.2064
ར་ཐལ་བ	-10.2064
་གཤེགས་སུ་གསོལ།	-10.2064
་ཀེ	-10.2065
་ཤེས་པར་བྱ།	-10.2065
་བགྱིས	-10.2071
་ཧཱ	-10.2072
གཅིག	-10.2076
་ཚེ་ཡི	-10.208
་འཐོར	-10.208
་འདི་སྐད	-10.2081
་ཡས	-10.2081
▁གྱི	-10.2084
་ནམ་མཁར	-10.2094
་ཞིབ	-10.2101
ས་ཟིན་པ	-10.2101
▁འཇིག་རྟེན་པ	-10.2106
▁བདེ	-10.2112
་མི་འདོད་པ	-10.2112
འི་ཉམས	-10.2114
་ཀྱི་རིམ་པ	-10.2116
མཆོག་ཏུ	-10.212
་ཉིན་ཞག	-10.212
་སྔོན་དུ་འགྲོ་བས	-10.2124
་ཕྱོགས་གཅིག་ཏུ	-10.2124
▁གཞན་དོན	-10.2126
་ཟླུམ	-10.2127
ལྷུན་གྱིས་གྲུབ་པ	-10.2128
་བདེ་བར་གཤེགས་པ	-10.213
་ཕྲག་དོག	-10.213
་འཆད་དོ།	-10.2132
▁མཐོང་བ	-10.2141
▁རིགས་པ	-10.2142
་དཀར་དམར	-10.2143
▁མཆོད	-10.2146
་རྟགས་སུ	-10.2146
འི་མིག	-10.2147
་ཉེ་བ	-10.2155
་འགོད	-10.2157
▁མངོན་སུམ	-10.2159
་འདོར་བ	-10.2162
་བཅུག	-10.2164
▁དེ་འདྲ	-10.2165
ླ	-10.2165
་དོང	-10.2171
ར་བགྱི	-10.2173
་བདག་མེད་པ	-10.2178
་གྲངས་མེད	-10.2179
▁སྒོམ་པ	-10.2179
འདི	-10.2179
་ས་བཅུ	-10.2181
▁ལག	-10.2182
་ཕྱག་ལེན	-10.2184
▁སྙིང་གར	-10.2186
་འདི་འདྲ	-10.2187
་གདབ	-10.2194
་ནི་ཆོས	-10.2194
་དེ་སྲིད་དུ	-10.2195
་བོར	-10.2197
ནྡ	-10.2201
་སྲིན་པོ	-10.2201
▁ཀུ	-10.2201
་མཉམ་གཞག	-10.2203
་ཕྱི་ནང་གི	-10.2203
་གི་བར་དུ	-10.2207
▁།བདག་གིས	-10.2209
་གྲུབ།	-10.2209
་ལྔ་བཅུ	-10.2211
▁རྒྱལ་པོ་ཆེན་པོ	-10.2218
ཎྜ	-10.222
འི་ཆོས་ཅན	-10.2223
▁ངས	-10.2225
་ཡལ	-10.2229
▁དབང་གི	-10.2235
་བགྲང	-10.2237
འི་ཡེ་ཤེས་ཀྱི	-10.2239
་སྨད་པ	-10.2244
་མི་དགོས	-10.2246
་འབེབས	-10.2247
་གསར་པ	-10.2253
▁བཅུ	-10.2253
ས་གང་བ	-10.2254
▁ཧྲཱི༔	-10.226
་པར་བྱ་བ	-10.226
་གུས	-10.2261
▁མགྲིན་པ	-10.2262
འི་མདུན་དུ	-10.2264
་བེ	-10.2266
་ལྟོ	-10.2266
▁ཁོང	-10.2269
འི་རྩེ་མོ	-10.2272
་སྒོ་ནས	-10.2272
▁ཨུ	-10.2277
་སྐྱབས་སུ་འགྲོ་བ	-10.2277
་གཉིས་སུ་མེད་པའི	-10.2278
་ཀུན་ནས་ཉོན་མོངས	-10.2282
་ཞིག་པ	-10.2283
་བརྩེགས་པ	-10.2289
་ལྔ་དང	-10.2289
་གྲུ་བཞི	-10.2293
་ཉལ་བ	-10.2298
ཱཾ	-10.2298
▁ལེའུ	-10.2301
་མི་སྲིད	-10.2303
་ཞུགས།	-10.2303
ུར	-10.2303
་རྣམ་གཞག	-10.2307
▁ལྕགས	-10.2307
▁།ལོ	-10.231
་འཕྲོས།	-10.231
་དོན་གྲུབ	-10.2314
་དམ་ཆོས	-10.2317
་ལྕི་བ	-10.2321
▁།རྒྱུད	-10.2323
་ཆུས	-10.2323
▁།ཟླ་བ	-10.2326
ར་གྱུར་པས	-10.2328
་ཞེས་བྱ་སྟེ	-10.233
་ཅན་ནོ།	-10.2333
དབྱེར་མེད	-10.2335
་གྲུབ་ཐོབ	-10.234
་བདག་ཏུ	-10.2342
་བཞི་དང	-10.2343
་སླད	-10.2344
▁ཧོཿ	-10.2345
་ལྷ་ཁང	-10.2345
་ལུང་གི	-10.2348
▁ཁྱོད་ལ	-10.2349
་པདྨ་འབྱུང་གནས	-10.2349
▁།གསང་སྔགས	-10.2351
་འབངས	-10.2352
་གམ།	-10.2359
་སྤྲོད	-10.2362
འི་སྡེ	-10.2369
་དང་ལྡན་པར	-10.2369
ར་འཇོག་པ	-10.2375
འི་དེ་བཞིན་ཉིད	-10.2376
་ཚངས	-10.2378
▁།སྐྱེ་བ	-10.2378
་འགྱུར་ཏེ།	-10.2381
་དགེ་བསྙེན	-10.2383
▁འགོག་པ	-10.2395
རྣམ་པར་མི་རྟོག་པ	-10.24
▁།བསོད་ནམས	-10.2403
་ཆེ༔	-10.2407
་ཕམ	-10.241
་ཀུན་དགའ་བོ	-10.2411
ུག	-10.2411
་སྦྲེལ	-10.2414
་སྐལ་བ	-10.2415
▁སྐད་ཅིག	-10.2422
ཱ་ར	-10.2423
་བྱེད་ན་	-10.2424
▁མངོན་པར	-10.2424
་ཡིན་པས་དེ	-10.2427
་བཅིངས	-10.2431
ར་གྱུར་ནས་	-10.2431
་ཉེས་བྱས	-10.2433
་དྲ་བ	-10.2446
་གཟུགས་སོགས	-10.2448
་སྦྱོར་ལམ	-10.2448
་དང་བཅས།	-10.2454
་རུ༔	-10.2456
་ཐོབ་པར	-10.2458
ས་བརྒྱན་པ།	-10.2462
▁གཞན་ལ	-10.2464
▁ཕྱག་གཡས	-10.2467
་བསྒྲུབ་པའི	-10.2472
་བློན་པོ	-10.2472
▁ནོར་བུ	-10.2476
▁༣	-10.248
་རགས	-10.248
་ལས་གཞན་པའི	-10.2488
་སྨན་གྱི	-10.2501
་པད	-10.2502
་མཉམ་བཞག	-10.2504
▁མྱ་ངན་ལས་འདས་པ	-10.2504
་རིམ་པར	-10.2506
་དོགས	-10.2506
▁རྐང	-10.2507
་བྱེད་ན	-10.2507
▁རྟེན་འབྲེལ	-10.2509
▁སྔོན་འགྲོ	-10.251
འི་རང་བཞིན་དུ	-10.2516
འི་དགེ་འདུན	-10.2517
་མ་ཐོབ་པ	-10.252
▁གིས	-10.252
▁བསྟན་བཅོས	-10.2521
་བརྩམས་པ	-10.2522
་ལྷ་སྐུ	-10.2523
་བསྣམས༔	-10.2523
བས་པ	-10.2525
་བཙལ་བ	-10.2527
▁ཚེ་དང་ལྡན་པ་	-10.253
▁ང་རྒྱལ	-10.2531
▁བས	-10.254
▁ཆེ	-10.2541
་པོར	-10.2541
ར་འོས་པ	-10.2541
་སྐྱིལ་ཀྲུང	-10.2543
་བསྡུས་པའི	-10.2545
་ཕྱོགས་བཅུར	-10.2557
་སློང	-10.2557
▁།ཁྱད་པར	-10.2559
་སངས་རྒྱས་པ	-10.2561
་བཟླས་པས	-10.2562
་ཕྱི་རོལ་དུ	-10.2563
་ལ་མོས་པ	-10.2565
་ད་ལྟར	-10.2568
་ལག་ཏུ	-10.2569
་སྟེགས	-10.2573
བྱང་ཆུབ་སེམས་ཀྱི	-10.2574
▁ལྷོར	-10.2575
་མངོན་ཤེས	-10.2582
་ཅེས་བྱའོ།	-10.2583
་རྣམ་པ་སྣ་ཚོགས	-10.2585
▁སྔར་གྱི	-10.2587
་འཕྱ	-10.2597
་མགྲོན	-10.2597
་རྣམ་པར་བཞག་པ	-10.2601
་རླུང་སེམས	-10.2605
་བྱེ	-10.2605
་ཡིན་ཞེ་ན།	-10.2607
་དང་བཅས་ཏེ་	-10.2609
་བཅོམ་ལྡན་འདས་	-10.2609
་གསོལ་བ་འདེབས་པ	-10.2612
་ཕོག་པ	-10.2617
་དོ་ཞེས	-10.2618
▁འདས་པ	-10.2619
་འཕྲོས་པས	-10.2619
་གསུམ་ནི	-10.2621
་རེག་བྱ	-10.2627
་བསོད་སྙོམས	-10.2632
▁།ཆོས་ཀྱི	-10.264
▁སྨོན་ལམ	-10.2641
་མཐོང་ནས	-10.2641
▁།གཉིས	-10.2642
་གསལ་བའི	-10.2642
▁འདས	-10.2647
་སྟོང་པ་ཉིད་དུ	-10.2647
▁སྤྱན	-10.2653
▁དོན་དམ་པར	-10.2655
་སྐལ	-10.2655
འི་རྟེན་འབྲེལ	-10.2665
་གཞན་རྣམས	-10.2671
ར་ནི	-10.2671
་ཕུང་པོ་ལྔ	-10.2671
▁དེ་རྣམས་ཀྱི	-10.2684
་དག་པར	-10.2684
་སྣོད་བཅུད	-10.269
འི་ངང་ནས	-10.2698
▁སོ་སོར	-10.2699
་སྲིད་པའི	-10.27
་རྣམ་པར་གཞག་པ	-10.2701
་ངོ་ཞེས	-10.2704
་དོན་དུ་གཉེར་བ	-10.2706
་ཐབས་ཤེས	-10.2707
་ཅོད་པན	-10.2709
▁ཟླ	-10.2712
་ཀྱི་ཆོ་ག	-10.2713
་སྨྲས་པ།	-10.2713
་སྐྱེས།	-10.2715
་འབད་པ	-10.2719
་བརྗོད་དུ་མེད་པ	-10.2719
་ཀུན་འབྱུང	-10.272
་མ༔	-10.272
་གཏན་ལ་དབབ་པ	-10.2721
▁དཀར	-10.2725
་ཁ་ཟས	-10.2725
་དི	-10.2725
་སྲ	-10.2728
་ཧ་ཅང	-10.2732
་ཡིན་པ་དང་།	-10.2733
་བཅོམ་ལྡན	-10.2733
་རླབས	-10.2736
་དྲང	-10.2737
་གསུམ་ཀ	-10.2742
་ཡིན་ནོ	-10.2743
ར་བྱེད་དེ།	-10.2744
་དམ་ཚིག་གི	-10.2746
འི་ངང་དུ	-10.2747
་ཀྱི་ལམ	-10.2748
སྣང་སྲིད	-10.2749
་གསུམ་ལས	-10.275
་ཕྲད	-10.2752
་ཡུལ་ཅན	-10.2756
་འཇུག་པའི	-10.2757
་པ་ཡི	-10.2759
་མང་པོས	-10.2762
་མཆོག་ཏུ་གྱུར་པ	-10.2762
་གནས་བརྟན	-10.2766
་མཚམས་སུ	-10.277
་བསྟན་ནོ།	-10.2772
་སྒྲུབ་ཀྱི	-10.2779
▁ལེགས་པར	-10.2779
་ཏེ༔	-10.2784
་གསུངས་པའི	-10.2786
་ཐམས་ཅད་དང་བྲལ་བ	-10.2788
་ལོ་རྒྱུས	-10.2789
་དུ་སྣང་བ	-10.2789
་གླེང	-10.279
▁གསང	-10.279
་ཤོར	-10.2792
་ཡུན	-10.2794
་འབྲིང་པོ	-10.2794
་བྷ་ག	-10.2798
▁རེག་པའི་	-10.2805
་བྱ་བ་ནི།	-10.2809
་སྒང	-10.2815
་བར།	-10.2815
▁།ཉི་མ	-10.2816
ར་འདོད	-10.282
་བརྩེ་བ	-10.282
་གདམས	-10.2823
་མི་གཡོ	-10.2823
་ཤོད	-10.2825
,	-10.2825
་མཐོང་སྤང	-10.2828
ཨ	-10.2828
་གྱི་དོན	-10.2831
རྨ	-10.2832
▁།ཡི་གེ	-10.2835
་བགྱིད་པ	-10.2835
་བྷི	-10.2836
་བཞི་སྟེ།	-10.2839
་དུས་ཀྱི་འཁོར་ལོ	-10.2841
་སུ།	-10.2841
་ཀྱི་རྟེན	-10.2842
་ཁྱེའུ	-10.2847
་ཕྱིན་ཅི་ལོག	-10.2847
་མ་ཐག	-10.2848
་ཁཾ	-10.2848
འི་དོན་ནོ།	-10.2852
་གདོད་ནས	-10.2852
▁རྩོད་པ	-10.2854
་ཁྱུང	-10.2859
་པདྨའི	-10.2861
་ཁྲོ་བ	-10.2862
▁སྐབས་འདིར	-10.2865
་ཁྲོད	-10.2871
་ཉམས་མྱོང	-10.2871
་རང་སྣང	-10.2871
་གྱི་དཀྱིལ་འཁོར	-10.2873
ཁྱེད་རང་རྣམས་ཀྱི	-10.2876
་ཚོལ་བ	-10.2877
་སྐྱོབ	-10.2878
འི་ནང་ན	-10.288
ཞེས	-10.288
▁།ཞེས་པ་དང་།	-10.2881
་ངན་འགྲོ	-10.2883
▁ཡབ་ཡུམ	-10.2888
▁སྒོམ	-10.2889
་ནི་སངས་རྒྱས	-10.2899
་བརྒྱ་སྟོང	-10.2906
་འོད་ཀྱིས	-10.2906
འི་ཚོགས་རྣམས	-10.2908
་གདགས་པ	-10.2909
་ཡིན་པའི་ཕྱིར་ཏེ	-10.2911
་སྒྲུབ་པར་བྱེད་པ	-10.2912
་སྒྱུ་ལུས	-10.2918
▁སེམས་ཅན་རྣམས	-10.2918
་ཕྱོགས་བཅུའི་	-10.2919
▁ཏེ	-10.2919
་ལ་ཐིམ་པ	-10.2921
འི་ཚེ་ན	-10.2921
་འགྱེད	-10.2925
་དཀར་བ	-10.2926
་གསལ༔	-10.293
་བསྲེ	-10.293
་དྲངས་པ	-10.2933
་དཔལ་འབྱོར	-10.2933
▁འཇིགས་པ	-10.2933
་བྱང་སེམས་ཀྱི	-10.2939
་རྡུལ་ཕྲན	-10.2939
་ཕེབས་པ	-10.2939
▁ཨོཾ་ཨཱཿ	-10.294
ར་བྱེད་པའོ།	-10.2942
་མཁའ་འགྲོའི	-10.2944
་ཅི་ཡང	-10.2945
་ཁྲོས་པ	-10.2946
་བྷྲཱུྃ	-10.2949
་ཉིན་མཚན	-10.2951
་ལ་སྦྱར་བ	-10.2954
འི་ངག	-10.2956
ར་ཤེས་པ	-10.2956
་སྐྱེའོ།	-10.296
་ལུང་མ་བསྟན	-10.296
འི་མི	-10.2964
་སྐ	-10.2965
▁ཁྲག	-10.2971
་ཕྱུགས	-10.2971
་བསྔགས	-10.2971
▁།སྲིད་པ	-10.298
་བལ	-10.2992
་དངོས་གྲུབ་སྩོལ།	-10.2992
་གྱ	-10.2994
་བྱ་ཞིང	-10.2997
་དང་མཉམ་པ	-10.2997
▁མར་མེ	-10.2998
་ཤེས་པའི	-10.3001
▁བྱིས་པ	-10.3004
་མཐུན་པར	-10.3006
▁མེད	-10.3007
་མངོན་སུམ་གྱིས	-10.3011
་ལ་ལྟོས	-10.3011
ར་གྱུར་ཏེ།	-10.3013
་བསྐང	-10.3015
་ཞང	-10.3021
▁ཐར་པ	-10.3022
▁ཛཿཧཱུྃ་བཾ་ཧོཿ	-10.3025
་སྐར་མ	-10.3026
་གླ	-10.3027
་འབྱུང་བས	-10.3028
་ལ་ཆོས	-10.303
་ལོགས	-10.303
་བསོད་ནམས་ཀྱི	-10.3031
▁གསོལ་པ།	-10.3035
་ལོན	-10.3036
གསོལ་བ་འདེབས་སོ	-10.3044
་གྲུབ་བོ།	-10.305
▁,	-10.305
▁བདེ་བར་གཤེགས་པ	-10.3052
▁བར་ཆད	-10.3059
་འབྱུང་བར	-10.3061
ནོར་བུ་རིན་པོ་ཆེ	-10.3062
་འཁྱུད	-10.3063
་མཛད་པས	-10.3071
་སྤ	-10.3072
་ཚད་མེད	-10.3072
་དགོངས་སུ་གསོལ།	-10.3077
ས་སྟོང་པ	-10.3077
་ལས་སོ།	-10.308
ུད	-10.3081
་པདྨོ	-10.3087
་ལ་དབང་བ	-10.3091
་གྱོན	-10.3092
་འཁྲུལ་འཁོར	-10.3093
ར་འཇུག་པ	-10.3096
་བགྱི	-10.3096
་མེད་པས།	-10.3097
་གཤིས	-10.3098
་ཡི་ནི	-10.31
ར་མོས་ཤིག	-10.31
་རྒྱུས	-10.3103
་དང་དེ	-10.3109
ཡོངས་སུ	-10.3109
▁བྱེད་པ	-10.3109
་དགོས་ཏེ	-10.312
་ཟག་མེད་ཀྱི	-10.3121
་འོད་དཔག་མེད	-10.3122
་མེད་ལ	-10.3123
་མིན་པར་ཐལ།	-10.3124
འི་དབྱིངས	-10.3126
་སྲོག་གི	-10.3128
་འདུན	-10.3131
་སྦྱར་བའི	-10.3134
་མི་གསལ་བ	-10.3134
་ཧྲི	-10.3135
་ལྷུང་བ	-10.3136
▁ཨོཾ་ཨཱཿཧཱུྃ༔	-10.314
་སྣ་ཚོགས་ཀྱི	-10.314
▁༦	-10.3145
ེང	-10.3149
་ཡིད་བཞིན་ནོར་བུ	-10.3153
་འཇིག་རྟེན་དུ	-10.3156
་མ་མཐོང	-10.3157
་ཇོ་བོ	-10.3158
་འཁྱིལ་བ	-10.3158
▁།མདོ	-10.3161
▁/?-	-10.3162
་རྣལ་འབྱོར་གྱི	-10.3167
▁རྒྱ་མཚོ	-10.3169
་ཞིག་ལ	-10.3169
▁།དེ་ཚེ	-10.3171
་གཟུགས་སུ	-10.3171
▁ཟག་མེད	-10.3173
་ཚུལ་གྱིས	-10.318
་སེར་སྣ	-10.3182
▁།དབང་པོ	-10.3183
་མི་ཟད་པ	-10.3187
་ཞུས།	-10.3194
་མཛོད་ཅིག	-10.3197
་སྤྱོད།	-10.3197
་འགྱོད་པ	-10.3203
་ཀྱི་སྟེང་དུ	-10.3206
▁ཞུ	-10.3209
་དོན་མེད	-10.3212
་ལྷུང	-10.3214
་ལ་དགོངས་པ	-10.3217
་རྫོགས་པའི་སྐུ	-10.3219
འི་ལྟུང་བ	-10.3221
་སྐྱོ་བ	-10.3222
ྞ	-10.3226
་སྙིང་ལ	-10.3229
་བསྒྱུར།	-10.3234
་གྲལ	-10.3234
་འཇིག་རྟེན་ན	-10.3235
འི་ཕྱིར་ཞེ་ན།	-10.3239
་ཤེས་པ་དང་།	-10.324
▁།ཤ	-10.324
་སྒྲོ་འདོགས	-10.3244
▁སེམས་དཔའ	-10.3245
་ལྔར	-10.3248
་དགོས་པའི་ཕྱིར།	-10.325
▁༼༥	-10.325
་དབང་ཤེས	-10.3251
འི་མདོག	-10.3251
་སླ་བ	-10.3254
▁།མདོར་ན	-10.3258
་ཐོབ་ནས་	-10.3258
་རྒྱ་མཚོ་ཆེན་པོ	-10.3258
་གུས་པས	-10.3259
འཁོར་ལོས་སྒྱུར་བ	-10.3261
་སྤྱན་དྲངས་པ	-10.3261
ོམ	-10.3261
་བསྐྱོད	-10.3262
▁མཆོད་རྟེན	-10.3266
▁དཀོན་མཆོག	-10.3267
ར་མི་ནུས་པ	-10.3267
་ཡོད་ཅེས	-10.3267
་དུ་གྱུར།	-10.3269
རྒ	-10.3276
▁དམ་པའི་ཆོས	-10.3276
ར་བྱེད་ཅིང	-10.3278
འི་སྤྱི	-10.3281
་ཀྱང་མི	-10.3289
་ཕག་མོ	-10.3289
་ཚོལ	-10.3289
▁གཡོན་དུ	-10.329
་ཆོས་སུ	-10.3291
་ཐོབ་པས	-10.3292
་འགའ་ཡང	-10.3296
་ནན་ཏན	-10.3297
▁དེའི་འོག་ཏུ	-10.3302
ར་གནས	-10.3311
་རྣམས་ཀྱིས་ཀྱང	-10.3314
་མི་འདོད	-10.3317
་འདོགས་པ	-10.3317
་གཞན་ལས	-10.3319
་དྲུང་དུ	-10.3323
▁།སྣང་བ	-10.3325
་ཀུན་རྫོབ་ཀྱི	-10.333
་སྙིགས་མ	-10.333
་མི་འགྲུབ་པ	-10.3331
་བཤིག	-10.3333
་མ་རིག	-10.3337
▁=?	-10.3337
་རྒྱང	-10.3338
▁།རྩ	-10.3346
་དུ་མས	-10.3349
་ཐུགས་རྗེས	-10.3351
་དབྱུག་པ	-10.3353
བྱིན་གྱིས་བརླབ་པ	-10.3355
▁ཤར་དུ	-10.3355
་སའི	-10.3356
▁ལྟེ་བར	-10.3356
་ངོས་བཟུང་བ	-10.3363
▁རྡོ	-10.3367
་མི་སྐྱེ	-10.3368
▁བུ་མོ	-10.3371
་བཅའ	-10.3376
་འདི་ཡི	-10.3377
་ཤྭ	-10.338
་བཟང་།	-10.338
▁།དང་པོ་ནི	-10.3383
▁བྱང་ཆུབ་སེམས	-10.3385
་འོག་གི	-10.3386
འི་སྤྱོད་ཡུལ	-10.3391
▁༧	-10.3391
་དབྱེར་མེད་པ	-10.3392
འི་འོག་ཏུ	-10.3395
་ཚང་བར	-10.3395
▁ཐོད་པ	-10.3398
་སོང་ནས་	-10.34
འི་གདན	-10.34
ར་བསྒོམ།	-10.3401
་བྱེད་པར	-10.3401
▁འདུས་མ་བྱས	-10.3406
ས་ཆོས	-10.3409
་འཁོར་དང་བཅས	-10.3409
▁དེ་ན	-10.3411
་རམ།	-10.3412
་འབྱུང་སྟེ	-10.3414
་མི་དགོས།	-10.3414
འི་དུས་ཀྱི	-10.3418
་བསུ	-10.3418
་ཐོབ་པར་ཤོག	-10.342
▁ཐ་སྙད	-10.3422
་ཉེར་ལྔ	-10.3423
་ཞི་བའི	-10.3423
་ཆོད་པ	-10.3426
▁གནོད་པ	-10.3427
▁རུ	-10.3431
་གྱུར་པའི	-10.3432
་རྩོལ་བ	-10.3437
་འགྱུར་རོ།	-10.3441
▁རང་བཞིན་གྱིས	-10.3443
▁བླ	-10.3443
་མེ་ཏོག་གི	-10.3444
་གཉིས་ཏེ	-10.3447
་བཅོས་པ	-10.345
་རྒྱས་པའི	-10.3452
་བྷནྡྷ	-10.3459
་དབུ་མ་པ	-10.346
▁གསང་བའི	-10.3463
▁0<-	-10.3465
་ལ་རེག་པ	-10.3467
་སྐྲག	-10.3467
་ཞེས་དང་།	-10.347
་རིམ་གྲོ	-10.3471
▁།དཔེར་ན	-10.3471
་མཆོད་གཏོར	-10.3473
་ངའི	-10.3473
▁།དེ་ལས	-10.3476
་ན་ནི	-10.3477
་བར་བྱའོ།	-10.3483
་བ་ལང	-10.3487
འི་ཕྱག	-10.3487
་པའམ།	-10.3488
▁སྣོད	-10.3489
་རྒྱས་བསྡུས	-10.3492
་རྣམས་ཀྱི་	-10.3493
་པོ་ཆེ	-10.3493
་ཡིན་ཀྱང	-10.3499
་རྗེས་སུ་འབྲང་བ	-10.3499
འི་དོན་ཏོ།	-10.3501
་གྱིས་ཤིག	-10.3503
▁སེམས་བསྐྱེད	-10.3504
་བཏུང་བ	-10.3505
་རིམ་པས	-10.351
▁སེམས་ཉིད	-10.3511
་ཀུན་རྫོབ་ཏུ	-10.3513
ཞིང	-10.3517
་བསམ་ཡས	-10.3517
་ཡུན་རིང་དུ	-10.3518
་ཅིག་ཅར	-10.352
་བྱ་བར	-10.352
་བཤད་པའི	-10.3521
་འཕྲོག་པ	-10.3523
་དབྱེར་མེད་དུ	-10.3524
་བདེ་བའི	-10.353
་ཡབ་སྲས	-10.353
་ཅ	-10.3533
་གཞན་དབང	-10.3538
་ཅི་རིགས་པ	-10.354
▁རླུང་གི	-10.3541
་དགོས་ལ།	-10.3542
་གཞོན	-10.3543
▁སྒྲིབ་པ	-10.3544
ཆོས	-10.3544
་འདྲི་བ	-10.3544
་འཁྲུངས	-10.3549
་དམར་ནག	-10.3549
ུམ	-10.3551
་བྱེ་བྲག་ཏུ	-10.3553
་བའོ།	-10.3553
▁མདོ་སྡེ	-10.3553
་དྲིན	-10.3559
▁ནག་པོ	-10.3561
་ལ་བསླབ་པ	-10.3562
་རྒྱན་གྱི	-10.3569
་ལྔས	-10.3569
་འགྲམ	-10.3574
་དང་འབྲེལ་བའི	-10.3575
་ལ་འདུད།	-10.3575
▁ཐུགས་རྗེ་ཆེན་པོ	-10.3576
་མེད་ཅེས	-10.3577
་རྫུན	-10.3579
་བཞེས་པ	-10.3583
འོ་ཞེས་པ	-10.3584
འི་གོས	-10.3585
▁སྤྱི་བོར	-10.3586
་གཉིས་སུ་མེད་པར	-10.3588
▁།མགོན་པོ	-10.3589
་སྣ་ཚོགས་ཀྱིས	-10.3591
་ཐལ་མོ	-10.3592
་སྐུ་ལ	-10.3596
་བསྒོམས	-10.3604
་སྩལ	-10.3605
་ནི་ཤིན་ཏུ	-10.3606
▁ཤ་ར་དྭ་ཏིའི་བུ	-10.3606
་འབུལ༔	-10.3607
་དྲོ	-10.3609
་རང་བཞིན་མེད་པ	-10.361
་ཀླུང	-10.3614
་བུར	-10.3616
་སྒྲ་མི་རྟག་པ	-10.3617
རྻ	-10.3617
་མི་རྟོག	-10.3618
▁དབྱིངས	-10.3619
་མེད་པ་ལ	-10.3621
་བྱུང་བས	-10.3622
་ཕོག	-10.3622
▁ལྷའི་བུ	-10.3623
▁ཁྱིམ་བདག	-10.3627
་གང་ན	-10.3628
་རྫས་ཀྱི	-10.3629
▁ཡི	-10.3637
▁རྒྱུ་མཚན	-10.3638
་དག་ལས	-10.3644
་མངོན་པར་ཤེས་པ	-10.3644
་ལས་གྲུབ་པའི	-10.3644
▁ཕ་རོལ་ཏུ་ཕྱིན་པ	-10.3644
་མ་སྐྱེས	-10.3647
▁།འདི་དག	-10.3648
་མ་ཡིན་གྱི།	-10.3649
་གཙོ་བོར་གྱུར་པ	-10.365
་མེ་ལྷ	-10.365
▁།དྲི	-10.3653
་ལན་བདུན	-10.3654
་རྩ་བའི་བླ་མ	-10.3656
་འབུ	-10.3657
་དགེ་ལེགས	-10.3659
་དངུལ	-10.366
འི་ཆེད	-10.3662
▁གཞན་དུ	-10.3666
་བརྙེས	-10.367
་རྒྱ་ཆེན	-10.3672
ས་མཆོད།	-10.3674
▁ཡབ	-10.3675
འི་སྲོག	-10.3677
་སྒ	-10.3677
▁དབང་ཕྱུག	-10.3677
་དང་སྦྱར་བ	-10.3681
་ཟིལ་གནོན	-10.3683
སྟ	-10.3683
་བལྟས	-10.3685
་དབྱིངས་ཀྱི	-10.3685
▁།ལ	-10.3688
་རིན་པོ་ཆེ།	-10.369
འི་དབང་དུ་བྱས་ནས	-10.3692
་སྒྲོན	-10.3695
་འཕེལ།	-10.3695
འི་ལོངས་སྤྱོད	-10.3699
་མི་ནུས	-10.3701
་སྩལ་དུ་གསོལ།	-10.3702
་སྤྱི་བོ་ནས	-10.3704
་དང་འཇིག་རྟེན	-10.3706
▁ཆགས་པ	-10.3707
་སྐྱེ་བའི	-10.3708
▁བར་དོ	-10.371
▁དགེ་འདུན་གྱི	-10.371
་སྒྲོན་མེ	-10.3714
་ཚུལ་བཞིན་དུ	-10.3719
་གསུངས་པ་ལྟར་རོ།	-10.3719
▁།རབ	-10.3725
ས་པར	-10.3728
▁དུང	-10.373
འི་གཟུངས	-10.373
་ཅོག	-10.3731
་ཐོགས་པ་མེད་པ	-10.3733
་སྒྲོ	-10.3733
ར་འགྱུར་བས	-10.3737
་རྣམ་པར་ཐར་པ	-10.3744
༽ལོར	-10.3746
▁གཟུང་འཛིན	-10.3747
་བོར་བ	-10.3749
▁སྐྲ	-10.3751
་སྦྱང་གཞི	-10.3752
་ཞིག་གི	-10.3755
་གཉིས་ཀ་ལ	-10.3759
རྣམ་པར་ཤེས་པ	-10.3761
་འདི་གསུངས་སོ།	-10.3761
ར་ཞུ།	-10.3763
་མཆོད་ཡོན	-10.3766
་རྒྱུག	-10.3767
་སྦྱོང་བྱེད	-10.3768
འི་ཡིད	-10.3769
་པ་ཞིག	-10.3773
་རྩེར	-10.3773
▁i	-10.3775
ར་མཛད	-10.3775
▁རྒྱས་པ	-10.3784
▁།མ་ལུས	-10.3785
་ཤེས་སོ།	-10.3791
་རང་བྱུང་གི	-10.3791
་རྐྱེན་གྱིས	-10.3796
་སློང་བ	-10.3796
འི་བདག	-10.3799
▁བགེགས	-10.38
་གློག	-10.38
▁མི་དགེ་བ	-10.3801
་མ་ཡིན་པའི་ཕྱིར།	-10.3802
་ཁོག	-10.3802
་འདི་ཡིས	-10.3804
▁།བཅོམ་ལྡན	-10.3807
བར་འབྱུང་བ	-10.3809
་ལ༴	-10.3815
་བྷཱ	-10.3815
་བཟླ་བ	-10.3816
་ལས་ལྡོག་པ	-10.3816
▁རབ་འབྱོར་	-10.382
་བསྙེན་སྒྲུབ	-10.3822
ྔ	-10.3822
་ལྕགས་ཀྱི	-10.3823
་ཟག་པ་མེད་པ	-10.3829
་སྨིན་བྱེད	-10.3829
▁སྤྲུལ་སྐུ	-10.3829
▁གྲངས	-10.383
འི་རིག་པ	-10.383
་རྟོག་མེད	-10.3831
་ལྗོངས	-10.3832
་འོས	-10.3832
་དཔལ།	-10.3832
ར་དཀའ་བ	-10.3833
ཐ	-10.3838
་པ་ལྟར	-10.3838
་རྒྱ་མཚོར	-10.3843
་གི་སྒོ་ནས	-10.3843
་སྐབས་ཀྱི	-10.3847
▁ལུས་ལ	-10.3848
་བསྡུས་ནས་	-10.3851
%	-10.3852
་དཔྱོད	-10.3854
་འདམ	-10.3858
ར་བྱ༔	-10.3861
་ཌཱ་ཀི	-10.3862
་ལའང་།	-10.3863
ས་སེམས	-10.3864
་ཡོན་ཏན་གྱི	-10.3865
་སྦྲ	-10.3865
་དཔག	-10.3867
་ལ་གཉིས་ལས།	-10.3867
་གང་གི་ཚེ	-10.3867
་ཏིལ	-10.3868
་བྱ་སྟེ	-10.3869
ས་ནས་	-10.3878
▁སྟེ།	-10.3884
་སོར་མོ	-10.3894
་ཀྱི་སྐབས་སུ	-10.3895
ཱ་ན	-10.3898
ར་མི་འགྱུར	-10.39
▁༼༤	-10.3905
་ནི་སེམས	-10.3907
་བསྒྲལ་བ	-10.3907
▁བྱེད	-10.3908
་འཁྲུག	-10.3912
འི་སྨོན་ལམ	-10.3916
་སྔགས་འཆང	-10.3916
་གནས་པར	-10.3917
▁ཅིའི་ཕྱིར	-10.392
་དྲུག་གིས	-10.3923
་ནང་མཆོད	-10.3925
་ཤན	-10.3926
▁རིགས་ལྔ	-10.3927
་རྩེ་གཅིག	-10.3927
▁སྐྱེ་བོ	-10.3928
་བུད་ཤིང	-10.3929
་ཉིད་དེ།	-10.3929
་ཡུན་རིང	-10.3931
རྡོ་རྗེ་མཁའ་འགྲོ	-10.3935
་འུ	-10.3937
ན་གྱི	-10.3939
་ལྔ་ཡི	-10.3942
་སྩོལ།	-10.3943
7	-10.3945
▁28	-10.3947
▁ཆོས་རྣམས	-10.3948
འི་ཚུལ་དང་།	-10.3949
▁༼༢	-10.395
▁།ཕྱག་རྒྱ	-10.395
▁།ཞེས་པས	-10.3951
་སྟངས	-10.3955
་ངེས་དོན	-10.3955
ཡངས་ཤིང་རྒྱ་ཆེ་བ	-10.3956
་གོ་འཕང	-10.3959
་དར་བ	-10.3961
་ཟོས	-10.3962
་གདུག་པ	-10.3962
▁འཇམ་དབྱངས	-10.3965
▁།བྱ	-10.3966
་ཡིན་གསུངས།	-10.3968
་གནས་གསུམ	-10.3968
་་་་་་	-10.3969
འི་ཡུལ་དུ	-10.397
▁།རླུང	-10.3971
▁གཙང	-10.3972
་དགྲ་ལ	-10.3975
ར་བྱས་ནས	-10.3976
འི་གཏེར	-10.3976
་རྗེས་འགྲོ	-10.3977
་སློབ་མའི	-10.3978
▁དེ་ཚེ	-10.398
་གཏིང	-10.3981
་དོན་དམ་པའི	-10.3982
འི་ཚད་མ	-10.3983
་གྱུར་ན	-10.3983
ར་བཤད་དོ།	-10.3985
་ཙ་ན	-10.3987
་འབྱུང་ལ།	-10.3991
ཏྟ	-10.3992
་མ་བྱུང་བ	-10.3993
་སྤུངས	-10.3993
་མཐོང་ན	-10.3993
་བཻ	-10.3994
་རྣམ་པར་དག	-10.3994
་འདོད་དོ།	-10.3994
་ཀྱི་སྡོམ་པ	-10.3995
་དང་འབྲས་བུ	-10.3996
་ལ་ཕྱག	-10.3998
་ལ་དམིགས་པའི	-10.4
་མྱ་ངན་ལས་འདའ་བ	-10.4002
་སྐྲག་པ	-10.4004
་མཁས་པས	-10.4005
ར་མི་བྱེད	-10.4008
▁བུམ	-10.4008
་སྐྱེས་ནས་	-10.4009
་མི་གཙང་བ	-10.4013
་དུ་རུང་བ	-10.4013
་ཁྲོལ	-10.4019
་དུ་མར	-10.402
་ལྕི	-10.4023
་ཧེ	-10.4025
ར་ལྟ་བ	-10.4027
ཨ་བྷི་ཥིཉྩ་ཧཱུྃ༔	-10.4027
་བཅོལ	-10.4028
་ངོ་བོ་ཉིད་ཀྱིས	-10.403
་འ	-10.4031
▁།མཁའ་འགྲོ	-10.4033
ས་རྣམ་པར	-10.4033
་གང་ནས	-10.4039
▁ལེགས	-10.404
▁མཁན་པོ	-10.4044
་སྤོབས་པ	-10.4046
་ཤེར་ཕྱིན	-10.4046
་དེ་སྐད	-10.4047
་རི་དྭགས	-10.405
▁འདི་ཉིད	-10.4053
་ཇོ	-10.4053
་སྤུན	-10.4054
་སྙེད	-10.4059
་མུ་ཁ	-10.4059
་ཁྱབ་པར	-10.4059
་བདེ་སྡུག	-10.406
ར་འདོད་པས	-10.406
▁དུ་བ	-10.406
་རྒྱལ།	-10.4061
་ཟག་པ	-10.4066
་འདི་བཞེས་ལ༔	-10.4068
་མེད་	-10.4071
▁མཁན་ཆེན	-10.4072
་ཕོར	-10.4073
་བཅའ་བ	-10.4077
་རྣམས་ཐམས་ཅད	-10.4078
▁།དམ་པ	-10.4079
▁ཐུབ་པ	-10.4082
འི་དུས་སུ།	-10.4083
་བཅུ་བདུན	-10.4084
་འཁྱིལ	-10.4084
་ཡ་མ	-10.4085
འི་སྒྲིབ་པ	-10.4086
▁ཐ	-10.4086
་ཁོལ	-10.409
▁5	-10.409
་སྡུག་པ	-10.409
་སྙོམས་འཇུག	-10.4091
་ཙེ	-10.4092
་ཉིད་ལས	-10.4094
་རྣམ་པར་དག་པ།	-10.4097
་ཐུགས་ལ	-10.4099
▁ལུགས	-10.4099
འི་གསུང་རབ	-10.4101
ར་གྱུར་ན	-10.4103
▁གཏེར	-10.4103
ར་སྟོན་པ	-10.4105
་གེ	-10.4106
▁བདེ་མཆོག	-10.4115
ར་འདོད།	-10.412
་མིན་གྱི	-10.412
་མུ་སྟེགས	-10.4121
་ཀྱི་རྒྱུད	-10.4122
་ལ་རབ་ཏུ	-10.4122
་ཞེས་	-10.4125
་དགོས་པས	-10.4126
ལ་པ	-10.4127
་མཐར།	-10.4128
བྱ	-10.4128
་མཐིལ	-10.4129
▁བསླབ་པ	-10.4129
▁དེ་བཞིན་ཉིད	-10.4132
▁གཞན་གྱིས	-10.4132
་དང་ཡེ་ཤེས	-10.4132
▁དོན་གྱི	-10.4135
་འབར།	-10.4136
འི་བར་གྱི	-10.4138
་གང་ལས	-10.4138
་འགྱུར་ཞིང་།	-10.4142
་པའི་ཕྱིར་རོ།	-10.4145
་མཐོང་བའི	-10.4147
་ཨུཏྤལ	-10.4147
▁རང་སངས་རྒྱས	-10.4148
་ཀ་དག	-10.4148
▁10000250	-10.4149
་གྱི་ཆོ་ག	-10.415
་དབང་པོའི	-10.415
་རྨི་ལམ་དུ	-10.4151
▁།སྙིང་རྗེ	-10.4151
▁ཉན་ཐོས་ཀྱི	-10.4151
་དུ་མི་རུང་བ	-10.4152
འི་ཚུལ་ནི།	-10.4155
ེད	-10.4156
འི་ངང	-10.4158
▁།ཁྱེད	-10.4158
་མཉམ་ཉིད	-10.4159
▁ཨོཾ་ཨ	-10.4159
་དབང་ཆེན	-10.416
་དཀྲིས	-10.4167
འི་ཆོས་ཀྱི	-10.4168
་མཐུན་པའི་ཕྱོགས	-10.4168
ར་འདོད་ན	-10.4176
་སྒོ་གསུམ	-10.4176
་གསལ་སྣང	-10.4179
འི་དབང་བསྐུར	-10.4183
ཤེས་པ	-10.4185
▁།དེ་ནས་	-10.4186
འི་སྐྱེ་བོ	-10.4186
ར་གྱིས	-10.419
་ལམ།	-10.4192
་ཁམས་སུ	-10.4195
▁འཆི་མེད	-10.4195
་བྱུང་ནས་	-10.4198
འི་ཕྱིར་དུ	-10.4199
་ནད་པ	-10.42
་གསན།	-10.42
་ལྡེ	-10.4201
་མངའ་བདག	-10.4201
་ན་བཟའ	-10.4201
་བསྒྲགས་པ	-10.4203
་རེ།	-10.4207
འི་སྟེང	-10.4208
>	-10.4209
་ཕྲད་པ	-10.421
་མི་བྱེད།	-10.4217
ར་འགྱུར་ཞིང་།	-10.4218
་འགུགས	-10.4226
ས་བྱས་པ	-10.4227
་མཚོན་བྱ	-10.4227
▁ཁོ་བོ	-10.4232
འི་སྤྱན་སྔར	-10.4235
འི་བུ་མོ	-10.4235
་ཡིད་ཆེས	-10.4236
ཉྩ	-10.4239
་བཤད་ཟིན་ཏོ།	-10.4239
་གྱུར་ནས།	-10.424
་བསྣམས་པ	-10.4242
▁གྲོང་ཁྱེར	-10.4242
་གང་དང་གང	-10.4245
▁ཡར	-10.4251
་སྤར	-10.4252
▁དབུགས	-10.4253
་དགེ་སྦྱོར	-10.4255
་༼མངོན༽་	-10.4255
་གཅིག་ཀྱང	-10.4257
་ལ་བཞི་སྟེ།	-10.4258
་གསུངས་ལ།	-10.4259
་རིག་སྔགས	-10.426
རྟ	-10.4261
་ཤེས་པར་བྱ་བ	-10.4263
་མཁྱེན་བརྩེ	-10.4263
་མ་ཡིན་པ་དང་།	-10.4268
་དབྱུང་བ	-10.4269
་དྭངས	-10.4271
་འཚལ	-10.4276
་གཙོ་འཁོར	-10.428
་མོད	-10.4283
་ངེས་པར་འབྱུང་བ	-10.4283
སྲུང་བའི་འཁོར་ལོ	-10.4285
་སོག	-10.4287
ར་སྒྲུབ་པ	-10.4289
་ཕྱོགས་པ	-10.4293
་སྒྲུབ་པ་ལ	-10.4294
་ལ་ལྟོས་ནས་	-10.4299
▁།རིག་པ	-10.4299
་ཡུ	-10.43
▁སེང་གེ	-10.4303
་སྡེ་བརྒྱད	-10.4304
་དོན་གྱིས	-10.4305
་ཀྱི་ལྷ	-10.4307
འི་སྐོར	-10.4307
སློབ་དཔོན་ཆེན་པོ	-10.4308
་རྨི	-10.4308
་ཕྱོགས་ཆོས	-10.4311
་མ་ཡིན་ནོ་ཞེས	-10.4311
་ལྗང་ཁུ	-10.4312
ང་པོ	-10.4315
་དགྲ་བཅོམ	-10.432
་གྱུར་ཅིང་།	-10.4321
འི་དབྱངས	-10.4322
་དཔོན་སློབ	-10.4326
།་་་	-10.4328
་ཡོངས་ཀྱི	-10.433
་སྦྲང་རྩི	-10.4336
▁གཉིས་པ་ནི	-10.4338
་ལས་གྲོལ	-10.4339
▁རོལ་མོ	-10.434
▁ཀུན་གཞི	-10.4343
ག་ཏུ	-10.4347
་སྦྱོར་བས	-10.4348
་སྤུ་གྲི	-10.4351
འི་ཚོགས།	-10.4351
་བསྟན་ཏེ	-10.4351
་ཡེ་སྭཱ་ཧཱ།	-10.4352
་པ་ལས	-10.4352
་ཀྱི་དགོངས་པ	-10.4354
་དབབ	-10.4354
་རྡོ་རྗེ་ཕག་མོ	-10.4354
་སྣ་ཚོགས་སུ	-10.4357
་ལྟ་བུ་སྟེ།	-10.4358
་པཉྩ	-10.436
ས་ཡོངས་སུ	-10.4367
▁ཨོཾ་སརྦ	-10.4368
་གཤིན་རྗེ་གཤེད	-10.4372
་ཡིད་ཆེས་པ	-10.4372
་ཀྱིས་བསྐོར་བ	-10.4377
་སྣང་གི	-10.4378
འི་ཁར	-10.4378
་དགེ་ཚུལ	-10.4379
་མཆོད་རྫས	-10.438
་མྱུར་བ	-10.438
་བརླ	-10.4381
་དང་འབྲེལ	-10.4382
▁ཅུང་ཟད	-10.4382
ར་བཞུགས་པ	-10.4384
་ཁེགས་པ	-10.4385
་འཇམ་པའི་དབྱངས	-10.4394
་དུས་གསུམ་གྱི	-10.4396
་ཕྱོགས་གཅིག	-10.4397
འི་བཅུད	-10.4398
འི་གནས་ལུགས	-10.4403
་པཎ་ཆེན	-10.4406
་དང་ལོངས་སྤྱོད	-10.4411
▁མན་ངག	-10.4414
▁ཐུགས་ཀྱི	-10.4416
▁།རྒྱ	-10.4417
་ཡོད་ཀྱང་།	-10.4421
▁གསལ	-10.4424
་གཞུག་པ	-10.4426
་ཡིན་ནོ་ཞེ་ན།	-10.4427
་འདི་ལས	-10.4428
་ཆེ་གེ་མོ	-10.4428
▁།གསུང	-10.4434
▁།སྟོན་པ	-10.4438
་ཁ་སྦྱོར	-10.4438
▁།ཧཱུྃ	-10.4439
ཱྀ	-10.4439
▁དགྲ་བཅོམ་པ	-10.444
▁ཀྱེ་མ	-10.444
▁ཡོད	-10.4443
འི་རྒྱུ་མཚན་གྱིས	-10.4444
་ལ་བདག	-10.4445
་མཐུ་སྟོབས	-10.4446
▁བསྒོམ་པ	-10.4447
འི་ཕྱིར་	-10.4449
▁བཤད	-10.4451
▁དེར་ཐལ	-10.4452
་ཅི་རིགས	-10.4455
་ལྷན་ཅིག་ཏུ	-10.4458
▁།བསམ་གཏན	-10.4459
་ཐ་མལ་པ	-10.446
་དབུ་མའི	-10.4461
་བྱམས	-10.4462
་ནི་རབ་ཏུ	-10.4464
ས་ལམ	-10.4465
་རྙིང་པ	-10.4466
▁རིམ་པ	-10.4467
▁།ཐབས	-10.4469
་ཨ་མྲྀ་ཏ	-10.447
་བསྐྱོད་པ	-10.447
་ཟུག	-10.4471
་མ་འཁྲུལ་བ	-10.4474
་གོང་བུ	-10.4477
ཇི་སྲིད	-10.4477
་བྱེད་ན།	-10.4478
་ཞལ་དུ	-10.4481
་ཏོག	-10.4482
་རིང་དུ	-10.4483
▁།གཞི	-10.4484
་གཉི་ག	-10.4486
་གཏ	-10.4488
▁འདུས་པ	-10.4489
་མྱེད	-10.449
▁ཀུན་མཁྱེན	-10.4491
་ཕར་ཕྱིན	-10.4493
་མདོར	-10.4493
▁རྫུ་འཕྲུལ	-10.4493
་དགོས་པར	-10.4496
་ཐིམ།	-10.4496
་མཐོ་རིས	-10.4498
▁སྒྲུབ་ཐབས	-10.4502
་ཁ་སྐོང	-10.4503
་མ་མཆིས	-10.4504
་བསྡུས་ནས	-10.4505
་བརྡེག	-10.451
་མཐིང་ནག	-10.451
་རྣམ་པ་ཐམས་ཅད་	-10.4513
i	-10.4513
▁གོང་དུ	-10.4513
▁སྤང་བྱ	-10.4514
་ཁམ	-10.4514
་ལ་སོགས།	-10.4516
▁།འདི་ལྟར	-10.4517
་ལ་དབང	-10.4517
་དབུས་ཀྱི	-10.4519
་བརྫུན	-10.452
་ལ་དེ	-10.452
་རྔམ	-10.4523
་བྱས་ན།	-10.4523
▁སྟེ	-10.4525
་པའོ།།	-10.4526
▁བསྐྱེད་རིམ	-10.4526
་བྷྱོ	-10.4532
་དངོས་ཀྱི	-10.4538
འི་རི	-10.4541
་མེད་དེ་	-10.4543
་དེའི་ཕྱིར།	-10.4554
་ཐམས་ཅད་ཀྱི།	-10.4554
་ཆེན་པོ་དང་།	-10.4557
▁དབྱངས	-10.4561
་འཇུ	-10.4562
་བསྒོ	-10.4566
འི་ཕྱིར་ཞེས	-10.4567
འི་ཁ	-10.4568
་སུ་ཞིག	-10.4576
་སྟོན་པས	-10.4577
་དང་བཅས་ཏེ	-10.4578
▁གསུང་གི	-10.4578
་དུད་འགྲོ	-10.458
▁གནོད་བྱེད	-10.458
་རང་བཞིན་མེད་པར	-10.4581
▁ཨོཾ་ཨཱཿཧཱུྃ་	-10.4582
་ཡོད་པ་མ་ཡིན་པ	-10.4582
་བཀྲ་ཤིས་ཤོག	-10.4583
▁།དེ་བས	-10.4586
་འཇའ	-10.4591
▁འོན་ཏེ	-10.4597
▁མདུན	-10.4597
▁ཁྲི	-10.4597
▁།སྐྱེ	-10.4597
་ཁྱབ་བྱེད	-10.4599
་མཆེ་བ	-10.46
▁ནམ་མཁའི	-10.46
་བསིལ་བ	-10.46
▁།ཀ	-10.4609
་སེངྒེ	-10.461
་བརྡུང	-10.4616
གསུམ	-10.4616
་བྱུང་སྟེ།	-10.4621
ཁྱད་པར་དུ་འཕགས་པ	-10.4622
▁དེ་ལྟ	-10.4626
་རིམ་པ་བཞིན	-10.4627
་བཅུ་གཉིས་པ	-10.4628
་མདོས	-10.4628
་བསྒོམ་པར་བྱ།	-10.463
་པ་ཡིན་ནོ།	-10.4631
་ལས་མི	-10.4631
་ཆོས་སྟོན་པ	-10.4631
་རྣམ་གྲོལ	-10.4632
་པ་དག	-10.4632
་ཡང་དག་པར་རིག་པ	-10.4633
་སྦོམ་པོ	-10.4638
་བརྐྱང	-10.4638
ར་མོས	-10.4639
་ཞེས་པ་ནི།	-10.4639
▁།དེ་ལྟ་བུ	-10.4639
་སྣམ་བུ	-10.4639
་མངོན་པར་འདུ	-10.464
་སྣང་སྲིད	-10.464
▁ངེས་པར	-10.4642
་རྟེན་དང་བརྟེན་པ	-10.4643
▁ངག་གི	-10.4643
▁།སྐུ་གསུང་ཐུགས	-10.4644
་དྲག་པོས	-10.4645
ོག་པ	-10.4646
་ངག་དབང	-10.4647
་རྒྱལ་པོ་ཆེན་པོ	-10.4648
འི་ཚལ	-10.4649
་ཆོས་ཉིད་ཀྱི	-10.4652
▁འབྱུང་པོ	-10.4653
▁དཔལ་ཆེན	-10.4654
▁ཀྱིས	-10.4656
་ཐུལ	-10.4657
་ར་ཎ	-10.4659
་གཡོས	-10.4661
▁།ནད	-10.4662
་ཧཱུྂ	-10.4664
་གདོད་མ་ནས	-10.4664
▁དེ་རིང	-10.4665
་རྫི	-10.4666
་བྱོན་ནས་	-10.4667
་ཟིལ	-10.4667
ར་གསུངས་སོ།	-10.467
་གདབ།	-10.467
་ཚིག་གིས	-10.4671
་གྲང	-10.4672
་གསལ་བར་བྱེད་པ	-10.4672
་སྟེང་གི	-10.4674
ས་གསོལ་པ།	-10.468
་དྲིས	-10.4684
་བསྟན་ལ།	-10.4685
་ཟེར་ན	-10.4687
་བདུན།	-10.4689
འི་དོན་ནི	-10.4689
་བདུན་གྱིས	-10.4689
ྱཱ	-10.469
་ནི་འདི	-10.4691
་གཟིར	-10.4692
་བྱེད་པས	-10.4697
་ཉིན་མོ	-10.4699
ས་ཆུ	-10.47
་ཁྱེད་ཀྱི	-10.4709
▁ཅེས་དང་།	-10.4709
་ལམ་གྱིས	-10.471
▁དབང་བསྐུར་བ	-10.471
ནོར	-10.4711
ར་སོང་བ	-10.4712
▁སྙིང་རྗེ་ཆེན་པོ	-10.4712
་སྭཱ་ཧཱ	-10.4713
▁།ཆ	-10.4713
▁།སྙིང་པོ	-10.4713
་བྱེད་དེ།	-10.4716
་མོའི	-10.4717
་ཞྭ	-10.4718
་རོང	-10.4719
་མི་འབྱུང	-10.4722
་ཡོངས་སུ་སྨིན་པ	-10.4723
▁རྒྱ་གར	-10.4725
་ཤུགས་ཀྱིས	-10.4725
་མི་བྱའོ།	-10.4725
་ཞལ་ཟས	-10.4726
་ནཱ	-10.4728
འི་སྟེང་ན	-10.473
་གླིང་པ	-10.4731
་མཐར་ཐུག་གི	-10.4732
་གྱིས༔	-10.4732
་མིན་ཏེ	-10.4734
་ལྔ་དང་།	-10.4734
འི་ཞལ་སྔ་ནས	-10.4734
▁ཅི་སྟེ	-10.4734
་ཁེངས་པ	-10.4736
ས་འདི་སྐད་ཅེས	-10.4737
གུ	-10.474
་ཡབ་ཡུམ་གྱི	-10.4741
་གཞན་སེལ	-10.4742
༢༠	-10.4743
▁རྩ་གསུམ	-10.4744
འི་ཚོགས༔	-10.4745
་དབུལ	-10.4746
་ཟུང་འཇུག་གི	-10.4746
་གྱུར་ནས	-10.4747
ལོངས་སྤྱོད་རྫོགས	-10.4748
▁གཟའ	-10.4753
་བཏོན	-10.4754
་ཀྱི་ཡོན་ཏན	-10.4757
་མི་འགྲོ	-10.4757
་འཁྲུལ་པའི	-10.476
་ཀུན་ཀྱང	-10.4761
▁ངོ་བོ་ཉིད	-10.4766
་རྒྱུའི	-10.4771
▁ཐོས་པ	-10.4773
་གོང་ལྟར	-10.4779
་རྟགས་ཀྱི	-10.478
▁བྱེ་བྲག	-10.4782
་པའམ	-10.4786
▁ན་མོ་གུ་རུ	-10.4789
འི་གཉེན་པོར	-10.4789
▁།བདག་ཉིད	-10.4792
་བཟླ	-10.4793
་བཅིང་བ	-10.4796
་ངོས་འཛིན	-10.4799
▁ཨི	-10.4802
▁གཉིས་པ་	-10.4803
▁།ཡན་ལག	-10.4804
་བྱུང་གི	-10.4807
་ཆོས་རྒྱལ	-10.4809
་སྣ་ཚོགས་རྡོ་རྗེ	-10.4817
འི་རྣལ་འབྱོར་པ	-10.4817
ཉ	-10.4817
་གཞུང་གི	-10.4818
་དོན་གཞན	-10.4821
ལོ	-10.4823
་རྗེ་བཙུན་མ	-10.4824
་བསགས་པའི	-10.4825
འི་ངང་ལ	-10.4828
འི་ལེའུ་སྟེ	-10.4832
་དྲྭ་བ	-10.4835
་ཕྱག་འཚལ་ལོ།	-10.4835
་འགྲོ་དོན	-10.4839
་སྐྱིད	-10.4841
▁།ཚིག	-10.4843
་གཉིས་ཀའི	-10.4845
་གང་ཡིན་པ།	-10.4845
་ཡི་དྭགས	-10.4846
་རྫོགས།	-10.4851
་དག་པས	-10.4851
་འོག་མིན	-10.4852
་ཀྱི་སྙིང་པོ	-10.4853
་དངོས་པོར	-10.4854
་ཤ་ཟ	-10.4854
▁སྙིང་ག	-10.4855
འི་གཟུགས་བརྙན	-10.4855
▁དཀར་པོ	-10.4856
་ཀྱི་ཕྱག་རྒྱ	-10.4856
་ལྷར	-10.4857
་ཚུལ་ལོ།	-10.4864
་བསྡད	-10.4865
་རྩོལ	-10.4867
▁དཔའ	-10.4867
་མ་བྱས	-10.487
ལྷ	-10.487
▁ཐུན་མོང	-10.487
རིགས་ཀྱི་བུ་མོ	-10.4871
་གཤེད	-10.4872
་ལུས་སེམས	-10.4877
་སྔར་ལྟར	-10.4878
་རྟོགས།	-10.4881
་ཞེས་བྱ་བ།	-10.4885
་མངལ	-10.4886
▁ངོ	-10.4887
▁དེ་ཁོ་ན་ཉིད	-10.4889
་འགེ	-10.489
་མཚུངས་པར	-10.4893
▁སི	-10.4894
་མ་ངེས	-10.4894
་ལ་ཡང་།	-10.4894
་ཊི	-10.4895
་བསྒོམ་པར་བྱའོ།	-10.4897
ས་པ་དང་།	-10.4902
་ཚུལ་གསུམ	-10.4903
་ཆོས་འདི	-10.4903
་བཤམས་པ	-10.4906
▁2:	-10.4908
ྩ	-10.491
་ཛྭ་ལ	-10.4911
འི་རང་བཞིན་ཅན	-10.4913
་རེད	-10.4913
་སྔགས་ཀྱིས	-10.4914
་ཡོངས་སུ་དག་པས	-10.4914
▁སྟེང	-10.4914
▁།དྲུག་པ	-10.4917
▁།ལུང	-10.4917
འི་རྗེས	-10.4919
▁དྲིལ་བུ	-10.492
་ཡིན་ནམ	-10.492
▁པའི	-10.4921
ས་འགྲོ་བ	-10.4923
▁བསྙེན་པ	-10.4926
ར་གསུངས།	-10.493
་བཏབ།	-10.4932
་སྐྱབས་སུ་མཆིའོ།	-10.4933
་པ་ལ་སོགས་པ	-10.4934
་ཁབ	-10.4935
་ཙཀ	-10.4937
▁།གང་ལ	-10.4937
་དུ་འདོད་པ	-10.4937
་པོས	-10.4938
▁སྐྱེ་མཆེད	-10.4938
ཆ	-10.4939
༡༩	-10.4943
་དེའི་	-10.4943
་ཡོད་ཅིང་།	-10.4943
་པ་སོགས	-10.4944
▁དངོས་སུ	-10.4947
་འབྱོར་བ	-10.495
་དོན་མེད་པ	-10.495
འི་ཕྱིར་ན	-10.4951
་མེ་འབར་བ	-10.4951
▁གཏོར	-10.4957
ྐ	-10.4957
▁འཇུག	-10.4957
་རྣམ་པར་དག་པ་	-10.4958
་ཁུ་ཚུར	-10.4959
འི་འོད་ཟེར་གྱིས	-10.496
ས་འབྲས་བུ	-10.4962
་འཛག	-10.4963
་ལོ་མ	-10.4965
་ཀྱི་སྤྱོད་པ	-10.4967
ར་བཞག་པ	-10.4967
་ཐེབས	-10.4968
་བསྔོ	-10.4968
་ཏཱི	-10.4969
ེལ	-10.4969
་དང་འདྲ	-10.4971
་དབང་ཕྱུག་གི	-10.4972
▁།ཐུགས	-10.4973
་ཤར།	-10.4973
་ཟག་བཅས	-10.4975
་འབྱུང་གི	-10.4976
་ཁེ	-10.4979
་བྱའི	-10.498
་ཐད	-10.498
▁སྤྱི་བོ	-10.4981
་སྒྲུབ་པའི་ཐབས	-10.4981
▁།ཐུབ་པ	-10.4982
འི་དང་པོ	-10.4984
་བརྗོད་པ་དང་།	-10.4988
་ཁོ་བོས	-10.5004
་མཐོང་ན་	-10.5005
་ཁྱེད་ལ	-10.5006
་མཚོན་བྱེད	-10.5009
▁བརྟན་པ	-10.5011
་བྱེ་བ་ཁྲག་ཁྲིག	-10.5014
▁།གཞན་གྱི	-10.5014
་རྣམ་རིག	-10.5015
་ཤག	-10.5015
་གདན་ས	-10.5018
་མི་འཇུག་པ	-10.502
་དྷུ	-10.502
་ལིངྒ	-10.5021
་དང་ལྡན་ཞིང	-10.5022
་དཔྱིད	-10.5023
▁ལམ་གྱི	-10.5025
་ཏིཥྛ	-10.5025
་འདི་ཉིད་ཀྱི	-10.5025
▁ཟུང་འཇུག	-10.5025
▁མྱུར་དུ	-10.5026
་རྣམ་དབྱེ	-10.5027
་རྒྱུ་རྐྱེན	-10.5028
་ཐོབ་པར་འགྱུར།	-10.5028
་རྒྱལ་པོས	-10.5029
་ཆེ་ཞིང	-10.503
་གིས།	-10.5032
་ཐུན་མོང་དུ	-10.5036
▁།ཐ	-10.5037
་གྲོལ།	-10.5041
་ཀྱི་བདག་པོ	-10.5042
་རྒྱ་ཆེ	-10.5043
་དང་འགལ	-10.5045
་མ་ཐག་པ	-10.5045
་བླངས་ནས་	-10.5046
འི་ཐུགས་ཀ་ནས	-10.5048
▁གནད	-10.5049
་བརྟན་པོ	-10.5054
་བཀའ་སྩལ	-10.5057
་བསྐོར།	-10.5058
་རྣམས་ནི།	-10.5058
་ཀློང་དུ	-10.5059
་ནི་ཆོས་ཅན།	-10.506
་ཆུད་པ	-10.5061
▁རང་སངས་རྒྱས་ཀྱི	-10.5064
་བསྐྱེད་པ་དང་།	-10.5065
་དབུ་རྒྱན	-10.5066
▁གདན	-10.5066
་ངང་གིས	-10.5068
▁ཐོབ་པ	-10.5075
འི་བློ་གྲོས	-10.5079
་རྟེན་གྱི	-10.5082
་འཚེ་བ	-10.5083
་པ་ལས།	-10.5086
ཡོད	-10.509
མྦྷ	-10.509
་ཞོག	-10.5093
་ཀྱི་རྣལ་འབྱོར	-10.5094
་དེ་ན	-10.5096
▁།དེ་བས་ན	-10.5096
▁ཕན་ཚུན	-10.5098
་གཡེང་བ	-10.5098
་ཉེ་བར་ཞི་བ	-10.5102
▁གཟུགས་མེད	-10.5106
▁མ་མོ	-10.5107
▁ནུས་པ	-10.511
▁༼༣	-10.511
་ལམ་ལ	-10.5113
ར་འཚང་རྒྱ་བ	-10.5113
་བཤད་དེ།	-10.5114
་བཅས་ཀྱི	-10.5114
་སྩལ་བ	-10.512
་ལང་ཚོ	-10.512
་པར་བྱ།	-10.5121
་འཛག་པ	-10.5122
་ཀློག	-10.5123
འི་ཞིང་ཁམས	-10.5124
་ཚོས	-10.5125
་གསུམ་པོ་དེ	-10.513
་མཎྜལ་ཕུལ	-10.5132
▁རྒྱུན	-10.5134
་ཐོབ་བོ།	-10.5139
འི་སྒྲུབ་བྱེད	-10.5141
་སྟོན་ཏོ།	-10.5141
▁།ཕྱག	-10.5142
▁།མིག	-10.5142
་ལ་ཞེན་པ	-10.5148
་བསྟན་ཟིན་ཏོ།	-10.5149
་སྦྱོར་བའི	-10.5149
་གཙོ་མོ	-10.5152
ོགས་པ	-10.5157
་ལས་གྲུབ་པ	-10.5159
▁ཡི་དམ	-10.5162
འི་ཤ	-10.5164
་གསོལ༔	-10.5167
་ལྷའི་བུ	-10.5169
ར་བསམ༔	-10.517
་བསང	-10.517
▁།རྩ་བ	-10.517
▁བླ་མ་དམ་པ	-10.5172
་དམར་སེར	-10.5173
་གང་གིས་ཀྱང	-10.5175
▁མོས་པ	-10.5175
་ཅན་རྣམས	-10.5175
་གཞལ་ཡས	-10.5178
་ཟད་པར	-10.5179
་རྒྱུན་གྱི	-10.5183
་ཀ་ལ	-10.5183
་ཡོངས་སུ་འཛིན་པ	-10.5184
་ཐར་བ	-10.5186
ར་རྟོགས་པ	-10.5192
་ཀྱི་སྐུ	-10.5192
་བྱང་བ	-10.5205
་ཆུ་ཚོད	-10.5205
▁ཉིན	-10.5206
་རྩེ་གཅིག་ཏུ	-10.5206
་རྗོད་བྱེད	-10.5214
་ལྷུན་པོ	-10.5218
གྱི	-10.5222
་སྣང་སྟོང	-10.5226
་ཡོལ	-10.5229
་གཟུགས་སྐུ	-10.5231
སྐྱོན	-10.5231
▁རྒྱུ་འབྲས	-10.5231
ར་འགྱུར་ཏེ་	-10.5232
▁འགའ་ཞིག	-10.5233
་དང་ཁྱད་པར	-10.5234
་དགོད།	-10.5235
་མདུང	-10.5239
▁བདུན	-10.524
་གླང་པོ་ཆེ	-10.5241
་སྨིན་གྲོལ	-10.5243
་ཡིན་ཀྱང་།	-10.5244
་ཡོད་པས།	-10.5244
་དང་འདྲའོ།	-10.5244
▁ལྟ	-10.5246
འི་ཚུལ་ལོ།	-10.5246
་ཡེ།	-10.5247
་སུ་འགྱུར་བ	-10.5248
་འཛིན་པ་དང་།	-10.5249
་ཉེ་བའི	-10.5252
བཅོམ་ལྡན་འདས	-10.5253
་ལཾ	-10.5254
འི་རྒྱལ་མཚན	-10.5254
འི་ཚོར་བ	-10.5256
▁ཆང	-10.5256
་ས་དང་པོ	-10.5257
▁རྒྱས་པར	-10.5257
▁<%-	-10.5257
་འབེབས་པ	-10.526
རྦ	-10.526
▁།ཁ་ཅིག	-10.5261
འི་འོད་ཀྱིས	-10.5261
་དཀར་པོ།	-10.5264
་རིགས་བཞི	-10.5268
་ཀྱེ	-10.527
་སྡེ་པ	-10.5277
་གཞན་ཞིག	-10.5279
▁འོག་མིན	-10.5279
་འདོགས	-10.5281
་བྱེ་བ་ཕྲག	-10.5287
་དགའ་བའི	-10.5292
ཞེས་གསུངས་པས་སོ།	-10.5292
▁ཀུན་བཟང	-10.5294
྄།	-10.5296
་ཤས་ཆེ་བ	-10.5296
་གྲུབ་ཆེན	-10.5298
་ཧྲ	-10.5298
་བསྡུས་ཏེ་	-10.53
་ཟོས་པ	-10.5305
་འདིར།	-10.5306
▁ཨེ་མ	-10.5306
་མ་ཟད	-10.5306
་བགྲང་བ	-10.5307
་མི་འཐད	-10.5307
་ཕུབ	-10.5308
་ཡུག	-10.531
▁སྤོས	-10.5311
▁།མེ་ཏོག	-10.5316
་བཞིའོ།	-10.5318
་བསླབ་བྱ	-10.5319
▁དེའི་དོན	-10.5319
▁།འགྲོ	-10.5322
▁སངས་རྒྱས་དང་	-10.5322
▁གོང་མ	-10.5323
་ཀོང	-10.5323
་ཕལ་པ	-10.5323
▁གཟུངས	-10.5324
་ཀྱི་འབྲས་བུ	-10.5324
རྟེན	-10.5324
་བསྒྲིགས	-10.5325
ལ།	-10.5326
▁།སྒྲུབ་པ	-10.5326
འི་རིགས་པ	-10.5327
་ཐོས་ནས་	-10.5327
་མ་ཉམས་པ	-10.5329
་བས་ཀྱང	-10.5331
་རྣམ་པར་འབྱེད་པ	-10.5334
་ལྔ་ལྡན	-10.5334
་དབང་དུ་བྱས་པ	-10.5335
འི་རོ	-10.5336
ཀྱི	-10.5336
་དགྱེས་པའི	-10.5337
་སྤངས་ནས་	-10.5339
་མི་རིགས་ཏེ།	-10.534
་དང་མཐུན	-10.5343
བྱང་ཆུབ་སེམས་དཔ	-10.5343
་ལ་དད་པ	-10.5344
འི་མདོ་ལས།	-10.5344
་གནས་ཚུལ	-10.5345
་རང་རྒྱུད	-10.5355
་མདུན་བསྐྱེད	-10.5356
▁།རི	-10.5356
་རྗེས་སུ་དཔག་པ	-10.5357
་དོན་དམ་པའི་བདེན	-10.5359
་མཆན	-10.536
འི་གྲོགས	-10.5362
ས་སེམས་ཅན	-10.5363
འི་ངེས་པ	-10.5363
་འོད་ཟེར་གྱི	-10.5368
▁།སྔོན	-10.537
འི་ཞབས	-10.5371
་ལ་མངོན་པར	-10.5371
གི	-10.5372
་ཀྱི་ཡན་ལག	-10.5374
་བཏགས་པའི	-10.5374
འི་བདུད་རྩི	-10.5378
་ལུགས་ལ	-10.5379
་ལ་བློ	-10.5379
་བབ་པ	-10.538
་སྐྱེད་བྱེད	-10.5383
་སྙོམས	-10.5385
་ཉི་ཤུ་རྩ་བཞི	-10.5387
་ཉིད་ནས	-10.5387
་ཡང་མ་ཡིན།	-10.539
ིན	-10.539
་ལྷན་སྐྱེས་ཀྱི	-10.5391
་ཕྱེ་མ	-10.5391
་བླངས་ནས	-10.5393
་རྩིག་པ	-10.5393
་དེ་བཞིན་ཏེ།	-10.5396
་ཡེ་སྭཱ་ཧཱ༔	-10.5396
▁གཏན་ཚིགས	-10.5396
ཡ	-10.5397
▁རྩེ	-10.5397
་གསུང་པ	-10.5397
་བཞག་ལ།	-10.5399
▁ཞེས་པ་དང་།	-10.5399
་ཡིན་ནམ།	-10.5403
་གསུངས་ནས	-10.5403
འི་ཐུགས་ཀར	-10.5405
▁ཕུ	-10.5407
་དུ་འགྲོ	-10.5407
་ཅུང་ཟད་ཀྱང	-10.541
་ཚུན་ཆད	-10.5412
▁སོགས་ནས	-10.5413
▁།དཔའ་བོ	-10.5413
་ཡབ་ཀྱི	-10.5414
་ཚོགས་ལམ	-10.5416
་རྟོགས་པར	-10.5419
▁ཏདྱ་ཐཱ།	-10.542
་ཐུར་དུ	-10.5422
་ནགས	-10.5428
་ཞིག་ན	-10.5429
་དྭངས་པ	-10.543
་གསལ་ཞིང	-10.543
་ཉི་ཤུ་རྩ་གཅིག	-10.5431
▁རང་རང་གི	-10.5432
་སྨ	-10.5433
་ན་ཡོད་པ	-10.5433
་ཀྱི་དེ་བཞིན་ཉིད	-10.5435
▁ལོངས་སྐུ	-10.5435
▁།དགེ	-10.5435
▁ཁྲུས	-10.5436
་ནཱ་ག	-10.5439
▁:.	-10.5439
་དཀྱུས	-10.5445
་གཏད།	-10.5456
▁དེ་ལྟར་	-10.5457
འི་མགོ	-10.5458
་བསྟན་ནས་	-10.5461
ས་ཇི་ལྟར	-10.5464
་སྙིང་ཁར	-10.5464
འི་འཇིགས་པ	-10.5467
་ཧཱུཾ།	-10.5472
་ཡོ་ག	-10.5473
▁།ངོ་བོ	-10.548
རྣམ་པར	-10.548
འི་དོན།	-10.5482
་བསྣམས་པ།	-10.5482
▁།དངོས	-10.5482
་མདུན་གྱི་ནམ་མཁར	-10.5483
་སྙོམས་པར་ཞུགས་པ	-10.5484
་བྱུགས	-10.5484
་སོལ	-10.5485
་ཡང་མ	-10.5487
ར་ཁས་བླངས་པ	-10.5489
▁ཉེར	-10.549
་ཚོང	-10.5493
་ཡོད་པ་དང་།	-10.5494
་མ་འགགས་པ	-10.5497
▁།བདེན་པ	-10.5502
་རྒྱུ་མེད	-10.5503
་སྐྱེས་ནས	-10.5503
་སྤང་།	-10.5505
་ཐམས་	-10.5505
ག་མ	-10.5506
་སོགས་ཀྱང	-10.551
▁གང་ཡང	-10.551
་ནམ་མཁའི་ཁམས	-10.5514
་དང་ལྷ	-10.5515
་དང་འབྲེལ་པ	-10.5517
▁མགྲིན་པར	-10.5518
་གསུངས་པས	-10.552
་མགོར	-10.552
་འདི་སྙམ་དུ	-10.5521
་འདི་ནི།	-10.5522
▁དེ་རྗེས	-10.5525
་འཆར།	-10.5525
་ལས་འདས	-10.553
་དབྱེ་ན	-10.5531
ས་ཏེ་	-10.5534
་ཚིག་དོན	-10.5539
་ཧ་ར	-10.554
▁ཕྱོགས་བཅུའི་	-10.5541
་ང་ཡི	-10.5543
▁བོ	-10.5545
་ཚུལ་དུ	-10.5545
་དབང་དང	-10.5547
་མཆོག་གིས	-10.5549
་བརྩམས	-10.555
▁དགུང་ལོ	-10.5551
▁བཞི་པ་ནི།	-10.5552
་དམ་ཅན	-10.5553
ར་གྲུབ་པ	-10.5553
་མེད་ཀྱང་།	-10.5553
་ཀྱིས་ཀྱང	-10.5556
་པའི་ཚུལ	-10.5557
▁རལ་གྲི	-10.5558
▁ཏིང་འཛིན	-10.5558
▁།རྟོག་པ	-10.5563
་ཁྲག་གི	-10.5563
་འཚལ་བ	-10.5564
▁ཏིང་ངེ་འཛིན་གྱི	-10.5568
་འོད་ཟེར་གྱིས	-10.5569
་བརྗེད	-10.5571
▁དེ་དག་ལ	-10.5572
▁།བྱ་བ	-10.5573
ར་བྱིན་གྱིས་བརླབ	-10.5574
་སོད	-10.5574
་དང་བྲལ་བས	-10.5574
་དཀོན	-10.5574
་སྐྱོན་མེད	-10.5576
་འབྲོག	-10.5577
་སྙམ་ན	-10.5581
་ས་སྐྱ་པ	-10.5586
་ཆེད	-10.5586
་བརྫུན་པ	-10.5588
་ཁྱད་པར་གྱི	-10.5588
་གདབ་པ	-10.5589
་གསུངས་པ།	-10.5589
▁ལྡོག་པ	-10.559
་ནམ་མཁའ་ལྟ་བུ	-10.5594
་སྨན་པ	-10.5596
▁ངེས་པ	-10.5597
་མིན་པའི	-10.5597
དྷ	-10.5598
་བསྟན་པ་ལ	-10.5598
འི་སྐུ་གསུང་ཐུགས	-10.5602
▁།དོན་དམ	-10.5605
་དེ་ལྟར་ན	-10.5606
་ཅི་ལྟར	-10.5606
་མན་ངག་གི	-10.5608
་སྣེ	-10.5609
་འབུར	-10.561
་འབྱུང་བ་དང་།	-10.5611
་འདིས།	-10.5614
▁།གཉིས་མེད	-10.5618
་དངོས་བསྟན	-10.5621
་ལེགས་བཤད	-10.5622
་ནས་བཟུང	-10.5622
▁འཆི	-10.5623
▁གང་ཕྱིར	-10.5624
་སྟེང་ནས	-10.563
་རྨད་དུ་བྱུང་བ	-10.563
་ཆོས་འཁོར	-10.5633
འི་སར	-10.5633
་སེམས་དཔ	-10.5633
་སྱ	-10.5633
་གླེང་གཞི	-10.5636
་གྱུར་ཅིག༔	-10.5637
▁སྟོང་པའི་ངང་ལས་	-10.5641
་འདའ	-10.5641
་རྡུལ་ཕྲ་རབ	-10.5647
▁ཤར་ཕྱོགས	-10.5647
་ཡོངས་སུ་ཤེས་པ	-10.5648
་བྱུག	-10.5649
སྟེ	-10.5656
་སྐུའི	-10.5657
ས་བསྟན་པ	-10.5658
བཞི	-10.5661
▁ཚད	-10.5662
▁༼༡༽	-10.5662
་གཅིག་གོ	-10.5666
་སྦྱིན་བདག	-10.5668
་གསལ་སྟོང	-10.5669
་དང་ཡང	-10.567
་ཡག	-10.5673
▁ཐེ་ཚོམ	-10.5676
་སྙིང་པོའི	-10.5677
་ཏིག	-10.5678
་ཕན་བདེ	-10.5678
་བདེ་ལེགས	-10.5682
་ཀྱི་ཆ	-10.5682
ར་བཞེད་པ	-10.5682
་ཚིམ	-10.5683
▁།འདོད་ཆགས	-10.5687
་བསྒྲུབས	-10.5687
་དགག་སྒྲུབ	-10.5689
▁ཐུགས་དམ	-10.5691
▁ད་ལྟར	-10.5692
་ལྟུང་བྱེད	-10.5693
་ལོངས་སྤྱོད་པ	-10.5693
▁གར	-10.5695
▁བརྒྱ	-10.5696
▁མ་གྲུབ་ན	-10.5697
་ཉེར་ལེན	-10.5703
་ཅི་ཞེ་ན།	-10.5704
▁།སྦྱོར་བ	-10.5704
་བཞུགས་ཏེ	-10.5705
▁མེ་ལོང	-10.5705
་རྨད་བྱུང	-10.5711
་ཉུང་བ	-10.5712
ར་བྱ་བའི་ཕྱིར།	-10.5712
་ལྟ་བའི	-10.5713
་ཐ་མི་དད་པ	-10.5714
་གླང་པོ	-10.5716
▁།གང་གི	-10.5718
▁རྡོ་རྗེ་འཆང	-10.5722
་དཔེར	-10.5722
▁རྒྱས	-10.5727
་བརླག	-10.5727
MA	-10.573
་མ་རྟོགས་པ	-10.5731
ས་རབ་ཏུ	-10.5732
ཚོགས་ཀྱི་འཁོར་ལོ	-10.5733
་བར་གྱི	-10.5736
་དེང	-10.5737
་མཛོད༔	-10.5739
་སུན་འབྱིན་པ	-10.5739
=	-10.574
་བཅ	-10.5742
▁ཁྲོ	-10.5747
▁མངོན་པར་ཤེས་པ	-10.5751
་ཆེ་བས	-10.5754
འི་གདན་ལ	-10.5754
་སྐལ་པ	-10.5754
་དཀའ་ཐུབ	-10.5755
▁སྤྲོས་པ	-10.5756
་རབ་འབྱོར	-10.5761
་ནི་མ	-10.5762
་སྤངས་པས	-10.5763
་ངང་ལ	-10.5764
་ཁ་བ	-10.5765
ར་ཞུ	-10.5765
འི་ཆོ་འཕྲུལ	-10.5768
་ཕཊ	-10.5768
་མཁན་ཆེན	-10.577
ལེགས	-10.577
ར་བཞག	-10.5771
་ལྷག་མཐོང	-10.5775
་ཐུ	-10.5775
་པར་འགྱུར་རོ།	-10.5777
་དགུང་ལོ	-10.5777
འི་ཕྱིར་རོ་ཞེས	-10.5781
▁གྲོགས	-10.5783
་འགུགས་པ	-10.5784
་རུས་པ	-10.5784
་དགུག་པ	-10.5786
▁མཁའ་འགྲོ་མ	-10.5786
་མཚམས་ཀྱི	-10.5788
འི་རྗེས་ལ	-10.5791
་བཤམས	-10.5791
་ཀ་པཱ་ལ	-10.5792
་སྤྱན་གསུམ	-10.5794
་རང་གསལ	-10.5795
་བླུག	-10.5798
་ལགས་ཏེ།	-10.5798
་ཞགས	-10.5803
▁གཉིད	-10.5806
▁རྣམ་པར་རྟོག་པ	-10.5807
་ནི་འདི་ལྟར	-10.5808
་གཏོད	-10.5808
་དང་བཅས་པ་དང་།	-10.581
་འཚང་རྒྱ་བ	-10.5813
་ཉིད་ཀྱི་ཕྱིར	-10.5815
་དང་སྙིང་རྗེ	-10.5817
▁སྐུ་མདོག	-10.5817
་བརྗོད་པའི	-10.5817
་སོ་སོའི་སྐྱེ་བོ	-10.5817
ཤེས་བྱའི་སྒྲིབ་པ	-10.5818
▁སྒྲུབ་བྱེད	-10.5819
▁གྲགས་པ	-10.5819
་བཙུགས	-10.5821
་མིང་གི་རྣམ་གྲངས	-10.5821
▁ཉེ་བར	-10.5822
་སེམས་སུ	-10.5823
▁ཁྱེད་རང་རྣམས	-10.5825
་འཁོར་དུ	-10.5825
་འཇུག་གོ	-10.5829
་སུས་ཀྱང	-10.583
་བཅུག་པ	-10.5837
འི་ཉོན་མོངས་པ	-10.5837
་ན་བཞུགས་པ	-10.5839
་དང་སེམས	-10.584
ྲ	-10.5845
ར་མི་འགྱུར་ཏེ།	-10.5845
¡¤¡¤¡¤¡¤¡¤¡¤¡¤¡¤	-10.5846
▁རྣལ་འབྱོར་མ	-10.5848
ལྷ་ཡི	-10.5849
▁བསྡུས་པ	-10.5849
་ལས་བྱུང་།	-10.5851
▁ཅན	-10.5852
ནྟྲ	-10.5854
▁ཀརྨ	-10.5855
་ནང་ན	-10.5856
ི་ཀ	-10.5858
▁ཡིན	-10.5859
འི་ཁ་དོག	-10.586
་མི་མཐུན	-10.5862
་ཀྱི་རྒྱལ་པོ	-10.5862
་དབྱུང	-10.5863
་གནས་གྱུར	-10.5864
༈	-10.5864
་ལ་ཕོག་པས	-10.5866
་མ་མ	-10.5866
▁ཧོ༔	-10.587
་ཀུན་ཁྱབ	-10.5874
་ལ་བརྟེན་ནས།	-10.5875
་གྱི་སྐབས་སུ	-10.5877
་དེས་ཀྱང	-10.5879
་དངོས་དང་།	-10.5882
་ཁེངས	-10.5885
་གཡབ	-10.5886
་ཀཱ་ཡ	-10.589
་ལྷག་པའི་ལྷ	-10.5892
▁འདོད་ཡོན	-10.5892
▁རྔ	-10.5892
▁ME	-10.5893
་དག་དང	-10.5893
▁དགུ་པ	-10.5894
▁།སྒྱུ་མ	-10.5894
་རྡོ་རྗེ་འཆང་གི	-10.5895
་མཛེས།	-10.5897
་གྱུར་ཏེ།	-10.5897
▁འོད་སྲུང	-10.5899
ལ་མ	-10.5899
▁ཞེས་པ་ནས།	-10.5901
▁ཇོ་བོ	-10.5902
་ཞི་ཁྲོ	-10.5903
འི་བསམ་པས	-10.5904
་ཤུལ	-10.5906
་ཡང་མེད།	-10.5907
་སོ་གཉིས	-10.591
▁ཝ	-10.5911
་ཡན་ལག་གི	-10.5911
་དོད	-10.5912
་དཔལ་བཟང་པོ	-10.5913
▁གསེར་གྱི	-10.5916
▁ཅད	-10.5916
▁ཆོས་སྐྱོང	-10.5916
་གྲུབ་སྟེ།	-10.5917
་ཐབས་ཀྱིས	-10.5918
▁འཁྲུལ་པ	-10.5921
་ཚེ་དབང	-10.5921
འི་མཐར།	-10.5921
་བསྐྱར	-10.5921
་པ་ཡིན།	-10.5922
འི་ཟླ་བ	-10.5922
▁བདག་མེད	-10.5922
་སེར་བ	-10.5923
▁དང་པོ་ལ་གཉིས།	-10.5925
་བྲལ་བའི	-10.5925
་ཅི་ནུས	-10.5926
་བྱེད་པའོ།	-10.5929
་གྱི་བར	-10.593
▁སོ།	-10.5931
GE	-10.5932
་དཔང	-10.5934
་ཚུལ་འདི	-10.5938
ར་འདོད་ན་	-10.5941
་བསྟབ	-10.5941
ྱོ	-10.5945
་ཌཱ་ཀི་ནཱི	-10.5947
འགྲོ་ཀུན	-10.5948
་མཆོད་ཅིང	-10.595
་བསྡམས	-10.595
་གང་ཟག་གི	-10.595
འི་ལྷག་མ	-10.595
་ཀྱང་རུང་།	-10.5951
་ཛཱ	-10.5951
་དངོས།	-10.5952
་གྱི་འབྲས་བུ	-10.5952
་རྒྱུར	-10.5954
་ཡིན་ཡང་།	-10.5955
▁སྔ	-10.5958
་གནས་པ་དང་།	-10.596
་འཛུམ་པ	-10.596
་ཚེ་འདི	-10.5962
་བཀྲུས	-10.5964
་གྱུར་ཀྱང་།	-10.5968
་ཚོགས་གཉིས	-10.597
་ནི་མ་ཡིན་ཏེ།	-10.597
་ལང	-10.5972
་ཞུན	-10.5972
ར་བགྱིད་པ	-10.5973
་བྷུ	-10.5975
་མིན་ནོ།	-10.5977
་བདེན་གཉིས	-10.5977
་བདག་མེད་མ	-10.5978
་ཤོར་བ	-10.5979
་འཁྲུག་པ	-10.598
་དོན་གཉེར	-10.5983
་ཡིས་ནི	-10.5987
་དུ་བཤད་པ	-10.5989
་མད	-10.5991
་རྫས་རྣམས	-10.5991
▁བྲག	-10.5999
་ཞེས་བྱ་བའི་	-10.6002
▁དོན་ལ	-10.6002
་དགེ་འདུན་ལ	-10.6005
་བསྙེན་པར་རྫོགས	-10.6006
་ཕྱིན་ཆད	-10.6008
་སྟེ་དེ	-10.6009
▁ཡེ	-10.6009
་རྗེས་འབྲང	-10.601
་ཉི་ཤུ་རྩ་ལྔ	-10.6011
་ནི་རྒྱུ	-10.6012
་བཞེད་དོ།	-10.6013
་ཀྲ	-10.6015
་བསྐྱངས	-10.6017
▁།མཚན	-10.6018
་སངས་རྒྱས་སུ	-10.6021
ུབ	-10.6021
བུ	-10.6022
་བདུད་རྩི་ལྔ	-10.6022
་ནི་རྡོ་རྗེ	-10.6023
འི་སློབ་དཔོན	-10.6023
ཕོ་བྲང	-10.6024
འི་རྒྱུད་ལ	-10.6026
་ལྗགས	-10.6027
་སྦྱར་བས	-10.6029
་ཐེ	-10.6029
་ཞེས་བགྱི་བ	-10.6034
་མྱི་དམྱིགས་སོ།	-10.6035
ྚ	-10.6037
ས་ཞུས་པ	-10.6038
་གསོན	-10.6038
་སྟེར	-10.604
་དེ་རིང	-10.604
་དེ་ཝ	-10.6042
་བྱེ་མ	-10.6043
་བསྟན་པའི་ཕྱིར།	-10.6044
་མགུ་བ	-10.6044
རྟགས	-10.6045
▁གོང་གི	-10.6046
་དོན་གཅིག	-10.6046
་གཉིས་ཀྱང	-10.6047
འི་སྲས	-10.6048
སྐྱ	-10.6049
འི་རྒྱ་མཚོ	-10.6051
་ཀཱི་ལི་ཀཱི་ལ་ཡ	-10.6052
་སྙན་བརྒྱུད	-10.6054
▁ཐོག་མ	-10.6056
་རི་ཁྲོད	-10.6056
་བཤེས་གཉེན	-10.6059
འི་ལོ་རྒྱུས	-10.606
་ཀྱི་སྒྲ	-10.606
་འཇའ་ཚོན	-10.606
▁བརྗོད་པ	-10.606
་བླུན་པོ	-10.606
་དབལ	-10.6062
་དུམ	-10.6063
▁་་	-10.6063
་བྱིངས	-10.6064
▁།ཞི་བ	-10.6066
འི་འབྱུང་གནས	-10.6067
་བདུན་པོ	-10.6068
་བླ་མ་ལ	-10.6072
ར་ཞུགས་པ	-10.6073
་ཡིད་བཞིན	-10.6073
་ལན་གཅིག	-10.6075
་དབྱུག	-10.6079
་ཁག	-10.6079
་སྟོང་དུ	-10.6081
་ན་བ	-10.6082
▁།ཅེས་གསུངས་པ	-10.6083
▁།ལྟ་བ	-10.6086
་མ་ཡིན་ལ།	-10.6089
▁བརྩོན་འགྲུས་ཀྱི	-10.609
▁བསྒོམ	-10.6091
་བདག་ཉིད་ཆེན་པོ	-10.6092
་གནས་པས	-10.6093
་དཔའ	-10.6093
ཝ	-10.6093
་མེད་པར་ཐལ།	-10.6093
་མཎྜ་ལ	-10.6094
་རྩེ་བ	-10.6097
་གྲོས	-10.6101
་ཨོ	-10.6102
་དང་པོ་ལ	-10.6103
་མ་ལུས་པར	-10.6103
་ན་ཡང་།	-10.6106
་བྷ་ཝ	-10.6107
་ཤོ	-10.6108
▁དབྱར	-10.6112
་བླུགས	-10.6112
་རོ་གཅིག	-10.6113
འི་བརྟུལ་ཞུགས	-10.6114
▁རྫོགས་པའི་	-10.6114
་ཤ་ཁྲག	-10.6117
་དེ་བཞིན་ནོ།	-10.6118
་བ་དན	-10.6119
་དབང་ཐོབ་ཤོག	-10.6119
་མིང་གི	-10.6126
ས་རང་གི	-10.6129
་ལྕམ	-10.6132
་བརྒྱན	-10.6133
ལ་དུ	-10.6135
▁རྫོགས་རིམ	-10.6136
་སྣ་ལྔ	-10.6137
་ཟློས	-10.6138
་ལྟོས་པ	-10.6139
་གྱི་རིམ་པ	-10.6139
་ཞུ།	-10.6141
་ཉེ་བར་ལེན་པ	-10.6148
་འཁོན	-10.6148
མེད	-10.6151
་བསྲེ་བ	-10.6152
▁ཁྱི	-10.6154
▁རྣམ་པར་ཐར་པ	-10.616
་མལ	-10.616
▁སཾ	-10.6161
་མ་ཡིན་གྱི	-10.6162
་བཞི་ཡི	-10.6165
་ཀྱི་འཁོར་ལོ	-10.6165
་རང་ངོ	-10.617
་བསྟོད།	-10.6171
་རྫས་སུ	-10.6171
་མཁས་པའི	-10.6172
་བཞི་བཅུ	-10.6173
་ལྟ་བུ་ལ	-10.6176
▁།རྗེ་བཙུན	-10.6178
་རྒྱས།	-10.6179
་གསུངས་པའི་ཕྱིར།	-10.6182
་སུན་འབྱིན	-10.6183
་ཕྱོགས་བཞིར	-10.6184
་བླ་མས	-10.6184
ར་བྱེད་དེ	-10.6187
་བདུད་བཞི	-10.6187
▁སེམས་ཅན་གྱི	-10.6188
ས་དོན	-10.619
▁སྤྲིན	-10.6191
་བར་སྣང	-10.6195
འི་སྐད	-10.6196
་མེ་ལྕེ	-10.62
་ཡེ་ཤེས་སུ	-10.6201
་བསྟན་པ།	-10.6201
འི་སྡེ་སྣོད	-10.6204
་ལེབ	-10.6205
▁དྲུག	-10.6207
་གཟིགས།	-10.6207
་ཁ་ན་མ་ཐོ་བ	-10.6208
་གསུམ་མམ	-10.6211
་རྒྱས་གདབ	-10.6212
▁གདུག་པ	-10.6212
་ཆགས་བྲལ	-10.6214
་གཉིས་གཉིས	-10.6214
་ལྔའོ།	-10.6215
▁དྲང་སྲོང	-10.6215
▁ཞེས་	-10.6218
་ཅེ་ན	-10.6218
་གཏན་ལ་ཕབ་པ	-10.622
་མཁན་གྱི	-10.6223
་ཐམས་ཅད་ནི	-10.6224
་སྲེད	-10.6224
ཞེས་པ	-10.6225
▁བསམ་གཏན་གྱི	-10.6225
་རིགས་ལྔའི	-10.6227
་ན་མ	-10.6227
་མ་རྟོགས	-10.6229
▁ཐུན་མོང་མ་ཡིན་པ	-10.6229
་འུར	-10.623
་དག་གོ	-10.6233
▁རེ་ཞིག	-10.6233
སངས་རྒྱས་ཀྱི་ཆོས	-10.6238
་རྒྱན་དུ	-10.6238
▁གཞན་དུ་ན	-10.6245
་ཨཱཿཧཱུྃ།	-10.6246
་འདུལ་བའི	-10.6246
▁མདུན་བསྐྱེད	-10.6247
་ཡིན་ཞིང	-10.6248
་ཉིད་ཡིན་ནོ།	-10.625
་མེ་ཡི	-10.6251
་རང་དོན	-10.6252
་མངོན་སུམ་གྱི	-10.6254
་ནས་བཤད་པའི	-10.6255
▁།གཉིས་པ་ལ།	-10.6258
▁ཤི	-10.6266
་སོ་སོར་རྟོག་པ	-10.6267
་རྫོགས་པ་ཆེན་པོ	-10.627
▁སྨ	-10.627
་ཚགས	-10.6272
་ཚེ་རབས	-10.6273
་དྲང་བ	-10.6273
་རྡོ་རྗེ་ཐེག་པ	-10.6276
་ཐུར	-10.6277
་འགྱུ	-10.6278
▁བརྗོད	-10.6278
▁གསུངས་པ	-10.6279
འི་ཕྱོགས་སུ	-10.6283
་བཅུ་པོ	-10.6285
་ཨརྒྷཾ	-10.6285
་དྲག་སྔགས	-10.6286
་བྱས་པ་དང་།	-10.6286
▁འོ	-10.6287
▁གཞན་དག	-10.6289
་འགྱུར་གྱི	-10.629
་བྱ་བའི་དོན་ཏོ།	-10.6291
་གསལ་ལ	-10.6292
འི་ང་རྒྱལ	-10.6293
་ཁྱེར་བ	-10.6294
་དོན་དམ་བདེན་པ	-10.6295
▁ཟུར	-10.6295
་བལྟས་པ	-10.63
་འདྲ་བའི	-10.63
འི་དེ་ཁོ་ན་ཉིད	-10.6302
་མི་སྡུག་པ	-10.6302
་ལྷ་འདྲེ	-10.6302
་ཀྱི་ཚུལ་དུ	-10.6305
▁བྱས	-10.6307
་གཅིག་དང	-10.6307
་དབང་ཕྱུག་ཆེན་པོ	-10.6308
་ཕྱག་ཆེན	-10.6308
་འདས་པའི	-10.6309
་ཕྱིན་ཅི་ལོག་ཏུ	-10.6311
་གཡུལ	-10.6311
▁།སྤྱོད་པ	-10.6312
ར་གསལ་བ	-10.6316
▁སུམ	-10.6319
རྞ	-10.6319
རྒྱས་པར་བཤད་པའོ།	-10.632
འི་སྤྱན	-10.632
▁།ཅེས་དང་།	-10.6323
་མྱི་དམྱིགས	-10.6325
་ལྔ་ལ	-10.6328
་ནགས་ཚལ	-10.6328
་ཞེས་པ་དང་།	-10.633
▁གཡས་པ	-10.633
་སྤེལ།	-10.6332
་བསྐྱེད་དོ།	-10.6334
་ཁྱམས	-10.6335
▁འཇིག་པ	-10.6338
འི་སྨན	-10.6339
་གཞོམ	-10.6342
་རྣམ་ལྔ	-10.6343
་དྲུག་ལ	-10.6344
▁དགོངས་པ	-10.6344
་རྗེས་སུ་འགྲོ་བ	-10.6345
་བརྒྱད་ལ	-10.6346
་སྐད།	-10.6347
་ངལ	-10.6347
་ཛ༔	-10.6348
་བཟླས་བརྗོད	-10.6351
་ཡོད་དོ་ཞེས	-10.6351
▁གྲུབ	-10.6352
་འཕྲེང	-10.6353
་མཛད་དེ།	-10.6354
ར་བྱེད་ན་	-10.6355
་མེ་དཔུང	-10.6356
འི་ཕྱིར༔	-10.6357
▁།དུས་གསུམ་	-10.6358
▁དེའི་	-10.6358
་འོད་གསལ་གྱི	-10.6364
་སོགས་ནས	-10.6365
་རྡོ་རྗེས	-10.6366
་རཀྴ	-10.6366
་སྒྲས	-10.637
་འཇི	-10.6372
་མ་འདྲེས་པ	-10.6373
་འཁྲུལ་སྣང	-10.6374
འི་སླད་དུ།	-10.6375
▁སྲིན་པོ	-10.6375
འི་ཕྱི	-10.6375
་འབྲང	-10.6376
་ཤ་སྟག	-10.6376
་འཛིན་ཅིང	-10.6376
་ལོག་རྟོག	-10.6377
་ན་རེ	-10.6379
་སྦུ	-10.638
་ཁྱད་ཆོས	-10.638
▁ཚེ་འདི	-10.6381
་བསྡུས།	-10.6382
་དགོད	-10.6382
▁།ལ་ལ	-10.6384
་འགྲུབ་བོ།	-10.6384
་སྒྱུ་འཕྲུལ	-10.6384
▁སྟོན	-10.6385
▁མཚན་མོ	-10.6385
་འབར༔	-10.6386
་ཅན་མ	-10.6387
་སྐུ་བཞི	-10.6387
▁སྒྲུབ་པ་པོ	-10.6388
འི་སྦྱིན་སྲེག	-10.6389
་རོ་གཅིག་པ	-10.6389
▁།སྟོང་ཉིད	-10.639
▁ཨཱཿ	-10.6394
▁བཞིན	-10.6396
ངྐ	-10.6398
ཉྫ	-10.6399
་པར་གྱུར།	-10.6407
་འབྲལ	-10.6407
་བསྐྱེད༔	-10.6408
་མཛད་ནས་	-10.6408
་བོང	-10.6408
་བཅས་སོ།	-10.641
་འདི་སྙམ་དུ་སེམས	-10.6417
་འགྲེ	-10.6419
་ཟུངས	-10.6421
་འདོད་ཀྱི	-10.6426
་བལྟ།	-10.6427
་མི་རིགས་པ	-10.6429
་བཀུག	-10.6429
༢༥	-10.6431
་མི་མངའ་བ	-10.6431
་ལ་སོགས་པ་རྣམས	-10.6431
་གཤེགས།	-10.6432
་པ་ལ།	-10.6433
་ཚོགས་རྣམས	-10.6437
་ཕན་ཆད	-10.6438
་གྱི་རྒྱུད	-10.6441
་རྣམ་པ་ཐམས་ཅད་དུ	-10.6442
▁མང	-10.6445
་དང་མི་མཐུན་པ	-10.6445
▁།སྤྱི	-10.6446
་རྫུ་འཕྲུལ་གྱི	-10.6448
▁རང་གིས	-10.645
་བཀོད་པའི	-10.6452
་བསླུ་བ	-10.6454
་ཕྱ	-10.6457
▁།རྗེ	-10.6457
▁དངོས་པོ་མྱེད་པ	-10.6458
▁།ནང	-10.6458
་སྤྲོ་བསྡུ	-10.646
་བཤད་ལ།	-10.6461
▁འགྱུར	-10.6461
་སྦྱོར་གྱི	-10.6463
་ཧོ༔	-10.6466
▁དངོས་པོ་མེད་པ	-10.6466
་ཀྱི་སྣང་བ	-10.6466
ན།	-10.647
་ཀུ་ཤ	-10.6473
་ཕོབ	-10.6474
་བར་དུ་གཅོད་པ	-10.6474
་ཧཱུྃ་ཡིག	-10.6474
་མཁས་གྲུབ	-10.6475
མྦ	-10.6477
་དང་ཆུ	-10.6478
་གནས་གསུམ་དུ	-10.6479
་ཡཾ	-10.6481
▁ལན་གསུམ	-10.6481
འི་ཉམས་ལེན	-10.6483
་ངེད	-10.6483
་ཤུགས་ལ	-10.6484
་སྣང་ངོ་།	-10.6485
་གཉན་པོ	-10.6486
་སྐྱེ་འགག	-10.6488
་སིང	-10.6488
▁གཡས་སུ	-10.6492
་དེང་སང	-10.6495
་བཅུ་དྲུག་པ	-10.6498
འི་ཤིང	-10.6499
་ཀྱི་དབང་དུ་བྱས	-10.65
་སྟོང་གསུམ	-10.65
་བྲི༔	-10.6501
་ཉག	-10.6503
▁དེ་ནས་ཡང	-10.6503
་འཚེ	-10.6503
་ལྷན	-10.6505
་ཨཾ	-10.6505
འི་ཡོ་བྱད	-10.6507
་ཚིག་རྐང	-10.6507
་སོགས་	-10.6507
▁ཞེས་པའི	-10.6508
་ཡང་དག་པ་ཇི་ལྟ་བ	-10.6514
▁ཕྱིའི	-10.6519
་ལྡན་པ།	-10.652
་འདི་སྐད་དུ	-10.652
▁སྐྱབས་འགྲོ	-10.6522
་དགེ་སྦྱོང	-10.6522
་ཆིབས	-10.6523
་པར་འགྱུར།	-10.6523
་ཤིས་བརྗོད	-10.6528
ཇིག་རྟེན་གྱི་ཁམས	-10.653
▁རྒྱུད་སྡེ	-10.6531
བདེ་ཆེན	-10.6535
་སྨྲ་བའི	-10.6536
་དམ་སྲི	-10.6536
་ལངས་པ	-10.6536
་ལ་དམིགས་ནས་	-10.6537
འི་མཚན་ཉིད།	-10.654
་ཐུགས་ཀ	-10.6541
་སྦྱར་ལ	-10.6541
་ཚོགས།	-10.6543
▁སྔོན་པོ	-10.6543
་འགྲོ་བའི་དོན	-10.6543
་བསམ་གཏན་དང་པོ	-10.6545
་ཉེན	-10.6546
་ཞེས་པའི་སྒྲ	-10.6548
་བྱེད་དུ	-10.6551
་སོང་ནས	-10.6552
་ཁ་ནས	-10.6554
་སྟེང་ན	-10.6554
་སྒྲོགས་པ	-10.6557
▁ལྷག་པ	-10.6557
▁རྭ	-10.6558
་རྣམ་འགྱུར	-10.6558
་འདི་ཁོ་ན	-10.6558
་སྐད་དུ	-10.6559
་ལ་གསུམ་ལས།	-10.656
་མཐུན་རྐྱེན	-10.6561
་བསྒོམ་པའོ།	-10.6561
▁།དག་པ	-10.6562
་དཔྲལ་བ	-10.6567
ར་མཐོང་བ	-10.6567
▁ཉི་ཟླ	-10.6568
▁གཟུགས་ཀྱི	-10.6569
་སྙམ་པའི	-10.657
་བྱ་བའི	-10.6573
་བསྲེགས	-10.6573
ྤ	-10.6579
ས་གང	-10.6581
་གཞུང་ལུགས	-10.6582
་ཁང་དུ	-10.6583
༡༥	-10.6583
་གཅད	-10.6584
་སེམས་ཅན་ལ	-10.6586
་སྣང་ཡང	-10.6586
▁ཡེ་ཤེས་པ	-10.6586
་དུས་འཁོར	-10.6587
་ལ་སྣང་བ	-10.6587
་བདེ།	-10.659
▁།ཚུལ་ཁྲིམས	-10.659
་སྒྲོགས	-10.6592
ཀླ	-10.6594
▁།བདག་ཅག	-10.6595
་ཕྱོགས་མཚམས	-10.6595
་རབ་ཏུ་དགའ་བ	-10.6599
ཀྱེ་རྒྱལ་བའི་སྲས	-10.6601
་དུ་ཡོད་པ	-10.6601
་གཏང	-10.6601
་ཙཎྜ	-10.6603
་གྱི་གནས	-10.6603
་བཅུ་གཅིག་པ	-10.6604
་མཛད་ཅིང	-10.6604
་མ་ཏི	-10.6605
ཡང	-10.6605
་གཞན་ཡང་	-10.6606
ར་འདོད་དོ།	-10.6606
་མ་བཅོས	-10.6608
་ཡོད་པའི་ཕྱིར	-10.6609
▁བདག་བསྐྱེད	-10.6612
▁གཞན་ཡང་	-10.6618
▁དྲི་མ	-10.6619
་ཎི	-10.662
▁ཉེ	-10.662
་འབོད	-10.6621
་འཚོལ	-10.6621
་བསོད	-10.6621
་མདུན་གྱི	-10.6622
་འཚོང	-10.6622
་པས་	-10.6622
་བོད་དུ	-10.6623
▁།བསམ་པ	-10.6623
་བན	-10.6624
་སྤྱིའི	-10.6628
ལེགས་པར	-10.6629
་མ་བྱུང	-10.6632
་ཆགས་སྡང	-10.6632
་ལྗོན་ཤིང	-10.6632
▁།གང་དག	-10.6635
འི་རྗེས་གནང	-10.6635
་ལ་ཡོད་པ	-10.6637
་ནས་ཀྱང་།	-10.6639
་སྙིང་ཁ	-10.664
་ངོ་ཤེས་པ	-10.6643
འི་སྐུ།	-10.6643
་མཇལ་བ	-10.6646
་ན་མཿ	-10.665
▁།བདེ་གཤེགས	-10.6651
ཡིན	-10.6658
་སྒྲོལ་བ	-10.666
འི་ཆོས་ཐམས་ཅད	-10.6661
་རྣམས་ལ་ཡང	-10.6667
▁པས	-10.6667
་མུ་ཏིག	-10.6669
་དང་དེའི	-10.667
▁ལུས་ངག་ཡིད་གསུམ	-10.6671
ས་དེ་ལྟར	-10.6673
▁དྲོད	-10.6674
་བསྟེན།	-10.6674
་དྲིལ་བུ་འཛིན་པ	-10.6676
ས་གསུངས་པ	-10.6677
་རྩ་རྒྱུད	-10.6679
་འདི་	-10.668
་གཏོགས	-10.668
་དོན་ཡོད་གྲུབ་པ	-10.6684
་ཚུལ་དང་།	-10.6684
གསོལ་པ་དང་།	-10.6685
་སེམས་ཅན་རྣམས་ལ	-10.6685
་པ་ལྟ་བུ	-10.6689
་བསྟན་པའི་ཕྱིར	-10.6694
་ཟུག་པ	-10.6697
་གི་དངོས་གྲུབ	-10.6698
་ཤང	-10.6698
▁།དེ་དག་གི	-10.6702
་འཕྲང	-10.6705
▁དེས་ཀྱང	-10.6705
ར་གྱུར་ཏེ	-10.671
▁གྷ	-10.671
དཔེར་ན	-10.6712
་གང་	-10.6714
་རུང་།	-10.6715
▁འགལ་བ	-10.6716
▁།རོ	-10.6716
་སྤྲས	-10.6719
་དུ་ཡང	-10.672
་ཁོ་ནའོ།	-10.6721
་བཟང་པོ།	-10.6723
་ལ་བཀའ་སྩལ་པ།	-10.6725
་ཡི་དམ་ལྷ	-10.6727
་ལྷ་རྣམས་ཀྱི	-10.6727
་སེམས་བྱུང	-10.6729
་དགུན	-10.673
▁གདོན	-10.6731
་མཉན་པ	-10.6733
ང་ཀ	-10.6737
▁།དགའ་བ	-10.6737
▁གཤེགས་པ	-10.6743
་དྲན་པས	-10.6749
་དང་གསུམ།	-10.6749
་རིགས་དྲུག	-10.6749
་ཐུགས་དམ་བསྐང་	-10.6751
་བསྡུ།	-10.6751
་ངེས་པའི	-10.6752
▁དཔེར་ན།	-10.6752
་སུམ་བརྒྱ	-10.6752
་ཐོབ་ནས	-10.6753
་དང་བྲལ་བར	-10.6754
▁།ཞལ	-10.6754
ྲུ	-10.6757
ས་སངས་རྒྱས	-10.6758
་བསྲུངས	-10.676
▁དམིགས	-10.6762
་བསྐྱེད་ཅིང	-10.6764
་སྟོན་ཏེ།	-10.6764
་ཕཊ།	-10.6764
་ཞབས་ཀྱིས	-10.6765
▁བློན་པོ	-10.6767
་གང་རུང་གི	-10.6768
ར་བཅས།	-10.6769
་སྣུམ	-10.6771
་ཡིན་མིན	-10.6772
▁གང་གི་ཕྱིར	-10.6773
་ཉོན་ཅིག	-10.6773
་གཏན་ནས	-10.6774
་ལ་ལོངས་སྤྱོད་པ	-10.6774
་བྷྱོཿ	-10.6775
་ལ་གསོལ་བ་འདེབས	-10.6778
▁ཡུ	-10.678
་སྔ་དྲོ	-10.678
འི་དོན་ནི།	-10.6781
▁བདུད་ཀྱི	-10.6782
ར་འགྱུར་ཞིང	-10.6785
་ཁྲོ་བོའི	-10.6787
་སཏྭ	-10.6788
▁།ཤེས	-10.6788
་ཆུའི	-10.6788
སྡེ	-10.6793
་ཚད་དུ	-10.6793
་ཤར་ཕྱོགས	-10.6797
་རྣལ་འབྱོར་པས	-10.6799
་མྱོས	-10.6803
་རོལ།	-10.6805
་ཕྱག་འཚལ་བ	-10.6806
་ཤས་ཆེ	-10.6813
་དགའ་ལྡན	-10.6814
་གྲགས་པ་རྒྱལ་མཚན	-10.6817
▁རཏྣ	-10.6818
་བདག་འཛིན	-10.6824
་ཏྱ	-10.6825
་ལས་གྱུར་པ	-10.6826
▁དགའ	-10.6829
▁འབྱུང	-10.683
▁།ཀླུ	-10.683
་ཕྱོགས་ནས	-10.6831
▁སྲས	-10.6836
་ཁྲོ་རྒྱལ	-10.6839
་ཅི།	-10.6839
་བཞི་ནི	-10.684
་འདོད་ན།	-10.6843
་ཁེགས	-10.6846
▁དང་པོ་ལ་གསུམ	-10.6846
ངྒ	-10.6847
་གསུངས་པ་དང་།	-10.6848
འི་སེམས་ཅན་རྣམས	-10.685
་མེད༔	-10.6852
་བསྡམས་པ	-10.6853
་གཉིས་ཀར	-10.6853
་དང་གཞན	-10.6853
་གཟུང་།	-10.6854
་ལ་གདམས་པ	-10.6855
་མ་ཡེངས་པར	-10.6858
འི་གོ་ཆ	-10.6858
ར་མཛོད་ཅིག	-10.6858
་ཡོད་པ།	-10.6861
་བརྒྱན༔	-10.6861
▁དམྱལ་བ	-10.6862
གང་ཟག	-10.6864
་བལྟས་པས	-10.6866
་མི་བཟད་པ	-10.6869
་བརྒྱར	-10.687
་ནི་འབྲས་བུ	-10.6871
L	-10.6872
་བརྒྱད་དུ	-10.6872
▁༨	-10.6873
་ཉིད་དང	-10.6873
་རང་རིག་པ	-10.6873
་སྦྱོར།	-10.6874
་འོས་པ	-10.6874
་ལན་གསུམ་གྱིས	-10.6875
་གྱི་ལྷ	-10.6876
▁འབར་བ	-10.6876
་བཀ	-10.6876
་ནྲྀ	-10.6878
▁རྒྱལ་སྲས	-10.6878
ར་བྱེད་ཅིང་།	-10.6879
་པཱ	-10.6881
▁བྱེ་བྲག་ཏུ	-10.6883
་ལ་ཕོག	-10.6883
་མི་ཟད	-10.6885
▁།མཚན་ཉིད	-10.6885
་ཀུན་རྫོབ་བདེན་པ	-10.6886
་བརྒྱན།	-10.6887
་དུད	-10.689
▁ཕྲེང་བ	-10.6891
་ཁྲུ་གང	-10.6892
་གནས་ཤིང	-10.6894
་ལས་སྦྱོར	-10.6898
་རྒྱལ་རིགས	-10.6898
་རྟེན་དུ	-10.6901
་མཐའ་དག་གི	-10.6903
་ཅན་དང	-10.6908
་བྱེད་པོ	-10.6909
་གྱི་ངོ་བོ	-10.6915
འི་རྣམ་ཤེས	-10.6915
་ཡུད་ཙམ	-10.6916
་བྲ	-10.6916
་ཉམས་སུ	-10.6919
▁།བདུད་རྩི	-10.692
▁མདའ	-10.6922
་སྤྲིན་གྱི	-10.6922
་ཚངས་པར་སྤྱོད་པ	-10.6923
་མཐོན་པོ	-10.6923
་བསྒོམ༔	-10.6925
་སྤྱན་དྲངས་ནས	-10.6926
་བདེན་པའི	-10.6926
ལྕགས	-10.6927
་ཉོ	-10.6929
་རྡོ་རྗེ་གཞོན་ནུ	-10.693
་ཀྲོ་དྷ	-10.6932
་ཡོད་ན།	-10.6933
▁གྲོང	-10.6933
་ཞོན	-10.6934
▁ཕོ་ཉ	-10.6934
་དུ་འགྱུར	-10.6936
་མཐོང་བ་དང་།	-10.6937
་ཞེས་པ་སྟེ།	-10.6939
་སླེབ	-10.6941
་ལངས	-10.6941
▁སྣོད་བཅུད	-10.6944
▁།གཉིས་པ་ལ	-10.6944
་བཅིང	-10.6946
་འབྲུ་གསུམ	-10.6962
་ལས་འོད་འཕྲོས	-10.6963
་ནི་རང་གི	-10.6964
་མི་འཇིགས་པ	-10.6965
▁བག་ཆགས	-10.6965
་ཡིན་	-10.6968
་སྔོན་མོ	-10.6969
་རཱུ་པ	-10.6969
་གྱོན་པ	-10.6969
་དགག་པ་ནི།	-10.6969
་འདོད་ན	-10.697
་ཆོས་ཀྱི་བདག་མེད	-10.6971
་རྣོ	-10.6972
་ལྷ་དང་མི	-10.6973
▁མཚན་གཞི	-10.6973
་ནཱ་རོ་པ	-10.6974
་དུལ་བ	-10.6975
་ཆོས་སྐུའི	-10.6976
་འདིར་ཡང	-10.6979
་གྲུབ་པར	-10.6979
་བཀྲུ	-10.698
་བཙ	-10.698
རྐ	-10.6981
་སྦྱར་ཏེ།	-10.6982
▁སེམས་ཅན་གྱི་དོན	-10.6983
་ཡཱ	-10.6987
་དྲུག་གོ	-10.6988
ལ་གྱིས	-10.699
་འཇལ་བ	-10.6991
འི་ལྷ་མོ	-10.6993
་དབྱིག	-10.6993
་ལག་ན་རྡོ་རྗེ	-10.6993
▁།བདེ	-10.6994
་དོན་གཉིས	-10.6994
་ལྷས	-10.6995
▁འཛིན	-10.6995
་ཊཱིཀ	-10.6997
་བསྔོ།	-10.6999
▁མཆོད་བསྟོད	-10.7001
ར་གྱུར་པ་དང་།	-10.7002
་རྣམ་འཕྲུལ	-10.7003
་ཉན་རང	-10.7004
་ཤམ་ཐབས	-10.7005
་གི་འབྲས་བུ	-10.7006
་མཚམས་སྦྱོར	-10.7007
་བླངས་ཏེ་	-10.7008
▁སྒོ་གསུམ	-10.7009
་ལྷ་ལྔ	-10.701
འི་བསོད་ནམས	-10.701
་སྲིད་གསུམ	-10.701
་མ་གཏོགས་པར	-10.7012
་ཀྱ	-10.7014
་རྒྱུ་སྐར	-10.7015
་ཞེས་བརྗོད	-10.7016
་སྐྱེལ	-10.7017
་ཟང་ཐལ	-10.7017
་གནས་ན	-10.7018
་དང་མ་བྲལ་བ	-10.7021
ར་འགྱུར་བའི་ཕྱིར	-10.7022
ཁྲ	-10.7022
་གསོལ་བ་གདབ།	-10.7024
་ཁྲོ་མོ	-10.7029
་དང་པོ་གཉིས	-10.7029
་ལུང་པ	-10.703
་དགག་པ་དང་།	-10.7032
▁དམ་ཚིག་པ	-10.7034
་དེ་རྣམས་ཀྱི	-10.7034
་ཀྱི་གནས	-10.7035
་ཀཱ་ར	-10.7036
▁བླ་ན་མེད་པ་ཡང་	-10.7038
་དགག་དབྱེ	-10.7039
་ཟུང་དུ་འཇུག་པ	-10.7039
འི་རིགས་ཀྱི	-10.7043
་གཏུམ	-10.7044
་མགྲིན་པར	-10.7045
་སྡེ་སྣོད	-10.7045
འི་ཚེ༔	-10.7046
་མ་ལགས་པ	-10.7047
་སོགས༔	-10.7047
སངས་རྒྱས་ཀྱི	-10.705
༡༧	-10.7052
ར་འགྱུར་རོ་ཞེ་ན	-10.7053
ཁམས་དང་སྐྱེ་མཆེད	-10.7054
་ཞེས་བྱ་བ་དང་།	-10.7057
ས་བོན	-10.7061
་ནོ་ཞེས	-10.7061
▁སྨྲ	-10.7061
▁།ཆོས་ཉིད	-10.7061
་སྟོབས་ལྡན	-10.7064
༡༦	-10.7067
་དུག་གསུམ	-10.7068
▁ཉི	-10.707
་ཐེག	-10.7071
་དུད་པ	-10.7071
་ལེ་ལོ	-10.7072
་རིག་པ་འཛིན་པ	-10.7072
་སངས་རྒྱས་དང་	-10.7074
་དམར་པོ།	-10.7078
་རྣམ་བཤད	-10.708
▁གདུགས	-10.7081
་བསྒོམ་མོ།	-10.7082
་སྤྲ	-10.7082
་ཕྱག་ན	-10.7084
་ཐུགས་དམ་བསྐང་།	-10.7087
་པར་བྱེད།	-10.7087
▁།དཔལ་ལྡན་	-10.7087
▁།ཁམས་གསུམ	-10.7088
་བསྡུས་ཏེ	-10.7092
མཆོག	-10.7094
བྱེ་བྲག་ཏུ་སྨྲ་བ	-10.71
་བདེ་སྐྱིད	-10.71
་བྱུག་པ	-10.71
་བརྒྱད་ཀྱིས	-10.7103
་བསྲེགས་པ	-10.7103
ས་གཞན	-10.7104
▁གླིང	-10.7106
་བ་ནི	-10.7106
་ཡེ་ཤེས་སེམས་དཔའ	-10.7108
▁གྲུབ་ཆེན	-10.711
་ཅིག་ཅེས	-10.711
ན་དྷ	-10.7112
▁།སློབ་མ	-10.7114
་མིག་གིས	-10.7114
་ཤས	-10.7116
་བརྒྱུད་པའི	-10.7116
་དམར་བ	-10.7116
་འདི་ནི་	-10.7116
་བསང་།	-10.7116
་དོན་ཡོད	-10.7116
་ཚུད་པ	-10.7118
་ནས་སུ།	-10.7118
་གློད	-10.7119
་བསྣམས།	-10.7121
་ཤེས་ཤིང	-10.7122
་ཤོས	-10.7124
▁རིག	-10.7125
་རྣམ་	-10.7127
▁ཆོས་གོས	-10.7127
▁སྦ	-10.7128
▁ཐུ	-10.7128
▁འང་།	-10.713
▁དེས་	-10.7132
▁ཁྱེད་ཀྱི	-10.7139
▁ཟབ་མོ	-10.7139
▁%	-10.7142
▁མདོ་ལས།	-10.7143
འི་དངོས	-10.7145
▁རྨ	-10.7146
▁།སྒོ	-10.7147
འི་ཀློང	-10.7148
▁དགེ་བསྙེན	-10.7149
་རང་གི་ལུས	-10.7149
▁ཧཱུྃ་ཧྲཱི༔	-10.7149
▁རང་ལ	-10.7149
་བཅད།	-10.715
་བར་བྱེད་པ	-10.7152
་ནོན	-10.7153
▁བློ་གྲོས	-10.7157
༢༧	-10.7157
་མཛད་པའི།	-10.7158
་ཞེས་པ་ལ་སོགས་པ	-10.716
་རྗེས་སུ་གནང་བ	-10.7162
ཞ	-10.7162
▁མྱ་ངན	-10.7165
་ལ་གུས་པ	-10.7165
་མགྲིན	-10.7166
▁རྫོགས་པ	-10.7166
▁རྩ་སྔགས	-10.7168
ངན་སོང	-10.7169
ས་བརྒྱན།	-10.7169
་ཆོས་བསྟན་པ	-10.7171
▁བྱང་ཆུབ་ཀྱི་	-10.7171
འབྱུང	-10.7171
་ལྟེ	-10.7172
་བྲལ།	-10.7172
ར་བརྗོད་པ	-10.7172
འི་དགའ་བ	-10.7176
དཔལ་ལྡན	-10.7178
་དང་ཕྲད་པ	-10.7179
▁བཏགས་པ	-10.7179
་དང་སྡུག་བསྔལ	-10.7179
་གནད་ཀྱི	-10.7181
▁།བཀྲ་ཤིས	-10.7183
་བསྐྱལ	-10.7183
་དཔལ་ཆེན	-10.7183
་ནི་མ་ཡིན་ཏེ	-10.7184
་ས་བཅུ་པ	-10.7186
་རྣོན་པོ	-10.7188
▁ཧེ་རུ་ཀ	-10.7189
་གྱུར་པས།	-10.719
་རྣམས་ཀྱིས་ནི	-10.719
་སྨྲའོ།	-10.7191
་ཡོད་པ་མ་ཡིན་ནོ།	-10.7192
▁སྦྲུལ	-10.7193
་འདིས་ནི	-10.7197
་གཞི་ཤེས	-10.7201
་རྩུབ	-10.7202
་གཏན་ལ་འབེབས་པ	-10.7204
་གྱི་གཙོ་བོ	-10.7206
་སྒོམ་སྤང	-10.7207
་འདུག་གོ།	-10.7208
་བཅུ་གསུམ་པ	-10.7209
▁རྣམ་དག	-10.721
་འགུལ	-10.7211
་ཀྱིས༔	-10.7213
འི་ནང་གི	-10.7214
་ལས་དང་པོ་པ	-10.7215
་ཉམས་སུ་བླངས་པས	-10.7217
་རཱི	-10.7218
་ནི་གང	-10.7219
་ལས་ལྷག་པ	-10.722
་ཐོང	-10.7222
་སྐྱེ་དགུ	-10.7223
་ཐག་པ	-10.7223
་ཞི་ཞིང	-10.7223
▁ཡུམ་གྱི	-10.7224
▁བདེ་བ་ཆེན་པོ	-10.7224
་སྐོར་གྱི	-10.7227
▁དགུ	-10.7227
▁།རྟོགས་པ	-10.7229
་དགོས་ཤིང་།	-10.723
་གི་	-10.7231
་གཟུགས་མེད	-10.7232
་བསྒྲུབས་པས	-10.7234
་བསྟོད༔	-10.7237
་བྃ	-10.7237
▁ལྷོ་ཕྱོགས	-10.7238
་སྣོད་དུ	-10.7239
་གསུམ་ལྡན	-10.724
་མེ་སྦར	-10.7242
་ཉེར་བཞི	-10.7242
༢༦	-10.7243
་ཟིན་བྲིས	-10.7244
་སྒྲིག	-10.7244
་ངུ	-10.7245
་བཙས	-10.7245
་ཡང་མ་ཡིན་ནོ།	-10.7248
ོབ	-10.7249
▁ཀོ	-10.7256
་འོ༔	-10.7256
་ལྷུན	-10.7261
་རྒྱས་བཏབ	-10.7262
་པོ་དེ	-10.7266
་མཚོན་པའི	-10.7267
ཞལ་གསུམ་ཕྱག་དྲུག	-10.7269
་རྒྱལ་མཆོག	-10.7269
་ཤད	-10.727
་ལྕགས་སྒྲོག	-10.7272
འི་བསྟན་པ	-10.7272
་པུས་མོ	-10.7272
་ཟིན་པའི	-10.7275
་སྟེགས་བུ	-10.7277
་བསྒྲགས	-10.7278
་ཨཱརྻ	-10.7279
་མ་ཡིན་པའི་ཕྱིར	-10.728
ེག	-10.7282
་འཕར	-10.7282
་གོང་ནས་གོང་དུ	-10.7286
་མཉམ་པར་བཞག་པ	-10.7288
་ཞི་བར	-10.7289
་འཐབ	-10.7292
་རྩ་སྔགས	-10.7292
་བཏུལ	-10.7293
རྫ	-10.7293
་མི་མངའ	-10.7295
་གཟི	-10.7299
་མི་སྣང	-10.7302
་གྱི་རྒྱུ	-10.7303
▁།ཕྱི་རོལ	-10.7305
་བཅས༔	-10.7307
▁པུ	-10.7307
་བཱི	-10.7309
་ཇི་སྙེད་ཅིག	-10.7309
་རིགས་སུ	-10.7311
་ཀྱི་རིགས	-10.7318
▁།སྟོང་པ	-10.732
▁མུ་སྟེགས	-10.732
་ལས་དང་པོ	-10.7323
་ཇི་ལྟ་བུ་ཞེ་ན།	-10.7323
་མེ་རི	-10.7324
་མེད་ན།	-10.7325
་ཤིང་	-10.7326
▁།ཆོ་ག	-10.7327
▁ཕ་རོལ	-10.733
་མེད་པ་ནི	-10.733
་ཁྱབ་འཇུག	-10.7331
་འཇོ	-10.7337
▁།མཆོད་པ	-10.7339
པྟ	-10.734
་ཆུ་སྲིན	-10.734
་མི་བྱེད	-10.7342
་དཀར་ནག	-10.7343
་མི་འདུག	-10.7347
་གནས་པའོ།	-10.7347
་སྒྱུ	-10.7348
་གྲུབ་པས	-10.735
▁།ཕྲིན་ལས	-10.7352
་རྡོ་རྗེ་དྲིལ་བུ	-10.7354
འི་སྒྲས	-10.7354
་སྐུ་ཚེ	-10.7357
་ཕུལ་བས	-10.7358
་དམིགས་བསལ	-10.7358
་ཡང་དང་ཡང་དུ	-10.736
་བགོས	-10.7361
་བསྟན་ནས།	-10.7361
་ཀློག་པ	-10.7362
་བྱང་གི	-10.7363
་མི་འགྲུབ	-10.7364
་བཤད་པས	-10.7364
་ཚེ་འདིར	-10.7366
་ཚོགས༔	-10.7367
་སྲུང་འཁོར	-10.7369
་པའི་དོན	-10.7369
་བཤད་པ་ལྟར	-10.737
ལ་གྱི	-10.7375
་ཚབ	-10.7376
▁དེང་སང	-10.7376
འི་ཉེས་དམིགས	-10.7377
▁དམ་བཅའ	-10.7379
▁།སྐད་ཅིག	-10.7381
་ལཱ	-10.7383
་དཔྲལ་བར	-10.7385
་བློན	-10.7385
་ལྔ་ནི	-10.7386
▁བཅུ་པ	-10.7386
་བརྒལ	-10.7388
་མི་གཏོང་བ	-10.7388
འི་ལྟུང་བྱེད	-10.7394
་ལ་ཕྱག་འཚལ	-10.7395
་དང་བ	-10.7398
ར་བརྗོད།	-10.7398
་བཤམ	-10.7399
་ལས་བྱས་པ	-10.7399
འི་ཟས	-10.7401
་བཞག་ནས་	-10.7401
་སྤངས་ནས	-10.7402
་དགོས་པས།	-10.7403
▁དེ་ཉིད་ལས།	-10.7404
▁།ལྷ་མོ	-10.7404
་སྤྱི་ལྟར	-10.7405
་ན་ཡ	-10.7408
་ལྷ་མི	-10.7408
བྷ	-10.7411
་མོད་ཀྱི	-10.7411
་གཏང་།	-10.7413
་མི་རིགས	-10.7415
ར་གཏོགས་པ	-10.7416
་རྭ་བ	-10.7417
་ཏུ་གྱུར་པ	-10.7417
་སྐྱེད་པར་བྱེད་པ	-10.7418
ས་ཤིང་།	-10.7419
་མངོན་དུ་བྱས་པ	-10.742
་གྱི་ཕུང་པོ	-10.7421
▁།སྤྲུལ་པ	-10.7422
་བགོ	-10.7424
་ལ་སྤྱོད	-10.7425
་སངས་རྒྱས་ཀྱི་	-10.7425
ོགས	-10.7427
ན་གྱིས	-10.7427
▁།དེ་རྣམས	-10.7429
་ཐེབས་པ	-10.743
▁སྣང་སྲིད་	-10.7431
▁།ཡ	-10.7433
་ནའོ།	-10.7433
ས་བདག་ལ	-10.7435
་གློ	-10.7436
▁ཨོཾ་མ་ཧཱ	-10.7439
▁ཞེས་གསུངས་པ་ལྟར	-10.7443
འི་གཟུགས་ཅན	-10.7443
▁།རྣམ་རྟོག	-10.7444
▁ཞེས་པས་བསྟན།	-10.7444
ར་བྱེད་པས	-10.7448
ར་འདུ་ཤེས་པ	-10.7451
་ཕྱོགས་བཞི	-10.7451
འི་བྱང་ཆུབ	-10.7451
་མིན་པས	-10.7452
▁འོག་ཏུ	-10.7454
ང་དུ	-10.7454
་སྔགས་འདི	-10.7458
་ཞིབ་ཏུ	-10.746
་ཕྱུག	-10.746
་འདི་གཉིས	-10.7462
▁ཏི	-10.7463
་བ་ནི།	-10.7464
་རྣམས་ཀྱིས་	-10.7465
་མཚན་མ་མེད་པ	-10.7465
་འཕྱོ	-10.7466
་མཚར	-10.7467
ས་འདིར	-10.7468
་ལས་སྐྱེས	-10.7468
་མཆོད་སྦྱིན	-10.7469
▁མ་མ	-10.7469
ར་མི་བྱེད་པ	-10.7473
་ཚུལ་གྱི	-10.7474
སྐུ	-10.7474
་ཕྱི་རོལ་གྱི་དོན	-10.7475
▁སྒྲོལ་མ	-10.7475
་གཅ	-10.7476
འི་ཚིག་གིས	-10.7479
་འགྲོའོ།	-10.748
▁།དང་པོ་ལ་གསུམ	-10.7482
་གྱི་མཚན་ཉིད	-10.7484
་སྩོལ	-10.7489
་སྣང་བས	-10.749
་བཙུགས་པ	-10.749
་བཞད་པ	-10.749
་བཤད་པ་ལ།	-10.7493
༽༄༅།	-10.7493
་གདུག་པའི	-10.7493
་བརྩོན་འགྲུས་ཀྱི	-10.7494
▁།ཞེས་པའོ།	-10.7496
་རྡུང	-10.7497
་ཐོབ་པ་དང་།	-10.7497
རྒྱ	-10.7499
▁དྲི་མེད	-10.7499
་ཤེ་ན།	-10.7502
ར་ནུས	-10.7503
་གསོལ་བ་གདབ་པ	-10.7503
་འཚོལ་བ	-10.7503
་ངོས་བཟུང	-10.7504
་ཙམ།	-10.7505
་བོན	-10.7507
་པ་མེད་པ	-10.7507
འི་བསམ་གཏན	-10.7509
▁རྩེ་མོ	-10.751
ན་མཿསརྦ་ཏ་ཐཱ་ག་ཏ	-10.7516
▁གཉིས་སུ་མེད་པ	-10.7516
་ལ་རག་ལས་པ	-10.7519
▁༼༦	-10.752
་ཞབས་ཀྱི	-10.752
་སོ་སོ་སྐྱེ་བོ	-10.7521
་སངས་རྒྱས་ཉིད	-10.7522
་མཛད་དེ	-10.7522
▁།བདག་ལ	-10.7525
་བསྒྲུབ།	-10.7526
▁མ་འོངས	-10.7527
་སེལ།	-10.7528
ར་བགྱི་བ	-10.7529
▁བཞུགས	-10.7529
་བསྒོམ་པ་དང་།	-10.753
་བཀུར	-10.7532
་སངས་རྒྱས་ཀྱིས	-10.7536
་གླང་ཆེན	-10.7539
་ཀཱ་ལ	-10.7541
་ཕབ་པ	-10.7544
་ཀྱི་གཞུང	-10.7547
▁སོགས་ཀྱིས	-10.7548
▁ཕྱག་ན་རྡོ་རྗེ	-10.755
▁སྐྱེ་མེད	-10.7552
་འབག	-10.7552
་ཅི་རིགས་པར	-10.7554
འི་དྲི	-10.7555
▁།སྐྱེས་བུ	-10.7556
▁དུད་འགྲོ	-10.7556
ར་འདོད་པ་དང་།	-10.756
▁བོད་ཀྱི	-10.7562
་བྱང་ཕྱོགས	-10.7562
་དགུག	-10.7564
ས་ལེགས་པར	-10.7564
་འཛུགས	-10.7564
་གཞལ	-10.7564
་གླིང་དུ	-10.7565
་འབྱུང་ཞིང	-10.7565
སྐ	-10.7567
་ལ་རྟོག་པ	-10.7568
་སྤྱོད་པ་དང་།	-10.7568
▁དམར་པོ	-10.757
་ཇི་ལྟ་བར	-10.7572
སྟོང་ཆེན་པོའི་འ	-10.7575
་སེར་སྐྱ	-10.7575
▁ལྡན་འདས	-10.7576
ག་གིས	-10.7578
་ལ་ཤིན་ཏུ	-10.7579
་རིམས	-10.758
་བཅག	-10.7581
་ཡོད་མིན	-10.7582
་རིམ་པ་བཞིན་དུ	-10.7583
ར་ཤེས་པར་བྱའོ།	-10.7586
་མངོན་པར་བྱང་ཆུབ	-10.7587
ས་མཆོད་པ	-10.7588
་བསྐྲད	-10.7589
་དང་མཉམ	-10.759
་གུ་ཧྱ	-10.759
་དོ༔	-10.7591
་ནན༔	-10.7591
ས་ཁྱབ	-10.7593
་གནས་འདིར	-10.7593
་ཐ་མལ	-10.7593
▁འཆ	-10.7593
ར་ངེས	-10.7595
▁།སོ	-10.7596
་འཕྱང	-10.7596
་བཞག་པས	-10.7597
འི་བདག་ཉིད་ཅན	-10.7597
ཁྱིམ	-10.7598
་རྒ	-10.7598
་དབང་བསྐུར།	-10.76
་ཞེས་པའི་དོན	-10.76
་ངག་ཏུ	-10.7601
▁ལྷན་ཅིག	-10.7603
▁ཀྱཻ	-10.7605
ར་ཐལ་ལོ།	-10.7606
▁ལྷ་རྣམས	-10.7607
་གྱི་ཚོགས	-10.7608
་བསྟན་ནས	-10.761
་བརྒྱ་དང	-10.761
་ཅིག༔	-10.761
་མཛད་པར	-10.7611
་གདན་དྲངས	-10.7612
་བདུག་པ	-10.7613
▁གྲུ	-10.7615
་ཞེས་ཟེར་རོ།	-10.7615
་ལྕམ་དྲལ	-10.7619
་དང་འདྲ་བའི	-10.7622
་དེས་	-10.7622
ར་བསྟན།	-10.7622
་བསྒྲུབ་པ་ལ	-10.7625
་སྐྱེ་བ་དང་།	-10.7627
ོན་པ	-10.7627
▁པཎྜི་ཏ	-10.7628
་ཡོངས་སུ་རྫོགས	-10.7628
སྐུ་ཡི	-10.7629
▁སྲིད	-10.7629
༢༨	-10.7631
་འཕྲེང་བ	-10.7631
་སྲིང	-10.7633
▁སྤྲོ་ན	-10.7634
་རུང་གི	-10.7634
▁།དམ	-10.7636
་འཇུག་ཡུལ	-10.7637
་ཡལ་ག	-10.7639
ིབ	-10.7642
ར་མི་ནུས	-10.7643
་དེ་བ	-10.7646
ནྡྷ	-10.7646
་མི་ནུས།	-10.7647
▁།སྲོག	-10.7648
་གདོང་མ	-10.7648
▁དམར	-10.7648
་འགྲིབ་པ	-10.7649
༣༠	-10.7649
▁སྡེ	-10.765
ར་གནས།	-10.7652
་གཤ	-10.7652
་པར་འགྱུར་བ	-10.7653
་བྱུང་སྟེ	-10.7653
་ཕྱིར༔	-10.7655
▁དྲེགས་པ	-10.7655
་མངོན་དུ་གྱུར	-10.7657
▁དེ་བཞིན་དུ་	-10.7657
་མཐོང་ནས།	-10.7657
་མི་མཐོང་བ	-10.7659
▁ཕྲག་དོག	-10.7659
་ཆོས་སྐུར	-10.7663
▁དམྱིགས་པ	-10.7664
ཱྃ	-10.7665
་མི་ཕྱེད་པ	-10.7671
འི་ཁྱིམ	-10.7671
་བསྒྲུབ་པར་བྱ་བ	-10.7674
▁རྒྱབ	-10.7674
▁རས	-10.7674
་ཡིན་ཅིང་།	-10.7675
་སོ་སྐྱེ	-10.7676
་བསླུ	-10.7677
་སྡིགས་མཛུབ	-10.7677
▁རི་རབ	-10.7678
▁འཕགས	-10.7678
▁ལེན་པ	-10.768
་རལ་པ	-10.7685
▁སྐྱེས	-10.7686
▁ལྷ་མ་ཡིན	-10.7688
་འགའ་ཞིག་གིས	-10.7688
་ཚིག་ཏུ	-10.769
་ཉུང་ངུ	-10.7691
་མཇུག་ཏུ	-10.7692
་ལ་ངེས་པ	-10.7693
་ལུས་དཀྱིལ	-10.7699
་བློ་བཟང	-10.77
་ཞུགས་ནས་	-10.7702
▁བརྒྱད	-10.7704
་ཨཱཿཧཱུྃ༔	-10.7705
ིཾ	-10.7706
▁།སུ	-10.7708
་བཤད་དེ	-10.7709
ར་འགྲོ	-10.771
་མ་མཆིས་སོ།	-10.7711
་ཀླུ་སྒྲུབ	-10.7711
་གསོལ་བ་བཏབ་པས།	-10.7711
ར་མི་ནུས་སོ།	-10.7712
་དང་བཅས་པའོ།	-10.7713
འི་བར་ཆད	-10.7715
▁ཕྱི་ནང་གསང་བ	-10.7716
▁ནཱ་ག	-10.7717
འི་དབང་བསྐུར་བ	-10.7717
་པའི་ཆོས	-10.7718
་བྲང	-10.7718
་བྱུང་ནས	-10.7719
་སྟོན་པ་ནི།	-10.7723
ར་མ་ཟད	-10.7723
ང་གིས	-10.7726
▁།ཕུང་པོ	-10.7727
་སྡང་བ	-10.7728
་ཅིས་ཀྱང	-10.7728
་བཞུགས་སོ༔	-10.7729
་ལོ་ཀ	-10.773
་ཤམ	-10.7731
་ཚང་མ	-10.7732
་འཐེན	-10.7732
་སུ་འགྱུར་རོ།	-10.7733
་དེའི་ཚེ།	-10.7735
་གྱི་སྐུ	-10.7737
▁།བཅུ	-10.7741
▁གཟུགས་སོགས	-10.7743
་སྦྱིན་པའི་	-10.7743
་གནག	-10.7744
འི་དོན་ཏེ།་	-10.7746
ར་སྣང་ངོ་།	-10.775
་མདོ་རྒྱུད	-10.7753
་མེ་འབར	-10.7755
་སྡེ་བཞི	-10.7757
ར་འགྱུར་རོ༔	-10.7757
ར་བྱས་ཏེ	-10.7757
་གི་བར	-10.7759
་ཡོད་པ་ལས།	-10.7759
▁སྟག	-10.776
་ཚད་ལྡན	-10.776
༅	-10.7762
་ཟུར་དུ	-10.7763
▁རྟག	-10.7765
་མི་དམིགས་སོ།	-10.7765
་ངེས་ཤེས	-10.7768
་སོ་སོར་ཐར་པ	-10.7775
་ལ་ཡིད	-10.7775
འི་ཆོས་ལ	-10.7781
▁།བདུད	-10.7781
ཥྟ	-10.7782
▁བྱང་ཕྱོགས	-10.7783
་དེ་ཙམ	-10.7785
་ཕ་རོལ་ཕྱིན	-10.7787
་བདུན་ཅུ	-10.7791
་གདུག་པ་ཅན	-10.7791
་ལས་ཀྱིས	-10.7791
་གཅེར་བུ	-10.7791
་འཁྲིལ	-10.7791
་དུ་མེད་པ	-10.7792
་གནམ་ལྕགས	-10.7792
▁རང་ལུགས	-10.7792
་གལ་ཏེ་	-10.7793
ར་བཅས	-10.7793
་ཀྱི་ཡུལ	-10.7793
་སྡོད་པ	-10.7797
་རིང་བསྲེལ	-10.7797
འི་གྲོང་ཁྱེར	-10.7799
་ནག་པོའི	-10.78
ར་བསམས་ལ	-10.7801
་སྣང་བ་མཐའ་ཡས	-10.7801
་མཚན་དཔེ	-10.7803
་ཁུལ	-10.7805
་མཐིང་ག	-10.7806
་ཟེ	-10.7807
་ནས་བཟུང་སྟེ	-10.7807
་ཕ་རོལ་ཕྱིན་པ	-10.7808
▁ནས་	-10.7809
▁ངོ་མཚར	-10.781
་གལ	-10.7812
སྣང	-10.7812
ཏིང་འཛིན	-10.7813
་བདག་ཉིད་ཀྱི	-10.7815
་ལྷན་ཅིག་སྐྱེས	-10.7817
་བསྐྱེད་ལ།	-10.7817
་སངས་རྒྱས་ཀྱི་ས	-10.7818
་གྱི་ཆ	-10.7818
་བད	-10.7818
་མ་ཡིན་ཏེ་	-10.7818
་པ་ཉིད	-10.7822
་གཡའ	-10.7823
་སྤྱང	-10.7823
▁ཞེས་བརྗོད།	-10.7824
་བཅུ་གཉིས་ཀྱི	-10.7824
་དགེ་རྩ	-10.7827
་ཅིར་ཡང	-10.7828
་དབུ་མར	-10.7832
་མདུད་པ	-10.7833
འི་རྣམ་པ་ཅན	-10.7833
་དེའི་དོན	-10.7835
▁༼༡	-10.7837
འི་སྤྲུལ་པ	-10.784
▁སྲེད་པ	-10.7842
དབང་ཕྱུག	-10.7843
▁ཁ་ཅིག་ནི	-10.7845
་ཁྱེད་རྣམས	-10.7845
▁སྐད	-10.7848
་གཏེར་གྱི	-10.7849
་ཁྱེད་ཅག	-10.785
་མྱོས་པ	-10.7852
་གཉིས་པོ་དེ	-10.7853
་གདགས	-10.7855
་སུམ་ཅུ་རྩ་གསུམ	-10.7855
་སྦར	-10.7856
་བེར	-10.7857
་གཡོགས	-10.7858
རྣམ་ཤེས	-10.7861
་དབང་བསྐུར་རོ༔	-10.7861
་འབྱུང་ཞིང་།	-10.7863
་སྣང་ལ	-10.7863
་ས་སྐྱ	-10.7864
་རྟེན་ལ	-10.7865
༢༩	-10.7866
▁མཐོང་ལམ	-10.7869
་ལ་སྐྱོན	-10.7869
་དང་བྲལ།	-10.7871
▁།གཉིས་པ་ནི	-10.7871
་ཞིང་གི	-10.7871
སངས་རྒྱས་ཐམས་ཅད	-10.7871
་འབྲི་བ	-10.7872
ས་གནོད་པ	-10.7873
གང་ཚེ	-10.7874
་གྱི་ཆོས	-10.7875
▁མཚན་མ་མེད་པ	-10.7875
་རྫོགས་པའི་རིམ་པ	-10.7876
་ཀྱིས་ནི	-10.7876
་འགྱིང	-10.7876
▁།འོད་གསལ	-10.7877
་འབུམ་གྱི	-10.7878
་ཐམས་ཅད་ཀྱི་	-10.7878
་ནི་སྔར	-10.7879
འི་བློས	-10.7879
འི་གེགས	-10.788
ས་ལྷ	-10.7884
་དུའང	-10.7884
་མཾ	-10.7888
་ནི་འཇིག་རྟེན	-10.789
ས་རང	-10.789
་མགུལ	-10.7891
་ཡང་དག་པར་རྗེས་	-10.7894
་མི་བཟོད་པ	-10.7894
་འཕགས་མ	-10.7894
་འཇམ་པ	-10.7895
་སྲོག་གཅོད་པ	-10.7896
་མཛེས་པའི	-10.7897
་ལྡེམ	-10.7898
་བར་བྱ།	-10.79
་ལས་འབྲས	-10.7901
་གཤོག	-10.7902
་ལས་ཉམས་པ	-10.7902
་ཐམས་ཅད་དུ།	-10.7903
འི་གནོད་པ	-10.7903
་གཟོ	-10.7904
་དྷཱ	-10.7904
་རང་དབང	-10.7905
་རྣམ་མཁྱེན	-10.7906
་རྗེས་སུ་ཡི་རང་བ	-10.7908
་དང་དུས	-10.7909
་མི་བསླུ་བ	-10.7909
་འཁོར་གསུམ	-10.791
་རེ་ལ	-10.7911
འདུ	-10.7911
▁།མཐར་ཐུག	-10.7911
་སྩོལ་བ	-10.7911
▁།རང་སེམས	-10.7912
་དྲི་ཟ	-10.7914
▁།དམ་ཆོས	-10.7914
འི་རྣམ་པར་རྟོག་པ	-10.7915
་ཙམ་ན	-10.7916
▁ཉེས་བྱས་སོ།	-10.7916
▁པའོ།	-10.7917
ར་སྐྱེས་པ	-10.7917
་ཡེ་ཤེས་རྡོ་རྗེ	-10.7917
▁རེག	-10.7918
ར་གྱུར་ནས	-10.7922
་བདེན་མེད་དུ	-10.7922
་ལྟར་སྣང་བ	-10.7923
▁མཚོ	-10.793
་རྒོལ	-10.7932
་འག	-10.7934
་དང་༑	-10.7934
▁ཨོཾ༔	-10.7937
་མ་ཎི	-10.7937
་འཁོད	-10.7938
▁གཙུག་ལག་ཁང	-10.794
༡༨	-10.7941
ནྟི	-10.7943
་ཡོད་ཀྱི	-10.7944
་ལ་སྨྲས་པ།	-10.7946
་དཀར་གྱི	-10.7946
་ཨཱ༔	-10.7946
་པའི་ཚེ།	-10.7948
བླ་མའི་རྣལ་འབྱོར	-10.7948
་ཕོ་བྲང་ནས	-10.7948
་གྲིབ་མ	-10.7949
་རྡོ་རྗེའི་སྐུ	-10.7951
་ནོར་བུའི	-10.7951
་སླེབ་པ	-10.7952
▁/-	-10.7956
་མྱ་ངན་འདས་པ	-10.7957
་བྱེད་པ་ནི	-10.7957
་བསེ	-10.7959
▁ལྷན་ཅིག་སྐྱེས་པ	-10.7959
ཅ	-10.7961
▁དེས་དེ	-10.7964
▁སངས་རྒྱས་ཐམས་ཅད	-10.7964
་སྦྲུལ་གྱི	-10.7966
་མྱང	-10.7968
འི་ལུགས་ཀྱི	-10.7968
▁།གཞུང	-10.7968
▁བོད་སྐད་དུ།	-10.7969
་སྙམ་མོ།	-10.797
་ཞེས་གསུངས་སོ།	-10.797
་གི་དཀྱིལ་འཁོར	-10.797
་གལ་ཆེ	-10.797
སེམས་ཅན་ཐམས་ཅད	-10.797
▁སྟོང་གསུམ	-10.7971
་བཞི་ལས།	-10.7972
▁།བྱང	-10.7972
་བཀའ་བསྒོ	-10.7974
་སྐྱེས་བུ་དམ་པ	-10.7974
་དང་བཅས་པར	-10.7975
་ཅི་སྟེ	-10.7975
་དོན་བྱེད་པ	-10.7981
་མ་བྱས་པར	-10.7982
གཞན	-10.7983
་ཀའི	-10.7985
་བསྟན་པ་ཡིན་ནོ།	-10.7987
་གྲོགས་སུ	-10.7988
་ལ་ཁྱད་པར	-10.7988
▁གདམས་ངག	-10.7988
▁།གྲུབ་པ	-10.799
▁།འོད	-10.799
་ཏྭ	-10.7991
་ཆར་འབེབས	-10.7992
▁རིམ་གྱིས	-10.7995
་གྱི་ཚུལ་དུ	-10.7995
་རྒྱུ་མེད་པ	-10.7995
་རྡ	-10.7995
་རུ་ལུ	-10.7996
་གཡག	-10.7999
▁དྲི་ཟ	-10.8
་འཁོར་བཅས་ཀྱི	-10.8001
་སོང་ངོ་།	-10.8002
་ཉམས་སུ་བླང	-10.8004
་དགེ་བཤེས	-10.8004
་ཐམས་ཅད་ལས	-10.8006
་བྱ་བའི་ཕྱིར	-10.8009
་ཐུམ	-10.801
་ནི་དོན	-10.801
རྩལ	-10.8012
ར་སོང	-10.8012
་ཁྱད་པར་ཅན་གྱི	-10.8012
སྒྲུབ	-10.8012
་འཛམ་གླིང	-10.8012
་འཐོར་བ	-10.8015
▁།དེ་རིང	-10.8017
་པའི་ཡེ་ཤེས	-10.8017
འི་ཚིགས་སུ་བཅད་པ	-10.8019
་ངལ་བ	-10.8019
ར་བཞུགས	-10.8021
་དང་མཚུངས	-10.8021
་བསྣོལ	-10.8022
་ཡན་ལག་བདུན་པ	-10.8023
་ནོངས་པ	-10.8025
ས་ཀྱིས	-10.8026
་བྷྱོ༔	-10.8026
▁ཐུགས་ཀ	-10.8028
་བྱང་དུ	-10.803
་སྐེ	-10.8033
་ཆགས་པའི	-10.8033
་རང་བཞིན་དུ	-10.8037
་མེད་ཕྱིར	-10.8037
་འདི་ལ་	-10.8038
འི་སྔགས་ཀྱིས	-10.804
་དབང་ཐོབ	-10.8042
▁།ཅི་སྟེ	-10.8042
འི་བྱང་སེམས	-10.8042
་ལས་མ	-10.8043
ར་བྱིན་གྱིས་རློབ	-10.8043
་ཕྲུག	-10.8043
▁རྟོགས	-10.8046
་བགོས་པ	-10.8047
▁ཀཱ	-10.8047
་ཕྲིན་ལས་ཀྱི	-10.805
་ཆིག	-10.805
་བརྩམ	-10.8053
ན་མོ	-10.8054
འི་རྒྱུད་ལས།	-10.8054
་གནས་ཀྱང	-10.8054
་འགྱེད་པ	-10.8056
▁ཏྲི	-10.8058
་གདུབ	-10.8059
་ཞུམ་པ	-10.806
་དཀོར	-10.8061
▁མཚོན	-10.8061
ས་བརྒྱན	-10.8064
འི་རྩལ	-10.8066
་ཐོས་ནས	-10.8068
▁།གང་དུ	-10.8069
་འཁྱ	-10.8069
འི་བཀྲ་ཤིས་ཤོག	-10.807
▁།རང་ཉིད	-10.8071
▁།སྡོམ་པ	-10.8073
་འཁུ	-10.8073
་གཅུ	-10.8073
་ཤིན་ཏུ་ཆེ་བ	-10.8073
་རྒྱབ་ཏུ	-10.8073
འི་ཤེས་རབ་ཀྱིས	-10.8074
▁ཏྲ	-10.8077
་ནུ་མ	-10.808
་རྗེས་ཟློས	-10.808
་རྟེན་འབྲེལ་གྱི	-10.8081
་རང་གཞན	-10.8082
་རབ་གསལ	-10.8083
འི་སྐྱེ་མཆེད	-10.8085
དབེན	-10.8087
▁།ཚུལ	-10.8087
་ཚུད	-10.8089
▁གསུམ་པ་	-10.8092
་ཞལ་གྱི	-10.8093
་སྟོན་པར་བྱེད་པ	-10.8093
་དྲུག་སྟེ།	-10.8095
་ཐོག་མ་མེད་པ་ནས	-10.8095
འི་མཆོད་རྟེན	-10.8097
ས་གཞི	-10.8098
་ཆོས་ཀུན	-10.8098
་རང་ཉིད་ཀྱིས	-10.81
་བའི།	-10.8101
་མི་རུང་སྟེ།	-10.8101
་ལོག་ལྟ	-10.8103
་སྟོབས་ཀྱི	-10.8103
་གཙང་བ	-10.8107
་དེས་ནི	-10.8107
་ལས་འབྲས་བུ	-10.8108
་ཁ་ཊྭཱཾ་ག	-10.8109
་མཉམ་པར་བཞག	-10.811
་ལ་དགའ	-10.811
་བཀའ་བབས	-10.8111
▁སྨད	-10.8114
་ཀཾ	-10.8115
་རྒྱུད་དུ	-10.8117
▁བླ་ན་མེད་པ	-10.8117
་དུ་བཅུག	-10.8117
་རང་སངས་རྒྱས	-10.8117
་སྒྲ་དོན	-10.8119
ར་བྱས་ནས།	-10.8119
ར་མཛོད༔	-10.8119
་དབོན	-10.812
་སྲབ	-10.8122
▁རྒོལ་བ	-10.8125
▁ཀུན་ནས་ཉོན་མོངས	-10.8125
་མི་ཡི	-10.8125
་ཀྱི་དབྱེ་བ	-10.8126
▁དབུ་སྐྲ	-10.8127
་དུ་གཞུག	-10.8127
འི་མདངས	-10.8128
▁འོག	-10.8129
ུང་ཁམས་སྐྱེ་མཆེད	-10.813
་ཟབ་མོ་འདི	-10.8131
▁།ཞེས་འབྱུང་བ	-10.8132
་མྱ	-10.8134
་རྣམ་པར་མི་རྟོག	-10.8138
་གཅིག་ཉིད	-10.8138
་ཏ་ལ	-10.8139
་བྱུང་བས།	-10.8139
་ཡ༔	-10.814
་ནོར་བ	-10.8141
▁།ལྷག་མ	-10.8143
་དུ་སོང	-10.8143
་རྃ	-10.8144
▁ཚུར་འདུས	-10.8144
་གཏོར་འབུལ	-10.8145
དང་།	-10.8146
་དམ་བཅས་པ	-10.8147
་ཕོད	-10.8148
་ངོ་སྤྲད	-10.8148
་ཐོབ་པའི་	-10.8149
་བསྐྱབ	-10.815
་གསེར་སྐྱེམས	-10.8155
་སྤོང་བའི	-10.8155
▁ཆོས་ཀྱི་སྐུ	-10.8157
་ནམ་མཁའ་དང་མཉམ་པ	-10.8159
་འཕངས	-10.816
▁གསུམ་པ་ལ	-10.816
▁རབ་གནས	-10.816
་རྒྱས་བཤད	-10.816
་ཝཱ	-10.8161
་བཤད་ཅིང་།	-10.8161
་བྱ་བྱེད	-10.8165
▁།མཆོད	-10.8165
་འདུད	-10.8165
་དྲངས་ནས	-10.8166
་གྱི་དབུས་སུ	-10.8168
་མཁའ་འགྲོའི་ཚོགས	-10.817
▁མ་རིག	-10.8171
་བླ་མ་རིན་པོ་ཆེ	-10.8171
▁རྟེན་ཅིང་འབྲེལ་	-10.8173
་ཐམས་ཅད་ལ།	-10.8174
་བཟླས།	-10.8175
་ཚར་གཅོད	-10.8178
▁00000255	-10.818
་གཤིན་རྗེའི་གཤེད	-10.8181
་འབེབ	-10.8183
▁།དཔེ	-10.8183
ར་སྤྱོད་པ	-10.8184
་རྡོ་རྗེ་ཐེག་པའི	-10.8185
པར་འབྱུང་བ	-10.8186
་འགྲོ་ལ	-10.8186
་ལྟས་ངན	-10.8187
་མང་།	-10.8188
ང་དང	-10.8189
་སེམས་	-10.8191
་ཚོགས་མཆོད	-10.8192
▁འདི་ཡང	-10.8197
▁བཏང་སྙོམས	-10.8197
་ཚིམ་པ	-10.8198
་སྤྱན་སྔ	-10.82
ན་པོ	-10.82
་པ་ན	-10.8202
▁ཟབ	-10.8203
་འཇུག་ཅིང	-10.8204
་སྒྲུབ་པ་དང་།	-10.8205
་གསོག	-10.8207
▁གོང	-10.8208
▁ལྷག	-10.8209
སྲིད	-10.8209
་བདུན་དུ	-10.821
་སྤངས།	-10.8211
་བཞུགས་པར	-10.8213
་མགུ	-10.8216
་ཀྱིས་བསྡུས་པ	-10.8218
▁ཇི	-10.8219
་དྲུག་དང	-10.822
▁།རྨི་ལམ	-10.8221
་ཐོས་བསམ	-10.8223
་བག་ཆགས་དང་བཅས་པ	-10.8224
་གི་མཚན་ཉིད	-10.8224
་ཀྱི་ས་བོན	-10.8224
ར་བགྱིད	-10.8225
་རྫས་གཞན	-10.8226
▁སྟེང་དུ	-10.8227
ས་རྒྱུད	-10.8228
་ཟིལ་གྱིས་གནོན་པ	-10.8229
་ལ་འབུལ།	-10.823
་སྤྱན་དྲངས་ཏེ	-10.8233
་ལ་ནན་ཏན	-10.8234
ཱ་ཡ་སྭཱ་ཧཱ།	-10.8237
་ཆེ་བ།	-10.8237
▁།སྨན	-10.8237
་སོར་བཞི	-10.8239
་ནི་རྟག་ཏུ	-10.8239
ར་བསྟན་པའོ།	-10.8244
་ཉེ་བར་གནས་པ	-10.8245
་ནི་རབ	-10.8245
་དགའ་སྟོན	-10.8246
་ཀུན་ལས	-10.8247
▁གསོལ	-10.8251
་འགྲུབ་པར་ཤོག	-10.8252
ཇི་སྐད་དུ།	-10.8252
▁།ཉམས	-10.8255
▁གྱིས	-10.8255
▁འདིས་ནི	-10.8257
▁།དབང་བསྐུར	-10.8258
▁གཅིག་ཏུ	-10.8259
འི་གཟུགས་སུ	-10.8259
▁བསམ་གྱིས་མི་ཁྱབ	-10.826
་མངའ་གསོལ	-10.8262
▁ཨོྃ་བཛྲ	-10.8267
་འབར་བས	-10.8268
་གྲངས་ངེས	-10.827
▁།མཐའ	-10.8271
་ཚར་གཅིག	-10.8272
་ཞེས་ཀྱང	-10.8272
་རབ་ཏུ་དབྱེ་བ	-10.8274
་མི་འགལ	-10.8276
་བཅུ་དྲུག་གི	-10.8278
ཆུ	-10.8278
་ཡིག་བརྒྱ	-10.8278
ས་ཤིན་ཏུ	-10.8278
▁བག	-10.8282
་བཅོམ་ལྡན་འདས་ལ་	-10.8284
▁།རྒྱལ	-10.8288
་མདོར་བསྟན་པ	-10.8289
་ཞེས་པ་ནས	-10.8289
་ཆ་ལུགས	-10.829
▁།གནོད་སྦྱིན	-10.829
་ཤེ	-10.829
་མ་ལགས།	-10.829
་དཀར།	-10.8295
་ལམ་དུ་བྱེད་པ	-10.8296
▁ཕ་མ	-10.8298
འི་མཐུས	-10.8298
▁ཆགས	-10.8301
་རྡོར་དྲིལ	-10.8301
་གྱེས་པ	-10.8302
་སྤྱི་བོར་བཞག	-10.8307
་འདུས།	-10.831
་གཟུ	-10.831
་གངས་ཅན	-10.8311
་ཉིས་བརྒྱ	-10.8312
་རབ་རིབ	-10.8315
་འདོད་ཆགས་དང་བྲལ	-10.8316
▁བྱེད་པ་པོ	-10.8317
་ཤར་གྱི	-10.8317
▁ཨོཾ་ཨཱཿཧཱུྃ།	-10.8318
་ཕྱི་རོལ་ཏུ	-10.8318
རྡོ་རྗེ	-10.8318
་ཀྱི་དབང	-10.8322
་སྩོལ༔	-10.8322
་བསྣུན	-10.8322
་གང་དུ་ཡང	-10.8322
་དེ་ཉིད་ལས།	-10.8324
་ཌྷ	-10.8324
་ཀྱི་རྣམ་གཞག	-10.8325
་བཀྲོལ	-10.8325
▁ཤུ	-10.8326
་འོད་ཟེར་འཕྲོས།	-10.833
▁བརྗོད་བྱ	-10.833
་དུ་བྱེད་པ	-10.8333
་བཏབ་པས	-10.8334
་རབ་ཏུ་གནས་པ	-10.8335
▁འགོ	-10.8337
ན་དུ	-10.8337
་བཛྲ་ས་མཱ་ཛཿ	-10.8338
ཇི་སྙེད	-10.8339
▁ལོ་ཙཱ་བ	-10.834
▁ངེད	-10.834
ས་སམ།	-10.834
་འོད་གསལ་དུ	-10.8342
་གནད་དུ	-10.8342
་མང་པོར	-10.8343
་དཀྲོལ	-10.8345
་པ་སྟེ	-10.8345
་ངོ་བོ་ཉིད་མེད་པ	-10.8347
་ཡམས	-10.8348
་རྣམ་པར་དག་པ་སྟེ	-10.8349
ཱ་ས	-10.8349
་སྟོན་པ་དང་།	-10.835
་ལ་འབད	-10.8352
▁དགེ་སློང་གི	-10.8354
་འདྲ་བར	-10.8355
་ལ་གནོད	-10.8363
▁༡༠	-10.8364
་སོགས་ནས།	-10.8364
་བྱ་བའོ།	-10.8364
་དྲངས་ཏེ	-10.8364
་སྤྲོས་མེད	-10.8365
་ཐལ་འགྱུར	-10.8367
་ལ་གནས་ནས	-10.8369
▁སྤྱོད་ལམ	-10.8373
་མཉམ་པ་ཉིད་དུ	-10.8374
་ཀྱི་དངོས་པོ	-10.8375
▁མངོན་པ	-10.8376
་ཡན་ལག་བཞི	-10.8376
འི་རྟོགས་པ	-10.8376
འི་རིགས་སུ	-10.8377
་ལ་དོན	-10.8383
་གི་ཁྱད་པར	-10.8384
་རང་རང	-10.8384
་ཐོ་རངས	-10.8385
ས་རབ	-10.839
་དེ་འདྲ་བ	-10.839
་གི་ནང་དུ	-10.8392
་འཕྲོས་པ	-10.8394
་ལྟག	-10.8396
་མཛད་པས།	-10.8396
་དཔའ་བོ་མཁའ་འགྲོ	-10.8398
▁གཞན་ཡང་།	-10.8399
▁ཡོ་བྱད	-10.84
་པར་བསམ།	-10.84
་མདོར་བསྡུས་པ	-10.84
་སྒྱུར་བ	-10.8401
་རྒྱུད་ལས།	-10.8401
▁རྡུལ	-10.8402
་བཟང་པོས	-10.8402
▁གླེང་གཞི	-10.8405
▁།སྙིང	-10.8406
་ནུས་པས	-10.8406
་འདི་བཞེས་ལ།	-10.8412
་འཐོབ།	-10.8413
▁།ད་ལྟ	-10.8414
་གྱིས་	-10.8415
་སྙིང་ནས	-10.8415
་མཉམ་སྦྱོར	-10.8415
་མ་ཡིན་ནམ།	-10.8415
་བྱིན་རླབས་ཀྱི	-10.8417
་བརྒྱད་དང་།	-10.8419
▁མཆོག་གི	-10.8421
་སྦྱར་ཏེ་	-10.8423
▁།ཚངས་པ	-10.8425
་ཏི།	-10.8426
་བཤད་པར་བྱའོ།	-10.8427
་གྱི་ལྷ་ཚོགས	-10.8427
་བཀབ	-10.8427
་བཏེག	-10.8428
་བཀུར་སྟི	-10.8428
་རྒ་ཤི	-10.8429
་བྱིན་གྱིས་རློབ	-10.8433
་ནཱ་ད	-10.8433
▁སྦྱིན་པའི་	-10.8436
་ཐོབ་པར་བྱེད་པ	-10.8439
་ཁོངས	-10.844
▁།སྐུ་གསུམ	-10.8442
་གསང་ཆེན	-10.8444
་ཞུགས་ནས	-10.8445
་པར་གྱུར་པ	-10.8445
་ཁྱེད་རང་རྣམས	-10.8446
་དེ་ཀ	-10.8449
་གསུམ་སྟེ	-10.8449
་བརྟན་པར	-10.845
་དགུའི	-10.845
▁བཙན	-10.845
་ཡོངས་སུ་བསྔོ་བ	-10.845
་ཞི་བ་དང་།	-10.8451
་མཆོད༔	-10.8452
་ཞེས་པའི་བར་གྱིས	-10.8454
▁ཏིལ	-10.8454
་དང་ལྡན་པ་དང་།	-10.8455
▁།ཀུན་རྫོབ	-10.8455
་ངོས་སུ	-10.8455
ས་བཀང་བ	-10.8456
་བཟུང་ནས།	-10.8458
་འགྲོགས	-10.8459
འི་སྒྲུབ་པ	-10.8459
་པི	-10.8459
ྴ	-10.8461
་ཡིན་མོད།	-10.8462
ང་པ	-10.8463
་བྱེད་དགོས	-10.8464
་བཞི་ལས	-10.8466
་བསྟིམ	-10.8467
་དུ་གྲགས་པ	-10.8468
་གྱི་འཁོར་ལོ	-10.8469
་བདུད་རྩིར	-10.8474
▁གུར	-10.8474
་སྨྲས་ན	-10.8478
་སྒོ་བཞི	-10.8478
00000255	-10.8479
་ཐོགས་ལ།	-10.8479
སེམས་ཅན་རྣམས་ཀྱི	-10.848
་འཆོལ་བ	-10.8481
་དེ་ཐམས་ཅད	-10.8482
་རྡོ་རྗེ་འཆང་།	-10.8483
་ཞབས།	-10.8484
་གོང་མའི	-10.8485
་དུ་བཞུགས་པ	-10.8486
་ཐབས་སུ	-10.8488
་ཡི་གེར	-10.8488
་ཀུ་རུ	-10.849
་དུས་ན	-10.8491
་གྲོགས་པོ	-10.8493
༢༣	-10.8493
་ཤེས་ནས་	-10.8496
་སྦྱར་ནས	-10.8497
་གཟུགས་ལ་སོགས་པ	-10.8497
་སྨྲོས	-10.8497
▁ཞལ་ཟས	-10.8497
་ལོ༔	-10.8498
ར་བྱེད་ལ།	-10.8501
འི་སྐྱེ་བ	-10.8501
་རྒྱལ་མོ	-10.8502
་རྣམས་ཀྱི་ནང་དུ	-10.8502
འི་དབྱིབས	-10.8505
ཆོག་གི་དངོས་གྲུབ	-10.8505
་ཡ་མཚན	-10.8507
་སྡེར	-10.8509
▁།ཕྱོགས་བཅུ	-10.851
▁ཇི་ལྟར་ན	-10.8511
་ཆ་མཐུན	-10.8512
་བསྐྱེད་ནས་	-10.8513
་མཆོག་སྦྱིན	-10.8513
གོ	-10.8515
་ནི་གཟུགས	-10.8517
་ཡི་གེ་བརྒྱ་པ	-10.8519
་གནས་གྱུར་པ	-10.8522
འི་གོ་རིམ	-10.8525
་གྲུབ་ན	-10.8525
་བདེན་གྲུབ	-10.8526
་ཚོགས་ཀྱིས	-10.8528
་མཆོད་སྤྲིན	-10.8529
་རིན་ཆེན་འབྱུང	-10.853
▁ནུབ་ཕྱོགས	-10.8532
གྱུར	-10.8533
༢༡	-10.8533
་མཐུས	-10.8534
་དྲུག་དང་།	-10.8535
འི་མཚན་ཉིད་ཅན	-10.8537
་ལ་དགོངས	-10.8538
ེ་བྷྱཿ	-10.8544
་བསྒྲུབ་བྱའི་ཆོས	-10.8544
་མངོན་པར་ཞེན་པ	-10.8546
་རྣམས་ལ་ནི	-10.8548
▁ཐལ་བ	-10.855
་དུ་ནི	-10.8551
་གྲོལ་བར	-10.8554
་འགྲེལ་ལས།	-10.8555
▁ཞེས་པ་ནི	-10.8555
▁ཐབས་ཤེས	-10.8556
་མ་ཧེ	-10.8557
་ལས་ཐར་བ	-10.8557
་ལོར	-10.8558
་ལ་སློབ་པ	-10.8558
་དྲངས་པའི	-10.8559
▁དེ་དུས	-10.8559
་ཅག	-10.856
▁;%-	-10.856
་ཚྭ	-10.8562
་ཞབས་ཏོག	-10.8564
་འདག	-10.8565
་གྱི་དུས་སུ	-10.8565
་སེང་གེའི	-10.8566
་ཐབས་ལ་མཁས་པ	-10.8566
་ལྷོ་ཕྱོགས	-10.8567
་སྐུ་མཆེད	-10.8568
▁མཐུ	-10.857
་མཧཱ	-10.8571
་ལྷུག་པ	-10.8572
ཚེ་རབས	-10.8573
་སྟོང་གསུམ་གྱི་	-10.8573
་ཀྱི་གཞི	-10.8574
་ཇི་སྙེད་ཡོད་པ	-10.8574
་ནུས་མཐུ	-10.8574
▁།ཟ	-10.8574
་ནད་གདོན	-10.8576
ཁྲོ་བོའི་རྒྱལ་པོ	-10.8577
འི་མཚོ	-10.8577
་གནོན་པ	-10.8577
་ངེས་པའོ།	-10.858
འི་སྙིང	-10.8582
་ལྡིང	-10.8582
་སྟོང་པ་ཉིད་ལ	-10.8582
་ཐམས་ཅད་ཀྱང་།	-10.8582
་ལ་བསླབ	-10.8588
་༼༤	-10.8589
་རུལ	-10.8589
་ཡང་ངོ་།	-10.8591
་རང་གི་	-10.8591
་ཆོམ་རྐུན	-10.8593
་མ་ཆགས་པ	-10.8593
▁།བུད་མེད	-10.8594
་ཐུགས་བསྐྱེད	-10.8594
་ཀྲོ་ཏ	-10.8594
་བྱུང་ཡང	-10.8595
▁རང་གི་མཚན་ཉིད	-10.8595
་ཚིལ	-10.8595
་བཀྲམ	-10.8598
་ཁྱིམ་དུ	-10.8599
་བསླང་བ	-10.86
འི་ཞིང	-10.8602
▁།སྣ	-10.8602
་གྲགས་པས	-10.8605
་ད་ལྟར་བ	-10.8605
▁བདག་གཞན	-10.8606
་གྱི་ནང་དུ	-10.8609
་ཨ་བྷི་ཥིཉྩ་ཧཱུྃ	-10.8609
་ཐམས་ཅད་ཞི་བ	-10.8609
འི་ཞལ་ནས	-10.8609
་ཡེ་ཤེས་ཀྱི་ཚོགས	-10.8611
་གནས་ཁང	-10.8612
་བསྒོམ་པ་ནི།	-10.8612
འདུས་ཏེ་རེག་པ	-10.8613
ེ་སྭཱ་ཧཱ།	-10.8613
་ཐིམ༔	-10.8613
་བལྟས་ཏེ	-10.8614
་ཞག་གཅིག	-10.8621
་གངས་རི	-10.8621
་ཇི་སྙམ་དུ་སེམས།	-10.8624
་བསྣན	-10.8626
་ཡིན་པ་ལ	-10.8626
▁ཕྲ	-10.8626
་མ་དག	-10.8626
▁གྲོལ་བ	-10.8628
་འོག་ནས	-10.8629
▁དུས་འཁོར	-10.8631
▁།ཕྱི་མ	-10.8633
▁འཇ	-10.8635
▁།འབྱུང་བ	-10.8637
་ཤེས་རབ་ཀྱིས	-10.8637
་ལགས་ན།	-10.8638
་གཏོད་པ	-10.8638
▁བཀའ་སྩལ་པ།	-10.8639
འི་ཕོ་བྲང	-10.8639
▁སྦྱོར	-10.8641
ར་གདམས་པ	-10.8642
་འགྲོ་འོང	-10.8652
་བཤམས།	-10.8652
▁སྙན	-10.8653
་གདོད་མ	-10.8654
་རེ་རེ་ནས	-10.8655
་ཙམ་མོ།	-10.8657
་མི་དགོས་པར	-10.8657
དྲ	-10.8658
་བདེན་འཛིན	-10.8658
་དང་ཉེ་བའི	-10.866
་བཞད	-10.866
་ཆོ	-10.8661
་པདྨ་དཀར་པོ	-10.8662
་སྦྱར་ནས་	-10.8664
་མཉམ་པའི	-10.8664
འི་དགེ་བའི་རྩ་བ	-10.8665
་རྩ་འགྲེལ	-10.8667
ར་མི་འགྱུར་ཏེ	-10.8667
་དེ་ལ་	-10.8669
་བདག་ཉིད་ཀྱིས	-10.8669
་བག་ལ་ཉལ	-10.8671
་ཆེ་བའི	-10.8671
འི་འགྲོ་བ	-10.8671
དམ་ཚིག་དང་སྡོམ་པ	-10.8672
་འབྲལ་བ	-10.8673
་གཏོར་བ	-10.8673
་ལ་ལྟོས་ནས	-10.8675
▁བསྒྲུབ་པ	-10.8675
་རྗེས་འཇུག	-10.8677
་མ་ནིང	-10.8677
་གཡུང་དྲུང	-10.8678
▁གྲོ	-10.868
་རང་རྒྱལ	-10.868
▁།དགེ་འདུན	-10.8681
་ཙཱ	-10.8683
་ཆ་མེད	-10.8684
་ལྷའི་རྣལ་འབྱོར	-10.8686
ཞེས་བྱ་བ	-10.8686
འོ་ཞེས་བྱ་བ	-10.8686
་ཧྲཱི	-10.8688
་དང་མཇལ	-10.869
་ནི་ས	-10.8692
་འདུག་པས།	-10.8692
་ཆེ་བར	-10.8692
2?-	-10.8692
་དུག་གི	-10.8693
་ཡིད་བྱེད	-10.8694
་སྦོམ	-10.87
་མཆོད་པ་དང་།	-10.8702
་ཚད་མར	-10.8702
་བུང་བ	-10.8706
་འགྲ	-10.8707
▁།གསོ	-10.8707
ེ་ཏ	-10.8708
་བཏང་བས	-10.8711
ར་གྱུར་ཅིག་ཅེས	-10.8713
་སྡེ་ཚན	-10.8713
་འབུལ་ལོ།	-10.8714
▁བམ་པོ	-10.8715
་བསྒྲུབ་པར་བྱའོ།	-10.8717
▁།བསྟན	-10.872
འི་ཁྲིད	-10.872
་འགྱུར་ཏེ	-10.8723
་ཌཱཀྐི	-10.8723
་ཤེས་ན་	-10.8723
འི་རྒྱ	-10.8728
་མཐོང་ཞིང	-10.8728
་དམོད་པ	-10.873
ཏེ	-10.873
་ངོ་བོ་ཉིད་ཀྱི	-10.8731
་འདར	-10.8733
་སུམ་ཅུ་རྩ་བདུན	-10.8733
▁ཞེས་ལན་གསུམ	-10.8735
འི་དབྱིངས་སུ	-10.8736
▁།བཞི་པ་ནི།	-10.874
་སོང་སྟེ	-10.8742
་རྩེ་གསུམ	-10.8747
་ལ་སྔགས	-10.8747
▁ཤཱཀྱ	-10.8749
▁སྦྱིན་སྲེག	-10.8752
་བྷྱ	-10.8753
་རང་ཉིད་ཀྱི	-10.8754
་ཨཱཿཧཱུྃ	-10.8754
པར	-10.8755
་བཟླས་ཏེ	-10.8756
་འདུག་པས	-10.8757
་འཆལ	-10.8759
ར་བྱས	-10.8759
་མི་གནས	-10.876
▁།ལོངས་སྤྱོད	-10.876
་བླང་།	-10.8761
ིནྡྷ	-10.8763
་འབད་པས	-10.8764
་རྡོག	-10.8765
ུ་བ	-10.8765
་འཇོམས།	-10.8766
་བུད་མེད་ཀྱི	-10.8767
་ཆོས་སྡེ	-10.8767
་གཟུང་བྱ	-10.8768
་ཞེས་ཟེར་བ	-10.8768
འི་རང་བཞིན་གྱི	-10.8771
▁།བདུན་པ	-10.8771
▁ཙིཏྟ	-10.8772
ཀྟ	-10.8772
▁སྡོམ	-10.8774
་སྲོག་ལ	-10.8776
་སྲོག་གཅོད	-10.8777
་མནོས	-10.8778
་གཞོལ་བ	-10.8782
་ངོ་སྤྲད་པ	-10.8782
་བྱེད་པ་ལ	-10.8783
འི་སྤྲིན	-10.8783
་བྲིས།	-10.8783
་མ་གྲུབ་པས	-10.8783
དྡྷ	-10.8783
་བོ་དྷི	-10.8784
▁།དེའི་ཚེ	-10.8785
་ཁམས་གསུམ་གྱི	-10.8789
▁ཕྱག་འཚལ	-10.879
་ལྷུ	-10.8791
་ཐེག་པ་གསུམ	-10.8792
་པའི་དུས	-10.8794
་འབྱོན་པ	-10.8795
་དེའི་རྒྱུ	-10.8796
ར་བྱས་ཏེ་	-10.8797
་ནག་པོ་ཆེན་པོ	-10.88
ཿ།	-10.8803
ར་མ་གྱུར	-10.8804
་བསྐལ	-10.8806
་ལུས་པ	-10.881
་མཐུན་ཕྱོགས	-10.881
▁༩	-10.8812
་གཞིར	-10.8813
་ལ་འབད་པ	-10.8814
▁གུ	-10.8815
་གསང་བ་འདུས་པ	-10.8816
་ལས་གསུངས་པ	-10.882
་དྲུག་ཅུ་རྩ་བཞི	-10.882
་དུ་འཛིན་པ	-10.882
་ཡོད་ཅིང	-10.882
་རྡུལ་ཚོན	-10.882
་འདོད་ན་	-10.8821
འི་ཆ་ཤས	-10.8823
་བཞག༔	-10.8823
་འཇལ	-10.8826
▁གློ་བུར	-10.8826
་གབ	-10.8828
་རང་ཤར	-10.883
▁མཁའ	-10.8833
་མགུར	-10.8834
་ཀྱི་བྱིན་རླབས	-10.8835
་གཙུག	-10.8837
་གསལ་བཏབ	-10.8839
་བསམས་ཏེ	-10.8839
་མ་རྙེད་པ	-10.884
་ནི་ཡུལ	-10.8841
▁གཙུག་ཏོར	-10.8843
་ལྔ་སྟེ།	-10.8846
▁སྔོན་གྱི་	-10.8848
་པགས་པ	-10.8848
▁དབང་བཞི	-10.8848
▁དྲ	-10.885
་བསྙེ	-10.8851
▁ཡི་དྭགས	-10.8853
་ཡོངས་སུ་བཟུང་བ	-10.8854
་དངོས་པོ་ཐམས་ཅད	-10.8855
ས་ལོ	-10.8856
འི་རྣམ་རྟོག	-10.8857
▁རྣམ་པར་གྲོལ་བ	-10.8858
་འགྲེལ་བ	-10.8858
▁འོག་མ	-10.8858
▁རང་གི་	-10.8858
▁མི་མཐུན་ཕྱོགས	-10.8858
འི་ལམ་དུ	-10.886
་ཤྲི	-10.8861
་ཏུ།	-10.8862
་གྱུར་ཏོ།	-10.8862
་སྤྲེའུ	-10.887
་བརྗོད་པར་བྱ།	-10.8872
་སེམས་ཙམ	-10.8874
་སྲེག་པ	-10.8875
་ཡང་ནི	-10.8877
་རྒྱུ་མཐུན	-10.8878
་གླིང་བཞི	-10.8879
་བའི་ཕྱིར	-10.8881
འི་ལམ་གྱི	-10.8882
་ཕྱར	-10.8883
་འགྲུབ་པར་འགྱུར།	-10.8885
་ཁ་ཆེ	-10.8885
་ཞུགས་ཏེ	-10.8885
་མ་ལགས	-10.889
་མ་སྤངས་པ	-10.889
་ཤེད	-10.8893
་བྱིན།	-10.8894
་བསམ་གཏན་གྱི་	-10.8894
་ཕལ་ཆེ་བ	-10.8894
་བརྗོད་དེ།	-10.8896
་བུས	-10.8898
་དང་བསྟུན	-10.8898
་དེ་ལྟ་བས་ན	-10.8899
་ཙནྡྲ	-10.8899
་སྣོད་ཀྱི	-10.89
་ཧོར	-10.8901
་ནི་སེམས་ཅན	-10.8902
▁།ཐ་དད	-10.8903
▁།བྱིན་རླབས	-10.8905
་ཡང་མ་ཡིན	-10.8905
་མི་བྱ	-10.8906
་ལམ་འབྲས	-10.8906
་ཞལ་གཟིགས	-10.8907
▁མངོན་པར་རྟོགས་པ	-10.8907
▁སྔོན་ཚེ	-10.8907
▁ཞེས་བརྗོད་པས	-10.8907
་སྐུད་པ	-10.8908
▁རང་སེམས	-10.891
་དགེ་བའི་ཆོས	-10.8912
▁ཆོས་ཀྱི་འཁོར་ལོ	-10.8913
ྦ	-10.8914
་མེ་ཏོག་འཐོར	-10.8914
▁ལོག་པ	-10.8914
་དང་བདེ་བ	-10.8914
་ཕྱིར་མི་འོང	-10.8914
▁ཕན་ཡོན	-10.8916
་བྱས་ཤིང	-10.8917
▁།ཤིང	-10.8918
▁ལྡན་པ	-10.8918
་སྐྱེ་བའི་རྒྱུ	-10.8919
་བསམ་མི་ཁྱབ	-10.892
་མི་སློབ་པ	-10.892
་བཟུང་སྟེ	-10.892
་འོ་ན	-10.892
▁རང་རྒྱུད	-10.8922
་འཕུར	-10.8922
་ཀུན་བཏགས	-10.8923
▁ཅེས་པས	-10.8923
་བླངས་ལ	-10.8924
་བརྟུལ	-10.8925
་མངོན་དུ་བྱས	-10.8925
འི་སྐབས་ཀྱི	-10.8927
་རྒོད་པ	-10.8929
བདེ་སྟོང	-10.8929
འི་ལྷ་རྣམས	-10.8933
་སྣམ	-10.8935
་མ་སྤངས	-10.8936
▁ཆར	-10.8939
▁དབྱིབས	-10.8939
་བཞེས།	-10.8939
ར་འདོད་ན།	-10.8942
སྐྱབས་སུ་མཆི།	-10.8942
་སོགས་ལས	-10.8945
་ལེན།	-10.8946
་རྒྱལ་ཚབ	-10.8947
་ཅེས་བྱ	-10.8947
་འཕན	-10.8947
་སྤྱན་སྔར	-10.8947
་ལ་གནོད་བྱེད	-10.8949
་བདེན་པ་དང་།	-10.895
་ཏིང	-10.8952
་ཐོ་བ	-10.8952
་གནང་ནས	-10.8952
་ལྷོད	-10.8952
ཾ༔	-10.8953
་སྲིད་རྩེ	-10.8953
་བོགས་འདོན	-10.8953
་སྐོང་བ	-10.8953
་ཡིན་ལ་དེ	-10.8958
ངས་ནས	-10.8958
▁བཟོད་པའི་	-10.8959
་ལ་མངོན་པར་ཞེན་པ	-10.8959
▁གལ་ཏེ་	-10.8959
་འཕྲོད	-10.8961
་བརྗོད་པར་བྱ་བ	-10.8961
་ལ་བཞི།	-10.8961
་ཉམས་ཆག	-10.8962
་བྲིས་སྐུ	-10.8962
་ཡོན་བདག	-10.8964
ཌ	-10.8964
་ཆུ་ཡི	-10.8965
་རྦ	-10.8966
▁ལྷུན་གྲུབ	-10.8966
འི་དོན་གྱི	-10.8966
་བཞེངས།	-10.8966
▁།སྡིག་པ	-10.8967
་ལ་ཇི་ལྟར	-10.8968
་མཁྱེན།	-10.897
་ནག་གི	-10.897
▁བདེན	-10.897
་སྐུ་གདུང	-10.8972
་ཡན་ལག་ཏུ	-10.8972
▁།སྔར	-10.8974
་འབྱུང་བཞི	-10.8976
▁དེའི་དུས་སུ	-10.8977
་གླིང་གི	-10.8978
ཾ་ག	-10.8979
་ཤེས་སྒྲིབ	-10.898
་དེ་བཞིན་	-10.8981
་མེ་རླུང	-10.8982
ར་བྱས་སོ།	-10.8982
▁རང་གི་ངོ་བོ	-10.8983
▁ལྷ་དང་མི	-10.8983
རྡོ་རྗེ་རྩེ་ལྔ་པ	-10.8984
འང་དེ	-10.8986
་མེད་དོ	-10.8987
▁།ཞེས་བཤད་པ	-10.8987
་བྱོན་པའི	-10.8987
འི་སྐབས་སུ།	-10.8989
▁སྤྱན་རས་གཟིགས	-10.899
་བགོ་བ	-10.8993
་བསྩལ་དུ་གསོལ	-10.8994
ནོར་བུ	-10.8994
་ལ་སོགས་པ་དང་།	-10.8995
་ཕ་རོལ་གྱི	-10.8995
ས་བསྐོར།	-10.8996
་ཀུན་སློང	-10.8997
་བཞེས་སུ་གསོལ།	-10.9002
་ལྡ	-10.9002
་བཀའ་བརྒྱུད	-10.9002
་སྦྱར་ཏེ	-10.9004
PAG	-10.9004
་འགྱུར་བ་མེད་པ	-10.9005
▁།སེམས་ཀྱི	-10.9005
་དང་དབྱེར་མེད	-10.9007
་ལགས་སམ།	-10.9008
གེགས	-10.9008
▁ནད་པ	-10.9009
་ཚུལ་ལ	-10.9009
་མི་འགྲོ་བ	-10.901
་རྒྱུན་ཆད་པ	-10.9011
་ལ་ཐིམ	-10.9013
་བློ་ཡིས	-10.9014
་རྨི་ལམ་གྱི	-10.9016
་ད་དུང	-10.9016
་མྱ་ངན་འདས	-10.902
་ཆུ་ལ	-10.9021
འི་དྭངས་མ	-10.9022
་དམ་རྫས	-10.9022
ལ་སོགས་པ	-10.9022
་བཟང་པོའི	-10.9023
་སྔར་བཤད་པ	-10.9024
་ལྡན་པས	-10.9025
་གི་སྐབས་སུ	-10.9026
་གཡོས་པ	-10.9027
་སྐྱེ་གནས	-10.9029
ཁྱབ་སྟེ།	-10.9031
་རེས་འགའ	-10.9036
ྟ	-10.9036
་ཧཱུྃ་གིས་མཚན་པ	-10.9038
་ཁོར་ཡུག	-10.904
་གདེངས	-10.904
་རྒྱལ་གྱི	-10.904
་བཤོས	-10.904
་གདོན་མི་ཟ་བར	-10.9041
▁ཕུར་པ	-10.9042
་ལ་ལྟོས་པའི	-10.9043
འི་ཚོགས་ཀྱིས	-10.9045
་གྱེན	-10.9047
རྩིབས	-10.9047
་པཱུ་ཛ	-10.9048
་སྟོང་།	-10.9054
བ་ཏུ	-10.9054
་རྟོག་གེ	-10.9056
་སྒྲོམ	-10.9056
་ཁྲོམ	-10.9057
་ཁྲིགས	-10.906
སླར་ཡང	-10.9061
་བཅོས་མ	-10.9061
འི་འདོད་པ	-10.9061
ར་གྱུར་པ་དེ	-10.9061
་འགོར	-10.9063
སྨ	-10.9064
འི་གདོང	-10.9064
་བྱད་མ	-10.9066
▁གནས་ལུགས	-10.9068
་ཐུགས་རྡོ་རྗེ	-10.9069
འི་དུག	-10.9069
▁རྣམ་པར་དག་པ	-10.907
་འགྲིམ	-10.9071
་དབང་བསྐུར་བས།	-10.9072
་ཆུང་།	-10.9074
་དུ་གསོལ	-10.9077
་དེ་ལྟ་ན	-10.9078
་བུ་ག	-10.9078
▁གནས་གསུམ	-10.908
འི་སྟེང་དུ།	-10.9082
་སྐུ་གཟུགས	-10.9083
་གང་ལ་ཡང	-10.9084
་གཉིས་ཡོད་པ	-10.9087
་སྐྱེ་སྟེ།	-10.9089
་དང་ཤེས་རབ	-10.909
ལ་བུ	-10.9091
་སྙིང་པོར	-10.9091
་གལ་ཆེ་བ	-10.9094
འི་རྣམ་པར་ཐར་པ	-10.9095
་བཞུ	-10.9095
་འབུལ་བ་ནི།	-10.9099
་ཀྱི་སྦྱོར་བ	-10.9099
འི་རང	-10.91
▁གཞལ་ཡས་ཁང	-10.91
་སྟོང་ངོ་།	-10.91
་ཁང་གི	-10.9103
་ཟས་ཀྱི	-10.9104
་ཁྲམ	-10.9107
་ས་ཡི	-10.9108
འི་སྙོམས་འཇུག	-10.9108
་བློ་ལྡན	-10.9108
མིང	-10.9111
་ལྷག་པའི	-10.9113
▁།མཐོང	-10.9113
▁ད་ལྟར་བྱུང་བ	-10.9115
འི་ལས་ཀྱི	-10.9116
་ལེགས་སོ།	-10.9116
▁།སྐྱེ་བོ	-10.9116
▁དབེན་པ	-10.9118
འི་སྐུར	-10.9119
་ལུང་རིགས	-10.9119
ཞེས་བརྗོད་ཅིང	-10.9119
་པཱུ	-10.9119
་ཀྲི	-10.912
་བཏགས།	-10.9121
་སངས་རྒྱ་བ	-10.9121
▁ཞེས་སྨོས་ཏེ	-10.9123
་༼༥	-10.9123
་ཁྲོས	-10.9124
▁དགོངས	-10.9125
་འཁོར་འདས་ཀྱི	-10.9126
འི་རྣམ་པས	-10.9126
ར་གསལ་བའི	-10.9127
་སྒྲོག་པ	-10.9129
་འཁོར་ལོ་སྡོམ་པ	-10.9129
འི༴	-10.9129
་དངོས་གྲུབ་ཀྱི	-10.913
་རྗེས་དྲན	-10.9134
ལས་དང་ཉོན་མོངས་པ	-10.9138
ཕྱོགས་ཀྱི་ཆོས	-10.9141
་རིས་སུ	-10.9142
་འད	-10.9143
་སློབ་མ་རྣམས	-10.9143
་གཉིས་པའི	-10.9144
་བཤད་པའི་ཕྱིར།	-10.9145
་མཛུབ	-10.9145
་ལ་རྟག་ཏུ	-10.9146
་ཉོན་མོངས་ཅན	-10.9146
ར་བྱས་ལ།	-10.9148
་གསུངས་པ་ལྟར	-10.915
▁ཤབྡ	-10.915
་དྭ	-10.9151
་ཡོལ་བ	-10.9153
་དག་ནས	-10.9153
་འཆག	-10.9154
་རིན་པོ་ཆེས	-10.9159
་ཕྱྭ	-10.916
་འབྱུང་བའི་ཕྱིར།	-10.916
ས་བསྒྱུར་བ	-10.9161
་སྐྱི	-10.9163
་ཀྱི་ཚིག	-10.9163
་བཏེགས	-10.9163
▁མི་བསྐྱོད་པ	-10.9164
འི་འདུ་བྱེད	-10.9165
་བརྗོད་པར	-10.9165
་ཁས་མི་ལེན	-10.9166
་བརྒྱུད་ནས	-10.9169
་ཐམས་ཅད་ཀྱིས།	-10.917
ར་མོས་པ	-10.9171
་ལྟ་བུ།་༼	-10.9171
འི་ཡུལ་ཅན	-10.9172
་འགྲིབ	-10.9173
▁ཨོ	-10.9173
ར་མི་སྤྱོད	-10.9173
་གནས་སྐབས་སུ	-10.9173
སུ་མྱི་མཐོང་ངོ་།	-10.9173
▁གསོལ་བ	-10.9174
ྱྀ	-10.9175
▁།བར	-10.9175
་ཡང་སྲིད	-10.9176
འི་ངང་ལས	-10.9176
▁ཌ	-10.9177
ཞེ་སྡང	-10.9178
་བདེ་བས	-10.9178
་ལུ་གུ་རྒྱུད	-10.918
་ཀྱང་རུང	-10.9182
་རྟིང	-10.9185
་མཛུབ་མོ	-10.9185
་སྲིང་མོ	-10.9185
་ལྷ་དགུ	-10.9186
་ལ་ལྟ་བ	-10.9187
་ཕྱིར་དང་།	-10.9188
་ལས་བྱང	-10.919
་བསངས	-10.9192
འི་བསྟོད་པ	-10.9192
་དངོས་པོ་རྣམས	-10.9192
་དུ་བྱས་པ	-10.9193
▁བརྒྱུད་པ	-10.9195
་ཡེ་ཤེས་ཆེན་པོ	-10.9196
▁།རང་བྱུང	-10.9196
་ཙྪ	-10.9198
་ལ་ཡང་དག་པར	-10.9204
འི་དངོས་གཞི	-10.9206
་སྐྱེ་ཞིང	-10.9206
་རས་བྲིས	-10.9206
་སྨིན་པར་བྱེད་པ	-10.9207
་འཛ	-10.9207
▁མྱུ་གུ	-10.9208
་བཅུ་དགུ	-10.9208
་ཕུལ་ནས་	-10.9208
་གཙོ།	-10.9208
འི་འདོད་ཆགས	-10.9211
་བཅུ་བཞི་པ	-10.9214
་གསོལ་བ་བཏབ	-10.9214
ར་བྱེད་ན	-10.9215
་ཧཱུྃ་ཧཱུྃ་ཕཊ།	-10.9215
སངས་རྒྱས་དང་	-10.9217
▁གཞ	-10.9217
འི་ཞལ་དུ	-10.9222
་བསྟན་ལ	-10.9225
ཚང	-10.9225
▁ཕྱག་མཚན	-10.9226
་བདུད་རྩིས	-10.9226
▁སྲ	-10.9231
་དབྱི	-10.9232
་མེའི	-10.9233
་ཡིན་པས་ན	-10.9236
་མདོར་བསྟན	-10.9237
་མཛད་དུ་གསོལ།	-10.9238
ས་ཡོངས་སུ་བསྐོར	-10.924
▁རྟོག	-10.924
▁།གཞན་དུ	-10.9244
་བཞི་ལྡན	-10.9247
་སྤྲད	-10.9247
▁ཁྱེད་རྣམས	-10.9248
་དལ་བ	-10.9248
▁སྐྱབས	-10.9251
་ཐོབ་ཅིང	-10.9252
་ག་ལ་ཡོད།	-10.9252
་ལ་མེ	-10.9253
་བྱང་ཆུབ་སེམས།	-10.9254
་གཏད་ལ	-10.9255
་སུ་ཡང	-10.9255
་མེད་པ་དང	-10.9255
▁།གཙོ་བོ	-10.9255
▁ཀུན་གྱི	-10.9256
གང་ཟག་གི་བདག་མེད	-10.9256
▁པ་དང་།	-10.9256
་བསྙེན་རྫོགས	-10.9257
▁0?	-10.9259
་ཡོན་ཏན་ཐམས་ཅད	-10.926
་ལ་སོགས་པའི་	-10.926
་བྱོན་ནས	-10.9262
ལྷག་མཐོང	-10.9263
་མ་ཧཱ་སུ་ཁ	-10.9263
▁འཕ	-10.9264
་དཀྱིལ་འཁོར་ལ	-10.9264
་སྦལ	-10.9268
་སྒྲ་གཅན	-10.9271
་ཁྱེད་རང	-10.9272
་བླུད	-10.9272
▁།དམིགས་པ	-10.9273
་གེ་སར	-10.9274
་བརྒྱ་པ	-10.9276
་སྒྲུབ་མཆོད	-10.9277
▁།རྒྱ་མཚོ	-10.9278
▁ས་གཞི	-10.9279
་འཕྲོས༔	-10.9279
སྟི	-10.928
་རུང་སྟེ།	-10.9281
་ཚེ་རིང	-10.9283
་རྗེས་སུ་མཐུན་པ	-10.9286
འི་དབྱེ་བས	-10.9288
་སྤྱི་གཙུག	-10.9288
▁དེ་ལྟ་བས་ན	-10.9288
ཡུམ	-10.929
་གསུམ་པའི	-10.929
་མེར	-10.9291
མངོན་སུམ	-10.9291
་བསྟུན	-10.9292
ས་མཚན	-10.9294
་དྲུག་བརྒྱ	-10.9295
་མ་ཞུགས་པ	-10.9295
་བྱུང་ཞིང་།	-10.9297
་སྨོན་ལམ་གྱི	-10.9299
▁གཞལ་བྱ	-10.93
▁འདི་སྐད་ཅེས	-10.9301
འི་ལམ་ལ	-10.9304
་ཟུག་རྔུ	-10.9306
་ཤེས་ཀྱི	-10.9306
་རྣམ་སྨིན་གྱི	-10.9306
་གཏུམ་པོ	-10.9307
▁ཐོ	-10.9307
་རང་དང	-10.9308
་སེམས་སོ།	-10.9309
འི་མགོན་པོ	-10.9309
མེས་པོའི་ཤུལ་བཞག	-10.931
་རློམ	-10.931
་སྤོས་ཀྱི	-10.9313
་གྲང་བ	-10.9314
་བརྗོད་ལ	-10.9315
གནས	-10.9315
▁མ་ལུས	-10.9316
་བསྡོ	-10.9316
P	-10.9317
ར་བསམ་ལ།	-10.9317
་ཟིལ་གྱིས་གནོན	-10.9318
་དཀར་ཆག	-10.9319
བདག	-10.9319
་ལ་དགོངས་ནས	-10.932
▁མགོ་བོ	-10.9322
་འཇིགས་མེད	-10.9323
་ཚོགས་འཁོར	-10.9324
་ལམ་ཤེས	-10.9324
་བསྔོ་སྨོན	-10.9325
་ཐོར	-10.9326
འི་འདུས་ཏེ་རེག་པ	-10.9328
་པ་རྣམས་ཀྱི	-10.933
▁བལྟ	-10.9331
་འཁྲིད	-10.9333
་བསྲེག་པ	-10.9339
དོན	-10.934
་སྙོམས་པ	-10.9341
་རིགས་ཅན	-10.9342
་ཤཱ	-10.9342
▁སྡུག་བསྔལ་བ	-10.9343
་མཛེ	-10.9344
་ཀུན་བརྟགས	-10.9344
་ལ་དགོངས་ནས་	-10.9344
▁བླ་མ་ཡི་དམ	-10.9345
་མེད་ཅེས་བྱ་བ	-10.9346
་བཞོན་པ	-10.9352
▁།རྣམ་དག	-10.9353
་ཡངས་པའི	-10.9354
་ཐོད་ཕྲེང་རྩལ	-10.9355
་རང་ལུས	-10.9356
འམ་	-10.9358
་ཉེར་སྤྱོད	-10.9359
་ཀྱི་དབང་གིས	-10.936
▁བཟང	-10.936
▁སྤུ	-10.9365
་ལུས་ཅན	-10.9365
་དུག་ལྔ	-10.9367
་ཇི་ལྟར་རིགས་པ	-10.9368
་བརྒྱད་ཁྲི	-10.9368
་དམྱལ	-10.9369
▁སྔོ	-10.9371
་འགྱོད	-10.9371
་ཆོས་མཆོག	-10.9372
འི་བདུད	-10.9374
་བཀྲམ་པ	-10.9376
་བདེ་བླག་ཏུ	-10.9377
་སོན	-10.9377
་བདེན་པ་གཉིས	-10.9377
་ལྟ་སྨོས་ཀྱང་ཅི	-10.9382
་འཕྲོ་འདུ	-10.9384
འི་མཐུས།	-10.9385
▁དགྲ་བོ	-10.9385
▁ཡབ་ཀྱི	-10.9386
▁དེ་ཡིས	-10.9387
་ཀྱི་ཡི་གེ	-10.9387
མངོན་པར	-10.9389
་དངོས་པོ་མྱེད་པ	-10.939
G	-10.939
་བཀག་པས	-10.939
་ཅུང	-10.9391
▁ཐབས་ཀྱི	-10.9393
་ངེས་འབྱུང	-10.9395
་གྱི་ལམ	-10.9396
་མཉམ་དུ	-10.9396
▁སྲོག་ཆགས	-10.9397
་ནི་ལུས	-10.9398
་གཡས་གཡོན་དུ	-10.9398
▁བསྙེན་སྒྲུབ	-10.9399
་ཙམ་དང་།	-10.9399
▁.-	-10.9399
་རྣམས་ཏེ།	-10.9399
་སྦྱང་།	-10.9401
་ཅི་ཡོད	-10.9402
ི་ཥ	-10.9402
་སེམས་ཙམ་པ	-10.9403
་བཞིན༔	-10.9405
་འཇུག་གི	-10.9406
་ཕྱེས	-10.9406
་ཚོམ	-10.9407
ཉན་ཐོས་ཀྱི་ཐེག་པ	-10.9408
་ནཱ་མ	-10.9408
་ཉེ་འཁོར	-10.9409
ས་དེར	-10.9409
▁རབ་འབྱོར་དེ	-10.941
་སྡོང་པོ	-10.941
▁།སོ་སོ	-10.941
་མི་དགའ་བ	-10.9411
་བཞེད།	-10.9411
▁ཐ་དད	-10.9411
་ཟླ་གམ	-10.9411
་བར་ཆད་མེད་ལམ	-10.9413
་སླེབས	-10.9414
་བ་སྤུ	-10.9417
གདོད་ནས	-10.9418
སྒྲ	-10.9419
་ལ་གནས་པས	-10.9421
་བཤལ	-10.9421
་མ་ལུས་པ།	-10.9422
ར་ཁས་ལེན་པ	-10.9423
་མཆོག་དམ་པ	-10.9423
ས་འཁོར་བ	-10.9424
་མཉན	-10.9425
་ལས་གྱུར་པའི	-10.9425
་ཐོབ་ཤོག	-10.9426
་མི་གསལ	-10.9426
་བགྲད	-10.9427
་ཤ་ཡ	-10.9427
་ས་ཡ	-10.9428
་སྡང	-10.9429
▁།དུར་ཁྲོད	-10.943
་ཡིག་གི	-10.943
གི་བྱེ་མ་སྙེད	-10.943
་ཐི	-10.9432
་སྐྱེ་བར་འགྱུར་བ	-10.9435
ཆོས་མ་འདྲེས་པ	-10.9437
་རྒྱལ་མཚན་གྱི	-10.9439
▁།ཞེས་གསུངས་པས།	-10.944
་ཉོན།	-10.9441
་བཤིག་པ	-10.9441
▁ཤ་ཟ	-10.9443
་ལྷ་མིན	-10.9446
་དུ་འཇོག་པ	-10.9447
༣༥	-10.9448
་རོལ་མོའི་སྒྲ	-10.9448
་བསྒོམ་བྱ	-10.9448
་གཅིག་པའི	-10.9451
་འགལ་རྐྱེན	-10.9451
་རྣམས་ལའང	-10.9453
་ཡིན་ནོ༔	-10.9455
▁དེ་ལའང	-10.9455
་སྡུས	-10.9455
་ཁྱད་པར་དུ་བྱས་པ	-10.9456
འི་དམ་བཅའ	-10.9456
▁ཞབས་གཉིས	-10.9457
▁གསང་སྔགས་ཀྱི	-10.9459
་མཚོ་སྐྱེས	-10.9461
སེམས་ཀྱི་རང་བཞིན	-10.9461
▁སྤ	-10.9464
་བཟུང་སྟེ།	-10.9464
་ཚོགས་ལ	-10.9465
འི་ཤུགས	-10.9465
▁།ཐ་མ	-10.9465
▁རྒ	-10.9466
་ཇི་སྐད་བཤད་པ	-10.9466
་བྱས་ཤིང་།	-10.9467
▁གཏུམ་མོ	-10.9467
་ལ་བཞུགས་པ	-10.9468
་ཉེས་དམིགས	-10.9469
་འཛམ་བུའི་གླིང	-10.9476
▁གནམ	-10.9478
་སུན	-10.9478
་ལག་ན	-10.9478
▁དེ་ལ་ཡང	-10.9479
་ཐོབ་པར་འགྱུར་རོ	-10.9479
་རྣམ་པར་འཕྲུལ་པ	-10.948
་བདག་གཞན	-10.9481
་རྩལ་གྱིས	-10.9482
▁འཇིགས་བྱེད	-10.9482
་ཐོབ་པར་གྱུར་ཅིག	-10.9483
་ཐབས་དང་ཤེས་རབ	-10.9484
▁དཔལ་གྱི	-10.9484
་དེ་ནི་	-10.9487
་ལ་ཆགས	-10.9488
་གཞི་བདག	-10.9489
་བདག་ཏུ་འཛིན་པ	-10.9491
་ཀླད	-10.9491
་གཤིན་རྗེའི	-10.9492
▁གཉིས་སུ	-10.9493
ཉིད	-10.9493
▁ལྷུང་བཟེད	-10.9493
འཇིག་རྟེན	-10.9494
་ཁྱབ་བདག	-10.9496
▁གདུང	-10.9496
་ལ་སྙོམས་པར་འཇུག	-10.9496
་རྗེས་སུ་འཛིན་པ	-10.9498
དགེ་སློང་གིས	-10.9499
་ཆོས་ཀྱིས	-10.9501
རིག་སྔགས་འཆང	-10.9501
▁ཕྱོགས་ཆོས	-10.9504
་མང་པོའི	-10.9504
་རང་ས	-10.9504
་པ་རྣམས་ལ	-10.9505
་འཁྲུངས།	-10.9507
་ཕྱག་འཚལ།	-10.9508
ས་ཀུན་ནས	-10.9509
་འཕྲད	-10.9509
▁རྡོ་རྗེ་ཐེག་པ	-10.9511
་ཊཱི་ཀ	-10.9511
་བཤགས༔	-10.9513
ཾ་བྷ	-10.9513
་བརྒྱད་དང	-10.9515
སྣ	-10.9517
ལྡ	-10.9518
་ལ་བརྩོན	-10.9518
་སྦུབས	-10.9522
་བྱས་པ།	-10.9522
ལྷག་ཆད	-10.9524
་དེ་ཁོ་ན་ཉིད་ཀྱི	-10.9526
▁གཟུང་བ	-10.9526
▁།ལན	-10.9527
་གནས་དང	-10.9527
▁།ཀུན་ཏུ	-10.9527
་པད་ཟླ	-10.9528
་བློ་ལ	-10.9528
་བཤད་ན།	-10.9528
་དགའ་བ་དང་།	-10.9529
་གསང་འདུས	-10.953
▁ཟངས	-10.9531
▁།ཞེས་པ་ནས།	-10.9532
▁དངུལ	-10.9532
▁དགག་པ	-10.9533
་སློབ་མ་ལ	-10.9534
་དར་གྱི	-10.9535
ྷ་སྲིན་སྡེ་བརྒྱད	-10.9535
་འདི་ཉིད་ལ	-10.9536
▁ང་ནི་	-10.9539
་ཐ་མར	-10.9543
་མཆོད་པ་འབུལ༔	-10.9543
་སྙམ་ནས་	-10.9543
▁བཞུགས་པ	-10.9543
ར་བཞེད་དོ།	-10.9546
་བསྐྱང	-10.9547
་ཕོངས་པ	-10.9548
་རླུང་།	-10.955
་མ་ཁྱབ	-10.9551
▁གྲུབ་མཐའ	-10.9551
་འགགས་པས	-10.9551
འི་གར	-10.9551
་གང་ལའང	-10.9552
་མཐོང་སྟེ།	-10.9555
་དང་ཡོན་ཏན	-10.9555
ཤེས་བྱ་ཆོས་ཅན།	-10.9556
་མཚུངས་ལྡན	-10.9556
་ཐོད་ཕྲེང	-10.9556
་བདག་ཅག་གིས	-10.9557
་དགའ།	-10.9557
▁འཕོ་བ	-10.9558
་ཨཿ	-10.956
་ཇི་བཞིན་དུ།	-10.9562
་མི་ཐུབ	-10.9564
་མཐོ་དམན	-10.9567
་དངོས་གྲུབ་ཐོབ་པ	-10.9567
ས་རྟག་ཏུ	-10.9569
་སྲིད་ཞི	-10.9569
་ཐུང་ངུ	-10.9572
་སྐལ་བཟང	-10.9573
་འབྱམས	-10.9573
དུས་ལ་བབ	-10.9575
▁རིགས་ཀྱི	-10.9575
་ལ་ཚད་མ	-10.9576
་བླ་ན་མེད་པའི་	-10.9576
་མྱེད་པའི་ཕྱིར	-10.9578
་སྒྲོ་བཏགས་པ	-10.9581
་རྟ་བབས	-10.9583
་ཅང	-10.9583
▁སྔགས་འཆང	-10.9583
་ཡོངས་གྲུབ	-10.9584
་ལ་ཁྱབ་པ	-10.9584
▁སྨྲ་བ	-10.9585
བྱང་ཆུབ་ཐོབ་པ	-10.9586
་རྣལ	-10.9586
▁།ཅེས་གསུངས་སོ།	-10.9586
་མཚོ་རྒྱལ	-10.959
་བཏུབ	-10.9591
▁སྐྱོ	-10.9591
་དབྱེ་བས	-10.9592
་གང་ཡིན།	-10.9592
་དུས་གཅིག་ཏུ	-10.9592
▁འཕྲོ	-10.9593
▁ཡིན་པ	-10.9593
་ཐ་དད་པར	-10.9594
་དང་དོན	-10.9595
▁ཡུལ་གྱི	-10.9596
་དག་ན	-10.9596
་མོར	-10.9597
་མདུད	-10.9598
་བྷ་དྲ	-10.9598
▁བཙུན་མོ	-10.9598
་ནི་དེ་ལྟར	-10.9599
་བྷྱཿ	-10.9599
་མི་འཁྲུགས་པ	-10.9601
་རྡོར་སེམས	-10.9601
་འཁོར་ལོ་བཞི	-10.9602
་གྲུབ་ན་	-10.9602
ཀྵུ	-10.9603
་དབང་སྡུད	-10.9603
་ས་འོག	-10.9604
་ཡེ་ཤེས་ཀྱི་མེ	-10.9606
་མ་རུངས་པ	-10.9608
་མངར	-10.9609
་བ་ལིཾ་ཏ	-10.9611
་བསྒོམས་པས།	-10.9611
་ཐོས་སོ།	-10.9612
་དཔངས	-10.9613
་ནི་དངོས་པོ	-10.9613
་གསུངས་ནས་	-10.9614
་ཞུས་པས	-10.9614
▁ཁྱེའུ	-10.9614
▁ང་ཡི	-10.9615
་དྲི་ཆུ	-10.9617
་ནོར་ལྷ	-10.962
་འཇམ་དཔལ་གཞོན་ནུ	-10.9623
་ཀཱ་ལི	-10.9623
་བཙོ	-10.9624
་རང་རྒྱུད་ཀྱི	-10.9624
་ངད	-10.9625
འི་མདོ་སྡེ	-10.9627
་ཀྱཻ་རྡོ་རྗེ	-10.9627
་བཀུར་བ	-10.9628
སྐྱེ་མཆེད	-10.9629
་ཡིན་ནོ་ཞེས་བྱ་བ	-10.9629
▁ཕྱག་གཉིས	-10.9629
&	-10.963
་འདོད་པའི་ཡོན་ཏན	-10.9632
▁།ཞེས་པ་ལྟར	-10.9632
གྲ	-10.9632
༼༡༧	-10.9633
་སྦྱིན་ནོ།	-10.9634
་དམིགས་མེད	-10.9637
་བྱེད་དགོས་པ	-10.9638
ར་གྱུར་	-10.9639
་གོམས་པས	-10.9639
འི་འཐད་པ	-10.964
་ཉུལ	-10.9641
་འཁྱམས	-10.9641
ང་༔	-10.9642
་དང་གསུང་དང་ཐུགས	-10.9643
་བསྐྱེད་ལ	-10.9643
▁སྦྱིན	-10.9646
ོག་པོ	-10.9647
་སྐྱེས་པས	-10.9648
་ལུས་ཀྱིས	-10.9649
ས་མཚོན	-10.9653
་ཀྱི་ཁམས	-10.9653
་དཀྲུགས	-10.9654
་ལོ་བརྒྱ	-10.9655
་གཟར	-10.9656
་མར་གྱི	-10.9656
་ཤིས་པ	-10.9657
▁འགྱུར་བ	-10.9657
▁ཞེས་གསུངས་ཏེ	-10.9658
འི་གཞུང་ལུགས	-10.966
་སྐྱབས་སུ	-10.966
་གཞི་མཐུན	-10.966
▁འདུ	-10.9663
་དཀྲིས་པ	-10.9663
་གཅིག་ལས	-10.9664
་ལ་ལྟོས།	-10.9664
་ཕྱེ་སྟེ	-10.9664
་འཚམ་པ	-10.9664
་གནས་ངན་ལེན	-10.9666
གཉིས་པ	-10.967
ས་མཆོད	-10.967
▁ཉམས་པ	-10.9671
་སྐོར་གསུམ	-10.9671
འི་གསང་བ	-10.9672
་འཇུག་པར	-10.9674
▁ཐང	-10.9674
་བཞི་པའི	-10.9675
་ཧ་རི་ནི་ས	-10.9675
་གཏན་ལ་ཕབ	-10.9676
་འབུད	-10.9677
▁།རྟ	-10.9677
་ཟུར་གསུམ	-10.9677
འི་ཐུགས་རྗེ	-10.9678
་ངོ་མཚར་བ	-10.9683
▁དུག་ལྔ	-10.9684
་འཕོས་པ	-10.9684
་རབ་ཏུ་ཞི་བ	-10.9686
▁སྭ་བྷཱ་ཝ	-10.9686
་སྐུར་བཞེངས	-10.9687
་ཀྱི་མཐའ	-10.9687
་ཁྲུས་བྱས	-10.9688
ར་རབ་ཏུ	-10.9689
འི་བརྩོན་འགྲུས	-10.9689
་ཚར་བ	-10.969
▁མངལ	-10.9693
▁ཁྱིམ་པ	-10.9694
་སྐྱེ་བར་འགྱུར།	-10.9694
▁།ཨོཾ་བཛྲ	-10.9695
་ནི་བདག	-10.9696
་ཆུ་དང	-10.9697
་ཁོང་དུ་ཆུད	-10.97
་ཚེར་མ	-10.97
་མི་འཛིན་པ	-10.9701
འི་ཕྱིར་རོ་ཞེ་ན།	-10.9702
▁ལས་བུམ	-10.9703
ནམ་ཞིག	-10.9704
་བསྐོར་ཏེ	-10.9704
་པཱ་ལ	-10.9705
་གྱི་རང་བཞིན	-10.9705
་གླགས	-10.9705
▁སྒ	-10.9706
་རྣམས་ལ་	-10.9706
་ལ་ཞུགས	-10.9706
་ཟིན་པས	-10.9707
་ནུབ་ཏུ	-10.9709
་རྣམ་རྟོག་གི	-10.971
་མི་བྱེད་པར	-10.9711
་ཤེར	-10.9711
▁དོ།	-10.9711
་མཆོད་པའི་སྤྲིན	-10.9712
་ངོ་ཤེས	-10.9714
ཡིད་ཀྱི་འདུས་ཏེ་	-10.9714
་བའི་འབྲས་བུ	-10.9715
་གཅིག་གམ	-10.9715
་ཅི་འདྲ	-10.9715
་འཁྱུད་པ	-10.9715
་ཞིག་ཡོད་པ	-10.9716
་བདེན་མེད	-10.9717
་བཟླས་ན	-10.9717
འི་འོད་གསལ	-10.9718
་རིམ་པ་ལྟར	-10.9719
་ལས་བྱེད	-10.972
་འགྱུ་བ	-10.9721
▁ཁྲག་འཐུང	-10.9721
་དབང་པོ་ལྔ	-10.9722
་ཁཱ་ཧི།	-10.9723
་བདེ་འགྲོ	-10.9723
་ལ་ཕན	-10.9724
་ལ་དམིགས་ནས	-10.9725
་བྲིས་ལ	-10.9725
འི་བུ་ག	-10.9726
་རྣམ་འབྱེད	-10.9727
་བཟླའོ།	-10.9728
་བརྡར	-10.973
་གཏུགས	-10.973
་གཤེ	-10.9734
་ཉམས་སུ་ལེན	-10.9734
་ཁ་ཁ་ཁཱ་ཧི་ཁཱ་ཧི	-10.9734
་རྒྱ༔	-10.9736
ར་རྟོག་པ	-10.9737
་ཝི	-10.9739
་རང་ལུགས	-10.974
་གི་སྒྲ	-10.9741
་དབང་མཆོག	-10.9742
ནྟུ།	-10.9744
་གླེང་བ	-10.9745
༢༢	-10.9747
▁རང་དོན	-10.9751
ཀྐ	-10.9752
་ཀྱི་ནང་དུ	-10.9753
▁སློབ་དཔོན་	-10.9753
་དང་མི་འབྲལ་བ	-10.9753
▁གཞན་རྣམས	-10.9754
་མཐོང་སྟེ	-10.9755
་ནི་རྣམ་པ	-10.9755
▁།ཉན་ཐོས	-10.9757
▁ཡང་དེ	-10.9758
▁རེས་འགའ	-10.9763
་བཞི་བཅུ་རྩ	-10.9763
འི་གླུ	-10.9763
▁གཉན	-10.9766
་སྤྲོ་ན	-10.9767
་སྐུ་རྡོ་རྗེ	-10.9767
་བཟུང་བས	-10.9768
་དུས་གསུམ་དུ	-10.9768
▁།ཐིག་ལེ	-10.9768
་ལ་བཞག	-10.9769
་བདེ་མཆོག་གི	-10.977
་ལྷག་མ་རྣམས	-10.9777
་དེ་སྙེད	-10.9778
་བུམ་ཆུ	-10.9779
་ཡོད་པ་ལ	-10.978
▁དེ་བཞིན་	-10.9782
་འཁོ	-10.9782
་བསྩལ	-10.9788
་དེ་བས	-10.9789
འི་མདུན	-10.979
▁ཆད་པ	-10.979
་བྱེད་དེ	-10.9792
▁ཚེས	-10.9793
འི་རྩེ	-10.9796
ས་པ།	-10.9797
ཁྲུ	-10.9797
ི་ལི	-10.9799
འི་ཐལ་འགྱུར	-10.98
▁རྡོ་རྗེ་སེམས་དཔ	-10.9802
་ནི་རྣམ་པར	-10.9803
ར་བྱའོ༔	-10.9803
་རྟུལ	-10.9804
▁ཀླུ་སྒྲུབ	-10.9804
་གནས་པ།	-10.9804
འི་མ་རིག་པ	-10.9805
་བསྐང་བ	-10.9807
▁རེ་རེ	-10.9809
་མ་གཏོགས་པའི	-10.9809
་ཡོད་པར་ཐལ།	-10.9809
▁འཕགས་པའི་བདེན་པ	-10.981
འི་སེམས་བསྐྱེད	-10.9811
འི་རྣམ་གྲངས	-10.9815
་སྐྱེས་སོ།	-10.9816
ས་ནས།	-10.9817
་སྦྱར་བའོ།	-10.9818
འཕྲུལ	-10.9818
་ཁ་ཊྭཱཾ	-10.9818
་གྱི་ཕྱག་རྒྱ	-10.9819
་སེར་མོ	-10.982
ར་བྱ་ཞིང་།	-10.9821
་མཐའ་གཅིག་ཏུ	-10.9822
འི་ལོ	-10.9823
་མདོ་ལས།	-10.9823
་རྣམ་པར་དབྱེ་བ	-10.9824
▁ཀུན་ནས	-10.9825
འི་སྐུ༔	-10.9826
་བསྒྲུབ་པ་དང་།	-10.9827
་ལྷ་ཚོགས་རྣམས	-10.9827
་བཞུད	-10.9828
▁ཞོ	-10.9829
་དགོས་པའི	-10.983
▁ངག་ཏུ	-10.9831
་ཚོགས་སུ	-10.9832
▁ཐུགས་རྗེས	-10.9833
༣༦	-10.9833
▁།ཞི	-10.9834
་བརྡབ	-10.9835
▁འདི་ནི་	-10.9835
་འཁོར་ལོར	-10.9836
▁མཛོད	-10.9838
་ལྟ་སྟངས	-10.9838
་ཉན་ཐོས་དང་རང་	-10.9839
་གྲུབ་སྟེ	-10.984
འི་རྡུལ	-10.9841
་འདི་དག་གིས	-10.9842
སུ	-10.9842
༽པ	-10.9843
་གཅིག་ཏུ་གྱུར་པ	-10.9843
་ཀྱང་གཞན	-10.9843
་གཟུངས་སྔགས	-10.9843
་མཛད་ནས	-10.9844
▁གདོང	-10.9849
ོ་ཥ	-10.9852
▁གཡོན་གྱི	-10.9852
▁ནམ་མཁའི་ཁམས	-10.9852
▁ལྟར	-10.9853
▁།བཀའ	-10.9854
་བཟའ་བཏུང	-10.9854
་དང་དེ་བཞིན	-10.9856
་བསླད	-10.9857
་རྩ་དབུ་མ	-10.9859
་རིགས་ལྡན	-10.9861
ས་དབེན་པ	-10.9861
་འདོད་ཆགས་ཀྱི	-10.9863
་སེར་པོ།	-10.9864
་བྱ་རོག	-10.9864
་དང་ལྡན་པའོ།	-10.9864
་མི་འཐད་པར་ཐལ	-10.9864
་བསྒོམས་ཏེ	-10.9867
་ཡོན་ཏན་ཕྲིན་ལས	-10.9869
་གེགས་སེལ	-10.9871
་ཞེས་བརྗོད་དོ།	-10.9874
▁ཡིད་ལ	-10.9876
▁ངན	-10.9876
ཊཱི་ཀ་ལས	-10.9877
་མནོ	-10.9877
་ཉེ་དུ	-10.9881
་བསྒོམ་པའི	-10.9882
་སྨྲ།	-10.9882
འི་གདུང	-10.9882
་སྔོན་དུ་སོང	-10.9882
་མདོ་ལས	-10.9883
བདག་ཅག་དཔོན་སློབ	-10.9883
་སྐུལ	-10.9886
བདུད་རྩིའི་རྒྱུན	-10.9886
་རྗེས་ཐོབ	-10.9887
་ལས་རྒྱལ་བ	-10.9889
་ཕྱི་ནས	-10.9889
▁།རྒྱལ་སྲས	-10.989
ད་ནི	-10.989
་འབྱུང་བར་འགྱུར།	-10.9892
་བརྟགས་ན	-10.9892
་འབྱུང་	-10.9893
་པད་ཉི	-10.9893
ས་འཇིག་རྟེན	-10.9893
ུཥ	-10.9894
་ང་རོ	-10.9895
▁ལྷན་སྐྱེས	-10.9896
་བརྗོད་ཅིང་།	-10.9896
་མ་མཆིས།	-10.9897
་བསྲུངས་པ	-10.9898
་འགྲོ་ཀུན	-10.9899
་བའི་	-10.9899
▁སྐད་ཅིག་མ	-10.99
▁བླ་མས	-10.99
་རྒྱ་གྲམ	-10.9902
་ཐབས་མཁས	-10.9905
▁།སྐལ་ལྡན	-10.9906
་སྲིན་བུ	-10.9906
་གཅད་པ	-10.9907
་ཧྱ	-10.9907
▁མཇུག	-10.9907
▁གཅེར་བུ	-10.9907
ར་འདོད་པས།	-10.9908
་གྱུར་ཏེ	-10.991
་འགྱུར་བ།	-10.9911
་༢	-10.9912
ར་བལྟའོ།	-10.9913
་གཟ	-10.9914
་བདུད་འདུལ	-10.9917
་འགྲོ་བར	-10.9918
་སྨྲས་པ་དང་།	-10.992
་ཕྲིན	-10.9921
ཐ་སྙད	-10.9921
ྱཻ	-10.9923
་བརྩི	-10.9924
་ས་ཕྱོགས	-10.9926
་ཤེས་ན	-10.9927
་དང་མཚུངས་པར	-10.993
▁།ཉེ	-10.993
་བྱ་རྒོད	-10.9933
་མ་འདྲེས	-10.9933
་འཁྲིགས་པ	-10.9934
▁།ཐེག་པ	-10.9934
་ཧཱུྃ་གི	-10.9937
་བསྐྲད་པ	-10.9938
་རྣོ་བ	-10.9939
་སངས་རྒྱས་ཐོབ་པ	-10.9941
་མ་གྱུར	-10.9941
་ཟི	-10.9942
་བསྐྱེད་པར	-10.9944
▁སྨིན	-10.9944
▁ཁུ	-10.9945
▁རྫ	-10.9946
ས་འདི	-10.9946
་ཀྱི་སྤྱན་སྔར	-10.9948
་རྟོག་དཔྱོད	-10.9952
▁ཇི་སྲིད་	-10.9952
་བླ་མེད་ཀྱི	-10.9953
▁།ཕྱག་རྒྱ་ཆེན་པོ	-10.9955
་དྲང་དོན	-10.9955
་གངས	-10.9955
་དྲུ	-10.9956
གས་པའི	-10.9956
▁ཐབ	-10.9958
་འོད་དུ་ཞུ	-10.9958
་སྦྲེལ་བ	-10.996
་ལྟ་ཅི་སྨོས།	-10.996
ན་མ	-10.996
་བཏོན་པ	-10.996
་ཀྱི་ཚོགས	-10.9961
འི་དགྲ	-10.9961
▁།དེའང་	-10.9962
་ལྡན་མ	-10.9966
་ཕྱིར་ན	-10.9966
▁ཚ་བ	-10.9967
་ངོ་ཚ	-10.9968
་ཁའི	-10.997
་གསལ་ལོ།	-10.997
▁མྱ	-10.9972
་སྤྱད།	-10.9973
་འདུས་མ་བྱས་པ	-10.9973
་ཡོད་པ་མ་ཡིན་ཏེ།	-10.9974
▁ཐབས་དང་ཤེས་རབ	-10.9974
བརྩོན	-10.9974
▁རེག་བྱ	-10.9979
འི་མངོན་སུམ	-10.9979
▁དགག་བྱ	-10.998
▁རུས་པ	-10.9983
་སྒྲོ་བཏགས	-10.9984
འི་ལུགས་ལ	-10.9984
་ཡུངས་ཀར	-10.9985
་བསམ་མི་ཁྱབ།	-10.9985
་རྩ་བའི་རྒྱུད	-10.9988
▁དབྱེ་ན	-10.9988
་ལྷ་ལ	-10.9988
་གིང	-10.9989
▁མཆོག་དང་ཐུན་མོང	-10.9991
་དགེ་མི་དགེ	-10.9991
་ཏྲཾ	-10.9993
་བར་པ	-10.9994
་དང་ལུས	-10.9994
་གཡར	-10.9996
ཉམས་སུ	-10.9997
འི་རྟེན་ལ	-10.9997
▁སྟ	-10.9997
་ཝ་ར	-10.9998
༣༧	-10.9999
་སྭཱ	-11
་ལས་འོད་འཕྲོས་པས	-11
་ཉིད་ཀྱི་ཕྱིར།	-11.0003
▁།བྱམས་པ	-11.0006
་འགྱུར་ལ།	-11.0006
▁ཞེས་པའི་བར	-11.0008
་ཀྱི་དུས་སུ	-11.0008
་འགས	-11.0009
་ཤིག༔	-11.0009
▁ཤེལ	-11.0012
ས་སྐུ	-11.0014
་མཐེ་བོང	-11.0014
་སླད་དུ	-11.0015
་ནི་གཞན	-11.0017
▁P	-11.002
ྲྀ་ཏ	-11.0023
ྡྷ	-11.0025
་ལ་རང	-11.0026
▁ཐོབ	-11.0026
་གྲུ་བཞི་པ	-11.0026
▁གླ	-11.0029
་རིག་གནས	-11.0031
་སྦྱར་བར་བྱའོ།	-11.0033
ཚོ	-11.0034
་རྣམ་པ་དུ་མ	-11.0034
་ལས་མ་འདས་པ	-11.0034
་བདག་ཀྱང	-11.0035
་ཁྱབ།	-11.0037
འཁོར་བའི་རྒྱ་མཚོ	-11.0037
་ཡལ་བ	-11.0037
་ནས་གསུངས་པ	-11.004
་དང་པོའོ།	-11.004
་ཧཱུྃ་ཧཱུྃ	-11.0045
་ཐུག་པ	-11.0046
་སྐྱེད་མོས་ཚལ	-11.0047
་གཞིག	-11.0047
▁དེའི་རྗེས་སུ	-11.0047
་སྟྭཾ	-11.0047
་ཇི་སྲིད་དུ	-11.0048
་དེའི་སྟེང་དུ	-11.0049
▁འདི་ཡི	-11.005
་ཉེ་གནས	-11.005
་ལས་ངན	-11.0052
་མི་འཇུག	-11.0052
▁སེམས་བསྐྱེད་པ	-11.0052
་དབུས་ན	-11.0053
་རབ་ཏུ་ཤེས་སོ།	-11.0055
་སིལ	-11.0055
འི་སྟོང་ཉིད	-11.0057
་དུ་གྱུར	-11.0057
▁སྣང་སྟོང	-11.0057
▁དེས་སྨྲས་པ	-11.0058
་ལྐོག	-11.0058
་སོ་ཐར	-11.0058
བར་ཆད	-11.0059
་རིང་ཐུང	-11.0059
་སྔགས་པ	-11.006
་ནོད་པ	-11.0062
་བསམས་ནས	-11.0062
▁དེ་ལྟར་ན་	-11.0062
་ནུས་པའི	-11.0063
འི་རིགས་ཅན	-11.0063
་དོ་ཤལ	-11.0063
་ཏཾ	-11.0063
་བྱང་ཆུབ་	-11.0064
འི་རྟགས་ཀྱིས	-11.0064
▁ཞེ	-11.0066
་གཙོ་ཆེ་བ	-11.0067
་གསུང་རྡོ་རྗེ	-11.0067
་བརྡུངས	-11.0068
་གྲུབ་པའི་མཐའ	-11.0069
་ཀཱི་ལ་ཡ	-11.0071
་མི་རུང་ངོ་།	-11.0071
་སྐོར་བ	-11.0071
་གཟན	-11.0071
ང་ངེ	-11.0072
་བརྩིགས	-11.0073
་ལ་བཞི་ལས།	-11.0074
་ཀླ	-11.0074
་རྩེ་གཅིག་པ	-11.0075
་ནས་འབྱུང་བ	-11.0075
་བདེན་པ་བཞི	-11.0076
་ཡིད་བཞིན་གྱི་	-11.0077
་བརྒལ་བ	-11.0079
་བསྟན་གྱི	-11.0082
་སྤོངས	-11.0082
་དམའ་བ	-11.0083
▁ཞེས་གསུངས	-11.0084
་འཁྱིལ་པ	-11.0085
▁རིང	-11.0085
་ཆེན་	-11.0085
་འོད་སྲུང	-11.0086
་བགེགས་བསྐྲད	-11.009
་རྒྱལ་ཁམས	-11.0091
▁འོག་གི	-11.0092
འི་རིམ་པས	-11.0094
་བསྲུང་།	-11.0094
་མཉམ་པར་སྦྱོར་བ	-11.0094
་རྗེས་སུ་ཆགས་པ	-11.0095
་གྱི་དབང་དུ་བྱས	-11.0097
ད་ཅིང	-11.0098
ཧ་ཅང	-11.0099
འཕགས་མ་སྒྲོལ་མ	-11.0099
འི་གསོལ་འདེབས	-11.0103
་མོད་ཀྱང་།	-11.0104
་དྲི་མ་དག	-11.0105
་ཁྲབ	-11.0105
▁།རིགས་པ	-11.0106
་ཙནྡན	-11.0108
་སྦྱངས་པས	-11.0108
་གཉིས་ཀས	-11.0112
་ཀྱི་བསླབ་པ	-11.0112
་མིང་ཙམ	-11.0113
▁སོང	-11.0114
་བཙན་པོ	-11.0115
▁།ཡང་	-11.0115
▁དེ་དང་དེ	-11.0116
▁དང་པོ་ལྟར་ན	-11.0117
་རྙིང་མ	-11.0117
་བཤད་ཟིན	-11.0117
་སྐེམ	-11.0117
་མཚན་ཉིད་ཀྱི	-11.0118
་བསྲེས་པ	-11.0119
་ཕུག་པ	-11.012
་གཞོང	-11.0121
་བྱའོ༔	-11.0122
་བཞུགས་པ།	-11.0122
▁རིགས་ཀྱི་བུ་མོ	-11.0123
་བཀྲལ་བ	-11.0124
་བཏུང	-11.0125
་པའི་དུས་སུ	-11.0126
་འདུད།	-11.0127
་དུ་གསུངས་པ	-11.0128
་ཕྱག་ཏུ	-11.0128
་འདོད་དོན	-11.0129
་འགྲོ་བ་ཀུན	-11.0129
་ཆོམ	-11.0129
་བོས	-11.0131
་དབྱེན	-11.0131
ཀུན་ཀྱང	-11.0132
་ད་ལྟ་བ	-11.0133
་དུ་བསྟན་པ	-11.0134
་མི་འགལ་བ	-11.0136
ར་འཛིན	-11.0136
འཇུག་པ	-11.0136
་ཚོགས་བསགས	-11.0137
་གློ་བུར་དུ	-11.0138
་དམར།	-11.0142
▁དང་པོ་ལ་གཉིས་ཏེ	-11.0142
▁ཀུན་ཏུ་བཟང་པོ	-11.0142
་གཏང་བ	-11.0142
་ཀྱིས་བརྒྱན་པ	-11.0143
▁ཁ་ཟས	-11.0144
་དགྲ་བོའི	-11.0144
མེད་པ	-11.0144
་ཕུལ་ཏེ	-11.0146
▁།ལུས་ཀྱི	-11.0149
▁།འོད་ཟེར	-11.015
ཐུགས་རྒྱུད་བསྐུལ	-11.015
་པ་ཡི།	-11.0151
ར་མ་གྱུར་པ	-11.0151
་ཤེས་པ་དེ	-11.0153
་ལུགས་སུ	-11.0153
་གཏོང་།	-11.0153
རྣ	-11.0153
་ཐེམ	-11.0154
་ནི་རང	-11.0155
་འགའ་ཞིག་ལ	-11.0155
་ཛི	-11.0156
འོ་སྙམ་དུ	-11.0156
▁༼༧	-11.0156
་ཞིང་དུ	-11.0158
ས་ན་	-11.0159
་ཡིན་ཕྱིར	-11.016
ཏུ	-11.0162
་ཆུག	-11.0162
རིན་པོ་ཆེའི་རྒྱན	-11.0162
ང་བུ	-11.0163
་སྤྲོས།	-11.0163
ཚངས	-11.0163
་རྣམ་དཔྱོད	-11.0164
་རིམ་གཉིས	-11.0165
་དཔག་ཏུ་མེད	-11.0165
མཁྱེན	-11.0166
འི་གདོན	-11.0168
ོཾ	-11.0169
་ངང་ནས	-11.0172
་སྔ་མའི	-11.0172
་ཀྱི་གནས་ལུགས	-11.0175
འཁོར་ལོ་བདེ་མཆོག	-11.0176
་གཙུག་ལག	-11.0177
▁རྟ་མགྲིན	-11.0177
▁ཤིང་རྟ	-11.0178
་ཀྱང་རུང་སྟེ	-11.0181
་གདའ།	-11.0182
་ཐལ།	-11.0185
་ནོར་གྱི	-11.0187
་འཐུང་བ	-11.0188
་སོགས་ཏེ།	-11.0188
ར་བསྟན་པ་ནི།	-11.0188
་ནི་འདི་ཡིན་ཏེ	-11.0189
འི་རྣལ་འབྱོར་གྱི	-11.0189
་དང་མཚུངས།	-11.0191
་བྱང་ཆུབ་མཆོག་ཏུ	-11.0191
་པས༔	-11.0192
་ཛ་ཡ	-11.0192
་ཆེན་པོ་བཞི	-11.0194
ཾ་	-11.0196
་གང་ཡིན་པ་དེ་དག	-11.0196
▁རང་ལུས	-11.0198
་ལུས་གནད	-11.0199
་ཁ་སྦྱར	-11.0201
་ཕ་རོལ་དུ་ཕྱིན་པ	-11.0202
་ཀླུ་སྒྲུབ་ཀྱིས	-11.0203
▁ཁྱེད་ཀྱིས	-11.0204
་འགྲུབ་པའི	-11.0204
▁དངོས་མེད	-11.0204
་གསུམ་དང་ལྡན་པ	-11.0205
་བདག་ཅག་གི	-11.0207
ར་མི་བྱེད་དོ།	-11.0208
་བློའི	-11.0208
་ཡེ་ཤེས་ཀྱི་སྐུ	-11.0209
འི་སྟེང་གི	-11.0209
་ཁས་མི་ལེན་པ	-11.021
་བྱའོ་ཞེས	-11.021
▁མཐའ་ཡས	-11.0213
་དང་དཀྱིལ་འཁོར	-11.0213
་དན	-11.0215
་དང་རྣལ་འབྱོར་མ	-11.0215
▁སྟན	-11.0216
་གཙྪ	-11.0218
འི་ལུས་ལ	-11.022
་དགོས་ཀྱི	-11.022
་ཐོབ་ཅིང་།	-11.0222
་མེད་པ་ཉིད	-11.0222
་རྒུད་པ	-11.0223
▁ཕྱིན་ཅི་ལོག	-11.0224
་བརྒྱུད་དེ	-11.0226
▁པད	-11.0227
་རྒྱལ་བུ	-11.0227
་སྤྱིའི་མཚན་ཉིད	-11.023
▁བྲ	-11.023
▁ས་བཅུ	-11.0232
་ལས་ཚོགས	-11.0233
་ཡང་རུང་།	-11.0233
་པའི་རྟགས	-11.0235
ོངས	-11.0237
▁དེ་ལ་དང་པོ	-11.0239
་རྗེས་སུ་འཇུག་པ	-11.024
▁།དབུ་མ	-11.024
་ནི་འདི་ལྟ་སྟེ།	-11.0241
་རྣམ་པ་བཅུ	-11.0241
རིག་འཛིན	-11.0242
་བཞག་སྟེ།	-11.0242
ཱ་ཏ	-11.0243
་གྱི་རྣལ་འབྱོར	-11.0246
▁བཟང་པོ	-11.0247
་པདྨ་འདབ་བརྒྱད	-11.0247
ཱ་ཎ	-11.0248
་གདན་ལ	-11.0248
་བསྔོས་པ	-11.0249
་བསྐུལ།	-11.0251
▁ཕྱེད	-11.0255
འི་མངོན་རྟོགས	-11.0256
▁དབུ་མ་པ	-11.0256
▁དམན་པ	-11.0256
༣༤	-11.0257
་ཨཽ	-11.0258
་དང་ཡིད	-11.0258
▁ཕྱི་རོལ་གྱི	-11.0258
▁འད	-11.026
▁ཞག་བདུན	-11.0261
་ནས་བརྒྱུད་པ	-11.0261
་ཚུན	-11.0262
་གསུངས་པ་དེ	-11.0264
ར་བྱ་ཞིང	-11.0265
▁རྫུ་འཕྲུལ་གྱི་	-11.0266
་དཔུང་པ	-11.0269
་ངོ་བོར	-11.027
ར་བྱས་ཏེ།	-11.0271
ར་གྱུར་བ	-11.0273
▁འཇམ	-11.0274
་སོས	-11.0275
འི་སྟེང་ནས	-11.0275
་ཆུ་སྐྱེས	-11.0277
་ལ་དེ་ལྟར	-11.0278
་བརྡལ	-11.0278
་ཚེགས	-11.0278
ས་བྱིན་གྱིས་བརླབ	-11.028
་ནད་ཀྱི	-11.0282
་གཟུགས་ཀྱི་སྐུ	-11.0282
ན་ད	-11.0284
་བྱིན་པས	-11.0284
▁ཤྲཱི	-11.029
་མ་ཚང	-11.0291
▁ཁས་བླངས	-11.0291
་དེ་དག་ཏུ	-11.0292
་བརྗོད་པར་བྱ་སྟེ	-11.0293
་ཐབས་མཁས་པ	-11.0296
རྩ	-11.0296
རྫོགས	-11.0296
་སྔགས་དང	-11.0299
▁བཅུད	-11.0302
ེལ་བ	-11.0302
་སྟོབས་པོ་ཆེ	-11.0303
་བཞི་སྟེ	-11.0303
▁།མཚན་མ	-11.0304
་ལུས་ངག་གི	-11.0304
▁གང་ན	-11.0304
་མ་བུ	-11.0305
▁ལྷོ་ནུབ	-11.0305
་ཐོགས་ལ	-11.0305
་མེ་ལོང་ལྟ་བུ	-11.0306
ར་བསམ་ཞིང་	-11.0306
་ལ་སོགས་པ་ཐམས་ཅད	-11.0308
་གྱུར་པའི།	-11.0309
་ལ་བར་དུ་གཅོད་པ	-11.0309
་གདོན་བགེགས	-11.031
་ཕྱོགས་ལ	-11.0312
་ལྔ་དང་ལྡན་པ	-11.0313
་ཁོངས་སུ	-11.0314
་གོང་འོག	-11.0316
་ལངས་ཏེ	-11.0316
▁སྲིད་གསུམ	-11.0316
འི་ཉོན་མོངས	-11.0319
་བཟང་མོ	-11.0321
་གློ་བུར	-11.0321
་དྲངས།	-11.0323
▁རཀྟ	-11.0324
་འབའ་ཞིག་ཏུ	-11.0324
་ས་མ	-11.0325
ཞག	-11.0325
༣༨	-11.0326
་དམག་དཔུང	-11.0327
ལ་བའི	-11.0327
་བསླབས	-11.0328
▁ཨཱོྃ	-11.0328
་ཞི།	-11.0329
་སྤུངས་པ	-11.033
་རེངས་པ	-11.033
་ས་ར	-11.033
་ཐོངས	-11.033
▁རང་གཞན	-11.0331
་ཐུགས་དམ་བསྐང༔	-11.0332
་ཞེས་བྱ་བ་འདི་ནི	-11.0332
་དེ་དག་ལས	-11.0333
ཱཿ	-11.0333
་ལ་ཞོན་པ	-11.0337
་ཉིས	-11.0339
་པོད	-11.0342
ས་ཆོག་པ	-11.0343
་ཀྱི་དབང་པོ	-11.0344
་བཞི་བཞི	-11.0345
▁དབང་ཆེན	-11.0345
འི་འོག	-11.0347
་ལ་གྲགས་པ	-11.0347
▁།གཏོར་མ	-11.0347
་གཅིག་ཁོ་ན	-11.0348
་པཾ	-11.0348
་མི་བདེ་བ	-11.0348
་རཱ་ག	-11.035
་འཛིན་མ	-11.0352
▁དེ་ཐམས་ཅད	-11.0354
་རྟགས་ཡང་དག	-11.0356
་རོ་མ	-11.0358
▁།གཉིས་པ་	-11.0362
ས་བཅིངས་པ	-11.0363
ཟུང	-11.0363
འི་འདབ་མ	-11.0364
་དང་མེ	-11.0364
་བཅས་པའི	-11.0366
ར་བསྒྲུབ་པ	-11.0366
་ཅིག་ཏུ	-11.0367
་དེ་ལྟར་དུ	-11.0367
་ཚད་འབྲས	-11.0367
་ཁོང་ཁྲོ	-11.0368
སྲོ	-11.0369
སྒྱུ་འཕྲུལ་དྲྭ་བ	-11.0369
སྡུ	-11.037
▁རྩེ་གཅིག	-11.0372
▁།ཉེས་པ	-11.0373
་ཀྱི་སྡུག་བསྔལ	-11.0374
་བདག་	-11.0374
་ཉིད་ན	-11.0374
་གྱི་སྙིང་པོ	-11.0374
ུག་པ	-11.0375
ཆོས་སྐྱོང་སྲུང་མ	-11.0376
▁ཉེ་བ	-11.0378
ཧཾ	-11.0378
▁འདི་རྣམས	-11.038
སྨིན	-11.038
་པར་གྱུར་ཅིག	-11.0382
་ཡཀྵ	-11.0383
ས་ཟིན	-11.0383
ིད	-11.0384
་དྲིལ་བ	-11.0384
་ཀུན་ཏུ་སྤྱོད་པ	-11.0385
་ཉིན་པར	-11.0386
་དགོངས་འགྲེལ	-11.0388
་རྣམ་པར་རྒྱལ་བ	-11.039
་མི་དགའ	-11.039
་པྲ་ཏི	-11.0392
▁ཕམ་པ	-11.0392
▁རིག་བྱེད	-11.0394
་ལམ་ཁྱེར	-11.0396
་སྒེག	-11.0397
་བླངས་ཏེ	-11.0397
་ཆུ་ཀླུང	-11.0399
བསྟན་བཅོས	-11.0399
་ཉིད་དེ	-11.04
་འཕྲལ་དུ	-11.04
་གཉིས་མེད་ཀྱི	-11.04
་གལ་ཆེ།	-11.0401
▁།བསྐལ་པ	-11.0401
འོ་ཞེས་སོ།	-11.0401
་གསད་པ	-11.0403
▁དགེ་ཚུལ	-11.0405
་ཐག་བཅད	-11.0407
དུང	-11.0407
་རྩུབ་པ	-11.0409
་ལས་བཟློག་པ	-11.0411
་འཆབ	-11.0413
་དཔའ་བ	-11.0413
ྃ༔	-11.0414
་རྡོ་རྗེ་མ	-11.0415
་ཐད་ཀར	-11.0415
▁མ་སྐྱེས་པ	-11.0418
་འབད་རྩོལ	-11.0418
▁།རྫོགས་པའི་	-11.0418
་གོས་ཀྱི	-11.042
བར	-11.042
་སྣ་ཚོགས་དང་།	-11.0423
་པའི༔	-11.0425
▁པཎ་ཆེན	-11.0426
དབྱངས	-11.0427
འི་དབུས་ན	-11.0428
་དར་རྒྱས	-11.0432
་འཚམས	-11.0432
པ྄	-11.0432
་ངོ་སྤྲོད་པ	-11.0432
་མི་རྟག་པར	-11.0432
་སྐྱབས་གནས	-11.0434
ར་རིགས་པ	-11.0435
▁སྡུག་བསྔལ་གྱི	-11.0438
ལ་ཞིང	-11.0439
་ལུས་འདི	-11.044
▁མཚོན་ཆ	-11.0441
་མནན།	-11.0442
་ཀུན་སྤྱོད	-11.0444
་འདག་པ	-11.0445
ས་བསྐོར༔	-11.0447
▁རབ་ཏུ་བྱུང་བ	-11.045
▁རྡོ་རྗེ་དྲིལ་བུ	-11.045
▁ཕཊ	-11.0451
་མཚལ	-11.0451
་དང་དྲིལ་བུ	-11.0452
་བརྗོད་པའོ།	-11.0454
་བག་མེད་པ	-11.0461
་འབྱུང་བ་བཞི	-11.0463
་བཞུགས་སུ་གསོལ	-11.0464
▁།ཞབས	-11.0464
འི་ཆར	-11.0464
▁འདྲེ	-11.0464
་སོ་བདུན	-11.0464
་བཀལ	-11.0465
འི་གདུལ་བྱ	-11.0469
་བཞག་སྟེ	-11.0469
འི་འདུན་པ	-11.0472
་དབང་རྫས	-11.0473
་ལ་སེམས་གཏད	-11.0474
་བླུགས་པ	-11.0475
་བྲི་བར་བྱ།	-11.0476
་ན་མི	-11.0477
▁གླང་པོ་ཆེ	-11.0478
་ཀྱིས་མཛད་པ	-11.0478
་མཚན་གྱི	-11.0479
་བཟོད་པར་གསོལ	-11.048
་སྨོད	-11.0481
་གི་དོན	-11.0481
ར་བཤད	-11.0482
་ཤེས་རབ་ཡེ་ཤེས	-11.0482
་མེད་པར་རྟོགས་པ	-11.0482
་རིན་ཐང	-11.0482
འི་ལྟེ་བ	-11.0483
་དབང་ལྡན	-11.0484
་དོར།	-11.0485
་སྒྲུབ།	-11.0485
་ཐུགས་སུ་ཆུད་པ	-11.0485
་འགའ་རེ	-11.0486
ཏི	-11.0486
་གཤོ	-11.0486
་བར་དོར	-11.0486
་ལམ་རིམ	-11.0486
་མཛད་ནས།	-11.0486
་འགྲོ་འདུལ	-11.0487
▁དབང་ཤེས	-11.0487
་བླ་བྲང	-11.0487
▁ནམ་མཁའ་ལ	-11.0488
་གཉིས་པར	-11.049
༣༩	-11.049
▁།བུམ་པ	-11.0491
་ཀྱི་ལུང	-11.0493
ས་མཚན་པ།	-11.0496
་འཁྱེར	-11.0496
་མཛད་དེ་	-11.0497
འི་གོ	-11.0498
▁བཅོམ་ལྡན་	-11.0502
▁འཇིགས	-11.0502
་རྗེས་ཀྱི	-11.0502
་ཉིད་ཡིན་པ	-11.0502
་དུ་བཅུག་པ	-11.0504
་བསྐྱེད་ནས	-11.0505
་ནས་ནི།	-11.0506
་དབུས་མ	-11.0506
འི་ཆོས་སྐོར	-11.0507
་ལ་མི་གནས་པ	-11.0507
་ཧཱུྃ་ཕཊ྄ཿ	-11.0508
་ཉན་རང་གི	-11.0509
་ཕེབས་ནས	-11.051
་འཕགས་པའི་བདེན་པ	-11.0512
་བགྱི།	-11.0513
་གནས་མལ	-11.0513
་དོན་རྟོགས	-11.0514
་བདག་རྐྱེན	-11.0514
་པྲ་ཏཱིཙྪ	-11.0515
▁།གསེར	-11.0515
་དར་མ	-11.0516
་ལ་ཐུག་པ	-11.0516
་འཆི་ལྟས	-11.0518
འི་ཐད	-11.0519
ས་ས	-11.0519
་རྐུ	-11.052
▁བྱུང་བ	-11.0522
་བཀའ་ཉན	-11.0523
་གཞོལ	-11.0523
▁།ངག	-11.0524
་བཅོམ་ནས	-11.0526
་པར་བྱེད་དོ།	-11.0528
ར་བསྟན་པ་དང་།	-11.053
་སོ་ཞེ་ན།	-11.053
་མཐར་བྱེད	-11.0533
་བཀའ་འབུམ	-11.0533
ན་	-11.0534
་སྤྱན་དྲངས་ལ	-11.0536
་བདེན་བཞི	-11.0536
་ནོད	-11.0538
་ཡིན་པས་ཁྱབ	-11.0538
▁དེ་སྐད་ཅེས་	-11.0539
་གང་གི་ཕྱིར	-11.0539
འི་རྟགས་སུ	-11.0541
▁།ང་ཡི	-11.0543
▁ཞེས་བརྗོད	-11.0545
་འགར	-11.0551
་ཤིག་ཅེས	-11.0551
▁འདོད་ན	-11.0553
་བཀའ་བརྒྱད	-11.0554
▁གཙོ་བོར	-11.0554
་ཟློས་པ	-11.0556
་བསྒྲལ་བའི	-11.0557
་ལ་གནང་བ	-11.0557
པདྨ	-11.0558
་བཤད་པར་བྱ།	-11.0559
་ཕྱག་འཚལ་བསྟོད།	-11.056
▁2<-	-11.0561
་གང་དེ	-11.0562
་ཀྱང་མ	-11.0562
་སྨིག་རྒྱུ	-11.0563
་པའི་གནས	-11.0564
་མདོ་སྡེ་པ	-11.0564
་གཅིག་དང་།	-11.0565
་ལ་སྤྱོད་དོ།	-11.0566
་གཟི་བྱིན	-11.0567
་ལ་དམིགས	-11.0567
ལྷུན་གྲུབ	-11.0569
▁པད་མ	-11.0569
་བསླབ་པའི་གཞི	-11.0569
▁ཨོཾ་ཨཱཿཧཱུྃ་བཛྲ	-11.057
་སྙམ།	-11.0571
▁ཀུན་རྫོབ་ཏུ	-11.0573
ཱན	-11.0574
་གཞུང་འདི	-11.0575
་མི་ཏྲ	-11.0576
་ཤེལ་གྱི	-11.0576
་པར་	-11.0579
འི་བར་ལ	-11.058
་གཟུང་འཛིན་གྱི	-11.0581
ས་སམ	-11.0581
་སྐྱོན་ཅན	-11.0582
་རྗེས་སུ་འབྲེལ་བ	-11.0583
་ཤིན་དུ	-11.0583
་གྱི་སྒྲ	-11.0584
▁མདོ་སྡེ་པ	-11.0584
ི་ར	-11.0587
་ཙ་ན།	-11.0589
▁ཐེག་ཆེན་གྱི་	-11.0589
▁བྷ་ག	-11.0591
་དབེན་པར	-11.0592
ས་ཀྱང་	-11.0594
་མཐའ་བྲལ	-11.0594
་བསྙེན་གནས	-11.0595
▁རྣམ་སྨིན	-11.0595
▁ཀཱ་ཡ	-11.0596
▁ཁྱབ	-11.0596
་རབ་ཏུ་འབར་བ	-11.0597
▁ངེས	-11.0598
་སྲུངས	-11.0599
་མཆིས།	-11.0601
་དང་སྦྱོར་བ	-11.0602
་སྐྱུར	-11.0602
་ཕྱུང་སྟེ	-11.0604
་མཆི་མ	-11.0604
་རྨིས	-11.0606
་བྱིང་བ	-11.0607
་ནི་ཉོན་མོངས་པ	-11.0609
་ལས་རྡོ་རྗེ	-11.0609
ར་བྱས་ལ	-11.061
་འདེགས	-11.0611
་བྱེད་ལས	-11.0611
་མ་གྲུབ་པར	-11.0614
་འདོན།	-11.0614
་བཞི་ནི།	-11.0614
་གཏང་རག	-11.0615
ར་མི་བྱ	-11.0616
་ཐ་དད་མེད་པ	-11.0617
་རྐྱལ	-11.0618
▁ཡིག	-11.062
▁ཐག	-11.062
་ཨཱི	-11.0622
་སྐོམ	-11.0624
་སོ་སོ་བ	-11.0627
་ཡོད་པ་མ་ཡིན	-11.0627
་མ་རྙེད	-11.0629
▁མཆོད་སྦྱིན	-11.0629
▁།དུག	-11.0629
▁།རྗེས་སུ	-11.063
་དང་པོས	-11.063
ས་བཅོམ་ལྡན་འདས་ལ	-11.0637
་འཁྲིག་པ	-11.0637
▁།བསམ	-11.0639
བླ་མེད	-11.0639
ེམ	-11.0642
་འགག་མེད	-11.0643
་འབྱོན	-11.0644
་སྙེ་མ	-11.0644
▁མཱ	-11.0644
▁ཏེ།	-11.0646
་རྣལ་འབྱོར་པ།	-11.0647
▁།གང་ཕྱིར	-11.0647
་མམ	-11.0649
་ཡུལ་དེ	-11.0651
ར་མི་རུང་བ	-11.0651
་བྲུ	-11.0652
་ལྷའི་དབང་པོ	-11.0655
་འདོད་དགུ	-11.0656
ར་སྣང་།	-11.0659
▁།དེ་ཡང་	-11.0659
་འདྲའོ།	-11.066
་ཤེས་པར་བྱ	-11.0661
་རྒྱུད་སྡེ་བཞི	-11.0661
་ཚད་མས་གྲུབ་པ	-11.0661
འི་ཚེ་དེའི་དུས་ན	-11.0665
ར་དམིགས	-11.0665
་དམ་ཚིག་པ	-11.0666
▁རང་གི་ལུས	-11.0666
་པ་རྣམས་ཀྱིས	-11.0666
་བཛྲ་སྭ་བྷཱ་ཝ	-11.0667
▁བྱང་སེམས་ཀྱི	-11.0668
▁ཚོགས་ཀྱི	-11.0671
▁།ཅིའི་ཕྱིར	-11.0673
▁དེས་ན་	-11.0673
▁གཡོ	-11.0674
་གྱེན་ལ	-11.0675
▁དོ	-11.0675
་ཡི་དམ་གྱི་ལྷ	-11.0678
་མ་ཟིན་པ	-11.0679
་ཐུགས་སུ་ཆུད	-11.068
ཱ་མ	-11.068
་དབང་བསྐུར་རོ།	-11.0681
གཟུང་འཛིན	-11.0681
་ཐོགས།	-11.0681
་གནས་པ་དེ	-11.0684
་སོང་བས	-11.0686
་རྒྱུད་ལ་སྐྱེས་པ	-11.0686
་སྟེང་འོག	-11.0687
་རྟོགས་ནས་	-11.0687
་འཇིག་རྟེན་	-11.069
་བཞག་ནས	-11.069
ུ་ར	-11.069
་སྤྲོས་པས	-11.0691
་ལ་ལོངས་སྤྱོད	-11.0692
་ནི་ཡང་དག	-11.0692
▁བཀྲ	-11.0692
་ལ་སོགས་པ་ལ	-11.0694
▁དགེ་སློང་གིས	-11.0696
▁།རྟག	-11.0696
་མམ།	-11.0697
་བསྟིམ།	-11.0697
▁།གཏི་མུག	-11.0697
༤༠	-11.0698
་ངར་འཛིན	-11.0698
▁།དེ་འདྲ	-11.0698
་ལས་རྣམ་རྒྱལ	-11.0699
་ཀྱུ	-11.0699
▁ཆུ་བོ	-11.0701
▁སྡིག	-11.0703
འི་དབུ	-11.0705
་ཐག་ཆོད	-11.0706
་དྲག་ཤུལ	-11.0707
་ལ་ནི་	-11.0707
་ད་ལྟར་གྱི	-11.0707
་ཀྱི་ཕྱོགས	-11.0708
་གཞལ་མེད་ཁང	-11.071
་གོ་ཞེས	-11.071
་ལྟོ་བ	-11.0712
་འཆར་ཀ	-11.0713
་རྒན་པོ	-11.0714
▁མོས་གུས	-11.0715
་རང་འདྲ	-11.0715
▁རྙེད་པ	-11.0715
་མཉེ	-11.0715
་བཤད་པ་ནི	-11.0716
་དགོས་འདོད	-11.0717
་མཉམ་པ་ཉིད་ཀྱི	-11.0718
་ལྟོས།	-11.072
་སྲན	-11.072
་སྤོང་།	-11.0721
་དབང་ཐོབ་པ	-11.0722
་ཅི་ཡང་མི	-11.0724
་འདྲའི	-11.0724
་ཁེབས	-11.0726
་འཐོབ་བོ།	-11.0727
་༼རྙིང༽	-11.0728
▁མཚོན་བྱ	-11.0728
་མིང་དུ	-11.0728
་ཤམ་བུ	-11.0731
རྡ	-11.0734
་བསྒྲིགས་པ	-11.074
་ལ་མ་ལྟོས་པར	-11.0741
དགེ་ལེགས	-11.0741
་མར་ཁུ	-11.0741
▁།རྒྱན	-11.0742
འི་རིག་འཛིན	-11.0744
་ཕྲི	-11.0745
་ཞིག་ཀྱང	-11.0745
་ཕལ	-11.0746
▁རྣམ་པར་བྱང་བ	-11.0747
▁སེར་པོ	-11.0748
་བརྟན་མ	-11.0749
▁ཚོགས་པ	-11.0749
་དང་རླུང	-11.075
་ལས་གཞན་པ	-11.075
་བྱེད་རྒྱུ	-11.075
▁བྱུང	-11.075
་འཆི་བདག	-11.0751
འི་ཐུགས་དམ་བསྐང་	-11.0751
་བདུག	-11.0752
་ཆོག་པ	-11.0752
▁ས་དང་པོ	-11.0752
་དྲི་བཟང	-11.0752
▁དགྱེས་པ	-11.0754
་མི་མཉམ་པ	-11.0755
་ལ་སངས་རྒྱས	-11.0756
▁བཙ	-11.0758
་མི་རིགས་སོ།	-11.0758
་བྱིན་གྱིས་བརླབ།	-11.0759
་ཚོང་པ	-11.0759
འི་འཇིག་རྟེན་གྱི	-11.076
་མ་ཧཱ་ཀཱ་ལ	-11.0761
་སྟོད་གཡོགས	-11.0762
་འཐག	-11.0763
་ལྷག་བསམ	-11.0764
་བསླང	-11.0764
་གནས་ཤིང་།	-11.0765
སྐྱོན་མེད་དེ།	-11.0766
་སྤྲེལ	-11.0767
ཉན་རང	-11.0767
▁ཕུང་པོ་ལྔ	-11.0768
་ཡིན་ཟེར་བ	-11.0774
འི་ནོར	-11.0774
▁རིག་སྔགས	-11.0775
་འཁྲུངས་པ	-11.0776
་རུང་ངོ་།	-11.0778
ས་པས།	-11.0779
་ཧོ།	-11.078
ར་མི་འགྱུར།	-11.0781
་ཞེས་བྱ་བ་འདི	-11.0782
་བསྟན་པ་ནི	-11.0783
ར་གསལ	-11.0784
་གཟུངས་ཐག	-11.0785
་ཅན་དེ	-11.0786
་བཅོམ་ལྡན་འདས་མ	-11.0787
་ཡིན་པ་དེ	-11.0788
་ཕྱག་གི	-11.0788
འི་དབང་དུ	-11.0788
་ཀྱི་བྱེ་བྲག	-11.0789
་མི་མཇེད	-11.079
་སྔོན་པོ།	-11.0792
་མུག	-11.0792
▁།ཏིང་ངེ་འཛིན	-11.0793
ེཾ	-11.0793
་ཡོད་དེ་	-11.0794
་སྟོན་པའོ།	-11.0795
་རྒྱས་འདེབས	-11.0795
་ན་འདུག་པ	-11.0796
ཆགས་སྡང	-11.0797
་ཤེས་པར	-11.0797
▁ཞང	-11.08
རྀ	-11.0801
་དངོས་འགལ	-11.0802
་སེལ་བའི	-11.0804
་ག་ཏ	-11.0805
་ཡར་ངོ	-11.0805
▁།ལག་པ	-11.0805
▁བརྟེན་པ	-11.0805
་དེར།	-11.0806
་བརྗོད་ན	-11.0807
▁ཐ་སྙད་དུ	-11.0807
▁སྨོན་པ	-11.0814
་ལས་དེ	-11.0814
་འབྱོངས་པ	-11.0817
་གཡོན་པས	-11.0817
ས་སེ	-11.0817
་མིན་པའི་ཕྱིར།	-11.0819
་པའི་ལྷ	-11.0819
་ཞེས་པ་ལྟ་བུ།	-11.0822
་གཏོར།	-11.0825
་དམ་པར	-11.0826
སྤྲོས་པ་དང་བྲལ་བ	-11.0827
▁ཡང་དག་པར་རྫོགས་	-11.0827
་རྟོགས་པར་བྱ་བ	-11.0828
་མི་ཕྱེད	-11.0831
▁དེ་གཉིས་ཀ	-11.0832
ལུགས	-11.0832
▁རྒྱལ་པོས	-11.0834
་ཐུབ་པའི	-11.0836
་གཟིགས་པས	-11.0837
་རེ་རེ་ཞིང	-11.0837
་འཛོམ	-11.0837
་སོང་སྟེ་	-11.0837
་མི་ཕན	-11.0841
་འོད་དུ་ཞུ་ནས་	-11.0841
་གཡས་ཀྱི	-11.0843
་གཞན་གྱི་དོན	-11.0843
་བཞག་པའི	-11.0843
་ལ་བརྟེན་ཏེ	-11.0844
་འཚེར	-11.0844
་ཚོགས་བསགས་པ	-11.0845
་འཁོར་རྣམས	-11.0846
་ཀྱི་དངོས་གྲུབ	-11.0847
་འབ	-11.0847
▁རྩོད	-11.0847
་རིགས་དྲུག་གི	-11.0848
་ཙུ	-11.0853
་མི་འོང	-11.0854
བདག་ཏུ	-11.0854
་བྱང་ཆུབ་ཏུ་སེམས	-11.0855
་འཁྲིལ༔	-11.0856
་དགུར	-11.0858
་རྒྱུ་དང་འབྲས་བུ	-11.0861
་དང་པདྨ	-11.0861
གྲོགས	-11.0862
་ཐོབ་པའོ།	-11.0862
▁ཞིག	-11.0863
་ཞག་གསུམ	-11.0864
▁མགྲིན་པར་ཨཱཿ	-11.0868
ས་བསྐུལ་བ	-11.087
་ཚད་མེད་བཞི	-11.0871
་སྲ་བ	-11.0873
་མིག་ཤེས	-11.0874
་གཞུང་བཞིན	-11.0876
་ཆེ་བ་དང་།	-11.0876
་རྟག་ཆད	-11.0876
་གཟའ་སྐར	-11.0877
་རྗེ།	-11.0877
་ཞིང་སྐྱོང	-11.0878
་རྡོ་རྗེ་སྙིང་པོ	-11.0879
་ཧ་ལ	-11.0879
་རྫིང་བུ	-11.0881
་རེངས	-11.0883
་ཞི་བར་བྱེད་པ	-11.0885
▁།ཁམས	-11.0887
ས་འདུལ་བ	-11.0888
འི་དུས་ལ་བབ༔	-11.0889
་སྒྲུབ་པའོ།	-11.0889
་རོག	-11.089
་བྱེད་མ	-11.089
་བྱུང་བ་དང་།	-11.0893
་སྒྱུ་མ་ལྟ་བུར	-11.0893
▁འདུ་ཤེས་དང་།	-11.0893
་མཆོད་པ་ནི།	-11.0894
་༼༡	-11.0895
་མཁྱེན་ནས	-11.0895
་བསྣུན་པ	-11.0895
ར་བསྒོམ་པ	-11.0898
་དེད་དཔོན	-11.0899
་རྙེད།	-11.0899
འགལ་ཟླ	-11.0899
་རློམ་སེམས་སུ་མྱ	-11.09
་གང་ཟག་གི་བདག	-11.0901
ར་སངས་རྒྱས་པ	-11.0901
་གང་གཱའི་ཀླུང་	-11.0901
་གང་ཤར	-11.0902
་བཀོལ	-11.0903
་ཆུང་གི	-11.0903
་གཞན་ནི	-11.0903
ས་གྲུབ་པ	-11.0905
▁བདག་ཉིད་ཆེན་པོ	-11.0907
་ཡོངས་འཛིན	-11.0909
་དུ་གསལ་བ	-11.0912
་དྲེགས	-11.0913
ར་གྱིས༔	-11.0913
ན་ཏ	-11.0915
་རབ་དབྱེ	-11.0915
▁།རྗེས	-11.0916
དུས་གསུམ	-11.0916
་ལེ།	-11.0916
འི་དབུས	-11.0917
འི་ཕ	-11.0918
་རྗེས་ལ	-11.0919
་གཅེས་པ	-11.0919
་བརླག་པ	-11.0919
▁བསྔོ་བ	-11.092
་བསམས་ནས་	-11.0921
འི་ཕྲིན་ལས་མཛོད༔	-11.0923
་སྤོ་བ	-11.0924
་འཕྲིན	-11.0924
▁ཊ	-11.0924
▁ཚིག་གི	-11.0925
་བཤད་རྒྱུད	-11.0925
▁ཕྱག་ན	-11.0926
▁དང་	-11.0928
བསམ་གཏན་གྱི	-11.0928
་ཅི་འདྲ་བ	-11.0929
▁ཧོ	-11.0929
་ངུར་སྨྲིག	-11.0932
ཡུ	-11.0933
▁།རང་རིག	-11.0934
▁ལྕགས་ཀྱུ	-11.0934
་གི་རྣམ་པ	-11.0936
་ལྟ་བུ་ཞིག	-11.0938
་ལ་འགོད	-11.094
་བཅོལ་བ	-11.094
་རཀྵ་རཀྵ	-11.0942
▁འགྲེལ	-11.0942
ཨོྃ	-11.0943
འི་ཀློང་དུ	-11.0944
་གཞལ་བ	-11.0944
་འདོད་ཁམས	-11.0944
་ཞར་ལ	-11.0945
ད་ཀྱི	-11.0945
་མི་དགེ	-11.0945
་བཤད་ན	-11.0946
་དངོས་ལ	-11.0946
་བྱིན་གྱིས་རླབས	-11.0946
གྱུ	-11.0947
་མ་ར	-11.0947
་ལོ་ཙཱ	-11.0947
▁བརྒྱ་བྱིན	-11.0948
▁།ཕྱག་འཚལ	-11.0948
ར་བཞེད	-11.0951
དེང་འདིར	-11.0954
་ཁྲལ	-11.0954
་སྟོན་པ་ནི	-11.0955
༼༡༩	-11.0955
་ཀྱི་ངོ་བོ་ཉིད	-11.0956
་ཀྱི་ལུས	-11.0956
10000250	-11.0956
▁གུ་གུལ	-11.0956
་བསམ༔	-11.0958
་གྱིས་ནི	-11.0958
་བདུད་རྩིས་གང་བ	-11.0958
་ལྷུན་གྲུབ།	-11.0958
་སྐུ།	-11.0959
▁མྱིག་གི་	-11.096
་བབས་པས	-11.096
་བྱིན་བརླབ	-11.0961
་བློ་ཡི	-11.0961
་དཀར་པོའི	-11.0962
དུས་གསུམ་རྒྱལ་བ	-11.0962
་གསུམ་ནི།	-11.0963
ར་ངེས།	-11.0965
་ཨོཾ་བཛྲ་ས་མཱ་ཛཿ	-11.0966
་ཚར་བཅད	-11.0966
༼༡༦	-11.0967
▁སངས་རྒྱས་ཀྱི་	-11.0968
་དཔོག་པ	-11.0968
་ལ་གོམས་པ	-11.0971
་ནུབ་ཕྱོགས	-11.0971
ཚུལ་བཞིན	-11.0972
་ཆེན་པོ་འདི	-11.0972
ཁྱོད་ཀྱི	-11.0974
་དགའ་བོ	-11.0974
་པའི་ལུགས	-11.0975
་བཀང	-11.0976
་དབང་བཞི་པ	-11.0977
ཅུང་ཟད	-11.0977
་སྔ་མ་བཞིན་ནོ།	-11.098
ི་བ	-11.0985
་ཀུན་འགྲོ	-11.0985
གྲངས	-11.0986
▁ཉམས་ལེན	-11.0986
▁མི་གཡོ་བ	-11.0986
་འགྲན	-11.0986
་རས་པ	-11.0986
ཡིག	-11.0988
▁བྱའོ།	-11.0988
མི་བཟད	-11.0988
▁།ཤེས་བྱ	-11.0989
་སླེབས་པ	-11.099
་སྐྱེས་ཏེ།	-11.0992
▁འདུག	-11.0993
་གཞན་དོན་དུ	-11.0993
་རྟགས་ཀྱིས	-11.0994
▁།བདག་མེད	-11.0995
▁བར་པ	-11.0996
་གཅོད་པའི	-11.0996
་ནི་འདིར	-11.0999
་ལན་གསུམ་དུ	-11.1
་མ་བྱེད་ཅིག	-11.1001
་ཐོས་པས	-11.1004
་ཕྱོགས་སྐྱོང	-11.1004
་རྒྱས་གདབ་པ	-11.1006
▁།སོ་སོར	-11.1007
་རུ་ཏྲ	-11.1008
་རྒྱ་གར་གྱི	-11.1008
་བདུག་སྤོས	-11.1009
འི་གནས།	-11.101
འི་གྲུབ་མཐའ	-11.1013
་སྒྱུ་མར	-11.1013
འི་སྣོད་དུ	-11.1013
་སྦྲགས	-11.1015
ླི	-11.1016
་འཚུབ	-11.1016
༼༡༥	-11.1017
་བཤགས།	-11.1018
་ཧ་ཧ	-11.1018
་སྟོང་པ་ཞེས་བྱ་བ	-11.1019
་བཅུད་ཀྱི	-11.1021
་སོང་ནས།	-11.1021
་གནས་ཏེ	-11.1022
་མ་ཤེས་ན	-11.1022
་དང་གསུམ	-11.1023
་རྩ་འདབ	-11.1025
་འདི་ཉིད་དུ	-11.1026
▁རོ།	-11.1026
▁ཨོཾ་པདྨ	-11.1028
་ཕྱེད་དང	-11.1029
་སྲུང་བའི	-11.1029
▁དེ་ནས་རྒྱལ་པོ	-11.103
་ལྤགས	-11.103
ཕཻཾ	-11.1031
▁དེ་ལྟ་བུའི་	-11.1032
་ལྡེབ།	-11.1032
་འགྲེལ་ཆེན	-11.1034
རྒྱལ་པོའི་ཕོ་བྲང	-11.1036
་དུས་གཅིག	-11.1037
་ཕྱག་རྒྱས	-11.1038
་རྣམ་པར་བཤད་པ	-11.1039
་པ་ཆེན་པོ	-11.1039
འི་སྐད་ཅིག	-11.104
སུ་མི་མཐོང་ངོ་།	-11.1041
འི་འཕྲིན་ལས	-11.1042
ར་ལྡན།	-11.1043
མ་གྱི	-11.1044
་བཀོད་དེ	-11.1044
་བསྡེབས	-11.1045
འགྲོ་བའི་དོན་དུ	-11.1046
་ལ་གཏོར་མ	-11.1047
་རྔམ་པ	-11.1047
ར་གདའ།	-11.1049
་ལེགས།	-11.1049
1000024010000270	-11.105
་མ་ལགས་སོ།	-11.105
་ཀུན་དགའ་བཟང་པོ	-11.105
་ཕྱི་ནང་གསང་བ	-11.105
་ཕྱུངས	-11.1051
རྫུ	-11.1052
▁བློ་གྲོས་ཆེན་པོ	-11.1055
A	-11.1055
ར་ལྡན་པ	-11.1057
་མཉམ་མེད	-11.1057
▁།མཐོང་བ	-11.1057
་དང་འགྲོགས	-11.1058
་ཧ་ཅང་ཐལ་བ	-11.1059
་མ་འགགས	-11.1061
▁རི་བོ	-11.1061
་དང་འདྲེས་པ	-11.1061
▁ཕག	-11.1063
་དེ་ལ་ཡང	-11.1063
▁གྲུབ་ཐོབ	-11.1065
▁གསོ	-11.1065
་ཡིན་པས་ཁྱབ་པ	-11.1066
་ནཾ	-11.1066
▁རྨོངས་པ	-11.1067
་མཐུན་པའི	-11.1069
▁སང	-11.1071
་བཤད་ཀྱི	-11.1071
་ཧྃ	-11.1072
་སྔོ་བ	-11.1072
▁སྤྲོས་བྲལ	-11.1075
▁།ཆོས་སྐུ	-11.1076
་ཝང	-11.1076
་བྱུགས་པ	-11.1077
་ཕྱི་རོལ་པ	-11.1078
་རེ་རེ་ལ་ཡང	-11.1078
་བསྒྲིལ	-11.1078
འི་དགྲ་བགེགས	-11.1079
▁།དཀོན་མཆོག་གསུམ	-11.1079
▁རང་གི་སེམས	-11.1079
▁བསྲུང་བ	-11.108
ར་བསྒོམ	-11.1081
་མ་འོངས	-11.1081
་རྒྱ་ནག	-11.1082
་བསྔོས	-11.1084
་གསང་གནས	-11.1085
▁ཁྲོ་རྒྱལ	-11.1085
་བརྟགས་པའི	-11.1085
▁དེ་ནི་འདི་ལྟར	-11.1086
▁སོགས་པ	-11.1087
▁ཅེས་སོགས	-11.1087
▁༡༡	-11.1087
་ཅིག་ཅར་དུ	-11.1087
་བཟླས་ལ	-11.1088
་ཡན་ལག་བཅུ་གཉིས	-11.1088
་བྷ་ཡ	-11.1089
་བདག༔	-11.1092
་དུ་སྐྱེ་བ	-11.1092
་འཕྱར	-11.1092
ས་ཐོབ་པ	-11.1093
ད་དོ།	-11.1093
་རང་རྒྱུད་པ	-11.1094
་གང་ཡིན་པའོ།	-11.1095
་བལྟའོ།	-11.1095
▁སླར་ཡང་	-11.1095
རྙེད་པ	-11.1095
▁།ཨོཾ་	-11.1096
་རྟ་མཆོག	-11.1098
▁ཕལ་ཆེར	-11.1098
ར་ཐལ་བ་དང་།	-11.1099
▁བར་མ	-11.1099
་ཡན་ལག་ཅན	-11.1099
་ཕུལ་ནས	-11.1101
▁།ངོ་མཚར	-11.1102
་ཐོབ་པར་འདོད་པ	-11.1103
་དགུ་པོ	-11.1103
་དང་སྔགས	-11.1104
་རང་སྒྲ	-11.1104
འི་བསླབ་པ	-11.1107
▁རྣམ་པར་སྨིན་པ	-11.1107
་རྒྱུན་མི་འཆད་པ	-11.1107
▁།གདུལ་བྱ	-11.1109
་མ་ཡིན་ནམ་ཞེ་ན	-11.1109
་རྦ་རླབས	-11.1109
ལུས་ཅན	-11.1109
་ལ་བྱ་བ	-11.111
་པ་ཏི	-11.1111
་ཡང་མ་ཡིན་པ	-11.1112
་ཐོབ་པར་འགྱུར་བ	-11.1114
▁ཞི་གནས	-11.1114
་མ་རུ	-11.1114
་ལུང་ལས	-11.1115
་རྣམ་དག་གི	-11.1115
་དགོན་པར	-11.1117
ར་བྱའོ	-11.1118
ཟུང་འཇུག	-11.1119
▁ཐུགས་ཀར་ཧཱུྃ	-11.1119
▁བདག་ནི་	-11.112
་སྡོང	-11.112
་དམྱིགས་པ	-11.1121
་སེར།	-11.1121
་གཅོད།	-11.1121
་བསྐལ་པ་གྲངས་མེད	-11.1124
་ཁྲག་གིས	-11.1127
▁འཛ	-11.1128
་མངའ་རིས	-11.1128
་འོད་ལྔ	-11.1135
▁།ཟབ་མོ	-11.1136
་སླད་དུ།	-11.1137
རྐོ	-11.1139
་ཡབ་སྲས་ཀྱི	-11.114
་པ་ཞེས་བྱ་བ	-11.114
་ནན།	-11.114
་ཐེངས	-11.1141
▁།དྲག་པོ	-11.1141
་སྔགས་ཀྱི་ཕྲེང་བ	-11.1142
་རབ་རྒྱས	-11.1142
▁དམ་ཆོས	-11.1142
འི་དབང་།	-11.1142
་མི་ཐུབ་པ	-11.1144
▁གཟུངས་ཀྱི་སྒོ	-11.1144
་ཐོས།	-11.1145
ར་ཐལ	-11.1146
་ཤེས་བྱེད	-11.1151
་ལ་ལྔ་སྟེ།	-11.1151
་བྲིའོ།	-11.1152
་དུ་གྲུབ་པ	-11.1152
་འཇུག་པ་དང་།	-11.1153
་བྱེད་ལ།	-11.1159
་བསྟེན་ནས	-11.1159
་ཕོ་བྲང་དུ	-11.116
་གྱི་དབང་གིས	-11.1161
འི་ཡིད་ཀྱིས	-11.1162
་དགེ་སློང་དག	-11.1162
་ཏཱ་རེ	-11.1162
▁གནས་བརྟན	-11.1163
་ཟམ	-11.1163
▁བརྟག་པ	-11.1166
་བསྒྲུབས་པའི	-11.1167
་དོག	-11.1167
▁ན་མ	-11.117
་མི་འཇིགས	-11.1172
་དང་མཚན་མ	-11.1173
་ཛམྦྷ་ལ	-11.1174
་རིག་པས	-11.1175
་ཡེ་ཤེས་ཀྱིས	-11.1175
▁དེའི་ནང་དུ	-11.1178
་མེད་པ་སྟེ།	-11.1179
སྟོན	-11.118
་སྲུངས་ཤིག	-11.1181
་བཏབ་སྟེ	-11.1182
▁།ཅེས་བྱ་བ	-11.1182
▁།བཙུན་པ	-11.1183
་ཆོས་བརྒྱད	-11.1183
་འདྲིལ	-11.1184
▁གསང་འདུས	-11.1186
་དཔལ་ཧེ་རུ་ཀ	-11.1187
འི་བཟོད་པ	-11.1188
་འཕྲོས་པས།	-11.1188
▁འབུམ་ཕྲག	-11.1188
▁མཚམས་སྦྱར	-11.1189
▁ཆེ་གེ་མོ	-11.1189
་ལྟ་བ་དང་།	-11.119
་བནྡྷ	-11.119
་དེ་དང་དེར	-11.1191
་དངོས་གྲུབ་ཐོབ	-11.1192
▁།རིམ་པ	-11.1193
་ནད་ཀྱིས	-11.1194
▁གཏན	-11.1194
་མུ་བཞི	-11.1195
▁བུདྡྷ	-11.1196
་གསུངས་པ་ཡིན་ནོ།	-11.1198
བྱིན་གྱིས་རློབ་པ	-11.1198
འི་གནས་སྐབས་སུ	-11.1198
་རྟོགས་ན	-11.1198
་ལྟ་སྟེ་དཔེར་ན།	-11.1199
་རུས་སྦལ	-11.12
ས་འོད་ཟེར་འཕྲོས།	-11.1201
་ནས་བཟུང་སྟེ།	-11.1202
ྃ།	-11.1203
ནམ་ཡང	-11.1204
▁བརླ	-11.1205
༣༡	-11.1207
གཏུམ	-11.1211
་ཐམས་ཅད་ལ་ཁྱབ་པ	-11.1211
་གདུལ་བ	-11.1211
འི་མཚན་གཞི	-11.1211
་བསྒྲུབ་པར	-11.1212
་རྔ་ཡབ	-11.1213
▁གཏ	-11.1215
ཇ	-11.1215
▁འབ	-11.1216
▁།༼	-11.1217
་མཛད་པ་དང་།	-11.1218
▁།ངེས་པ	-11.122
རང་བཞིན་དུ་གནས་པ	-11.1221
ུ་ལུ	-11.1221
་རྣམ་པར་བྱང་བ	-11.1223
▁བརྟུལ་ཞུགས	-11.1225
ས་བསམས་པ	-11.1225
་ཤུན	-11.1226
་མཛེས་པར	-11.1227
་རྐང་པ་གཉིས	-11.1227
་འཐབ་པ	-11.1229
་ཁྱོན	-11.1229
་འབྱུང༔	-11.1229
་འཕྲོད་པ	-11.1229
་དཀྱིལ་འཁོར་ལྷ	-11.1232
་དབུས༔	-11.1232
་བཏང་ནས	-11.1232
་ཕུལ་ལ།	-11.1236
▁ལས་དང་པོ་པ	-11.1241
་ཐོབ་སྟེ།	-11.1242
འི་འབྲེལ་པ	-11.1246
་བདག་མདུན	-11.1247
འི་སྐལ་བ	-11.1247
ར་བྱེད་པའི་ཐབས	-11.1248
་མཚུངས།	-11.1251
▁རང་བཞིན་གྱི	-11.1253
ག་པུར	-11.1254
འི་དགའ་སྟོན	-11.1256
▁ཆོས་ལ	-11.1256
་ཆེ་ལ	-11.1257
▁ཛྙཱ་ན	-11.1259
་ཟུང་འཇུག་ཏུ	-11.126
་མོན	-11.1261
གང	-11.1261
་དགའ་བ་བཞི	-11.1262
་ཞི་བྱེད	-11.1262
ཤན་པ	-11.1263
▁བསྐྱེད་པ	-11.1265
▁།དགོས་པ	-11.1266
རྟེན་འབྲེལ	-11.1266
་ལ་སྦྱོར	-11.1267
་གུར་གུམ	-11.1268
་སྙིང་རྗེའི	-11.1268
▁ཚིགས་སུ་བཅད་པ	-11.127
་བཟ	-11.1271
▁འོ་མ	-11.1273
་དཀྱིལ་འཁོར་དུ༔	-11.1273
་འདོད་པའི་དོན	-11.1275
་ཨེ་ཝཾ	-11.1276
▁།སྤྱན	-11.1277
▁རིགས་ཀྱི་བུ་	-11.1279
་པ་རི	-11.1279
▁ཅེས་གསུངས་པ	-11.128
་ཡིན་མོད་ཀྱི།	-11.1281
་གྲོང་དུ	-11.1284
་གསུངས་ཀྱང་།	-11.1284
་ལ་ཕྱག་འཚལ།	-11.1287
རྒྱལ་བ	-11.1288
་དང་དོན་གཅིག	-11.1289
་ཚིམ་པར	-11.1289
ར་ཕྱིན་པ	-11.1289
་ལ་སོགས་པ་སྟེ།	-11.129
སྔོན་གྱི	-11.129
་འདོམས་པ	-11.129
་བུམ་དབང	-11.1291
▁བཅོམ་ལྡན་འདས་ལ	-11.1292
ར་མ་ཟད།	-11.1292
▁སེམས་དཔའ་ཆེན་པོ	-11.1293
་དྷརྨཱ	-11.1293
▁བླ་མ་རིན་པོ་ཆེ	-11.1293
ར་སེམས་པ	-11.1293
་སྐྱུག	-11.1293
་བསྐྱིལ	-11.1294
་དགེ་བའི་ལས	-11.1294
་བསྡུས་ལ	-11.1295
་སོ་ཞེས་བྱ་བ	-11.1295
་རྫིང	-11.1295
་བསལ།	-11.1296
་སོན་པ	-11.1299
་བརྗོད་ན་	-11.13
འཇིག་ཚོགས་ལ་ལྟ་བ	-11.1301
་སྐད་ཅིག་ལ	-11.1302
་པའང	-11.1302
▁ཆད	-11.1303
་ཉམས་ན	-11.1303
་ཡིན་པ་ལ།	-11.1303
འི་ནང་ཚན	-11.1303
▁དེ་གཉིས་ཀྱི	-11.1307
▁ད་དུང	-11.1307
་གནས་ལ	-11.1308
་ཤངས	-11.1309
བྱང་ཆུབ་མངོན་པར་	-11.1311
་སེང་གེའི་ཁྲི	-11.1311
་ཆེམ	-11.1312
▁།ཚད་མ	-11.1314
▁ལུས་ཀྱི་	-11.1317
་དུས་མཉམ་པ	-11.1317
་དོན་དེ	-11.1317
ག་གེ	-11.1318
▁ལྕེའི་འདུས་ཏེ་	-11.1318
་མཁོ	-11.1318
་བྱས་པའོ།	-11.132
འི་ཁུ་བ	-11.132
▁བྷྲཱུྃ	-11.1321
་ཀྱི་སྐབས	-11.1322
་མཚན་ལྡན	-11.1324
ཀུ	-11.1324
་བཟློག་ཏུ་གསོལ	-11.1326
༡༠	-11.1326
་སྤང་བླང	-11.1328
་བརྒྱད་དོ།	-11.1329
་ཀྱི་ཚེ	-11.133
་སྦྱིན་པ་དང་།	-11.1331
་ལ་གནས་པའི་	-11.1332
་བྱེད་དམ	-11.1333
་ས་སྐྱ་པཎྜི་ཏ	-11.1333
འི་ལུས་ཀྱི	-11.1334
་རེ་རེ་བཞིན	-11.1334
སྙིགས་དུས	-11.1337
་ཤེས་ནས	-11.1338
་ཨ་ནུ	-11.1338
་ཅིས་མི	-11.1341
་རྒྱུན་ཞུགས	-11.1341
་དག་བྱེད	-11.1342
་བསྡམ	-11.1342
▁ཡི་གེ་བརྒྱ་པ	-11.1343
་འབོད་པ	-11.1345
་གཏུབ	-11.1346
▁བདེན་གཉིས	-11.1351
་གཟེ	-11.1352
་གྱི་བྱ་བ	-11.1352
་བཀྱེ	-11.1353
་སྤང་བའོ།	-11.1353
▁ཟོ	-11.1353
་འོན་ཀྱང	-11.1353
་ཞེས་སོགས་སོ།	-11.1353
་འབྱུང་བ་ཡིན་ནོ།	-11.1356
▁མཛད་པ	-11.1357
▁གསུམ་པ་ནི	-11.1357
་ཞལ་ནས	-11.1358
་རིགས་གསུམ	-11.1358
་ཡི་དགས	-11.1359
་གཞུང་དུ	-11.136
་གསུམ་ཆར	-11.136
འི་གྲོང	-11.1363
་སྤངས་ཏེ་	-11.1364
་ཅེས་པའོ།	-11.1364
་བཅང	-11.1364
ར་ཁས་བླངས	-11.1364
་བསྐྲུན	-11.1365
་གཅིག་ལ་གཅིག	-11.1368
་མ་ཤེས	-11.1371
་ལན་ཅིག	-11.1372
་དབུགས་དབྱུང	-11.1374
ུཾ	-11.1375
ས་མཚོན་པ	-11.1375
▁།བློ་གྲོས	-11.1377
་ལྷུན་གྲུབ་ཀྱི	-11.1378
▁མཛེ	-11.1378
་ཕྱག་རྡོར	-11.1378
་ཞེས་པའི་ཚིག	-11.1378
་ནི་ཇི་ལྟར	-11.1379
་རུམ	-11.1379
་རྗེས་སུ་ཡི་རང	-11.138
་དབྱེར་མེད་པའི	-11.1381
▁།ཟླ	-11.1381
་བཀྲུ་བ	-11.1382
་བཀའ་སྲུང	-11.1383
་ཐམ་པ	-11.1384
ྲུལ	-11.1384
་ལ་མཁས	-11.1385
་ལ་དམིགས་ཏེ	-11.1385
་བེམ་པོ	-11.1386
▁མདུན་གྱི་ནམ་མཁར	-11.1386
▁ཁྱེད་རང་གི	-11.1388
་ཡོངས་སུ་སྦྱོང་བ	-11.139
་མ་གཏོགས་པ།	-11.139
་བསམས་ལ།	-11.139
་རང་སར	-11.1391
▁།ཚ	-11.1392
▁རྡུལ་ཚོན	-11.1392
་དུ་བཞག་པ	-11.1393
་ཨཱ་ལི	-11.1394
་ཡིག་ཆ	-11.1394
་འཇོམས་པའི	-11.1394
འི་མཐར་ཐུག	-11.1395
་བཟླས་པའི	-11.1395
་ལྕག	-11.1397
་དང་ཡུལ	-11.1398
་ལྷགས་པ	-11.1398
▁རྡོ་རྗེ་ཕག་མོ	-11.14
་གནོད་སེམས	-11.1401
་ཚེ་སྒྲུབ	-11.1401
ྱུག	-11.1402
འི་བསླབ་བྱ	-11.1403
་བཅུག་ནས་	-11.1403
་བསྙ	-11.1405
་བསྟན་པ་ཡིན།	-11.1406
▁ཐོག	-11.1408
་མི་བསྐྱོད	-11.1408
་ཏ།	-11.1411
་བྱུང་ན།	-11.1412
་བཅོ་ལྔ་པ	-11.1414
་ལ་ཐུགས	-11.1416
་ཞན	-11.1418
་སྔོན་གྱི་མཐའ	-11.1418
་མི་འཛིན	-11.1419
ས་བསྐྱེད་པ	-11.142
ཾ་ཡིག	-11.1421
་སྐྱོང་།	-11.1421
་བཅད་ནས་	-11.1421
་དང་མེ་ཏོག	-11.1425
་སྐྱོང་བའི	-11.1425
་ཞེས་བཤད་པ	-11.1426
་སྤྱན་མ	-11.1426
▁རྣ	-11.1428
་སྒྲ་སྒྲོག	-11.1428
་ཁྲོས་པའི	-11.1428
་ཁྱོ	-11.1429
་རྫུན་པ	-11.1429
་བརྟ	-11.143
▁གླང	-11.1431
་བཏང་ནས་	-11.1432
▁།གཉིས་ཀ	-11.1433
▁ཤ་ཁྲག	-11.1433
▁།ཕྱི་ནང	-11.1434
་གོམ་པ	-11.1436
་མཐའ་གཉིས	-11.1436
ར་མཛད་དུ་གསོལ	-11.1437
་ཀྱི་འགྲེལ་པ	-11.1438
་བཀང་སྟེ	-11.1438
་ཀརྨ་པ	-11.1439
་བསྒྲ	-11.144
ར་འགྱུར་ཞེས	-11.1441
་ཁྲིད་པ	-11.1442
མྱ་ངན་འདས	-11.1443
་རྟེན་གྱི་གང་ཟག	-11.1444
་དོན་ཡོད་པ	-11.1445
་ཐཱ	-11.1447
་ཏུ་འགྱུར་བ	-11.1447
▁གྲ	-11.1447
་འཛོམ་པ	-11.1448
་སྦྱོར་བ་དང་།	-11.1448
་ཨར	-11.1449
ུ་ཏ	-11.145
▁ཨོཾ་བཛྲ་ཀྲོ་དྷ	-11.145
▁།ཐེག་ཆེན	-11.1452
འི་བཞེད་པ	-11.1452
་གི་ངོ་བོ	-11.1452
་ཁ་མ	-11.1454
གྲོ	-11.1455
་མེད་བཞིན་དུ	-11.1456
་སྐྱོན་མེད་པ	-11.1457
་ཅིག་ཤོས	-11.1458
་༼༣	-11.1461
▁ཐམས་ཅད་དུ	-11.1461
ཤུདྡྷ	-11.1462
་གཟུགས་ལ	-11.1462
་མོ་ཆེ	-11.1463
་སྡེ་དཔོན	-11.1463
་དལ་འབྱོར	-11.1465
▁།ལྟ	-11.1467
་ལ་ཡ	-11.1469
▁སྨོན་པ་མེད་པ	-11.1469
་བོགས	-11.147
▁གླུ	-11.147
་ཕ་རོལ་པོ	-11.1471
ས་བསངས།	-11.1471
་སྲད་བུ	-11.1472
་ས་བརྒྱད་པ	-11.1473
་རྟོགས་པར་བྱའོ།	-11.1477
▁དམ་ཅན	-11.1477
▁བྱིན	-11.1477
སེམས་ཅན	-11.1478
▁འགྲོ་བའི	-11.1478
་རྒྱུ་བའི	-11.148
ར་བསམ་ལ	-11.1482
▁།སྟོང	-11.1483
▁ལན་གསུམ་གྱིས	-11.1483
འི་པདྨ	-11.1485
་མཚམས་སྦྱར	-11.1487
་སྤྱིར་བསྟན་པ	-11.1488
་མ་བཅོས་པ	-11.1488
▁ཐམས་ཅད་ཀྱི	-11.1488
འི་མྱུ་གུ	-11.1488
་ནི་སངས་རྒྱས་ཀྱི	-11.1488
▁།བྱིས་པ	-11.149
▁།རྐྱེན	-11.149
་རྒྱལ་བས	-11.1492
ཞུ	-11.1492
་ཎཱ	-11.1493
་སྒྲོ་འདོགས་པ	-11.1493
གཟུགས་ཀྱི་ཕུང་པོ	-11.1494
་ཁལ	-11.1495
་གསུ	-11.1495
ཨོཾ	-11.1497
་སླུ་བ	-11.1497
་ཐ་སྙད་ཀྱི	-11.1497
་ཀྱི་ཚུལ	-11.1498
་ཕྱི་དོན	-11.1499
་པ་ར	-11.1499
▁སྣའི་འདུས་ཏེ་	-11.1499
་མ་དད་པ	-11.15
་ཚུགས་པ	-11.1503
་ར་ས	-11.1504
ཧཱུྂ	-11.1505
▁སྦྱང་གཞི	-11.1505
ཉེས་པ་མེད་དོ།	-11.1506
ས་སོ་ཞེས	-11.1506
སྡེ་སྣོད	-11.1507
ས་འཁྱུད་པ	-11.1508
▁དེ་ནི་	-11.1509
་བསྐྱེད་པ་ནི།	-11.1509
་བརྗོད་ལ།	-11.151
ལུས་ཀྱི་འདུས་ཏེ་	-11.1511
་འདུག་སྟེ	-11.1511
་དང་ཟླ་བ	-11.1512
་དེ་དག་	-11.1512
ཧཱུཾ	-11.1512
འི་ལྡོག་པ	-11.1513
་ནི་ཤེས་རབ	-11.1513
▁དགོན་པ	-11.1514
་བཏང་ངོ་།	-11.1516
▁ན་བཟའ	-11.1516
་བྷ་བ	-11.1517
་གཞུང་ལས	-11.1518
་ཞེས་བྱ་ལ།	-11.1519
▁།ཐུན	-11.1521
་རིའི	-11.1521
ཐབས་དང་ཤེས་རབ	-11.1523
་དང་འགལ་ལོ།	-11.1527
་ཆོས་ལུགས	-11.1528
་འཆོས་པ	-11.1528
▁ཡུལ་ཅན	-11.1528
སྭཱ་ཧཱ།	-11.1528
་ལྔ་ལས།	-11.153
འི་ཡང	-11.1531
་བྱེད་ཀྱི་ཚད་མ	-11.1531
་བརྗོད་དུ	-11.1532
་སྤེལ་ཚིག	-11.1532
་བསྲུང་བ་དང་།	-11.1533
ཎྜི	-11.1533
་ཀུ་ལ	-11.1533
▁།ཐར་པ	-11.1534
་དེ་བཞིན་དུ་	-11.1536
▁ནོ།	-11.1536
་ཨུཏྤ་ལ	-11.1537
▁ཡེ་ནས	-11.1539
་སྨིན་པར	-11.154
▁སྭ	-11.1541
▁སེ	-11.1542
འི་དོན་གྱིས	-11.1543
་བསྐྱེད་དེ།	-11.1544
▁དེར་མ་ཟད	-11.1545
་མཆོད་ནས	-11.1545
་དགེ་འདུན་ལྷག་མ	-11.1547
གསལ	-11.1547
ཆེན་པོ	-11.1547
▁ཁྲ	-11.1549
▁མེད།	-11.1549
་དང་རྗེས་སུ་མཐུན	-11.1549
་གཏོགས་པ	-11.1551
་བརྗོད་པ་ནི།	-11.1552
་ཕེབས།	-11.1553
འི་བསྙེན་པ	-11.1554
▁དུག་གསུམ	-11.1555
་སེ་གོལ	-11.1556
་སོང་ལ	-11.1557
་སིནྡྷུ་ར	-11.1558
་བསྐྱེད་རིམ་གྱི	-11.1558
་ཞུ་བའི་ཡོན་དུ	-11.156
༤༥	-11.1561
་ནི་དང་པོ	-11.1562
▁དེ་ཉིད་ཀྱི	-11.1564
ཚད	-11.1564
་ཁྲི་ཕྲག	-11.1566
▁།གོས	-11.1567
་ཧཱུྃ་ཕཊ	-11.1567
་ཀྱི་ས	-11.1567
་འགྲུབ་པར་མཛོད༔	-11.1567
་སྟོར	-11.1568
ར་རྣམ་པར་རྟོག་པ	-11.1569
་ཏ་ཡ	-11.1569
་མ་ཉམས	-11.157
▁ནག	-11.157
་འཛིན་པའོ།	-11.1571
▁ཁྲིད	-11.1574
▁ཐ་མར	-11.1574
་ད་ལྟར་བྱུང་བ	-11.1575
ས་སྤྲས་པ	-11.1575
འི་མིང་ཅན	-11.1577
་གང་ལགས་པ་དེ	-11.1577
་ལ་ཆུ	-11.1577
་གསུམ་གསུམ	-11.1578
ར་ཡང་དག་པར་རྗེས་	-11.1579
་མ་ཡིན་པ་ལ	-11.1579
▁འདི་ལྟ་བུ	-11.158
་གསོལ་བཏབ	-11.1581
▁རྣམ་པར་སྣང་མཛད	-11.1582
་བྱང་	-11.1583
་ཀྱི་བཀའ་བདེན་པ	-11.1584
ཕན་བདེ	-11.1584
▁དད	-11.1585
་གི་ཕྱག་རྒྱ	-11.1585
་རི་བ	-11.1585
ལ་པོ	-11.1585
་མཐའ་མ	-11.1586
་ས་བཅད	-11.1587
་དོ་ཞེ་ན།	-11.1588
་རྗེས།	-11.159
་དྲལ	-11.159
འི་བར་གྱིས	-11.1591
་གྲུབ་པའི་ཕྱིར།	-11.1592
ས་ཆོས་ཐམས་ཅད	-11.1592
་འདྲིས་པ	-11.1592
་ས་སྟེང	-11.1592
་བརྒྱུད་པའི་བླ་མ	-11.1593
་འཇ	-11.1593
་དམིགས་པའི	-11.1593
▁ཡིད་ཀྱི་	-11.1593
་སྐྱོན་དུ	-11.1594
་ལས་འདས།	-11.1594
་ཀྱི་རྩ་བ	-11.1595
་ཐུན་མོང་མིན་པ	-11.1601
་ཟེར་ནས	-11.1601
▁ཚུར	-11.1604
་འཛིན་མེད	-11.1605
་གཅིག་མ	-11.1606
་དག་གིས་ཀྱང	-11.1607
་དུཿཁ	-11.1609
་རྟོགས་ནས	-11.1611
་ཕྲལ	-11.1612
གཅིག་ཏུ	-11.1613
་བི་ཤྭ	-11.1614
ར་བྱེད་པ་ནི	-11.1614
མྱི་དམྱིགས་སོ།	-11.1615
་དགོངས་སུ་གསོལ༔	-11.1617
་དབྱངས་ཀྱི	-11.162
་གང་རུང་དུ	-11.162
འི་རྣམ་འགྱུར	-11.1623
ཨེ	-11.1623
ས་དབང་བསྐུར	-11.1623
▁ནང་མཆོད	-11.1625
་བརྙས	-11.1625
་ཕྱི་མར	-11.1626
་བཤད་དུ་གསོལ།	-11.1628
བདག་དང་གཞན	-11.1629
་ཨ་མྲྀཏ	-11.1632
▁ཅིག	-11.1633
་གཞན་ནས	-11.1634
▁ཤར་ལྷོ	-11.1635
་རྣམས་ཀྱང་།	-11.1636
་བརྟན་པར་བྱ	-11.1637
་བཟླས་ནས	-11.1637
་སྔ་མ་བཞིན	-11.1638
་དང་མི་རྟག་པ	-11.1639
་མི་འདྲ	-11.1639
་བསྒྲིབས་པ	-11.164
་ཡི་དམ་མཁའ་འགྲོ	-11.1641
་འཆད།	-11.1642
རྵ	-11.1643
་ལྷར་གསལ་བ	-11.1644
བྱིང	-11.1645
་གྲུབ་མཐ	-11.1646
་དང་དབང་པོ	-11.1646
་ཕྱི་མ་ལ	-11.1648
ཞེས་གསུངས་ཏེ།	-11.1648
་གཞོམ་པ	-11.1653
་ཟིན་ན	-11.1653
་ལག་པས	-11.1653
་བཅངས	-11.1654
་སྨིན་མཚམས	-11.1655
་མཆོག༔	-11.1655
▁ལ་ལ་ནི	-11.1656
་མཚོན།	-11.1656
་འཕྲོས་ནས	-11.1656
་སྤྱི་དང་བྱེ་བྲག	-11.1657
▁རྒྱ་གར་སྐད་དུ	-11.1657
་བཀོད་ནས	-11.1658
་མཁྱེན་རབ	-11.1659
་ཞེས་བྱ་བ་དེ	-11.166
▁རྟོག་མེད	-11.166
སྐབས	-11.1663
་ཀྱི་ཏིང་ངེ་འཛིན	-11.1663
▁འདུན་པ	-11.1664
▁དགེ་སྦྱོང	-11.1665
་གཉིས་པ་ལ	-11.1666
ཐུགས་ཀར	-11.1668
་ཕྲ་རགས	-11.1668
་སྟོང་གཟུགས	-11.1669
་ཀུན་རྫོབ་པ	-11.1669
▁།གཡས	-11.1669
་དོན་མཐུན	-11.1671
▁དེའི་རྒྱུ	-11.1672
ཱ་ལི	-11.1672
་ལས་མི་འདའ་བ	-11.1672
་ཡམ་ཤིང	-11.1673
▁བཅོམ་ལྡན་འདས་དེ	-11.1673
་འདུག་སྟེ།	-11.1677
▁།དྲན་པ	-11.1677
་ལ་གནས།	-11.1678
་འཕེལ་འགྲིབ	-11.1679
་དཀ	-11.1679
ར་གནས་པའི	-11.168
་ལས་བྱས་པའི	-11.168
་གརྦྷ	-11.168
་སོ་སོ་ལ	-11.168
་ཕྱག་གཉིས	-11.1682
་སྟོང་པ་ཉིད་དོ།	-11.1683
་རྒྱན་གྱིས་བརྒྱན	-11.1686
▁།ནོར་བུ	-11.1686
▁གནོད	-11.1689
་ཁཱ་ཧི༔	-11.1689
་སངས་རྒྱས་ལ	-11.1689
་གཟུང་ཡུལ	-11.1689
་སོས་པ	-11.169
▁གསུང་རབ	-11.169
ས་ཡུལ	-11.1691
་འདོད་པ་དང་།	-11.1691
་བཀའ་སྩལ་པ	-11.1691
་སྲིན་མོ	-11.1695
་དེ་ནི།	-11.1695
་ནི་ཆོས་ཐམས་ཅད	-11.1701
་ཉམས་སུ་བླངས་པ	-11.1701
་བཏིང	-11.1704
་བརྟན་བཞུགས	-11.1704
་ཁྲ་བོ	-11.1704
་གཅིག་པོ	-11.1704
་ངེས་ཚིག	-11.1705
་གསུམ་པར	-11.1705
་ཡང་འདི	-11.1706
་བརྙན	-11.1708
▁ཁོ་བོ་ཅག	-11.1708
་གཏེར་གཞུང	-11.1708
་འཛིན་པར	-11.1709
▁ཕྱེ་མ	-11.171
་ཐུགས་སྲོག	-11.171
་ཁྱེད་རང་གི	-11.171
་མུ་སྟེགས་ཅན	-11.1712
་སརྦ་ཏ་ཐཱ་ག་ཏ	-11.1715
་རྣམ་པར་རིག་པ	-11.1715
་ཞེས་གྲགས་པ	-11.1715
་རྣམས་ཀྱི་དོན	-11.1715
་ལས་རྒྱལ	-11.1716
་ཕུགས	-11.1716
ར་སངས་རྒྱས	-11.1717
འི་ཐད་དུ	-11.1717
་ཛ་ཛཿ	-11.1718
་ཞེས་བརྗོད་པས	-11.1718
་གསོལ་བ།	-11.172
་ཟླ་བ་ཕྱེད	-11.1721
་ལས་ཐར	-11.1722
་སྟོན་པར	-11.1722
▁འདབ་མ	-11.1722
▁རྣ་བའི་འདུས་ཏེ་	-11.1724
་གུ་གུལ	-11.1724
ཟས	-11.1725
་འཚང་རྒྱ	-11.1725
་ཐོབ་སྟེ	-11.1726
་རིགས་འགྲེ	-11.1727
་ལམ་འབྲས་བུ	-11.1727
་དེ་རྣམས་ཀྱིས	-11.1727
་ལ་ཐེ་ཚོམ	-11.1728
▁གཉིས་པ་ལྟར་ན	-11.1729
བག་ཆགས	-11.1729
[...]
