<unk>	0
▁།_	-3.09661
▁འི་	-3.13791
▁ར་	-3.52067
▁།_།	-3.68936
▁དང་	-3.69269
▁།	-3.94018
▁ས་	-3.97803
▁ལ་	-4.0597
▁ནི་	-4.4571
▁ཀྱི་	-4.46662
▁དུ་	-4.52438
▁ལ	-4.56385
▁དེ་	-4.89366
▁གྱི་	-5.01883
▁ཞེས་	-5.04414
▁མི་	-5.0553
▁]	-5.08669
▁[	-5.08704
▁འོ	-5.12192
▁ན་	-5.13684
▁མ་	-5.14434
▁ནས་	-5.15061
▁རྣམས་	-5.15096
▁གི་	-5.18872
▁༔_	-5.2604
▁དེ	-5.28672
▁ཡིན་	-5.32831
▁ཡང་	-5.40069
▁ཏེ	-5.53249
▁སུ་	-5.54587
▁ནི	-5.56148
▁ཀྱིས་	-5.63493
▁ཕྱིར་	-5.64422
▁ཐམས་ཅད་	-5.646
▁ཏུ་	-5.64699
▁ས	-5.72901
▁ཀྱང་	-5.73477
▁འདི་	-5.80656
▁གྱིས་	-5.81916
▁ཆོས་	-5.82055
▁སྟེ	-5.82694
▁བྱ་བ་	-5.86318
▁བྱ	-5.87354
▁གཉིས་	-5.88236
▁སོ	-5.90096
▁ཉིད་	-5.92682
▁དོན་	-5.94849
▁རྣམ་པ	-5.9698
▁གསུམ་	-6.0268
▁།་	-6.03874
▁གིས་	-6.04721
▁རོ	-6.08922
▁མེད་པ	-6.10694
▁གཞན་	-6.10967
▁གང་	-6.13443
▁ན	-6.16048
▁འགྱུར་	-6.17451
▁མེད་	-6.21066
▁ཞིང་	-6.22198
▁ནོ	-6.22405
▁བྱང་ཆུབ་	-6.25645
▁ཏེ་	-6.26696
▁རྡོ་རྗེ་	-6.2869
▁སངས་རྒྱས་	-6.28871
▁དག་	-6.31492
▁དོ	-6.32057
▁རང་	-6.32627
▁གཅིག་	-6.33504
▁བདག་	-6.33978
▁འདི	-6.38062
▁སོགས་	-6.38231
▁_།	-6.38925
▁དེ་བཞིན་	-6.40923
▁དེ་དག་	-6.41426
▁དབང་	-6.41622
▁ཀུན་	-6.42601
▁བྱེད་	-6.43141
▁སེམས་	-6.43343
▁ཅིང་	-6.45585
▁ནས	-6.46272
▁གནས་	-6.50448
▁བྱ་བ	-6.53932
▁ཆེན་པོ་	-6.54651
▁ཅན་	-6.5469
▁ཡིན་པ	-6.56793
▁ཡེ་ཤེས་	-6.57391
▁ཕྱིར	-6.57603
▁ལ་སོགས་པ་	-6.58211
▁མེད་པ་	-6.62849
▁བཞིན་	-6.6506
▁བྱས་	-6.66584
▁ཚེ་	-6.67791
▁ཡོངས་སུ་	-6.6811
▁དེ་ལྟར་	-6.6915
▁བར་	-6.716
▁དེ་ནས་	-6.72248
▁དང་པོ་	-6.72469
▁སེམས་དཔའ་	-6.72653
▁ལུས་	-6.73607
▁སྟེ་	-6.74527
▁བྱ་	-6.77213
▁རང་བཞིན་	-6.77432
▁ཡི་	-6.77737
▁རྣམ་པ་	-6.78556
▁སེམས་ཅན་	-6.78827
▁དུས་	-6.79107
▁ཤིང་	-6.79137
▁ཚུལ་	-6.79283
▁བྱེད་པ་	-6.8112
▁ལམ་	-6.83641
▁བཞི་	-6.83882
▁བཅོམ་ལྡན་འདས་	-6.84163
▁ནང་	-6.87744
▁རིགས་	-6.88679
▁ཞེས་པ་	-6.8896
▁ལྟར་	-6.90419
▁ཡིན	-6.91144
▁ཡོད་	-6.9124
▁བྱེད་པ	-6.92342
▁ལ་སོགས་པ	-6.92769
▁རབ་ཏུ་	-6.94517
▁ཕྱག་	-6.97165
▁གཟུགས་	-6.97371
▁ཙམ་	-6.97405
▁ཕྱོགས་	-6.97894
▁དཀྱིལ་འཁོར་	-6.98599
▁ཤེས་པ་	-6.99031
▁གཉིས་པ་	-6.99053
▁ལྷ་	-6.99282
▁ཅེས་	-6.99569
▁དེ་ཉིད་	-7.01129
▁#	-7.01515
▁ཨོཾ་	-7.01885
▁ཇི་ལྟར་	-7.03366
▁ཡིད་	-7.03438
▁_	-7.04509
▁ལྔ་	-7.05186
▁ཁམས་	-7.06024
▁ཡུལ་	-7.06489
▁འཇིག་རྟེན་	-7.06544
▁ཤེས་རབ་	-7.07319
▁རྒྱུ་	-7.07895
▁འང་	-7.08189
▁ཁྱོད་	-7.0954
▁ཆེན་པོ	-7.10351
▁རྒྱུད་	-7.10666
▁མཆོག་	-7.10697
▁རྗེས་སུ་	-7.11017
▁།་།	-7.11731
▁ངོ་	-7.12026
▁སྔགས་	-7.12703
▁ཞེ་ན	-7.15438
▁གྱུར་	-7.15555
▁ཕ་རོལ་	-7.16075
▁ཡང་དག་པ	-7.16404
▁དགེ་སློང་	-7.17279
▁ཏོ	-7.18074
▁ཤེས་པ	-7.18454
▁ཁྱད་པར་	-7.19177
▁བུ་	-7.19355
▁ངོ་བོ་	-7.2104
▁འབྲས་བུ་	-7.22393
▁གསུངས་	-7.22532
▁ཞིག་	-7.22752
▁མཚན་ཉིད་	-7.22942
▁རྫོགས་པ	-7.23249
▁།_།_	-7.23337
▁ཚོགས་	-7.24102
▁དུ	-7.25383
▁བསྟན་པ་	-7.25459
▁ར	-7.26905
▁འགྱུར	-7.27175
▁མངོན་པར་	-7.2746
▁གནས་པ	-7.28263
▁ཅི་	-7.2918
▁ལྡན་པ	-7.29817
▁དངོས་པོ་	-7.31025
▁སྒྲ་	-7.31252
▁དེ་ཡང་	-7.3272
▁ཞེས་པ	-7.32849
▁དྲུག་	-7.33527
▁བསྟན་པ	-7.34258
▁ཤིན་ཏུ་	-7.34526
▁སྒོ་	-7.35052
▁གལ་ཏེ་	-7.38023
▁གྱུར་པ་	-7.38237
▁བླ་མ་	-7.38267
▁ཡོད་པ་	-7.38354
▁ཡོད་པ	-7.39148
▁རླུང་	-7.3994
▁ཡོན་ཏན་	-7.40185
▁ལྡན་པ་	-7.40677
▁མཐོང་	-7.41808
▁བསྟན་	-7.42131
▁ཚིག་	-7.42686
▁བཞི	-7.43088
▁བརྒྱད་	-7.43172
▁འོ་	-7.44014
▁སྐུ་	-7.45348
▁རྣལ་འབྱོར་	-7.45822
▁གྱུར་པ	-7.45831
▁བྱིན་	-7.46128
▁གཤེགས་པ་	-7.46593
▁རོ་	-7.4662
▁ལྟ་བུ	-7.47391
▁ཨ་	-7.4865
▁བདག་ཉིད་	-7.49094
▁ཕྱིན་པ་	-7.4939
▁བྱུང་	-7.4967
▁མཛད་	-7.50004
▁བཤད་པ	-7.5104
▁སྐྱེ་བ་	-7.515
▁བཤད་པ་	-7.51573
▁སྡུག་བསྔལ་	-7.51865
▁འདོད་	-7.51884
▁སྟེང་	-7.52406
▁ཡ་	-7.52422
▁མ	-7.52662
▁བདེ་བ་	-7.52868
▁དག་པ	-7.5293
▁རྒྱལ་པོ་	-7.53214
▁སྐབས་	-7.53577
▁བཀའ་	-7.53843
▁བྱས་པ	-7.54086
▁རྡོ་རྗེ	-7.54263
▁ཐོབ་པ	-7.54432
▁འབྱུང་	-7.54515
▁བཤད་	-7.54606
▁གནས་པ་	-7.5474
▁སྟོང་པ་ཉིད་	-7.54894
▁འམ	-7.55084
▁ལོ	-7.55232
▁ཡན་ལག་	-7.55938
▁རྩ་	-7.56661
▁ཧཱུྃ་	-7.56936
▁བརྗོད་	-7.57026
▁ལན་	-7.57313
▁སྣང་བ་	-7.57314
▁འབྱུང་བ་	-7.57386
▁སློབ་དཔོན་	-7.58289
▁འདོད་པ་	-7.58444
▁འབྱུང་བ	-7.58872
▁མ་ཡིན་པ	-7.58972
▁ཆེན་	-7.59494
▁རྟེན་	-7.59753
▁གསུམ་པ་	-7.59781
▁མེ་	-7.59901
▁འགྱུར་བ་	-7.59987
▁གསུངས་པ་	-7.60005
▁གསུངས་པ	-7.60458
▁རྟོགས་པ	-7.60485
▁མཐའ་	-7.61448
▁སྣང་	-7.62018
▁གོ	-7.62489
▁དཔལ་	-7.62915
▁རྣམ་	-7.6358
▁ཐབས་	-7.63642
▁སོ་སོ	-7.64571
▁རྟགས་	-7.64758
▁དག་པ་	-7.64807
▁བཛྲ་	-7.64819
▁འི	-7.64918
▁འམ་	-7.65749
▁འགྲོ་བ་	-7.66085
▁ལྡན་	-7.66469
▁ལྷ	-7.66995
▁སྔོན་	-7.67336
▁ལྔ	-7.67766
▁ཏ་	-7.67957
▁འདོད་པ	-7.6835
▁ནོ་	-7.68741
▁བྱུང་བ	-7.68926
▁འཁོར་ལོ་	-7.6908
▁བཅས་པ་	-7.69459
▁དངོས་	-7.69599
▁འཁོར་	-7.6982
▁བློ་	-7.70906
▁ཤེས་	-7.7102
▁སྟོང་	-7.72373
▁པ	-7.72402
▁།__	-7.72618
▁བྱས་པ་	-7.72647
▁མྱི་	-7.72778
▁གསུང་	-7.72885
▁རྟོག་པ་	-7.73148
▁རྐྱེན་	-7.73157
▁པདྨ་	-7.73208
▁བརྗོད་པ	-7.73809
▁འགྱུར་བ	-7.73928
▁ཕྱག་རྒྱ་	-7.73999
▁ཉེ་བར་	-7.74641
▁འི་_	-7.7526
▁ཉམས་	-7.75325
▁བཅས་པ	-7.75626
▁མེད	-7.75824
▁ཏིང་ངེ་འཛིན་	-7.7641
▁སོ་	-7.7714
▁བདུན་	-7.77753
▁དབང་པོ་	-7.77814
▁མིག་	-7.77917
▁སྣ་ཚོགས་	-7.78175
▁སྤྱོད་པ་	-7.78238
▁དེ་ལས་	-7.78689
▁འཚལ་	-7.78915
▁མཐ	-7.79001
▁སྐྱེ་བ	-7.79053
▁སྙམ་	-7.79342
▁འཛིན་པ	-7.80077
▁ལྟ་བུ་	-7.80167
▁མིན་	-7.80892
▁མིང་	-7.81557
▁སྟོབས་	-7.81714
▁བཅས་	-7.82418
▁འཇུག་པ	-7.82685
▁འོད་	-7.82815
▁ཞལ་	-7.83017
▁ཆུ་	-7.83469
▁མངོན་སུམ་	-7.84714
▁ལོ་	-7.8528
▁སྔར་	-7.8536
▁སྦྱོར་བ་	-7.85488
▁དངོས་གྲུབ་	-7.86073
▁ལུང་	-7.86342
▁བྱེད	-7.86707
▁དབུས་	-7.86738
▁རྟག་	-7.87115
▁ཐུགས་	-7.87431
▁གྲུབ་པ	-7.87584
▁དུ་མ་	-7.87855
▁འཛིན་	-7.87967
▁རབ་	-7.87973
▁གྲངས་	-7.88123
▁ཡི	-7.8816
▁ཆེ	-7.88585
▁ཚད་	-7.88729
▁ནམ་མཁའ་	-7.88898
▁དེས་ན་	-7.89492
▁འཛིན་པ་	-7.89889
▁དེ་ལྟ་	-7.89907
▁འགྲོ་བ	-7.8997
▁པ་	-7.90091
▁ཀ་	-7.90767
▁དམ་ཚིག་	-7.90816
▁རྒྱུན་	-7.90975
▁ཡི་གེ་	-7.91047
▁གཞི་	-7.92369
▁རིན་ཆེན་	-7.92625
▁ར་_	-7.93125
▁དམིགས་པ་	-7.93324
▁བཅུ་	-7.93806
▁ཆོས་ཅན	-7.9398
▁ངེས་པར་	-7.94073
▁ཡིས་	-7.94424
▁འདི་ལྟར་	-7.94754
▁འཇུག་པ་	-7.94855
▁རྒྱས་པ	-7.95056
▁ཧཱུྃ	-7.95284
▁ཐོབ་	-7.9563
▁འདི་དག་	-7.95661
▁གསལ་བ	-7.95833
▁གང་ཡིན་པ་	-7.95921
▁ཁ	-7.96085
▁རུང་	-7.96107
▁གང་ཟག་	-7.96144
▁རྫས་	-7.96616
▁སྒྲུབ་པ	-7.96649
▁དགེ་འདུན་	-7.97028
▁དོ་	-7.98238
▁གྲུབ་	-7.98296
▁མདོ་	-7.98362
▁བརྟེན་	-7.98424
▁མྱ་ངན་	-7.98651
▁ཕུང་པོ་	-7.98655
▁མཐོང་བ	-7.98873
▁སྙིང་པོ་	-7.99041
▁ཁ་	-7.99055
▁ཡང་དག་	-7.9915
▁ཀྱི	-7.99413
▁བསོད་ནམས་	-7.9944
▁ལེགས་པ	-7.9971
▁དགོས་	-7.99913
▁མཛད་པ	-8.00765
▁མེ་ཏོག་	-8.00791
▁བསམ་	-8.00837
▁དགེ་བ	-8.01058
▁སེམས་དཔ	-8.01218
▁ཐལ	-8.01356
▁ཆ་	-8.01419
▁ཁོ་ན་	-8.01572
▁དང	-8.01594
▁འོད་ཟེར་	-8.02692
▁དང་པོ	-8.02766
▁གཤེགས་པ	-8.02879
▁བྱུང་བ་	-8.03121
▁ཡིས	-8.0323
▁བདེ་བ	-8.03829
▁གསོལ	-8.04121
▁ཐེག་པ་	-8.04323
▁རིམ་པ་	-8.04701
▁ཡིན་པ་	-8.05001
▁གཞུང་	-8.05384
▁རྟོགས་པ་	-8.05418
▁ག་	-8.05795
▁མ་ཡིན་པ་	-8.05887
▁བདེན་པ་	-8.05958
▁ལྷན་ཅིག་	-8.06071
▁བསམ་གཏན་	-8.06556
▁རྒྱན་	-8.06677
▁ཕྱི་	-8.0672
▁ལྟ་བ་	-8.06978
▁ཟླ་བ་	-8.07088
▁སྟོན་པ	-8.07267
▁དབྱིངས་	-8.07568
▁ལུགས་	-8.07596
▁མོ	-8.09658
▁རི་	-8.09673
▁འཕགས་པ་	-8.09812
▁སྟོན་པ་	-8.10572
▁སྦྱར་	-8.10756
▁སྟོན་	-8.11109
▁སུ	-8.11155
▁རིག་པ	-8.11286
▁མཐོང་བ་	-8.12163
▁བརྗོད་པ་	-8.13256
▁སྤྱན་	-8.13286
▁མཆོད་པ་	-8.13401
▁འགྲོ་	-8.13505
▁སྐྱེས་པ	-8.13679
▁གྲུབ་པ་	-8.13792
▁བྲལ་བ	-8.13835
▁རྒྱུ	-8.13871
▁སྤྱོད་པ	-8.1396
▁དམིགས་པ	-8.14602
▁སྐྱེ་	-8.14771
▁གོང་	-8.15108
▁ཆོ་ག་	-8.1544
▁འོག་	-8.15461
▁ཅིག་	-8.1552
▁ཚུལ་ཁྲིམས་	-8.16342
▁ཁྱེད་	-8.16382
▁ཚེ	-8.16703
▁ང་	-8.16961
▁ནུས་པ་	-8.16992
▁བརྒྱ་	-8.1727
▁རྣམས	-8.17301
▁གྱི	-8.17373
▁སརྦ་	-8.1772
▁རྩ་བ་	-8.17899
▁སྐྱེས་	-8.18062
▁གསོལ་བ་	-8.18086
▁སྐྱེས་པ་	-8.18244
▁ཉོན་མོངས་པ་	-8.18275
▁མང་	-8.18388
▁ཅན	-8.18472
▁འདོད་ཆགས་	-8.18629
▁ས་བོན་	-8.18729
▁ཕྱིན་	-8.18809
▁རིག་པ་	-8.18825
▁བཟུང་	-8.18855
▁ཆ	-8.19081
▁སོང་	-8.19107
▁སྨྲས་པ	-8.19121
▁ཀྱིས	-8.1923
▁འདུས་	-8.1923
▁རྟོག་པ	-8.19645
▁མཚན་	-8.19973
▁སྣང་བ	-8.20348
▁རུ་	-8.20743
▁ཉན་ཐོས་	-8.20815
▁དགོས་པ་	-8.21232
▁ངག་	-8.21616
▁མཚམས་	-8.21671
▁སྔ་མ་	-8.21734
▁གྱིས	-8.21813
▁བཞི་པ་	-8.22068
▁དམིགས་	-8.22092
▁བླ་	-8.22372
▁འདི་སྐད་	-8.22417
▁རེ་	-8.22845
▁སྐྱོན་	-8.22957
▁སྭཱ་	-8.23648
▁འདས་པ	-8.23734
▁ནུས་	-8.23809
▁སྡོམ་པ་	-8.2389
▁བཞུགས་	-8.24014
▁དགོས་པ	-8.2411
▁མཐུན་	-8.24371
▁བཞག་	-8.24377
▁མོ་	-8.24379
▁ཐོབ་པ་	-8.24457
▁འདས་པ་	-8.25267
▁རྟོགས་	-8.25716
▁དབང་ཕྱུག་	-8.25925
▁དཔེ་	-8.26017
▁གཉིས	-8.26053
▁བྱེ་བྲག་	-8.26722
▁འཇུག་	-8.27406
▁བུམ་པ་	-8.27445
▁འདུ་ཤེས་	-8.27518
▁བསྐྱེད་པ	-8.27881
▁གསལ་	-8.27943
▁རྫོགས་	-8.28035
▁སྒྲུབ་	-8.28903
▁དམ་པ་	-8.29016
▁སྒྲུབ་པ་	-8.29323
▁ཅིའི་ཕྱིར་	-8.29417
▁རྒྱ་	-8.2955
▁རྗེས་	-8.29782
▁མཉམ་པ	-8.29916
▁སྦྱོར་བ	-8.2997
▁དགའ་བ་	-8.30496
▁མཁྱེན་པ་	-8.30629
▁ཐ་སྙད་	-8.31312
▁མཐུན་པ	-8.3134
▁གཡས་	-8.31358
▁བདུད་	-8.32164
▁བུ	-8.32586
▁དགེ་བ་	-8.32598
▁ཤ་	-8.32752
▁མཚན་མ་	-8.32803
▁ཕྱི་རོལ་	-8.33001
▁སྲོག་	-8.33142
▁ནམ་མཁ	-8.33405
▁བསྒོམ་པ	-8.33429
▁བསྒྲུབ་པ	-8.33695
▁འདྲ་བ	-8.33861
▁གང་ཞིག་	-8.33876
▁མང་པོ་	-8.3395
▁བླ་མ	-8.34225
▁རྒྱལ་པོ	-8.35068
▁ཧ་	-8.35355
▁བསམ་པ་	-8.35484
▁ཅུང་ཟད་	-8.35766
▁སྤྱི་	-8.35814
▁ངེས་པ་	-8.3598
▁གྱུར	-8.36027
▁རིན་པོ་ཆེ་	-8.3603
▁བསྐྱེད་	-8.36035
▁ཁོ་ན	-8.36135
▁འོ་ན་	-8.36163
▁ལ་སོགས་	-8.36589
▁༽	-8.36692
▁ཧཱ	-8.36873
▁མདུན་	-8.37278
▁རྒྱལ་བ	-8.37283
▁ཞི་བ	-8.37363
▁རྟོག་	-8.37696
▁གོས་	-8.37964
▁ཅེས་བྱ་བ་	-8.38145
▁ཉི་མ་	-8.38188
▁ཡང་ན་	-8.38615
▁ཆོས་ཉིད་	-8.38624
▁ཟེར་	-8.38633
▁ཞབས་	-8.39329
▁འདྲ	-8.39695
▁ངང་	-8.39849
▁དམ་པ	-8.39998
▁༽_	-8.40059
▁རབ་འབྱོར་	-8.40131
▁འཕགས་པ	-8.40234
▁མཛད་པ་	-8.40533
▁ཨཱཿ	-8.40635
▁འཁོར་ལོ	-8.40763
▁སྤྱོད་	-8.4161
▁ཀུན་རྫོབ་	-8.41777
▁དཔེར་ན་	-8.41929
▁མཁའ་འགྲོ་	-8.4216
▁ལོངས་སྤྱོད་	-8.42174
▁དྲི་མ་	-8.42191
▁གཡོན་	-8.4245
▁ངེས་	-8.42524
▁གསུམ	-8.42723
▁དབྱེ་བ་	-8.43004
▁ཚད་མ་	-8.43097
▁བླངས་	-8.43141
▁ལ་མ་	-8.43382
▁ནད་	-8.43522
▁ཧཱ་	-8.43744
▁དགའ་བ	-8.43867
▁སྐྱེས་བུ་	-8.44082
▁ཐུན་མོང་	-8.44179
▁གསེར་	-8.44523
▁ཡུམ་	-8.44897
▁གོ་	-8.45236
▁མཆོད་པ	-8.45241
▁རིན་པོ་ཆེ	-8.45249
▁སྦྱོར་	-8.45272
▁༼	-8.45302
▁སྨྲ	-8.45414
▁མྱེད་	-8.4553
▁འདུག་	-8.45562
▁ཕྲིན་ལས་	-8.45657
▁ཐ་དད་	-8.45697
▁ཟིན་	-8.46
▁གནས་སྐབས་	-8.46023
▁བྷ་	-8.46191
▁སྐད་ཅིག་	-8.46242
▁།།_	-8.46321
▁དྲན་པ་	-8.46537
▁ས་_	-8.4658
▁ཆེ་	-8.46674
▁ཧཱུཾ་	-8.4741
▁འགྲུབ་པ	-8.47488
▁ཤར་	-8.47866
▁ཁྱབ་པ	-8.48369
▁ཕྱི་མ་	-8.48639
▁གསོལ་	-8.48752
▁རྒྱས་	-8.48829
▁འདི་ཉིད་	-8.48935
▁ི	-8.48945
▁ཤོག	-8.491
▁རྒྱུ་མཚན་	-8.4955
▁སྐུ	-8.49601
▁སྨྲ་བ་	-8.49825
▁ཉོན་མོངས་	-8.50395
▁རིག་	-8.50759
▁ཡ	-8.50857
▁བསྡུས་	-8.50951
▁སྦྱིན་པ	-8.51875
▁ད་	-8.52352
▁རྒྱལ་བ་	-8.52368
▁གཉིས་ཀ་	-8.52488
▁སྣོད་	-8.5268
▁ཁ་ཅིག་	-8.52713
▁སྲས་	-8.52774
▁བ་	-8.52776
▁དབྱེ	-8.52962
▁སྟོང་པ	-8.53208
▁འདས་	-8.53355
▁ཚོར་བ་	-8.5373
▁བི་	-8.53837
▁༴_	-8.54151
▁ཉེས་པ་	-8.54257
▁གང་དག་	-8.54294
▁སྲིད་པ	-8.54535
▁བསྐུར་	-8.54647
▁རྒྱ་མཚོ་	-8.54655
▁ཡིག་	-8.54724
▁བདུད་རྩི་	-8.54847
▁གཏན་ཚིགས་	-8.54943
▁སོ་སོ་	-8.55012
▁འཁོར་བ	-8.55049
▁སྒྲ	-8.5506
▁གང་ཡང་	-8.55556
▁དག	-8.55606
▁ཁྱབ་པ་	-8.55636
▁ལ་_	-8.55817
▁གཏོར་མ་	-8.5584
▁ཞུགས་	-8.56129
▁ནུས་པ	-8.56649
▁ལྷ་མོ་	-8.56692
▁སྙིང་རྗེ་	-8.56883
▁མཛོད	-8.57043
▁ངོ་བོ	-8.57053
▁གཙོ་བོ་	-8.57224
▁དགོངས་	-8.5738
▁འབྲས་བུ	-8.57455
▁དགོངས་པ་	-8.57628
▁གདན་	-8.57669
▁མངོན་དུ་	-8.57753
▁རྩ་བ	-8.57985
▁རང་ཉིད་	-8.58424
▁མཁས་པ་	-8.58515
▁འཁོར་བ་	-8.59083
▁ཤོག་	-8.59803
▁བགྱི	-8.59873
▁གསུངས	-8.60042
▁བདེན་པ	-8.60163
▁ཁ་དོག་	-8.60427
▁ཤིག་	-8.60483
▁ཆོས་ཅན་	-8.60544
▁ལེའུ་	-8.60956
▁ལེགས་	-8.61086
▁ལོག་པ	-8.61237
▁སློབ་མ་	-8.61384
▁ལྷག་མ་	-8.61464
▁ལྟུང་བ་	-8.61527
▁སྦྱར་བ	-8.61674
▁སྐྱེ་མཆེད་	-8.61857
▁དགུ་	-8.61895
▁ངེས་པ	-8.61928
▁བུད་མེད་	-8.62022
▁ཤིག	-8.62022
▁སྨོས་	-8.62218
▁སྦྱིན་པ་	-8.62319
▁མན་ངག་	-8.62456
▁སྤངས་	-8.62573
▁བཅུ	-8.62595
▁ཟས་	-8.62611
▁སྙིང་	-8.62717
▁ཅེས་པ་	-8.629
▁བཟང་པོ་	-8.63287
▁འདྲ་བ་	-8.63303
▁གསང་བ	-8.63464
▁།།_།།	-8.63475
▁ཟླ་བ	-8.63507
▁བཞིན	-8.63705
▁གནད་	-8.63719
▁གནས	-8.63997
▁དངོས་པོ	-8.6402
▁ནམ་	-8.64033
▁མེ	-8.64278
▁བསྒོམ་པ་	-8.64491
▁གསང་བ་	-8.64675
▁བྱིན་རླབས་	-8.6476
▁རྗེ་	-8.65088
▁སྲིད་	-8.65092
▁ཚོགས་པ་	-8.65263
▁ཆེད་	-8.65604
▁ཉིད	-8.65606
▁སྨན་	-8.66083
▁གནོད་པ་	-8.6627
▁ཕྱིན་པ	-8.66338
▁རྗེ་བཙུན་	-8.66356
▁འདུ་བྱེད་	-8.66492
▁ཇི་ལྟ་བ་	-8.67018
▁བསྒོམ་	-8.67103
▁བྲལ་	-8.67115
▁ཡོད	-8.67216
▁བྲལ་བ་	-8.67268
▁པྲ་	-8.67317
▁དཀོན་མཆོག་	-8.67469
▁ཇི་སྐད་	-8.67478
▁གསང་སྔགས་	-8.67632
▁རེ་རེ་	-8.67642
▁ཆགས་པ་	-8.67924
▁གང་ཞེ་ན	-8.68095
▁སྐྱབས་	-8.68226
▁བསྟན་བཅོས་	-8.68498
▁འཆང་	-8.68515
▁ཛ་	-8.68527
▁མི	-8.68553
▁བདེ་	-8.6861
▁ནོར་	-8.68682
▁མིན་པ	-8.6872
▁དཀར་པོ་	-8.68723
▁མཁས་པ	-8.68804
▁རྡུལ་	-8.68895
▁སྙིང་པོ	-8.68948
▁སྙོམས་པར་	-8.69044
▁འགའ་ཞིག་	-8.69102
▁ཐག་	-8.69174
▁རིགས་པ་	-8.69191
▁ཕུན་སུམ་	-8.69249
▁བློ་གྲོས་	-8.69362
▁སྟོང་པ་	-8.69593
▁བྱང་	-8.69622
▁ཚད་མ	-8.69726
▁མཆོད་	-8.69876
▁རྨི་ལམ་	-8.69876
▁གཙོ་བོ	-8.69981
▁སྲིད་པ་	-8.69995
▁མྱུར་	-8.7007
▁ཐིག་ལེ་	-8.70511
▁བཞུགས་པ	-8.70965
▁ལྟ་	-8.71134
▁སྒྲིབ་པ་	-8.71856
▁དུག་	-8.72274
▁དྷ་	-8.72344
▁སྩལ་པ	-8.72358
▁འདྲ་	-8.72408
▁ཏི་	-8.72777
▁གསལ་བ་	-8.72849
▁བས་	-8.72916
▁གྲགས་པ་	-8.72949
▁མཉམ་	-8.73024
▁མཚུངས་པ	-8.73144
▁མར་	-8.73186
▁དེ་བཞིན་ཉིད་	-8.7354
▁ལྟ་བ	-8.73661
▁བརྩོན་འགྲུས་	-8.73759
▁ལྟར	-8.73877
▁_༼	-8.73915
▁པདྨ	-8.73996
▁ཨཱ་	-8.74094
▁དཔག་	-8.74157
▁སྦྱིན་	-8.74878
▁ཐེ་ཚོམ་	-8.74995
▁རུང་བ	-8.75079
▁མཱ་	-8.75128
▁གཏན་	-8.75164
▁གནོད་	-8.75735
▁དོན་དམ་པ	-8.75879
▁སྐྱེ་བོ་	-8.76051
▁དེ་སྐད་	-8.76185
▁གཞན་དག་	-8.76405
▁།།	-8.76449
▁ཞུགས་པ	-8.76464
▁ཀཱ་	-8.76498
▁འོད་གསལ་	-8.76537
▁ཕན་	-8.76851
▁འགལ་	-8.76884
▁ཕྱེད་	-8.76918
▁ལགས	-8.77014
▁སྨོན་ལམ་	-8.77017
▁བདེན་	-8.77035
▁བདག་ཅག་	-8.77361
▁ཞག་	-8.77416
▁ོ	-8.77447
▁གྲོལ་བ	-8.77711
▁གཉིས་པ	-8.77803
▁ཉེར་	-8.77927
▁ལག་	-8.78005
▁བསམས་	-8.78089
▁དམ་	-8.78303
▁བསྟན	-8.78429
▁ལོག་	-8.78495
▁རུང་བ་	-8.78818
▁སྣ་	-8.78821
▁སྒོམ་	-8.79134
▁སྤྱིར་	-8.79221
▁དཀ	-8.7936
▁འབར་བ	-8.79426
▁རྒྱ་མཚོ	-8.7945
▁ཚིགས་	-8.79613
▁བཟང་	-8.79656
▁མདོ	-8.79851
▁ཞི་བ་	-8.80017
▁ལྔ་པ་	-8.80081
▁ཐོས་	-8.80119
▁བསྡུས་པ	-8.80124
▁འདི་ལྟ་སྟེ	-8.80256
▁མིན	-8.80423
▁རིགས་པ	-8.80773
▁མཛད	-8.80892
▁ལགས་	-8.8093
▁ཁྱིམ་	-8.80971
▁སམ	-8.81076
▁བདུད་རྩི	-8.81114
▁གཤེགས་	-8.81242
▁སྤང་བ	-8.81301
▁འཇིགས་པ་	-8.81454
▁ཱུ	-8.81628
▁ཧ	-8.81663
▁བརྟེན་པ	-8.81843
▁ཞི་	-8.82029
▁དང་_	-8.82429
▁སྤྲུལ་པ	-8.82567
▁ཁོང་	-8.82578
▁རྐང་པ་	-8.82641
▁ལེན་	-8.82735
▁བསྐྱེད་པ་	-8.82914
▁ཆུང་	-8.82944
▁ཟད་	-8.83309
▁རྫོགས་པ་	-8.83379
▁བརྗོད	-8.83595
▁ཉི་ཤུ་	-8.83678
▁གྱུར་ཅིག	-8.83809
▁བྱང་སེམས་	-8.83831
▁གཟིགས་	-8.8401
▁དཔལ་ལྡན་	-8.8413
▁འཇམ་དཔལ་	-8.84247
▁སྨྲ་བ	-8.84365
▁དབང་པོ	-8.84424
▁ཡེ་	-8.84477
▁བཅུ་གཉིས་	-8.84595
▁རྣམ་ཤེས་	-8.84828
▁བག་ཆགས་	-8.85208
▁བློ	-8.85214
▁རིམ་པ	-8.85454
▁གཟུང་	-8.85911
▁10000270	-8.86296
▁ཁོ་ན་ཉིད་	-8.86399
▁རཱ་	-8.86625
▁དབྱངས་	-8.86633
▁ཞུགས་པ་	-8.87144
▁དགའ་	-8.87185
▁ཕྲེང་	-8.87254
▁འགལ་བ་	-8.8749
▁སྙིང་ག	-8.87678
▁ཅིག	-8.87878
▁སྤངས་པ	-8.87916
▁ལྡོག་པ་	-8.8825
▁བསམ་པ	-8.88317
▁ཉི་མ	-8.8848
▁ཁང་	-8.88483
▁གྲགས་པ	-8.88913
▁དབྱེ་བ	-8.89048
▁དགྲ་བཅོམ་པ་	-8.89227
▁བར་ཆད་	-8.89333
▁བཤད	-8.89923
▁དུས་གསུམ་	-8.90065
▁ཕན་ཚུན་	-8.90193
▁གསུམ་པ	-8.90377
▁འདུས་པ	-8.90383
▁སམ་	-8.90425
▁ནོར་བུ་	-8.90487
▁ཐ་	-8.90556
▁སྤྱི་བོ	-8.90603
▁ཁྱབ་	-8.90672
▁སྡིག་པ་	-8.90675
▁ཐར་པ་	-8.9075
▁ཆགས་	-8.90785
▁ཐུན་	-8.9109
▁སྐད་	-8.91126
▁མཛོད་	-8.91165
▁རེག་པ་	-8.91255
▁གནང་	-8.91426
▁མགོན་པོ་	-8.91496
▁ཆེ་བ	-8.91529
▁ལག་པ་	-8.9155
▁བདག་མེད་	-8.91646
▁ཐོག་མ	-8.91685
▁ཕྱག་རྒྱ	-8.91812
▁སྨིན་པ	-8.91872
▁ཞེ་སྡང་	-8.91917
▁སེམས་བསྐྱེད་	-8.92256
▁བསྐལ་པ་	-8.92308
▁ཕུལ་	-8.92554
▁འབྲས་	-8.92572
▁ཐུགས་ཀ	-8.92666
▁དགྲ་	-8.92821
▁སྒྱུ་མ་	-8.9298
▁ཆེ་བ་	-8.93044
▁རྒྱལ་མཚན་	-8.93059
▁སྡེ་	-8.93185
▁ང་རྒྱལ་	-8.93188
▁བཟླས་	-8.93231
▁བཟང་པོ	-8.93344
▁ཅེས་པ	-8.93368
▁ས་པ་	-8.93368
▁སོགས	-8.93604
▁འགྲུབ་	-8.93761
▁འཐད་	-8.94005
▁ཕྱིས་	-8.94196
▁རྩེ་	-8.94252
▁ཐུགས་རྗེ་	-8.94264
▁འོན་ཀྱང་	-8.94354
▁ཕྲེང་བ་	-8.9453
▁བསྐུར་བ	-8.94552
▁དྲི་	-8.94663
▁གར་	-8.94667
▁བཏང་	-8.94701
▁བུ་མོ་	-8.94713
▁ཉམས་པ	-8.94809
▁བྱས	-8.9499
▁ཁྲི་	-8.95252
▁རྒྱལ་	-8.95417
▁རེག་པ	-8.95499
▁བོད་	-8.95543
▁༎_	-8.9564
▁སླད་	-8.95976
▁རྟག་པ་	-8.96042
▁ལྡོག་པ	-8.96265
▁ནི་_	-8.96363
▁འདུས་པ་	-8.96464
▁དམར་པོ་	-8.96654
▁མོད་	-8.96781
▁དུ་མ	-8.9687
▁ནུབ་	-8.9687
▁འགལ་བ	-8.97025
▁རྫུ་འཕྲུལ་	-8.9714
▁གསུམ་པོ་	-8.97181
▁མགོ་	-8.97191
▁དྲུང་	-8.97308
▁མཐའ་དག་	-8.97401
▁ཙ་	-8.97692
▁སླར་ཡང་	-8.97896
▁ནག་པོ་	-8.97925
▁བཀྲ་ཤིས་	-8.97941
▁དད་པ་	-8.98263
▁འབྲེལ་པ་	-8.98311
▁ཐ་མ་	-8.98314
▁༽་	-8.98536
▁མྱོང་བ	-8.98669
▁ཕཊ	-8.98737
▁བདག་པོ་	-8.98814
▁གླིང་	-8.98818
▁དྲན་པ	-8.98973
▁ཅེས་བྱ་བ	-8.99265
▁འཁྲུལ་	-8.99333
▁སྟོང་ཉིད་	-8.9976
▁འཆད་	-9.00012
▁མཆིས་	-9.00169
▁གཏོར་	-9.00481
▁ལི་	-9.00564
▁ལྟེ་བ	-9.00574
▁སྤྲིན་	-9.00593
▁བཟོད་པ་	-9.00669
▁བཀོད་པ་	-9.00725
▁བཅད་པ་	-9.00798
▁དགག་པ་	-9.01009
▁འགོག་པ་	-9.01125
▁ལེན་པ་	-9.01161
▁བཞི་པ	-9.01271
▁ལེན་པ	-9.0144
▁འོང་	-9.0152
▁མྱེད་པ་	-9.01656
▁གསང་	-9.01783
▁ཆད་	-9.02113
▁གིས	-9.02415
▁ེ	-9.02425
▁ནཱ་	-9.02586
▁ཐེག་ཆེན་	-9.02603
▁མཁྱེན་པ	-9.02734
▁གཏི་མུག་	-9.02818
▁དོན་དམ་	-9.02848
▁ལྡན	-9.02878
▁ཟབ་	-9.03017
▁དད་	-9.03044
▁བསམ	-9.03246
▁རྟེན་འབྲེལ་	-9.03358
▁ཐ་དད་པ་	-9.0345
▁སྔོན་པོ་	-9.03514
▁རྙེད་	-9.03704
▁ད་ནི་	-9.04017
▁སྦྱར་བ་	-9.04031
▁བཙུན་པ་	-9.04044
▁རྟག་པ	-9.04177
▁ཆགས་པ	-9.04314
▁འབྲེལ་	-9.04358
▁མི་རྟག་པ་	-9.04437
▁ཐལ་བ	-9.04602
▁ཁྲག་	-9.04749
▁བསྡུས་པ་	-9.0479
▁བཅད་	-9.04869
▁གཏེར་	-9.04955
▁གཞི	-9.04983
▁སྐྱེད་པ	-9.05059
▁གཟུངས་	-9.05514
▁ཟག་པ་	-9.0566
▁བྱེ་བ་	-9.06195
▁ལྟོས་	-9.06229
▁ཡས་	-9.06557
▁མྱེད་པ	-9.06729
▁གདོང་	-9.06855
▁དྲངས་	-9.06908
▁འབྲེལ་བ	-9.0695
▁མཐུ་	-9.06971
▁དཔའ་བོ་	-9.07038
▁སྤོང་བ	-9.07213
▁བརྟན་པ	-9.07224
▁ཁྱད་པར་ཅན་	-9.07227
▁སྒྲུབ་བྱེད་	-9.07382
▁མཚོན་	-9.07403
▁རིང་	-9.07615
▁གྲོལ་	-9.07668
▁ཀླུ་	-9.07813
▁པཱ་	-9.0787
▁གནོད་པ	-9.07874
▁སྐུ་གསུང་ཐུགས་	-9.08428
▁གཅིག་པ་	-9.08716
▁ཡི་དམ་	-9.08756
▁ཡབ་	-9.08824
▁གཉེན་པོ་	-9.08827
▁ཚངས་པ	-9.08999
▁གདོན་	-9.09049
▁བྷི་	-9.09085
▁བརྒྱུད་	-9.09214
▁གཅིག་པ	-9.09351
▁བཅུ་དྲུག་	-9.0943
▁སླར་	-9.0957
▁བསྒྱུར་	-9.09621
▁གཟུང་བ	-9.09783
▁ངོ	-9.10072
▁ཉིན་	-9.10174
▁།་_	-9.10297
▁ཐོས་པ་	-9.10337
▁ཡབ་ཡུམ་	-9.10337
▁དད་པ	-9.10399
▁ཎ་	-9.10533
▁བཅས	-9.10537
▁དུར་ཁྲོད་	-9.10573
▁ཉོན་མོངས་པ	-9.10799
▁སྒྲུབ་ཐབས་	-9.1081
▁རྒྱས་པ་	-9.10876
▁རྣམ་དག་	-9.1089
▁ཇི་སྲིད་	-9.10942
▁ཐར་པ	-9.10949
▁10000220	-9.10967
▁རང་རང་	-9.10989
▁ཀུན	-9.11
▁བཟོད་པ	-9.11055
▁བསྒོམ	-9.11102
▁ཐ་དད་པ	-9.11296
▁ཤེས་བྱ་	-9.113
▁ཕྱི་མ	-9.11388
▁མུ་	-9.11465
▁དང་སེམས་	-9.11601
▁(	-9.11645
▁སྐྱེ	-9.11693
▁ད་ལྟར་	-9.11737
▁སྤོང་	-9.1177
▁བསླབ་པ	-9.11866
▁ངས་	-9.11885
▁ཟེར་བ་	-9.11936
▁གནོད་སྦྱིན་	-9.12021
▁བསྒྲུབ་པ་	-9.12099
▁བསླབ་པ་	-9.12232
▁ཆེས་	-9.12239
▁དཔེ	-9.12272
▁བྲམ་ཟེ་	-9.12729
▁གྲོང་ཁྱེར་	-9.12811
▁འཇོག་	-9.12889
▁ཝ་	-9.13172
▁གཞག་	-9.13299
▁འབྲིང་	-9.13412
▁བཞུགས	-9.13426
▁ཟིན་པ	-9.13434
▁ཕྲག་	-9.13531
▁མཐར་ཐུག་	-9.13539
▁མཆོག	-9.13588
▁བུམ་པ	-9.13952
▁ཏུ	-9.1422
▁བ	-9.1431
▁རྣམ་རྟོག་	-9.14492
▁སྤྲུལ་པ་	-9.14522
▁བདེ་ཆེན་	-9.14628
▁ཅེ་ན	-9.1467
▁འབའ་ཞིག་	-9.15031
▁སྩལ་	-9.15133
▁འདུལ་བ་	-9.15149
▁བརྡ་	-9.15267
▁བསྙེན་པ	-9.15278
▁ལྷག་པར་	-9.15336
▁བྱམས་པ་	-9.15355
▁དེ་བས་ན་	-9.15389
▁བཞི་པོ་	-9.15419
▁རྩོད་པ་	-9.15534
▁ཆུ	-9.15837
▁<	-9.16048
▁གྲགས་	-9.16059
▁བསྒོམས་	-9.16302
▁མང་པོ	-9.16317
▁དྲུག་པ་	-9.16379
▁བགེགས་	-9.1748
▁བཞག་པ	-9.17519
▁ཨེ་	-9.17629
▁བཞག་པ་	-9.1784
▁འགྲོ	-9.17879
▁བཏགས་	-9.17953
▁དམར་	-9.18566
▁ལས་མ་	-9.18771
▁བསྡུ	-9.18854
▁དར་	-9.19009
▁སྤངས་པ་	-9.19136
▁བསྒྲུབ་བྱ་	-9.1935
▁བསྐོར་	-9.19398
▁མཆོད་རྟེན་	-9.19569
▁དུ་_	-9.19848
▁བརྒྱན་པ	-9.20084
▁གཉིས་ཀ	-9.20172
▁མདོག་	-9.20416
▁མོས་པ་	-9.20477
▁སྒོམ་པ་	-9.20593
▁བརྒྱད་པ་	-9.20605
▁ཅི་ཞིག་	-9.20714
▁བཟླས་པ	-9.20996
▁མདོ་སྡེ་	-9.21065
▁བཏབ་	-9.2121
▁ཉམས་པ་	-9.21227
▁རྟ་	-9.21267
▁ཐོག་མ་	-9.21454
▁མེ་ལོང་	-9.2147
▁སྦྱིན་སྲེག་	-9.21502
▁གྲོགས་	-9.21514
▁ཀྱི་_	-9.21575
▁སྤོང་བ་	-9.21657
▁སྐོར་	-9.21665
▁ཐོག་	-9.21726
▁འགོག་པ	-9.21762
▁དེ་_	-9.21917
▁དབྱེ་	-9.22052
▁བསྒོམས་པ	-9.22162
▁ས་པ	-9.22256
▁བླངས་པ	-9.22264
▁ཆད་པ	-9.22309
▁ལྷ་ཚོགས་	-9.22506
▁གཟུགས་བརྙན་	-9.22526
▁འགྲེལ་པ་	-9.23197
▁གཞོན་ནུ་	-9.23317
▁བཅུག་	-9.23338
▁ཡོངས་	-9.23404
▁སྨྲས་པ་	-9.2342
▁འདུས་བྱས་	-9.23756
▁ཟབ་མོ་	-9.23914
▁ཀུན་དགའ་	-9.23926
▁བཟླས་པ་	-9.23951
▁སོང་བ	-9.24089
▁ཐཱ་	-9.24377
▁མཁྱེན་	-9.24469
▁བཞེས་	-9.24669
▁ཡོ་བྱད་	-9.25026
▁ཁྲོ་བོ་	-9.2503
▁རིམ་གྱིས་	-9.25043
▁གང་རུང་	-9.25199
▁ཐིམ་པ	-9.25253
▁མཐུན་པ་	-9.25329
▁མཚུངས་	-9.2535
▁དགག་པ	-9.25376
▁འོང་བ་	-9.25524
▁ཟུང་	-9.25655
▁ཚར་	-9.25786
▁དཀར་པོ	-9.2585
▁ཕཊ་	-9.25917
▁ཟ་བ	-9.261
▁སྒོམ་པ	-9.26385
▁གཙང་	-9.26411
▁ལ་ལ་	-9.26432
▁ཐུབ་པ	-9.26509
▁བརྟགས་	-9.26808
▁ཆོག་	-9.26928
▁འཇིག་པ	-9.27014
▁དེ་ཕྱིར་	-9.27228
▁གཞག་པ་	-9.27336
▁སྭ་	-9.2737
▁སྤྲོས་པ་	-9.27431
▁འཁྲུལ་པ་	-9.27517
▁སེལ་	-9.27525
▁ཐུགས་དམ་	-9.27543
▁དབྱིབས་	-9.27707
▁དྲིལ་བུ་	-9.27979
▁བཀོད་	-9.28157
▁འོང་བ	-9.28209
▁སྨིན་པ་	-9.28218
▁སྐུ་མདོག་	-9.28387
▁ནམ	-9.28448
▁ཟླ་	-9.28478
▁འཇིགས་	-9.28544
▁རྙེད་པ་	-9.28906
▁ལས་མི་	-9.29037
▁རྒྱ་གར་	-9.29072
▁སྤྱི	-9.2916
▁བུམ་	-9.29243
▁བཏགས་པ་	-9.29287
▁ལྷག་པ	-9.29322
▁ཐུགས་རྗེ	-9.29388
▁བདུན་པ་	-9.29432
▁ཏ	-9.29441
▁རྣལ་འབྱོར་པ་	-9.29493
▁ཕན་ཡོན་	-9.29507
▁དེ་དེ་	-9.29564
▁ངོ་མཚར་	-9.2959
▁སྟོང་ཕྲག་	-9.29727
▁ཟུང་འཇུག་	-9.29832
▁རིག་འཛིན་	-9.2989
▁དབུ་མ	-9.29943
▁ཡང་དག་པ་	-9.29965
▁འཇིག་པ་	-9.30137
▁བརླབས་	-9.30204
▁འདུག་པ	-9.30457
▁ྃ་	-9.30554
▁རང་བྱུང་	-9.30924
▁སྤྱོད་ཡུལ་	-9.31017
▁ཞེན་པ་	-9.31089
▁ངན་	-9.31138
▁ག་ལ་	-9.31604
▁ཤུགས་	-9.31788
▁བསྐོར་བ་	-9.31833
▁ཧྲཱིཿ	-9.31941
▁འཆད་པ་	-9.32086
▁གོང་མ་	-9.3214
▁རེ་ཞིག་	-9.32144
▁འཆི་བ	-9.32149
▁འཕྲོ	-9.32429
▁བསྡུ་བ	-9.32488
▁གྲོལ་བ་	-9.32679
▁)	-9.32792
▁བསྐོར་བ	-9.32833
▁བདེ་གཤེགས་	-9.3296
▁འཆད་པ	-9.3301
▁བསྐུར་བ་	-9.33047
▁བཟློག་	-9.33234
▁རང་རིག་	-9.33508
▁བརྟེན་པ་	-9.3354
▁དགེ་	-9.33742
▁འབར་བ་	-9.34119
▁ཕྱེ་	-9.34151
▁འདུལ་བ	-9.34192
▁ཡི་གེ	-9.34354
▁གང་ཡིན་	-9.34372
▁ཟག་མེད་	-9.3446
▁ཞུས་པ	-9.34534
▁ཤི་	-9.34664
▁ཚོགས་པ	-9.34687
▁བྱོན་	-9.34715
▁དགུ	-9.34742
▁སོང་བ་	-9.34835
▁མཇུག་	-9.34844
▁མྱོང་བ་	-9.35007
▁མི་རྟག་པ	-9.35077
▁སྨིན་	-9.35091
▁གང་བ	-9.35272
▁ཐུབ་པ་	-9.35361
▁བསྡུ་	-9.35589
▁སྐུར་	-9.35603
▁མོས་	-9.35636
▁ཡུལ་ཅན་	-9.35674
▁ཀྱེ་	-9.35692
▁གཉེན་པོ	-9.35744
▁རྩེ་མོ་	-9.358
▁ཁྲུས་	-9.36025
▁རྩལ་	-9.36048
▁གཞན་དོན་	-9.36095
▁ལགས་སོ	-9.36095
▁ཀ	-9.36335
▁འཐད་པ	-9.36439
▁མྱོང་	-9.36524
▁མཁའ་	-9.36604
▁མཎྜལ་	-9.36632
▁དྲག་པོ	-9.36651
▁ཕོ་བྲང་	-9.3667
▁མ་ལ་	-9.3684
▁འཛིན	-9.36888
▁འཕེལ་བ	-9.36911
▁དྲན་	-9.36935
▁ཆོ་ག	-9.3703
▁སྟན་	-9.37158
▁བརྒྱ	-9.37182
▁ལྟུང་བྱེད་	-9.37205
▁ཆང་	-9.37315
▁འབུལ་	-9.37334
▁རྙེད་པ	-9.37386
▁མཆིས་པ	-9.37405
▁མཁན་	-9.37467
▁གདམས་ངག་	-9.37505
▁བླ་མེད་	-9.37548
▁བཞེད་	-9.37643
▁གུས་པ	-9.3771
▁ཤྲཱི་	-9.38198
▁དྲག་པོ་	-9.38208
▁འབྲེལ་བ་	-9.3828
▁རིག་བྱེད་	-9.38289
▁བཤེས་གཉེན་	-9.38337
▁བརྩམས་	-9.3839
▁འབུལ	-9.38491
▁དབུགས་	-9.3853
▁ཏིང་འཛིན་	-9.38583
▁འདུག་པ་	-9.3864
▁-_	-9.38669
▁ཁྱིམ་བདག་	-9.38679
▁བསྟོད་པ་	-9.38814
▁མི་འགྱུར་བ	-9.39022
▁ཉེས་བྱས་	-9.39264
▁ཚོགས	-9.39453
▁གཉིས་པོ་	-9.39604
▁མངོན་	-9.39711
▁བྲིས་	-9.39725
▁ཤཱཀྱ་	-9.39745
▁གཅོད་པ	-9.39862
▁ཏཱ་	-9.3994
▁འཇིག་	-9.40165
▁སྐྱེད་	-9.40238
▁འདབ་མ་	-9.40351
▁གུ་རུ་	-9.40434
▁རིས་	-9.40434
▁ཨི་	-9.40474
▁ལུས་ངག་	-9.40508
▁འདུ་	-9.40577
▁སྤང་	-9.40601
▁ཆོས་གོས་	-9.40665
▁དགོས	-9.40749
▁སློབ་མ	-9.40842
▁གཏོང་	-9.40906
▁ཐོབ	-9.40936
▁སྨྲ་	-9.41158
▁གཞལ་ཡས་	-9.41212
▁བཀོད་པ	-9.41321
▁དེ་ལྟ་ན་	-9.4139
▁དངོས་གཞི་	-9.41435
▁ཐོགས་	-9.4148
▁ལྕགས་	-9.41673
▁ཞུ་	-9.41758
▁_།_	-9.41763
▁རྒྱ	-9.41773
▁རྗེས་དཔག་	-9.41937
▁མཚུངས་པ་	-9.41962
▁བཟུང་བ	-9.42021
▁བཞུགས་པ་	-9.42141
▁སྤོས་	-9.42311
▁གཟུགས་ཅན་	-9.42356
▁གཏམ་	-9.42456
▁གསོལ་པ	-9.42511
▁མི་མཐུན་པ	-9.42556
▁ཤཱ་རི	-9.42631
▁རྒྱུ་འབྲས་	-9.42656
▁གཟུང་བ་	-9.42737
▁ལྡོག་	-9.42737
▁འབུམ་	-9.42812
▁བསྲུང་	-9.42968
▁ཐོགས་པ་	-9.43225
▁དཔག་མེད་	-9.4323
▁སྙམ་པ	-9.43553
▁ཛཿ	-9.437
▁བཅུད་	-9.43761
▁ཉེ་བ	-9.43766
▁བླངས་པ་	-9.43832
▁འདོད	-9.43944
▁འཇིགས་པ	-9.43994
▁ལྟུང་བ	-9.4403
▁ངོས་	-9.44157
▁ཚུལ	-9.44208
▁ཅི་ཡང་	-9.44249
▁ཁཱ་	-9.44376
▁གཞག་པ	-9.44453
▁ཧེ་རུ་ཀ་	-9.44468
▁བཅིངས་	-9.44606
▁སྦྲུལ་	-9.44622
▁བསྟོད	-9.44668
▁སྡོམ་	-9.44739
▁མུ་སྟེགས་	-9.44888
▁གདུལ་བྱ་	-9.44939
▁བཟློག་པ	-9.44991
▁རྣལ་འབྱོར་པ	-9.45021
▁བསྒྲུབ་	-9.45191
▁རྣམ་གཞག་	-9.45196
▁སུན་	-9.45258
▁གོ་བ	-9.45289
▁ཐོས་པ	-9.45536
▁ཐོད་པ་	-9.45557
▁དེ་བ	-9.4565
▁ཕན་པ	-9.45784
▁རྒྱབ་	-9.45836
▁མི་རྟག་	-9.45878
▁ཟུར་	-9.45878
▁བསྐུལ་	-9.45997
▁བལྟ་བ	-9.46132
▁དཀྱིལ་	-9.46168
▁སྐད་ཅིག་མ་	-9.4623
▁ཆུད་པ	-9.46491
▁མཆོད	-9.46537
▁སེང་གེ་	-9.46553
▁རིམ་	-9.46584
▁དྲང་སྲོང་	-9.46626
▁བཏགས་པ	-9.46663
▁ཆོས་སྐུ་	-9.46809
▁སྣ	-9.4684
▁ལོགས་	-9.46966
▁ཞེས་_	-9.46971
▁འཇོག་པ	-9.47029
▁མས་	-9.47066
▁ལྟོས་པ	-9.47076
▁ཆོས་དབྱིངས་	-9.47081
▁བཏབ་པ	-9.47118
▁འཆི་བ་	-9.47302
▁བསྲུང་བ	-9.47307
▁སེལ་བ	-9.47412
▁ཨུ་	-9.4786
▁ཕྱི	-9.48035
▁ངན་སོང་	-9.48183
▁གཙུག་ལག་ཁང་	-9.48215
▁འཇིག་རྟེན་པ	-9.48225
▁འབྲུ་	-9.48236
▁གཏད་	-9.48289
▁དཔྱད་	-9.48395
▁ཞེ་ན་	-9.48411
▁མཉམ་པ་	-9.48491
▁མཉམ་པ་ཉིད་	-9.48544
▁ཅིར་	-9.488
▁རྣ་བ	-9.4889
▁སྐུ་གསུམ་	-9.48938
▁འདུལ་	-9.49061
▁ཐལ་བ་	-9.49238
▁ཁོ་བོ་	-9.49415
▁ཁྲིད་	-9.49496
▁གཤིན་རྗེ་	-9.49549
▁བརྟན་	-9.49619
▁མཛེས་པ	-9.49662
▁འཁོར་འདས་	-9.49737
▁ཚུལ་བཞིན་	-9.49926
▁གས	-9.50072
▁གོམས་པ	-9.50077
▁།་་་་་	-9.50088
▁བརྟུལ་ཞུགས་	-9.50207
▁བསྡུ་བ་	-9.50266
▁ཇི་བཞིན་	-9.50434
▁སོགས་པ་	-9.5044
▁སྒྱུ་མ	-9.50858
▁དྲི་མེད་	-9.50896
▁དབུ་མ་	-9.50989
▁བག་	-9.51295
▁དབེན་པ	-9.51333
▁མ་གྲུབ་པ	-9.51475
▁འགྲེལ་པ	-9.51525
▁མཁན་པོ་	-9.51843
▁སྤྱད་པ	-9.51859
▁འབྲེལ་པ	-9.52008
▁དགོངས་པ	-9.52036
▁སེམས	-9.52041
▁ཕལ་ཆེར་	-9.5208
▁ཟེར	-9.52195
▁དམ	-9.52245
▁སྤྲུལ་	-9.52328
▁མཁའ་འགྲོ	-9.52477
▁ཡིད་བཞིན་	-9.5256
▁འཁྲུལ་པ	-9.52604
▁གྲོང་	-9.5276
▁ཞེན་པ	-9.52865
▁རེག་	-9.52938
▁བླང་	-9.53093
▁སྩོལ	-9.53127
▁གཙོ་	-9.53366
▁ཧི་	-9.53394
▁ཚངས་པ་	-9.53422
▁གནས་ལུགས་	-9.5359
▁འདེབས་	-9.53601
▁གཡོན་པ	-9.53657
▁གཅོད་	-9.53696
▁ང	-9.53736
▁འབྱུང་གནས་	-9.53775
▁ཆོས་མ་	-9.53836
▁བསལ་	-9.54117
▁བླང་བ	-9.54134
▁དུ་བ་	-9.54241
▁བལྟས་	-9.54297
▁དགེ་སྦྱོང་	-9.54433
▁ན་མ་	-9.54461
▁དམར་པོ	-9.5454
▁༡་	-9.54772
▁བཅད་པ	-9.54778
▁ཡར་	-9.54953
▁ལྔ་པོ་	-9.5497
▁བཾ་	-9.55044
▁ཀུ་	-9.55061
▁ཏྲ་	-9.55175
▁ཚུར་	-9.5518
▁དབུ་	-9.5526
▁འདྲེས་པ་	-9.55294
▁སྐལ་བ་	-9.55294
▁སེམས་པ་	-9.55362
▁རལ་གྲི་	-9.55402
▁བྱེད་པ་པོ་	-9.55454
▁སྤྱད་	-9.55505
▁སྙིང་རྗེ	-9.55511
▁ལྷུན་གྲུབ་	-9.55699
▁བརྟན་པ་	-9.55716
▁ཐལ་མོ་	-9.55974
▁མཚན་མ	-9.55979
▁ཐ་མ	-9.56031
▁བརྒྱུད་པ་	-9.56094
▁ད་ལྟ་	-9.56129
▁བལྟ	-9.56577
▁བརྒྱུད་པ	-9.56658
▁རེ	-9.56669
▁གོ་འཕང་	-9.56837
▁ནོར་བུ	-9.56906
▁སྨོན་པ་	-9.56958
▁བཅོམ་ལྡན་	-9.57121
▁ལ་ལ	-9.5715
▁ཚེས་	-9.57213
▁གཡོ་	-9.57248
▁བྱིས་པ་	-9.57277
▁བསྟོད་	-9.57446
▁འདའ་བ	-9.57457
▁འོན་ཏེ་	-9.57492
▁དཀའ་བ་	-9.57504
▁རྣམས་_	-9.57515
▁དུའོ	-9.57626
▁ཤེས་བྱ	-9.57667
▁ཐལ་	-9.5776
▁རྒྱུ་བ་	-9.57912
▁བསྒྱུར་བ	-9.57965
▁ལྕེ་	-9.57982
▁བརྩོན་པ	-9.57994
▁གམ་	-9.58099
▁སོགས་པ	-9.58146
▁ཇི་སྙེད་	-9.58199
▁མ་རིག་པ་	-9.58386
▁མངའ་	-9.58504
▁ཁྲོ་བོ	-9.58521
▁དེ་ཙམ་	-9.58721
▁སྡོམ་པ	-9.5878
▁སྤྱན་རས་	-9.58875
▁ཡིན་ཡང་	-9.58916
▁དམྱིགས་	-9.58999
▁སེང་གེ	-9.59342
▁དྲག་	-9.59354
▁འདྲེན་	-9.59389
▁བྷཱ་	-9.59466
▁སྙེད་	-9.59478
▁གི	-9.59531
▁ཏོ་	-9.59531
▁མཚོ་	-9.59603
▁ཟིལ་	-9.59686
▁རི	-9.59734
▁ཕྱུང་	-9.59888
▁གསུང་རབ་	-9.59948
▁ལྟེ་བ་	-9.5996
▁གཟུང་འཛིན་	-9.60002
▁མཚོན་པ	-9.60073
▁ཆད་པ་	-9.60235
▁ན་མོ་	-9.60282
▁རྣམ་སྨིན་	-9.60324
▁གང་ཡིན་པ	-9.60402
▁བརྟག་པ	-9.60432
▁འཕེལ་	-9.6045
▁རེ་རེ	-9.60684
▁བསྒྲུབ་བྱ	-9.6078
▁ཕན་པ་	-9.60792
▁ཥ་	-9.60943
▁ཞེས	-9.61069
▁རས་	-9.61081
▁ཕྱེ་བ	-9.61087
▁ཅི་སྟེ་	-9.61105
▁ཨོྃ་	-9.61117
▁༡	-9.61256
▁བགྱི་	-9.61474
▁ཥིཉྩ་	-9.61486
▁གདམས་པ་	-9.61777
▁ཕ་	-9.61862
▁སྦྱངས་	-9.61874
▁ལྷུང་བཟེད་	-9.61966
▁འཇོག་པ་	-9.62106
▁འབར་	-9.62167
▁ཚལ་	-9.62197
▁གནང་བ་	-9.62234
▁བགྱིད་	-9.62252
▁ཆུད་	-9.62282
▁ཟིན་པ་	-9.62344
▁ཁྱེར་	-9.62374
▁སེ	-9.6249
▁ཞུ་བ་	-9.62582
▁ལྷུན་	-9.62637
▁བཱ་	-9.62858
▁བདེ་མཆོག་	-9.62876
▁བསྟེན་	-9.62987
▁བཟུང་བ་	-9.63005
▁མཁས་	-9.63054
▁གྱེན་	-9.63134
▁བརྒྱ་བྱིན་	-9.63251
▁སཾ་	-9.63264
▁མཐོང་ལམ་	-9.63362
▁ཉེས་པ	-9.63399
▁བརྟག་པ་	-9.63418
▁མདོར་ན་	-9.63437
▁སྐལ་ལྡན་	-9.63523
▁བདག་པོ	-9.63554
▁ཁྲོ་	-9.63696
▁བཏང་སྙོམས་	-9.63752
▁མི་རིགས་	-9.63758
▁སུམ་ཅུ་	-9.63963
▁རོལ་	-9.64193
▁ལ་དོན་	-9.64255
▁ཕུང་པོ	-9.64273
▁སེར་པོ་	-9.64386
▁ནས་_	-9.64473
▁དོན	-9.64529
▁དམྱལ་བ་	-9.6456
▁ཆུང་ངུ་	-9.64616
▁དཀའ་བ	-9.6466
▁མ་ལུས་པ	-9.6486
▁མི་དགེ་བ་	-9.64879
▁གཉིད་	-9.6503
▁རུ	-9.65262
▁འགྲེལ་	-9.65382
▁མི་_	-9.65451
▁ལྔ་པ	-9.65489
▁དགྲ་བགེགས་	-9.65571
▁གཅིག་པུ་	-9.65583
▁བརྟགས་པ	-9.65678
▁རི་རབ་	-9.65691
▁ཀཱི་	-9.65937
▁འཕགས་	-9.66153
▁ནག་	-9.66356
▁འཆི་	-9.66356
▁ཤ་ར་དྭ་ཏི	-9.66438
▁བརྒྱད་པ	-9.6647
▁བྱམས་པ	-9.66508
▁ནཱི་	-9.66553
▁ན་རེ	-9.66649
▁འཚལ	-9.66942
▁འགྲུབ་པ་	-9.66974
▁སྦ	-9.67013
▁མ་_	-9.6732
▁འཐད་པ་	-9.67417
▁འདྲེས་པ	-9.67455
▁ཤེས	-9.67468
▁གཞན་པ	-9.67513
▁ཐིམ	-9.67622
▁དེབ	-9.67629
▁ཀླུང་	-9.67655
▁ཉམས་ལེན་	-9.67809
▁བསྒྲུབས་	-9.67809
▁མཐུ	-9.67887
▁བཀག་	-9.67893
▁ཀླུ	-9.68204
▁གཟི་བརྗིད་	-9.68275
▁དུང་	-9.68333
▁རྐང་	-9.68489
▁མཛེས་	-9.68502
▁ལྷན་སྐྱེས་	-9.68502
▁ཤས་	-9.68638
▁འདུས་མ་བྱས་	-9.68742
▁སེམས་ཉིད་	-9.68755
▁པུ་	-9.68762
▁སྔ་མ	-9.68801
▁ཚང་	-9.68834
▁མིན་པ་	-9.69101
▁ནག་པོ	-9.69245
▁རྩེ་མོ	-9.69317
▁རྩིབས་	-9.69422
▁དྲོད་	-9.69442
▁ཊ་	-9.69586
▁ཝཱ་	-9.69645
▁ཧོཿ_	-9.69724
▁ཞི་གནས་	-9.69763
▁ཡུན་རིང་	-9.70093
▁ཐེག་པ	-9.70238
▁__༼	-9.7039
▁དཔག་ཚད་	-9.70403
▁གསོལ་བ	-9.7043
▁སྤྲོ་	-9.70622
▁རང་མཚན་	-9.70735
▁ངན་པ་	-9.70868
▁མ་ལུས་པ་	-9.71001
▁བསྐྱེད་རིམ་	-9.71027
▁རྒྱུད་སྡེ་	-9.71101
▁ཆོས་སྐྱོང་	-9.71321
▁ཐིག་ལེ	-9.71528
▁བརྒྱན	-9.71535
▁སྲོག་ཆགས་	-9.71662
▁གཡས་པ	-9.71971
▁སློབ་	-9.72045
▁རཾ་	-9.72207
▁རག་	-9.72321
▁དངོས་མེད་	-9.72463
▁རྣ་བ་	-9.72578
▁མགྲིན་པ	-9.72598
▁བ་ལང་	-9.72707
▁བསྐྱེད	-9.72734
▁༢	-9.72863
▁དྷི་	-9.73026
▁ཀི་	-9.73162
▁དེང་	-9.73209
▁ཀློང་	-9.73345
▁ཏི	-9.73352
▁མགོན་	-9.73448
▁འཆི་མེད་	-9.73496
▁ཤྭ་	-9.73502
▁ཟད་པ་	-9.73639
▁ཚིགས་བཅད་	-9.73707
▁འབྱིན་	-9.73975
▁ཧ་ཅང་	-9.73988
▁མུན་པ་	-9.74043
▁ཡང་_	-9.74078
▁སྦྱང་	-9.74415
▁བགྱིས་	-9.74477
▁བགྱི་བ་	-9.7458
▁གུ་	-9.74663
▁ཟད་པར་	-9.74843
▁ལངས་	-9.74877
▁ཀུན་དགའ་བོ་	-9.74912
▁བཞག	-9.74912
▁ཕྲེང་བ	-9.74974
▁ཕུང་	-9.75016
▁པད་	-9.75023
▁སྙམ་པ་	-9.75287
▁ཆུས་	-9.75301
▁རྡོར་	-9.75391
▁དྲུག་པ	-9.7544
▁ཇི་ལྟ་བུ་	-9.75474
▁སྐྱེས་བུ	-9.75593
▁གླེང་	-9.75614
▁ངམ་	-9.75858
▁བསྟེན་པ	-9.75872
▁ཡན་ཆད་	-9.76047
▁རཏྣ་	-9.76257
▁སྐྲ་	-9.7637
▁ཚང་བ	-9.76532
▁གཏོང་བ	-9.76595
▁ཀུན་མཁྱེན་	-9.76708
▁ལྟོས་པ་	-9.76806
▁མོད	-9.77125
▁མྱུ་གུ་	-9.77146
▁སྨོས་པ་	-9.7728
▁འོངས་	-9.77316
▁ཁས་ལེན་	-9.77408
▁ཆོས་རྗེ་	-9.77429
▁ཐ་ཚིག་	-9.77479
▁བརྒྱ་རྩ་	-9.77628
▁དྷཱ་	-9.77721
▁ནམ་ཡང་	-9.77764
▁ཧེ་	-9.77849
▁འབུམ་ཕྲག་	-9.77921
▁ཇི་ཙམ་	-9.78078
▁དམྱལ་བ	-9.78078
▁ཧི	-9.78113
▁སྤྱད་པ་	-9.78171
▁སྦྱོང་	-9.78228
▁ཐིག་	-9.78271
▁དམ་བཅ	-9.784
▁ཟ་བ་	-9.78472
▁བྲི་བ	-9.78536
▁དུའང་	-9.78551
▁སྡུག་	-9.78651
▁ཁྱད་	-9.78687
▁མ་གཏོགས་པ	-9.78773
▁ལྷ་མ་	-9.78773
▁ཀུ་རུ་	-9.78853
▁བཟོད་	-9.78889
▁རྣམ་ཐར་	-9.79033
▁སྨད་	-9.79098
▁བཀག་པ	-9.79127
▁བསྟོད་པ	-9.79351
▁བདེ	-9.79474
▁འགག	-9.79561
▁གསོ་སྦྱོང་	-9.79568
▁གྲུབ་མཐའ་	-9.7975
▁ན་_	-9.79772
▁ཕྱག་མཚན་	-9.79844
▁འགོག་	-9.80019
▁ཡོད་མེད་	-9.8007
▁ཐུབ་	-9.80099
▁སྤང་བ་	-9.80296
▁འབྱིན་པ	-9.8034
▁མི་དགེ་བ	-9.80633
▁བལྟ་	-9.80655
▁ཞུས་	-9.80861
▁རོལ་པ	-9.80861
▁མཆིས་པ་	-9.81022
▁གློ་བུར་	-9.81295
▁ཉན་	-9.81369
▁མར་མེ་	-9.81384
▁ཛྙཱ་ན་	-9.81399
▁སྤང་བྱ་	-9.8145
▁འཐོབ་པ	-9.81554
▁བསལ་བ	-9.81606
▁སིདྡྷི་	-9.81613
▁ལྷག་	-9.81628
▁སཱ་	-9.8168
▁རྒྱུ་ལ	-9.81784
▁འཇོམས་པ	-9.81791
▁སྦྱར	-9.81917
▁བར	-9.81932
▁དྲུག་ཅུ་	-9.82058
▁ཕྱེ་བ་	-9.82058
▁མཉེས་པ	-9.8223
▁འཕོ་བ་	-9.82289
▁དཀའ་	-9.82349
▁ཎི་	-9.82371
▁མོས་པ	-9.82394
▁གཏོགས་པ	-9.82416
▁ལྕེ	-9.8255
▁གོ་རིམ་	-9.82588
▁རློམ་སེམས་	-9.82887
▁གཞན་མ་	-9.8297
▁ཡང་ཡང་	-9.83
▁ནན་ཏན་	-9.83053
▁འབྱེད་པ	-9.83256
▁གཏོང་བ་	-9.83263
▁དོགས་པ་	-9.83338
▁འདབ་	-9.83436
▁མ་འོངས་པ་	-9.8358
▁དམ་བཅའ་	-9.83617
▁མངལ་	-9.83701
▁གྱི་_	-9.83807
▁ཆ་ཤས་	-9.84307
▁ཀླུ་སྒྲུབ་	-9.84338
▁སྙན་	-9.84482
▁གཞོན་ནུ	-9.84589
▁བསྙེན་པ་	-9.8462
▁ཕོ་ཉ་	-9.8465
▁བསྲུང་བ་	-9.84742
▁བསྒྱུར་བ་	-9.84811
▁ཏྲི་	-9.8491
▁གཅོད་པ་	-9.85086
▁བྲམ་ཟེ	-9.85293
▁ཡིན་_	-9.85363
▁རྒྱུ་བ	-9.85417
▁ཟ་	-9.85486
▁རྗེས་གནང་	-9.85532
▁འགག་པ་	-9.85547
▁སུམ་	-9.85763
▁སྲེད་པ་	-9.85925
▁འདུན་པ་	-9.8598
▁གུར་	-9.86026
▁སི་	-9.86026
▁བརྒྱད	-9.86057
▁ཞུ་བ	-9.86258
▁ཀྲོ་	-9.86297
▁ཁུ་བ་	-9.86328
▁འདི་ལྟ་སྟེ་	-9.86351
▁བར་མ་	-9.8639
▁མདའ་	-9.86421
▁བརྗོད་བྱ་	-9.86577
▁དངོས་གཞི	-9.866
▁མ་གྲུབ་པ་	-9.86678
▁གླུ་	-9.86717
▁ག	-9.86725
▁ཧོ	-9.86764
▁བསྐོར	-9.86842
▁གོང་མ	-9.86873
▁འདུད	-9.86943
▁ཟབ་མོ	-9.87037
▁ལོག་པ་	-9.87076
▁སྐྱོན་མེད་	-9.87084
▁སྡེ	-9.87131
▁ལུ་	-9.87225
▁བརྟག་	-9.87233
▁བྱིན་པ	-9.87264
▁ས་གཞི་	-9.87327
▁གཟའ་	-9.87421
▁ལ་མོ	-9.87421
▁ཡཱ་	-9.87617
▁གདུགས་	-9.87688
▁བསགས་པ	-9.8772
▁ལྷག་མ	-9.87814
▁བསྔོ་བ་	-9.87877
▁སྡེ་སྣོད་	-9.87932
▁པཱུ་	-9.87988
▁རྫོགས་རིམ་	-9.88059
▁ལྕགས་ཀྱུ་	-9.88106
▁འབྱུང་པོ་	-9.8828
▁སེམས་_	-9.88351
▁མི་འགྱུར་བ་	-9.88399
▁འཇོམས་	-9.88422
▁འོ་མ་	-9.88478
▁ལམ	-9.88581
▁འབྱེད་	-9.88708
▁འཇམ་དབྱངས་	-9.88732
▁འཕྲོས་པ	-9.88788
▁བརྡ	-9.88971
▁ཀུན་གཞི་	-9.88995
▁རང་གཞན་	-9.89194
▁ཚོར་བ	-9.8921
▁འཁོར་བཅས་	-9.89322
▁ཉེ་	-9.89458
▁བཟློག་པ་	-9.89466
▁ཆོ་འཕྲུལ་	-9.89538
▁ཁྱེའུ་	-9.89587
▁དེ་སྲིད་	-9.89587
▁༽__	-9.89731
▁འཕེལ་བ་	-9.89956
▁ལྷོ་	-9.90149
▁སྡིག་པ	-9.90214
▁བོས་	-9.90553
▁ཐང་	-9.90586
▁སྐྱེ་བོ	-9.9061
▁ཞུ	-9.90626
▁མན་ཆད་	-9.90748
▁ཁོ་བོ	-9.90805
▁ཞིང་ཁམས་	-9.90845
▁སྔོ་	-9.90845
▁འདེབས	-9.90919
▁དོན་དམ་པ་	-9.90967
▁བསྐུལ་བ	-9.91073
▁གདབ	-9.91138
▁རང་རྒྱུད་	-9.91146
▁ཞེན་	-9.91154
▁བཅོ	-9.91187
▁དོར་	-9.91399
▁རྭ་	-9.91424
▁འབྱོར་	-9.91456
▁གཤིན་རྗེ	-9.91505
▁བྲི	-9.91522
▁བརླབས་པ	-9.91759
▁གཡོན་པ་	-9.91956
▁པོ་	-9.92005
▁བསྙེན་བཀུར་	-9.92104
▁གེགས་	-9.92194
▁དེ་ལྟ་བས་ན་	-9.92252
▁འགྲུབ	-9.92269
▁བཅོ་བརྒྱད་	-9.92277
▁ཁྲུ་	-9.92285
▁སྤྲོས་པ	-9.92318
▁འོག་མ་	-9.92392
▁བཅུར་	-9.92442
▁སྔོན་པོ	-9.92466
▁བསྐང་	-9.92508
▁སྤྱི་བོ་	-9.92623
▁སེམས་བསྐྱེད་པ་	-9.92847
▁སྟོང་གསུམ་	-9.92913
▁གཙུག་ཏོར་	-9.92963
▁སྟོན	-9.93004
▁བརྒྱན་པ་	-9.93079
▁ཅིག་ཅར་	-9.93112
▁རོལ་མོ་	-9.93295
▁ཉོན་	-9.9342
▁སྒྲིབ་	-9.93478
▁གསལ	-9.93503
▁འཇིགས་བྱེད་	-9.93595
▁ཟློག	-9.93662
▁ཆོས་སྐུ	-9.9367
▁བཀག་པ་	-9.93679
▁སྤྲོ་བ་	-9.93687
▁དཔུང་	-9.93721
▁ན་བ་	-9.93754
▁ཐུགས་ཀ་	-9.93888
▁གྷ་	-9.94039
▁བུས་	-9.94047
▁གཏོར་མ	-9.94156
▁གཉི་ག་	-9.94282
▁ཤར་ཕྱོགས་	-9.94307
▁གཞལ་བྱ་	-9.94333
▁རབ་འབྱམས་	-9.94408
▁མ་རིག་པ	-9.94417
▁ཉལ་	-9.94459
▁ཕྲ་རབ་	-9.94543
▁སྒྲོ་	-9.9456
▁དབང་ཤེས་	-9.94594
▁བཞེངས་	-9.94636
▁ཁུ་ཚུར་	-9.94653
▁དགུ་པ་	-9.94653
▁བདུན་པ	-9.9472
▁རང་ལུགས་	-9.94796
▁མཚན་པ	-9.94881
▁གཤེད་	-9.94914
▁ཁྱབ	-9.94931
▁གཡས་པ་	-9.94957
▁སྣ་ཚོགས་པ	-9.95024
▁གོ་ཆ་	-9.95067
▁སྲུང་བ	-9.955
▁གི་_	-9.95542
▁གསལ་བྱེད་	-9.95585
▁གཡོ་བ་	-9.95738
▁ལྷ་མོ	-9.95866
▁མནན་	-9.95875
▁སྡུད་	-9.95943
▁གྲགས	-9.95986
▁དགྱེས་པ	-9.96046
▁རྩེ་གཅིག་	-9.96166
▁སྦྱངས	-9.96251
▁བེ་	-9.96277
▁_༑_	-9.96388
▁ཛཿ_	-9.96457
▁འོད་སྲུང་	-9.96526
▁ཚོན་	-9.96543
▁ཟད་པ	-9.96543
▁སྐྱོང་	-9.96552
▁འདོན་	-9.96655
▁གདུག་པ་	-9.9675
▁གསན་	-9.96853
▁བཞེད་པ་	-9.96896
▁དབེན་པ་	-9.96922
▁སྒོ་གསུམ་	-9.96974
▁དགེ་བསྙེན་	-9.97
▁ཆོད་	-9.97043
▁།_།__	-9.97078
▁འཕྲིན་ལས་	-9.97138
▁དཔེར་ན	-9.97285
▁ལྷག་མཐོང་	-9.97285
▁དཔྱད་པ	-9.97415
▁མཚན་ཉིད	-9.97563
▁སྲུང་	-9.97615
▁འདོད་ཡོན་	-9.97658
▁ལོ་ཙཱ་བ་	-9.97693
▁སྒྲོལ་མ་	-9.97745
▁བརྟགས་པ་	-9.97867
▁མངོན་རྟོགས་	-9.97885
▁རྨོངས་པ་	-9.97998
▁རྣམ་སྣང་	-9.98024
▁ངམ	-9.98199
▁གདུལ་བྱ	-9.98225
▁དགོད་པ	-9.98347
▁ཤར་བ་	-9.98417
▁སྤྱོད	-9.98435
▁དབྱར་	-9.98496
▁བརྒྱན་	-9.98496
▁ཉི་ཟླ་	-9.9854
▁བསལ་བ་	-9.98663
▁ཙིཏྟ་	-9.98707
▁ཕུལ	-9.9876
▁བཏབ་པ་	-9.9883
▁བདག	-9.98909
▁འཆར་	-9.98918
▁གནས་བརྟན་	-9.98953
▁མ་གཏོགས་	-9.99015
▁ཕུལ་བ	-9.9905
▁ཧཱུཾ	-9.99085
▁ཇི་ལྟ་	-9.99121
▁མ་འོངས་པ	-9.992
▁མཚན་མོ་	-9.9928
▁འདེབས་པ་	-9.99306
▁བདེ་སྟོང་	-9.9943
▁སློབ་པ་	-9.99448
▁འབད་	-9.9958
▁ནི་ལ	-9.9966
▁དང་བ	-9.99705
▁ལ་ཉེ	-10.0004
▁ཀུན་འབྱུང་	-10.0005
▁དོན་ཡོད་	-10.0013
▁ནགས་	-10.0016
▁གྲུབ	-10.0018
▁ཧེ་རུ་ཀ	-10.0019
▁.	-10.003
▁གཡས་གཡོན་	-10.0046
▁ཉིན་ཞག་	-10.0055
▁རྗོད་	-10.0061
▁ཤར་བ	-10.0071
▁འདྲེན་པ	-10.0073
▁གང་བ་	-10.0077
▁པཎྜི་ཏ་	-10.0077
▁མཿ	-10.0079
▁སངས་	-10.0082
▁འདྲེན་པ་	-10.0086
▁སྤྲོས་	-10.0088
▁ཀརྨ་	-10.0089
▁ཅག་	-10.0098
▁རང་དབང་	-10.0106
▁ཞོལ	-10.0111
▁གདབ་པ	-10.014
▁རྡོ་	-10.0144
▁ལྷག་པ་	-10.0154
▁ཀ་ར་	-10.019
▁བཻ་	-10.0198
▁བཤགས་	-10.0215
▁གདབ་	-10.0218
▁མགོན་པོ	-10.0231
▁ཐོགས་མེད་	-10.0234
▁ར་བ་	-10.024
▁གང་ཞིག_	-10.0241
▁བཏང་བ	-10.0248
▁སྔགས་འཆང་	-10.0257
▁སྐྱེས	-10.0258
▁དགེ་ཚུལ་	-10.0259
▁ཤིང་རྟ་	-10.0261
▁ཟློག་	-10.0265
▁སྙོམས་འཇུག་	-10.0265
▁ཁང་པ་	-10.0269
▁སྐྱེ་གནས་	-10.0273
▁སྤྱོད་ལམ་	-10.0275
▁ཕམ་པ	-10.0278
▁མཐོ་རིས་	-10.0284
▁སེམས་པ	-10.0285
▁ཕྲ་མོ་	-10.0286
▁_༑_༑_	-10.0302
▁བཅུ་པ་	-10.0303
▁འཇིག་རྟེན་པ་	-10.0307
▁འཚོ་བ	-10.0307
▁ཀྱིས་_	-10.0313
▁ཆུང་མ་	-10.0324
▁སྤྱན་སྔ	-10.0339
▁ཕར་ཕྱིན་	-10.0341
▁ཡོན་	-10.0347
▁ལག་པ	-10.037
▁རྒྱལ་སྲས་	-10.0375
▁བོར་	-10.0382
▁འཇམ་པ	-10.0402
▁ཕྲ་བ་	-10.0419
▁བབས་	-10.0419
▁མཚན་གཞི་	-10.0425
▁ཆུ་བོ་	-10.0429
▁རློབས	-10.0441
▁བཅུ་གཅིག་	-10.0446
▁འབད་པ	-10.045
▁བྱིན་པ་	-10.0452
▁།_༼	-10.0465
▁ལ་ཁ་	-10.0473
▁སྣང་ངོ་	-10.0473
▁པི་	-10.0476
▁དམ་ཆོས་	-10.0479
▁གམ	-10.048
▁གཞུག་	-10.0482
▁ཕྱོགས་ཆོས་	-10.0489
▁རྒོལ་བ་	-10.0491
▁འཕྲོ་	-10.0499
▁གཉེན་	-10.0502
▁སྟག་	-10.0509
▁དོན་མེད་	-10.0514
▁སྤེལ་	-10.0515
▁ཉན་རང་	-10.053
▁འདུ་བ	-10.0533
▁བསྔགས་པ་	-10.0535
▁གཞུག་པ	-10.0539
▁སེ་	-10.0545
▁ཞགས་པ་	-10.0553
▁སྤྲོས་བྲལ་	-10.0576
▁རྨོངས་པ	-10.0578
▁གཙུག་	-10.0594
▁དོང་	-10.0594
▁ན་རེ་	-10.0604
▁འབྱོར་པ་	-10.0604
▁གདོད་	-10.062
▁སྨོས་པ	-10.0621
▁ལེ་	-10.0627
▁དཱ་	-10.0633
▁ལུང་བསྟན་	-10.0639
▁ཕེབས་	-10.0652
▁ཁ་ཟས་	-10.0653
▁༑_	-10.0655
▁ཆུང་བ་	-10.0664
▁ཤེལ་	-10.0667
▁སེམས་ལས་	-10.0669
▁དྲངས་པ	-10.067
▁བཅུ་གསུམ་	-10.0677
▁_¡¶_	-10.0681
▁ཆོས	-10.0681
▁འབྲང་	-10.0683
▁བསྟན་འགྱུར	-10.0688
▁འཕོ་བ	-10.069
▁བྱེ་མ་	-10.0715
▁སྦྱོང་བ	-10.0718
▁ཕྲག་དོག་	-10.0735
▁དཔག་པ་	-10.0741
▁གཞན་པ་	-10.075
▁འགགས་པ	-10.075
▁ཡེ་ཤེས་པ་	-10.0756
▁གདུང་	-10.076
▁གཏོགས་པ་	-10.0762
▁དང་ལ	-10.0765
▁མྲྀ་	-10.0766
▁འབྱེད་པ་	-10.0771
▁ཡོངས་རྫོགས་	-10.0775
▁འབུལ་བ་	-10.0799
▁མི་སྣང་བ	-10.0812
▁བཀའ་དྲིན་	-10.0817
▁བསྒྲུབས་པ	-10.0818
▁ཐག་པ	-10.0823
▁ལོངས་	-10.0825
▁རྒྱུས་	-10.0846
▁གྱུར་ཅིག་	-10.0854
▁བདག་མེད་པ	-10.0869
▁འགག་	-10.0877
▁རྫོགས	-10.088
▁སངས་རྒྱས་པ	-10.0881
▁ཟག་བཅས་	-10.0882
▁སྡུག་པ་	-10.0883
▁རབ་གནས་	-10.09
▁འོས་	-10.092
▁ཚ་	-10.0925
▁མཐའ་ཡས་པ	-10.0946
▁དོན་གཞན་	-10.0946
▁ཉ་	-10.0957
▁སྒྲིབ་པ	-10.0971
▁གང་དང་གང་	-10.0975
▁ཐོད་པ	-10.0976
▁ཉིས་	-10.0985
▁ཅོད་པན་	-10.0998
▁སྒོམ་ལམ་	-10.1
▁ཡོང་	-10.1007
▁རེག་བྱ་	-10.1012
▁སྣང་སྲིད་	-10.1014
▁བྷྱོ་	-10.1019
▁ཟེར་བ	-10.1024
▁འདོགས་པ	-10.1024
▁བཅོམ་	-10.1027
▁ཟོས་	-10.1029
▁བརྫུན་	-10.1059
▁འཛམ་བུ	-10.1062
▁ཕག་མོ་	-10.1071
▁དམན་པ་	-10.1072
▁མྱིག་	-10.1073
▁རབ་བྱུང་	-10.1073
▁བརྩེ་བ	-10.1089
▁ངེད་	-10.1091
▁མཚོན་ཆ་	-10.1102
▁སྦྱངས་པ	-10.1122
▁དེ་རིང་	-10.1128
▁བསྐལ་པ	-10.1129
▁བྲན་	-10.1146
▁བཟའ་བ་	-10.115
▁ཉི་	-10.1159
▁སྡུད་པ	-10.116
▁ངག་དབང་	-10.1162
▁རྩ	-10.1175
▁སེལ་བ་	-10.1175
▁མཛེས་པ་	-10.1177
▁ཨོཾ	-10.118
▁ཐལ་འགྱུར་	-10.1184
▁ཆེ་ཆུང་	-10.1196
▁གཅིག་པུ	-10.1238
▁མདོར་བསྡུས་	-10.1242
▁ཉེ	-10.1244
▁རམ་	-10.1246
▁མདངས་	-10.1248
▁ལེགས་པ་	-10.1248
▁ཆོས་འབྱུང་	-10.1262
▁རཱི་	-10.1274
▁བཟླས་བརྗོད་	-10.1286
▁རྒྱུ་མ་	-10.129
▁བསགས་པ་	-10.1294
▁སེང་	-10.1297
▁མངོན་ཤེས་	-10.1304
▁ཐུར་	-10.1312
▁རྣམ་རྒྱལ་	-10.1316
▁སྟོད་	-10.1329
▁གཟིགས་པ	-10.1335
▁རྒྱལ་སྲིད་	-10.1335
▁ཉེ་བ་	-10.1338
▁འགོད་པ	-10.1341
▁གིར་	-10.1353
▁ཨ	-10.1356
▁མྱང་འདས་	-10.1357
▁བྱང་ཕྱོགས་	-10.1359
▁མི་མཐུན་པ་	-10.1363
▁འདེབས་པ	-10.1365
▁བས	-10.1385
▁ལྷོ	-10.1391
▁མངའ་བ	-10.1396
▁རྣམ་གྲོལ་	-10.14
▁དྲུག་པོ་	-10.1403
▁ཐར་	-10.1414
▁དྲིལ་	-10.1418
▁ལཱ་	-10.142
▁ཚན་	-10.1424
▁ས་བཅུ་	-10.1435
▁རྒྱ་ཆེན་པོ་	-10.1438
▁ལ་ཉེ་	-10.1447
▁ཁྱི་	-10.1449
▁སྦྱིན	-10.1451
▁གཤེགས	-10.1455
▁འབྱིན་པ་	-10.1456
▁།_༈_།	-10.1464
▁སྣོད་བཅུད་	-10.1466
▁རམ	-10.1467
▁རང་སེམས་	-10.1468
▁སྒྱུར་བ	-10.1468
▁ཀཽ་ཤི་ཀ་	-10.1478
▁མ་ཟད་	-10.1488
▁གྲི་གུག་	-10.1499
▁ཐོད་	-10.1499
▁སྔོན་འགྲོ་	-10.1503
▁གདམས་པ	-10.1511
▁ངེས་དོན་	-10.1517
▁གོམས་པ་	-10.152
▁ཐག་པ་	-10.1533
▁མཉན་	-10.1534
▁ལུས་ཅན་	-10.1566
▁མན་	-10.1567
▁ལན་ཅིག་	-10.1567
▁སྤུ་	-10.1571
▁གཙོ	-10.1577
▁དཔྱད་པ་	-10.1584
▁དགྱེས་	-10.1592
▁རགས་པ་	-10.1593
▁མཐར་ཐུག་པ	-10.1598
▁འོག་མིན་	-10.1615
▁འབབ་པ	-10.1617
▁དབུལ་བ	-10.1618
▁མ་མོ་	-10.1624
▁ཕ་མ་	-10.1636
▁གྲྭ་	-10.1638
▁ཐམས་ཅད་_	-10.165
▁སྐྱེད་པ་	-10.1652
▁འཚོ་བ་	-10.1661
▁སྔ་	-10.1667
▁དམན་པ	-10.1682
▁སྟ་གོན་	-10.1682
▁གླང་	-10.1683
▁སྒོར་	-10.1684
▁སྡུག་བསྔལ་བ་	-10.1692
▁སྡིག་	-10.1698
▁བདག་མེད་པ་	-10.1703
▁ཞེ་	-10.1725
▁འབྲལ་	-10.1728
▁ཕྲད་	-10.173
▁རིམ་བཞིན་	-10.1748
▁རི་མོ་	-10.1752
▁དགག་	-10.1753
▁ཐབས་ཤེས་	-10.176
▁བྲིས་པ་	-10.1762
▁དགག་བྱ་	-10.1781
▁ཀུན་བཟང་	-10.1784
▁དྲང་	-10.1784
▁སྡིག་སྒྲིབ་	-10.179
▁ཆུང་ངུ	-10.1792
▁བསོད་སྙོམས་	-10.1793
▁གྲངས་མེད་	-10.1794
▁མངོན་པ་	-10.1795
▁ཤེ་ན	-10.1801
▁ཕུན་ཚོགས་	-10.1805
▁སྔར་བཞིན་	-10.1817
▁ཆུང་བ	-10.182
▁རི་བོང་	-10.1842
▁དྷཱུ་	-10.1844
▁འདི་_	-10.1844
▁མ་རིག་	-10.1846
▁ངན་པ	-10.186
▁གཅིག་ཉིད་	-10.1863
▁འཆར་བ	-10.1864
▁དང་ཁ་	-10.1881
▁ཁོངས་	-10.1889
▁སློབ་པ	-10.1906
▁དྲངས	-10.1915
▁ཛ	-10.1926
▁ཐོས་བསམ་	-10.1933
▁ལྷོ་ཕྱོགས་	-10.1948
▁བཙལ་	-10.1974
▁ཙནྡན་	-10.1974
▁སྤྲུལ་སྐུ་	-10.1977
▁འགའ་	-10.1986
▁རིང་པོ་	-10.1989
▁ཧཾ་	-10.2006
▁བཀང་	-10.2007
▁རྒྱུ་ལ་	-10.2017
▁བཟངས་	-10.2028
▁སུ་ཞིག་	-10.2031
▁བུར་	-10.2036
▁སྣ་ཚོགས་པ་	-10.2036
▁བྲལ	-10.2037
▁འཐོབ་	-10.2066
▁ཅད་	-10.2088
▁དཔྱོད་པ་	-10.2092
▁དཔལ	-10.21
▁ཟབ་པ་	-10.2109
▁ཟན་	-10.2115
▁བྱེ་	-10.2123
▁བརྩོན་པ་	-10.2125
▁སྒོ	-10.213
▁དཔྲལ་བ	-10.2136
▁འཕྲལ་	-10.2143
▁དྲ་བ་	-10.2149
▁ཁྲོ	-10.215
▁འོངས་པ་	-10.2151
▁ཕྱིར་_	-10.2158
▁གོ་རིམས་	-10.216
▁མགྲིན་པ་	-10.2163
▁ཚིམ་པ	-10.2163
▁མི་བསྐྱོད་པ	-10.2165
▁བརྗོད་བྱ	-10.2168
▁སྭཱཧཱ	-10.2168
▁བློན་པོ་	-10.2181
▁ཤི་བ	-10.2184
▁རྣམ་མཁྱེན་	-10.2195
▁འབར	-10.22
▁མ་ངེས་པ	-10.2207
▁ཡངས་	-10.2214
▁བྱོན་པ	-10.2215
▁གཅིག	-10.222
▁ཡཾ་	-10.222
▁གཉུག་	-10.2233
▁བསམས་པ	-10.2236
▁བཟའ་བ	-10.225
▁དུས	-10.2273
▁གང་_	-10.2279
▁མཆོད་སྦྱིན་	-10.2281
▁སྐྱིལ་ཀྲུང་	-10.2281
▁10000240	-10.2283
▁ཚ་བ་	-10.229
▁ཏུ་_	-10.2316
▁དངུལ་	-10.2329
▁འདུ་བ་	-10.2331
▁མཁའ་སྤྱོད་	-10.2334
▁རང་དོན་	-10.2335
▁འཚང་རྒྱ་བ	-10.2339
▁ལགས་པ	-10.2342
▁སྒྲུབ་པ་པོ་	-10.2346
▁བཀུག་	-10.2351
▁བཙུན་མོ་	-10.2363
▁གདབ་པ་	-10.2379
▁བསད་	-10.239
▁ཕྱིར་དུ་	-10.2391
▁རེད	-10.2399
▁བྱ་_	-10.2404
▁ཕྱིར་ཡང་	-10.2407
▁ཞུས་པ་	-10.2411
▁སྒྲོན་མ་	-10.2416
▁ཊཱི་	-10.2418
▁༑	-10.2424
▁འདོན་པ་	-10.2434
▁དགུང་ལོ་	-10.2435
▁བཞེད་པ	-10.2439
▁སྟབས་	-10.2441
▁དེ་བཞིན་_	-10.2452
▁རི་བོ་	-10.2453
▁ཨོ་རྒྱན་	-10.2458
▁འདྲེས་	-10.2467
▁ཧུ་	-10.2469
▁དི་	-10.2473
▁རེ་བ་	-10.2474
▁༴_།	-10.2479
▁དམག་	-10.2481
▁བསྐྱོད་	-10.2481
▁བརླབ་	-10.2489
▁ལ་བ	-10.2493
▁མགོ་བོ་	-10.2496
▁བཀོད	-10.2499
▁ཐོགས་པ	-10.2504
▁ཁབ་	-10.2507
▁འོད་འཕྲོ	-10.2514
▁ཧྲཱི	-10.2527
▁ཌཱ་ཀི་	-10.254
▁བརྩོན་	-10.2554
▁སྤྲོ་བ	-10.2558
▁རྩོལ་བ་	-10.2561
▁གདངས་	-10.2569
▁ཤ	-10.2569
▁ཚེ་རབས་	-10.2572
▁བསྣམས	-10.2579
▁ཆོས་_	-10.2585
▁ཐ་མལ་	-10.2585
▁ཁྱིམ་པ་	-10.2591
▁དུ་ཡོད་པ་	-10.2591
▁ཞུགས	-10.2591
▁སྔ་ཕྱི་	-10.26
▁ཉིན་མཚན་	-10.2606
▁སྲང་	-10.2613
▁མཐའ་ཡས་པ་	-10.2622
▁ཚོལ་	-10.2624
▁སྒྲོ་འདོགས་	-10.2628
▁རྡུལ་ཕྲན་	-10.2639
▁ལྡང་	-10.2642
▁ཆོས་སྟོན་	-10.2643
▁བྲིས་པ	-10.2645
▁བཙན་	-10.2653
▁ལེ	-10.2653
▁སྤོབས་པ་	-10.268
▁ཇོ་བོ་	-10.2682
▁འགག་པ	-10.2685
▁དེ་དེ	-10.2686
▁བཅིངས་པ་	-10.2722
▁ས་ཕྱོགས་	-10.2731
▁ཇི་སྙེད་པ་	-10.2733
▁བསྔོ་བ	-10.2734
▁ཙི་	-10.2735
▁སླ	-10.2735
▁དམན་	-10.2742
▁བཏང་བ་	-10.2743
▁སྙིང་ག་	-10.2743
▁ཛྭ་	-10.2749
▁གཞན་དབང་	-10.2762
▁འབད་པ་	-10.2787
▁འགའ་ཡང་	-10.279
▁ཤེས་བཞིན་	-10.2804
▁གོ་བ་	-10.2809
▁རླབས་	-10.2815
▁རྩོད་པ	-10.2829
▁ཕུར་	-10.2836
▁ན་བཟའ་	-10.2846
▁ཧོ་	-10.2846
▁ཞལ་སྔ་	-10.285
▁གློག་	-10.2853
▁ངར་	-10.2866
▁སྙིང་ཁ	-10.2867
▁ཧོཿ	-10.2868
▁མཆེ་བ་	-10.2872
▁བསྐུལ་བ་	-10.288
▁ལེགས་བཤད་	-10.2881
▁གཞུང་ལུགས་	-10.2882
▁མཆོད་བསྟོད་	-10.2882
▁གཽ་	-10.2885
▁དང་བ་	-10.2888
▁དྲ་	-10.2889
▁དྷརྨ་	-10.2891
▁མོས་གུས་	-10.2901
▁གཅིག_	-10.2908
▁དཔག་པ	-10.2914
▁གང་དེ་	-10.2916
▁ལས་འབྲས་	-10.2922
▁ཐད་	-10.2924
▁གུས་	-10.293
▁ལག་ལེན་	-10.2931
▁མཁར་	-10.2932
▁བྲག་	-10.2938
▁བྱམས་	-10.2944
▁རྐང་པ	-10.2955
▁བུདྡྷ་	-10.297
▁མཆིས	-10.297
▁ཡིད་ཆེས་པ	-10.2975
▁དགོན་པ་	-10.2976
▁བརླབ་པ	-10.2985
▁ཀེ་	-10.2992
▁འབུལ་བ	-10.2997
▁དྲིས་པ	-10.3002
▁བསང་	-10.301
▁ནད་པ་	-10.3027
▁རྗེས་ཐོབ་	-10.3028
▁རྣམ་འགྲེལ་	-10.3034
▁བསྔོ	-10.3041
▁གཞན་སེལ་	-10.3052
▁ཤིག_	-10.3062
▁འགྱུར་_	-10.3063
▁བསྣམས་པ	-10.3067
▁མཚོན་པ་	-10.3068
▁སུ་_	-10.3092
▁རྒྱལ་མཚན	-10.3096
▁ཐིམ་	-10.3097
▁ཁཾ་	-10.3099
▁ལགས་པ་	-10.3099
▁བད་ཀན་	-10.3101
▁ཤེར་ཕྱིན་	-10.3104
▁ཞོ་	-10.3108
▁ལས་བྱང་	-10.3113
▁བརྒྱད་པོ་	-10.3119
▁དགྲ་བཅོམ་	-10.312
▁སེར་པོ	-10.3146
▁དཔའ་	-10.3149
▁རྟ་མགྲིན་	-10.3153
▁བསགས་	-10.3158
▁།།_།།_	-10.3164
▁ཤཱཀྱའི་	-10.3174
▁དུམ་བུ་	-10.3175
▁བོད་སྐད་	-10.3182
▁བསྒོམས་པ་	-10.3185
▁བཅུ་པོ་	-10.3188
▁སོར་མོ་	-10.3191
▁ཕོ་	-10.3193
▁ཆོད་པ	-10.3195
▁དཀར་མོ་	-10.3197
▁དྲི	-10.3197
▁མཉེས་	-10.3201
▁བསྙེན་	-10.3206
▁དབུལ་	-10.3228
▁ཚོད་	-10.3238
▁མཆི	-10.3241
▁ཧཱུྂ་	-10.3244
▁ཏིཥྛ་	-10.325
▁རཀྵ་	-10.3256
▁མདུན་བསྐྱེད་	-10.3262
▁རྒྱལ	-10.3262
▁བྱོན	-10.3275
▁འགོད་	-10.3282
▁བབ་	-10.3289
▁དམྱིགས་པ	-10.3292
▁རིགས་ཅན་	-10.3296
▁ཀུན་སློང་	-10.3312
▁ཚང་བ་	-10.3312
▁འོས་པ་	-10.3315
▁རྩོལ་	-10.3317
▁མེད་_	-10.3319
▁ཁྲིམས་	-10.3323
▁གྲངས་མེད་པ་	-10.3323
▁དགོད་པ་	-10.3324
▁ཐར་བ	-10.3328
▁མ་མ་	-10.3339
▁རྩ་རྒྱུད་	-10.3348
▁ཞ_	-10.335
▁བརྐྱང་	-10.3359
▁འཁྲུལ་བ	-10.3363
▁དཔོན་	-10.3366
▁ཕྱེ་མ་	-10.3383
▁ཁྲག་ཁྲིག་	-10.339
▁བྱང་བ	-10.3394
▁རོལ་པ་	-10.3397
▁བརླབས་པ་	-10.3425
▁དགེ	-10.3433
▁དཀའ་ཐུབ་	-10.3446
▁དྲིས་	-10.3448
▁པཾ་	-10.3454
▁ཕབ་	-10.3459
▁ཆུད་པ་	-10.3477
▁སྦོམ་པོ	-10.3479
▁སྙན་པ	-10.3485
▁ལ་ཚད་	-10.3488
▁སྒྱུ་འཕྲུལ་	-10.3488
▁མང་བ	-10.349
▁ཝ	-10.349
▁རྒྱུ་རྐྱེན་	-10.3495
▁བྱང་ཆུབ་_	-10.3504
▁མ་ངེས་པ་	-10.3504
▁ཐུང་	-10.3508
▁འཚལ་བ	-10.3531
▁རིམས་	-10.3533
▁ཨུཏྤལ་	-10.3535
▁གསོལ་འདེབས་	-10.3547
▁རྣམ་_	-10.3547
▁དྲེགས་པ་	-10.3551
▁ཟངས་	-10.3554
▁ཨཾ་	-10.3561
▁དུ་ཡོད་	-10.3563
▁རྨད་	-10.3578
▁འཆར་བ་	-10.3582
▁བརྒྱད་ཅུ་	-10.3592
▁རྒྱ་ཆེ་བ	-10.3597
▁བུ་ག་	-10.361
▁མང་བ་	-10.3614
▁རོལ་མོ	-10.362
▁གསོལ་པ་	-10.3624
▁གུས་པ་	-10.3625
▁ཚིག་དོན་	-10.3625
▁གྲོལ	-10.3626
▁ཁྱེད་ཅག་	-10.3653
▁མཆོད་ཡོན་	-10.3653
▁ལོངས་སྤྱོད་པ	-10.3665
▁བསྲེགས་	-10.3672
▁རིང་པོ	-10.3676
▁ཕག་	-10.3678
▁བཤགས	-10.3678
▁དེང་སང་	-10.368
▁ནུས	-10.3692
▁།_༈_	-10.3694
▁དབེན་	-10.3694
▁ལོང་	-10.3701
▁འཕོ་	-10.371
▁བདག་གཞན་	-10.3718
▁ཟ	-10.3721
▁ནན་	-10.3728
▁སྤེལ་བ	-10.3734
▁འཁོད་	-10.3738
▁ཡེ	-10.3741
▁བཅུ་པ	-10.3752
▁ཉེར་ལེན་	-10.3756
▁བཞིན་པ	-10.3756
▁མགྲོན་	-10.3758
▁ཅང་	-10.3763
▁དགེ་ལེགས་	-10.3777
▁ཡེ་ནས་	-10.378
▁སུམ་ཅུ་རྩ་གཉིས་	-10.378
▁གྱིས་_	-10.3781
▁ཉན་པ	-10.3782
▁ཡི་དྭགས་	-10.3785
▁སྒྲ་དོན་	-10.3791
▁བྱིས་པ	-10.3794
▁རྩོད་	-10.3794
▁དགྲ་བོ་	-10.3798
▁རྨོངས་	-10.3816
▁སྦྱང་བ	-10.3828
▁བྱོན་པ་	-10.3833
▁༔	-10.3845
▁ཡི་དགས་	-10.3845
▁རྩོམ་པ་	-10.3846
▁གདགས་པ	-10.3849
▁ཟླ	-10.3857
▁དུ་ཡོད་པ	-10.3858
▁ཆགས་བྲལ་	-10.3861
▁ཕྲད་པ་	-10.3861
▁བཤགས་པ	-10.3867
▁ལྟ	-10.3874
▁གཟིགས་པ་	-10.3879
▁ཟང་ཟིང་	-10.3882
▁འདས	-10.3896
▁རུས་པ	-10.3904
▁ལ་སོགས	-10.3905
▁གཏུམ་མོ་	-10.3909
▁གནང་བ	-10.3912
▁ཕྱོགས་པ	-10.3928
▁སྡེ་པ་	-10.3934
▁ལང་	-10.3935
▁རང་རྒྱལ་	-10.3941
▁ཕུག་	-10.3953
▁ལི	-10.3953
▁ཁ་ན་མ་ཐོ་བ་	-10.3971
▁ཀར་	-10.3979
▁ཛཱ་	-10.3984
▁པཎ་ཆེན་	-10.3986
▁མཚན་པ་	-10.4004
▁བསྟེན་པ་	-10.4008
▁བཟླ	-10.4028
▁ག་ལ་བ་	-10.4034
▁བཞིན་པ་	-10.404
▁ལ་སོ་	-10.4043
▁དྲི་བ་	-10.405
▁པཉྩ་	-10.4055
▁མཐར་ཐུག་པ་	-10.406
▁སྦྱོར་ལམ་	-10.4066
▁དབབ་པ	-10.4068
▁མུ་ཏིག་	-10.407
▁སྡུད་པ་	-10.4071
▁ལ་དུ	-10.4076
▁དམ་ཅན་	-10.4079
▁འཇུག	-10.4088
▁བདེ་ལེགས་	-10.4095
▁འཁྲུགས་པ	-10.4102
▁སེམས་བསྐྱེད་པ	-10.4118
▁རྩྭ་	-10.4126
▁བླང་བ་	-10.4127
▁འཆིང་བ་	-10.4127
▁གླེགས་བམ་	-10.4129
▁ཁས་ལེན་པ་	-10.413
▁སྡུག་པ	-10.4131
▁ཡང་ན	-10.4137
▁རིགས	-10.4142
▁དོར་བ་	-10.4146
▁བསྒྱུར	-10.4147
▁པད་མ་	-10.4151
▁འདོགས་	-10.4164
▁ཉེས་དམིགས་	-10.4176
▁མི་གཡོ་བ	-10.4177
▁འཚལ་བ་	-10.4181
▁ཞིག	-10.4191
▁གཟིགས	-10.4193
▁རཀྟ་	-10.4196
▁མངའ་བདག་	-10.4216
▁ལིང་	-10.4218
▁ཅིག_	-10.4219
▁ངེས་ཤེས་	-10.4225
▁བློ་ལྡན་	-10.4225
▁འགགས་པ་	-10.4226
▁ཕར་	-10.4231
▁བུད་ཤིང་	-10.4234
▁གཟུགས	-10.4244
▁ལུས་སེམས་	-10.4249
▁ཀྱང་_	-10.4256
▁དབང་ཆེན་	-10.4265
▁དབབ་པ་	-10.4267
▁དཔོན་སློབ་	-10.4268
▁ཕམ་པ་	-10.4272
▁དོར་བ	-10.4275
▁ཕུར་བུ་	-10.4275
▁སྟེར་	-10.4275
▁།།_༈_།།	-10.4287
▁མི་བསྐྱོད་པ་	-10.4291
▁སྦྱིན་བདག་	-10.431
▁སྲུང་བ་	-10.4331
▁དཀར་དམར་	-10.4334
▁ཀྱཻ་	-10.4341
▁བླང་དོར་	-10.435
▁མཚོན་བྱ་	-10.4354
▁བྱིངས་	-10.4357
▁ཉན་པ་	-10.436
▁དུད་འགྲོ་	-10.4364
▁བབ་པ	-10.4364
▁བསླབ་	-10.4374
▁ཉུང་	-10.4381
▁མཛུབ་མོ་	-10.4387
▁མུ་ཁྱུད་	-10.4393
▁ལེའུ	-10.4393
▁འབེབས་	-10.4396
▁འབྲལ་བ	-10.4401
▁ཀྱེ་མ་	-10.4405
▁སེར་སྣ་	-10.4405
▁ཡིད་འོང་	-10.4416
▁ཁྲོད་	-10.4419
▁ཐབ་	-10.4425
▁ཀ་བ་	-10.4429
▁ཁུར་	-10.4437
▁ལོ་མ་	-10.4439
▁བགྱིད་པ་	-10.4451
▁དོན་མེད་པ	-10.4461
▁བདག་བསྐྱེད་	-10.4465
▁རྨ་	-10.4471
▁ལོ་རྒྱུས་	-10.4472
▁གིས་_	-10.4473
▁དབུ་རྒྱན་	-10.4487
▁རྐྱང་	-10.4497
▁སེམས་བྱུང་	-10.4507
▁འགྱུར་མེད་	-10.4511
▁ཐུག་པ་	-10.4514
▁ཕྲད་པ	-10.4518
▁ཆུབ་	-10.4528
▁སྟེར་བ	-10.4531
▁བམ་པོ་	-10.4542
▁༢་	-10.4547
▁རེས་འགའ་	-10.4549
▁ཅིའི་སླད་དུ་	-10.4552
▁འཐུང་	-10.4554
▁ཤ་ཁྲག་	-10.4559
▁དཔྱོད་པ	-10.4566
▁ཙཀྲ་	-10.4567
▁མ་འོངས་	-10.4571
▁གྲུབ་ཐོབ་	-10.4581
▁ཇི་ལྟ་བུ	-10.459
▁ཆ་ལུགས་	-10.4591
▁བདུན	-10.4602
▁གྲུ་གསུམ་	-10.4604
▁ཨཱཿ_	-10.4608
▁སྦྱང་བ་	-10.4609
▁མཉམ་ཉིད་	-10.4618
▁མཁན་ཆེན་	-10.4621
▁སྦྲང་རྩི་	-10.463
▁དགོན་པ	-10.4633
▁ཇེ་	-10.4636
▁བཏུད་	-10.4636
▁དྲི་མ	-10.4646
▁ཐོད་ཕྲེང་	-10.4647
▁ཡིད་ཆེས་	-10.4656
▁སྤྱི་གཙུག་	-10.4672
▁ལུག་	-10.4673
▁ཡངས་པ	-10.4686
▁བཀུར་སྟི་	-10.4687
▁སྐྱབས་འགྲོ་	-10.469
▁དུ་བ	-10.4697
▁བརྒྱ་པ་	-10.4699
▁སྦྱོར	-10.4699
▁བྷྱོ	-10.47
▁རིན་	-10.4704
▁མི་ལ་	-10.4707
▁ཁྱབ་བྱེད་	-10.4713
▁ཕྲ་	-10.4726
▁མངོན་གྱུར་	-10.4726
▁བསྐུར	-10.473
▁ཡངས་པ་	-10.4733
▁རྒྱལ་རིགས་	-10.4736
▁ཤོ་	-10.4736
▁གཉིས་_	-10.4753
▁བཏབ	-10.4754
▁ཊྭཱཾ་	-10.4759
▁གཉེར་	-10.4763
▁སྡོད་	-10.4766
▁འདོན་པ	-10.4767
▁གསུང་བ	-10.477
▁བགྲོད་པ	-10.4771
▁འཚང་	-10.478
▁གྱུར་ཅིག_	-10.4789
▁བཅིངས་པ	-10.479
▁བཅོ་ལྔ་	-10.4793
▁སྦྱངས་པ་	-10.4793
▁དྲིན་	-10.4794
▁བལྟས་པ	-10.4794
▁བཏུང་བ་	-10.4797
▁ནུབ་ཕྱོགས་	-10.4802
▁རྣམ་བཤད་	-10.4806
▁བར་དོ་	-10.4807
▁ནེ་	-10.4815
▁གཏང་	-10.4823
▁བར་དོ	-10.4828
▁ཕྱོགས་མཚམས་	-10.4835
▁ལིཾ་	-10.4835
▁ཕུལ་བ་	-10.4838
▁གནས་_	-10.4843
▁ཅི་རིགས་པ	-10.4846
▁དབྱུང་བ	-10.4846
▁ལྷ་མིན་	-10.4851
▁ས་སྐྱ་པ་	-10.4852
▁བསྐྱེད་རྫོགས་	-10.4854
▁སྡེ་བརྒྱད་	-10.4859
▁ལྟུང་	-10.4862
▁སད་	-10.4865
▁འཁྲུགས་	-10.4871
▁༔__	-10.4901
▁ཧྲཱིཿ_	-10.4903
▁ཁ་སྦྱོར་	-10.4916
▁སྡེ་ཚན་	-10.4916
▁ཁྲག་འཐུང་	-10.4932
▁བཙུགས་	-10.4932
▁མཉམ་བཞག་	-10.4933
▁རྡུལ་ཚོན་	-10.4947
▁རྗེས་ཟློས་	-10.4948
▁ཞིང	-10.4955
▁བྷུ་	-10.496
▁ཕྲ་བ	-10.4971
▁དྲང་བ	-10.4979
▁དཔེ་བྱད་	-10.498
▁ཟོར་	-10.4987
▁ལཾ་	-10.4989
▁གཡང་	-10.4995
▁བར་སྣང་	-10.4996
▁ཅིག་ཤོས་	-10.5001
▁མཚུངས་ལྡན་	-10.5001
▁སངས་རྒྱས་པ་	-10.5008
▁ཏིལ་	-10.5026
▁རྔ་	-10.5026
▁རྩོམ་པ	-10.5026
▁ཡོ་	-10.503
▁བཤམས་	-10.5043
▁ཕབ་པ	-10.5046
▁ལོག་རྟོག་	-10.5049
▁ཁྲི	-10.5051
▁ཡ་མ་	-10.5052
▁བྱ་བ་_	-10.5054
▁འགྲམ་	-10.5054
▁འཕེན་	-10.506
▁ཀ་ལ་	-10.5067
▁བདག་_	-10.5067
▁གསོད་པ	-10.5068
▁འཁྲུགས་པ་	-10.5076
▁བརྩེགས་	-10.5082
▁བྷཱུ་	-10.5105
▁ལྟ་ཅི་	-10.511
▁སྲིན་པོ་	-10.5111
▁ཉིད་_	-10.5117
▁ལྕགས་ཀྱུ	-10.5131
▁ཤར	-10.5138
▁ས་འོག་	-10.5144
▁ཉམས་མྱོང་	-10.5145
▁ངོ་ཚ་	-10.515
▁མཐིང་ནག་	-10.515
▁ན་བ	-10.5151
▁རྒྱུ་སྐར་	-10.5151
▁གྲུབ་ཆེན་	-10.5156
▁རྣམ་དབྱེ་	-10.5159
▁སྐུ་གཟུགས་	-10.516
▁ཆོས་འཁོར་	-10.5162
▁དེ་དུས་	-10.5163
▁སྒྲོལ་	-10.5165
▁མཐོ་	-10.5169
▁མ་ནིང་	-10.5171
▁འདུག	-10.5178
▁ཀུན་གཞི	-10.518
▁དག་_	-10.518
▁ཕུར་པ་	-10.5181
▁མ་གཏོགས་པ་	-10.5184
▁རང་སྣང་	-10.5186
▁ཏཱིཙྪ་	-10.5189
▁བ་དན་	-10.5204
▁སྲེད་	-10.5205
▁ཛི་	-10.5229
▁འཚེ་བ་	-10.5231
▁བཤགས་པ་	-10.5244
▁མཆེད་	-10.5244
▁ལོངས་སྐུ་	-10.5249
▁གཙང་མ	-10.5255
▁ཌ་	-10.5255
▁ལྡང་བ	-10.5261
▁ཀོ་	-10.5262
▁གནས་ཚུལ་	-10.527
▁ནུབ་པ	-10.527
▁ཤེས་བྱེད་	-10.5273
▁ཏོག་	-10.5276
▁ཆོས་མཆོག་	-10.528
▁ལྔ་ལྡན་	-10.5286
▁ལྷས་	-10.5286
▁ཁྱད་ཆོས་	-10.5288
▁གཞན་_	-10.5299
▁དྲངས་པ་	-10.532
▁མུན་པ	-10.532
▁གྲོགས་པོ་	-10.533
▁བསྐུལ	-10.5336
▁སེམས་མ་	-10.5339
▁གཞལ་	-10.5344
▁འབེབས་པ	-10.5344
▁ཅི	-10.5345
▁སྨོན་	-10.5352
▁དགུ་པ	-10.5356
▁ཙམ	-10.5358
▁སྒྱུར་	-10.5358
▁མངོན་པ	-10.5362
▁གདགས་	-10.5365
▁པོ	-10.5368
▁བགྱིས་པ	-10.5373
▁བརླབ་པ་	-10.5379
▁འཕེལ	-10.5384
▁རྩིས་	-10.5387
▁མིང་ཅན་	-10.539
▁ཤཱ་	-10.539
▁སྤྱི་དོན་	-10.5396
▁སྦྱོང་བ་	-10.5403
▁སོ་ཐར་	-10.5409
▁དྷུ་	-10.5411
▁སྒྲ་གཅན་	-10.5413
▁ཟབ་པ	-10.5432
▁འཚོ་	-10.5436
▁ཅིས་	-10.5449
▁དོག་	-10.546
▁དབུལ	-10.5465
▁འཕྲོ་བ	-10.5472
▁གནས་མ་	-10.5475
▁འཆི་བདག་	-10.5482
▁ཐོན་	-10.5483
▁ལ་སོགས་_	-10.5495
▁ལྡིང་	-10.5497
▁རྩོམ་	-10.5503
▁བསྙེན་སྒྲུབ་	-10.5509
▁འདའ་བ་	-10.5517
▁ཕམ་	-10.5533
▁རབ་རིབ་	-10.5539
▁ཐཱ	-10.5546
▁ཞིབ་	-10.5565
▁ཤུལ་	-10.5582
▁སྒྲོལ་མ	-10.5595
▁ཞལ་ཟས་	-10.5602
▁ལྟས་	-10.5602
▁མཐིལ་	-10.5606
▁གྲུབ་བོ	-10.561
▁རུས་པ་	-10.5612
▁ཚོམ་བུ་	-10.5613
▁སྲོལ་	-10.562
▁ངང་ཚུལ་	-10.5623
▁ཆེ་གེ་མོ་	-10.5624
▁གུ་རུ	-10.5627
▁བཀ	-10.5629
▁རེས་	-10.5635
▁སྐྱོང་བ	-10.5637
▁ཨརྒྷཾ་	-10.5638
▁དགའ་ལྡན་	-10.5643
▁བྱང་བ་	-10.5643
▁ྃ	-10.5654
▁དཔའ་བོ	-10.5656
▁རལ་གྲི	-10.5656
▁དངོས	-10.5662
▁ལས་དོན་	-10.5662
▁རྣམ་འགྱུར་	-10.5665
▁ཤུ་	-10.5667
▁མི་འཆད་པ	-10.5673
▁དེས་ན	-10.5679
▁ཡན་	-10.5693
▁གདུག་པ	-10.5701
▁འགོད་པ་	-10.5701
▁གཏད་པ	-10.5704
▁འཁྱུད་པ	-10.5706
▁དེ་དོན་	-10.5718
▁འགྱོད་པ་	-10.5733
▁རྒྱ་ཆེ་བ་	-10.5739
▁གནོན་པ	-10.5753
▁འབྲང་བ	-10.5755
▁སྐུར་པ་	-10.5774
▁སྲུང་མ་	-10.5774
▁བགྱིས་པ་	-10.5777
▁རྒོལ་བ	-10.5782
▁བྱེད་_	-10.5783
▁བཟོ་	-10.579
▁ཕྱག་ལེན་	-10.5815
▁གླང་པོ་ཆེ་	-10.5828
▁འགྲོ་དོན་	-10.5833
▁རྫོང་	-10.5833
▁སྲེད་པ	-10.5837
▁དབང་ལྡན་	-10.5852
▁ལྗང་	-10.5853
▁རི་དྭགས་	-10.5858
▁ཁོར་ཡུག་	-10.5861
▁སད་པ	-10.5866
▁མཚུངས	-10.5868
▁གླང་པོ་	-10.5874
▁མཐེ་བོང་	-10.5876
▁བརྙེས་པ	-10.5887
▁ཁས་ལེན་པ	-10.589
▁བགྲོད་	-10.5892
▁སྲུངས་	-10.5893
▁ཨཱ་ལི་	-10.5893
▁ཕྱིན་ཆད་	-10.5901
▁ཨོ་	-10.5901
▁གཞུ་	-10.5903
▁རིང་བ་	-10.5906
▁བཱི་	-10.5916
▁འབབ་པ་	-10.5922
▁ཉི་ཟླ	-10.5925
▁10000300	-10.5929
▁བརྩམས་པ་	-10.5932
▁འཇམ་	-10.5945
▁རོལ	-10.5946
▁འོད་གསལ་བ	-10.5956
▁རང་གྲོལ་	-10.5966
▁ཟློག་པ	-10.5967
▁རིག་མ་	-10.5967
▁བརྩེ་བ་	-10.5969
▁འཆིང་	-10.5971
▁འབྲངས་	-10.5977
▁མིག་ཤེས་	-10.5985
▁ཕོག་པ	-10.5987
▁མཉན་ཡོད་	-10.5992
▁ཀྲྀ་	-10.6
▁འད	-10.6001
▁ངེས	-10.6006
▁སློང་	-10.6011
▁དགག་སྒྲུབ་	-10.6013
▁འཕགས་མ་	-10.6019
▁རྒྱུད	-10.6019
▁བགྱི་བ	-10.6023
▁གཞན	-10.6037
▁བསྒོ་བ་	-10.6044
▁གུད་	-10.6045
▁གྲི་	-10.6068
▁བདེ་སྡུག་	-10.6071
▁ཁྲོས་པ	-10.6101
▁མངྒ་	-10.6101
▁སྦས་པ	-10.6111
▁ལྗགས་	-10.6121
▁མི་དགེ་	-10.6122
▁མཛེས	-10.6124
▁འཐུན་པ	-10.613
▁ནཱ་ག་	-10.6137
▁ལྷ་ཁང་	-10.6139
▁གཱའི་	-10.614
▁བལ་	-10.6142
▁མམ་	-10.6142
▁རིལ་བུ་	-10.6152
▁བབ་པ་	-10.6162
▁བཙུན་	-10.6163
▁བགྱིད་པ	-10.6175
▁ཕྱུང་བ་	-10.6178
▁འདའ་	-10.6186
▁ཡུན་	-10.6191
▁སྒྱུ་ལུས་	-10.62
▁བཅུ་བཞི་	-10.6205
▁ཚོ་	-10.6223
▁བསྒྲལ་བ	-10.6224
▁རྟོགས	-10.6231
▁དོགས་	-10.6236
▁བྲི་	-10.6236
▁ཐུག་	-10.6248
▁མཚན་ཉིད་པ་	-10.6249
▁ཐམས་_	-10.6253
▁བསྔགས་པ	-10.6253
▁བསྔོ་	-10.6253
▁སྐྱེད་བྱེད་	-10.6263
▁ལེ་ལོ་	-10.6264
▁གསོ་བ་	-10.6269
▁དགོད་	-10.6271
▁ཡུངས་ཀར་	-10.6271
▁ཞར་	-10.6274
▁སྐུ་གདུང་	-10.6276
▁དངོས་བསྟན་	-10.6279
▁འདོགས་པ་	-10.6279
▁སེམས་དཔའ་_	-10.6301
▁སྐྱོབ་པ	-10.6301
▁མནན་པ	-10.6304
▁སྒྲུབ་པ་པོ	-10.6308
▁དགྲ་བཅོམ་པ	-10.6309
▁ད	-10.6321
▁ར་བ	-10.6321
▁བཞག_	-10.6324
▁གདུང་བ་	-10.6328
▁བསྲེས་	-10.6328
▁སྐྱོང་བ་	-10.6336
▁འགྲོས་	-10.634
▁ཁྱབ་འཇུག་	-10.6345
▁ཀྱང	-10.6348
▁སྩོལ་	-10.635
▁བཅོམ་པ	-10.6351
▁མར་མེ	-10.6356
▁སྣམ་བུ་	-10.6358
▁གཡོས་	-10.6385
▁ཡིག་འབྲུ་	-10.6393
▁འཆང་བ་	-10.641
▁བསླུ་བ	-10.6415
▁སྙོམས་	-10.6422
▁གསུང་བ་	-10.6424
▁མྱུར་བ	-10.6425
▁དྲིལ་བུ	-10.6429
▁དགྲ	-10.6437
▁དཔལ་འབྱོར་	-10.6437
▁འཕེན་པ	-10.6437
▁མཐུ་སྟོབས་	-10.6439
▁སྤངས	-10.6439
▁འདོར་	-10.6441
▁རུས་	-10.6454
▁ལྷ་རྫས་	-10.6454
▁ཅེས	-10.6463
▁ཨཱཏྨ་	-10.647
▁གཏད	-10.6471
▁ད་ལྟ	-10.6471
▁ལྕི་བ་	-10.6473
▁ནགས་ཚལ་	-10.6475
▁གསོ་བ	-10.6476
▁བྱང་ཤར་	-10.6476
▁བྱུགས་	-10.6476
▁གཉན་	-10.6485
▁མཉན་པ	-10.649
▁བབས་པ	-10.6492
▁ཞགས་པ	-10.6493
▁བདུན་ཅུ་	-10.6497
▁འཇིག་ཚོགས་	-10.6497
▁སངས་རྒྱས	-10.6502
▁མི་འདོད་པ	-10.6505
▁སྩལ་པ་	-10.6505
▁གྲང་	-10.6507
▁གཞལ་མེད་	-10.651
▁མི་རིགས་པ	-10.6519
▁ཕུད་	-10.6524
▁དབྱུག་པ་	-10.6529
▁ལྐོག་	-10.6533
▁བཙུན་མོ	-10.6534
▁འོངས་པ	-10.6543
▁མ་ཚང་བ་	-10.6545
▁ཁྲོ་བ་	-10.6548
▁ས་ར་	-10.655
▁ད་དུང་	-10.6557
▁དྲི་ཟ	-10.6558
▁བསྩལ་	-10.6567
▁འཁོར་གསུམ་	-10.6567
▁རྒོད་	-10.657
▁དོན་_	-10.6572
▁སྟེང་འོག་	-10.6579
▁བསྟན་འཛིན་	-10.6581
▁ཆུ་ཚོད་	-10.6584
▁བཙལ་བ	-10.6584
▁གཉི་ག	-10.6603
▁བཅུག་པ་	-10.6603
▁པགས་པ་	-10.6608
▁བྃ་	-10.6617
▁ཆགས་སྡང་	-10.6622
▁གྲལ་	-10.6625
▁འཆང་བ	-10.6625
▁སྱ་	-10.6634
▁མཚོན་བྱེད་	-10.6643
▁མཐོང་སྤང་	-10.6648
▁ཚུན་ཆད་	-10.6648
▁དུས་འཁོར་	-10.6651
▁དོན་གྲུབ་	-10.6655
▁མི་ཟད་པ	-10.666
▁ལྗང་གུ་	-10.6663
▁ལྷུང་	-10.6677
▁ཉལ་བ	-10.6683
▁ལམ་ཤེས་	-10.6695
▁མ་ཚང་	-10.6707
▁གཞུག	-10.6714
▁ཚོར་	-10.6714
▁ཆོས་རྒྱལ་	-10.6721
▁རི་ཁྲོད་	-10.6735
▁ནུ་	-10.6736
▁འཚོ	-10.6736
▁གནམ་	-10.6738
▁དམ་རྫས་	-10.674
▁ས་སྐྱ	-10.6742
▁གཏོགས་	-10.6745
▁མ་ནུ	-10.6745
▁ས་སྐྱ་	-10.6745
▁རལ་པ་	-10.6749
▁ལོན་པ་	-10.675
▁ཤི	-10.6759
▁པར་མ་	-10.6771
▁སྐྲག་	-10.6771
▁བལྟ་བ་	-10.6775
▁༣་	-10.6778
▁དགོད	-10.6785
▁ལུང་བསྟན་པ་	-10.6803
▁འདི་ལྟར	-10.6808
▁མཁན་པོ	-10.681
▁བཟང་ངན་	-10.6814
▁ཡིན་མོད་	-10.6817
▁སྤྲུལ་སྐུ	-10.6819
▁ཁུངས་	-10.6821
▁ཤ་ཟ་	-10.6828
▁བསྔགས་	-10.6829
▁མཆུ་	-10.6833
▁དྭངས་མ་	-10.6836
▁ཀ་དག་	-10.6845
▁ཤི་བ་	-10.6863
▁ཁ་ཅིག_	-10.6868
▁ཏཱི་	-10.687
▁བཅུག་པ	-10.6882
▁གདུང་བ	-10.6886
▁བྷྲཱུྃ་	-10.69
▁ཕྲ་མོ	-10.6902
▁རྗོད་པ	-10.6902
▁རང་_	-10.6907
▁གྲུ་	-10.6909
▁འག	-10.6914
▁ཤེས་_	-10.6921
▁ཀྱིའོ	-10.6927
▁དཔག་བསམ་	-10.6934
▁ལྷོ་ནུབ་	-10.695
▁སང་	-10.695
▁ཕྱེད་པ	-10.6955
▁མཁས་གྲུབ་	-10.6957
▁མི་འདོད་པ་	-10.6959
▁འིའོ	-10.6959
▁སྣང་སྟོང་	-10.6959
▁མངའ་བ་	-10.6961
▁མི་ཕྱེད་པ	-10.6977
▁ཉི་ཤུ	-10.6984
▁གནོན་	-10.6987
▁དུད་འགྲོ	-10.6989
▁ཡུད་ཙམ་	-10.6989
▁མལ་	-10.6991
▁འབྲི་	-10.6991
▁བསླབ་བྱ་	-10.6995
▁ཙ	-10.7005
▁ལྗོན་ཤིང་	-10.7009
▁ས་བདག་	-10.7022
▁ལྟོས	-10.7023
▁དྲུག	-10.7032
▁རྒྱལ་ཆེན་	-10.7038
▁གངས་ཅན་	-10.7043
▁འབྱོར་པ	-10.7045
▁བསམས་པ་	-10.7049
▁དབུས	-10.7065
▁ཚོལ་བ་	-10.7068
▁རྦད་	-10.7074
▁སྐྱོབ་པ་	-10.7074
▁བ་མ་	-10.7077
▁ཐ	-10.7081
▁ཨ་ལས་	-10.709
▁སྔ་རོལ་	-10.7099
▁ཨཱ	-10.7099
▁འབབ་	-10.7114
▁འཁྲུལ་བ་	-10.7121
▁རིང་བ	-10.7124
▁ནི་སྒྲ་	-10.7126
▁ཐེག་དམན་	-10.7128
▁བཅའ་བ་	-10.713
▁གནོད་སེམས་	-10.7137
▁ཅིང	-10.7137
▁དགྲ་བོ	-10.7137
▁ཏདྱ་	-10.7139
▁སཏྭ་	-10.7139
▁བུ་མོ	-10.7141
▁འདི་འདྲ་	-10.7155
▁འབྲུག་	-10.7166
▁རྒྱལ་བུ་	-10.7172
▁འདྲེ་	-10.7181
▁བསམ་ཡས་	-10.7185
▁ཀཱ་ལི་	-10.7186
▁བྱིན་ལེན་	-10.7186
▁དེ་སྙེད་	-10.7194
▁ཐུན་མོང་བ་	-10.7199
▁གཉེར་བ་	-10.7201
▁དབུ་མ་པ་	-10.721
▁སྐར་མ་	-10.7212
▁འདུག_	-10.7214
▁འབྱུང་པོ	-10.7214
▁འཐོབ་པ་	-10.7228
▁ངེས་འབྱུང་	-10.723
▁ཀྵ་	-10.7256
▁ཞི	-10.7258
▁ལཾ	-10.7291
▁འདུན་པ	-10.7298
▁སྐྲག་པ	-10.73
▁བསྒོ་	-10.7311
▁ཐབས	-10.7313
▁མཚན	-10.7315
▁གོམས་	-10.7322
▁མཐིང་	-10.733
▁སྲུང་འཁོར་	-10.733
▁སེལ	-10.7333
▁གཞུག་པ་	-10.7343
▁རྫས་གཅིག་	-10.7348
▁སྡིག་ཅན་	-10.7352
▁དགག_	-10.7358
▁རིམ་གྲོ་	-10.7358
▁དབུ་སྐྲ་	-10.7361
▁བདུན་པོ་	-10.7387
▁ཕས་	-10.7395
▁གན་	-10.7402
▁ལོན་པ	-10.7404
▁འགྲིབ་པ་	-10.7408
▁འོས་པ	-10.7417
▁དབྱུང་	-10.7423
▁མཆིའོ	-10.7425
▁གདམས་	-10.7434
▁རྗེས་འགྲོ་	-10.7434
▁མདོ་སྡེ	-10.7438
▁ས་སྐྱ་པ	-10.7442
▁སྐོང་	-10.7443
▁མདོ་སྔགས་	-10.7447
▁བྱེད་ལས་	-10.7458
▁མ་ཎི་	-10.7458
▁འདོར་བ	-10.7458
▁ཆོས་སྟོན་པ	-10.7468
▁འདུ་ཤེས་པ་	-10.747
▁བསྟུན་	-10.7472
▁དབྱུག་	-10.7473
▁ཨ་བ་	-10.7477
▁སྨད་པ་	-10.7481
▁བཟའ་	-10.7487
▁སྔགས་པ	-10.7487
▁བཤམ	-10.7498
▁བསད་པ	-10.7498
▁གུང་	-10.75
▁ལྟོ་	-10.7509
▁ལ་མགོ་	-10.753
▁སྲོག་གཅོད་པ་	-10.7532
▁རང་ས	-10.7536
▁རྩི་	-10.7538
▁གཞི་ཤེས་	-10.7539
▁གཙོ་འཁོར་	-10.7541
▁དྲང་དོན་	-10.7541
▁རྒྱས	-10.7541
▁ཆུ་སྲིན་	-10.7549
▁སློང་བ	-10.7551
▁ཡལ་ག་	-10.7556
▁གཡོ་བ	-10.7558
▁ཐོ་	-10.7558
▁ཤཱི་	-10.7562
▁སྒྲོགས་	-10.7568
▁འཇོམས་པ་	-10.7575
▁ཁང་པ	-10.7579
▁དཀྱུས་	-10.7581
▁བགོས་	-10.7585
▁དྲིས་པ་	-10.7596
▁སྒྲོལ་བ	-10.7602
▁བྱེད་པ་པོ	-10.7604
▁སངས་རྒྱས་_	-10.7615
▁གཏིང་	-10.7631
▁སྒྱུར་བ་	-10.7634
▁ཀ་ལ	-10.764
▁ལ་ལུང་	-10.7642
▁བབ	-10.7646
▁ཞིག་པ་	-10.7654
▁བརྩེགས་པ་	-10.7663
▁དམར	-10.7667
▁ཚ་བ	-10.7667
▁ལྡང་བ་	-10.7667
▁གསོད་	-10.7669
▁འོག་མ	-10.7669
▁ཚིག་རྐང་	-10.7673
▁སྦྱང་གཞི་	-10.7678
▁བོ་	-10.7684
▁འཆིང་བ	-10.7688
▁བཏོན་	-10.769
▁ངན་འགྲོ	-10.7694
▁ཐིམ་པ་	-10.7694
▁དོན་གཉེར་	-10.7696
▁རྗེ	-10.7698
▁ལོངས་སྐུ	-10.7698
▁གླང་ཆེན་	-10.77
▁མི་གཡོ་བ་	-10.77
▁སྣུམ་	-10.7707
▁ནུབ་བྱང་	-10.7709
▁སྡིགས་མཛུབ་	-10.7721
▁ཆག་	-10.773
▁མངོན་སྤྱོད་	-10.7734
▁གྲ་	-10.7742
▁བཏུས་	-10.775
▁འདི་བཞིན་	-10.775
▁བཅད	-10.7752
▁སླུ་བ	-10.7754
▁ཉེ་དུ་	-10.7765
▁བཅོ་ལྔ	-10.7765
▁བྱང་ཆུབ་པ	-10.7767
▁བསད་པ་	-10.7769
▁སྐྱོ་བ་	-10.7769
▁བོགས་	-10.7773
▁པདྨོ་	-10.7777
▁ནན	-10.7786
▁ཕྱུག་	-10.7786
▁བསྒོ་བ	-10.7788
▁རྩ་ལྟུང་	-10.779
▁ལུས་པ་	-10.7796
▁གཙང་མ་	-10.7806
▁སྨད་པ	-10.7808
▁བཀྲ་ཤིས་ཤོག	-10.7812
▁མགུལ་	-10.7819
▁མགུ་བ	-10.7821
▁ཤིང་རྟ	-10.7825
▁འབྲིང་པོ་	-10.7831
▁འདམ་	-10.7845
▁འོད་གསལ་བ་	-10.786
▁བརྙེས་	-10.7862
▁མ་ལ	-10.7862
▁དེད་དཔོན་	-10.7866
▁ནད་གདོན་	-10.787
▁ཙན་དན་	-10.787
▁དེ་དག་_	-10.7874
▁བཟླ་	-10.7874
▁ཌཱ་	-10.7876
▁ཕུར་བུ	-10.7886
▁དག_	-10.789
▁སྔོན་འགྲོ	-10.7896
▁དགའ་སྟོན་	-10.7901
▁¡·_	-10.7905
▁པུས་མོ་	-10.7905
▁ནཻ་	-10.7907
▁འོད	-10.7911
▁རྣམ་འཕྲུལ་	-10.7911
▁གནམ་ལྕགས་	-10.7913
▁ལེགས	-10.7917
▁ཆོད་པ་	-10.7921
▁དོ་ཤལ་	-10.7927
▁བསྡུས	-10.7929
▁དོགས་པ	-10.7933
▁བརྩམས་པ	-10.7939
▁བཀའ་འགྱུར	-10.7943
▁གདན་ས་	-10.7945
▁དགའ	-10.7945
▁བཞེངས་པ	-10.7945
▁འདི་ཙམ་	-10.796
▁གྲུ་བཞི་	-10.7978
▁དཀའ	-10.7996
▁ཡུལ	-10.7998
▁སྦུབས་	-10.8
▁རྣམ་རིག་	-10.8002
▁གསུམ་_	-10.8008
▁ཕྱུགས་	-10.8008
▁ཕྱོགས་སྔ་	-10.8016
▁ཨ་ལ་	-10.802
▁དགག་དབྱེ་	-10.8026
▁ཤོས་	-10.8028
▁བྱ་རོག་	-10.803
▁བསྟིམ	-10.8034
▁གནས་མལ་	-10.8036
▁བཟད་	-10.8038
▁ཟིལ་གནོན་	-10.8046
▁ཁྱབ་བདག་	-10.8048
▁གླིང་པ	-10.8048
▁གསོ་	-10.805
▁བཞེས	-10.8056
▁ཁྱུང་	-10.806
▁:	-10.8064
▁ཕོ་མོ་	-10.8064
▁འཛུམ་	-10.8066
▁མྱིང་	-10.8068
▁གཞི་མཐུན་	-10.8074
▁སྔགས་པ་	-10.8078
▁གནས་ཁང་	-10.8084
▁གདགས་པ་	-10.8094
▁རྟ་བབས་	-10.8104
▁བརླབ	-10.8112
▁རྩལ	-10.812
▁གཡེང་བ་	-10.8124
▁བྲོ་	-10.8124
▁༄༅།_།	-10.8128
▁༣	-10.813
▁མེ་ལྷ་	-10.8132
▁བགྲང་	-10.8134
▁དབུ་མ་པ	-10.8136
▁དུ་ཐལ་	-10.8138
▁རྩ་སྔགས་	-10.814
▁དམར་མོ་	-10.8144
▁ཞང་	-10.8148
▁འགྲེལ་ཆེན་	-10.8152
▁ཨེ་མ་	-10.8164
▁ཉེར་སྤྱོད་	-10.8168
▁བཟླས	-10.8168
▁ཐམས་ཅད་པ	-10.8172
▁ཕེབས་པ	-10.8184
▁ཆུར་	-10.8192
▁བརྡུང་	-10.8194
▁དབུ	-10.8198
▁ངལ་	-10.82
▁ཕག་མོ	-10.82
▁མི་ཟད་	-10.821
▁བདེན་འཛིན་	-10.8216
▁སྐད་ཅིག་མ	-10.8216
▁འཕེན་པ་	-10.822
▁གནོན་པ་	-10.8243
▁དྷ	-10.8245
▁ལུ_	-10.8249
▁འདུས	-10.8251
▁མི་སྨྲ་	-10.8253
▁པེ་	-10.8255
▁གསོད་པ་	-10.8263
▁གཉེར་བ	-10.8269
▁ཁྱིམ་པ	-10.8277
▁གེ་	-10.8279
▁མདོས་	-10.8279
▁དལ་	-10.8285
▁རྟགས་མ་	-10.8289
▁ཇི་སྙམ་	-10.8293
▁ཕྱུང་བ	-10.8293
▁སྨིན་གྲོལ་	-10.8295
▁མཇལ་	-10.8298
▁༤་	-10.8322
▁ངན་འགྲོ་	-10.8322
▁རྒ་ཤི་	-10.8322
▁མཆོད་རྫས་	-10.8324
▁རྟ	-10.8324
▁ལྗོངས་	-10.833
▁ཚོགས་ལམ་	-10.8334
▁ཏེ་_	-10.8336
▁ཤ་སྟག་	-10.834
▁བྷྱཿ	-10.8351
▁དྲི་ཟ་	-10.8355
▁དགའ་བོ་	-10.8359
▁བསྲུངས་	-10.8359
▁མངོན་བྱང་	-10.8361
▁སྤྲོས་མེད་	-10.8363
▁བླུགས་	-10.8369
▁གདོད་མ་	-10.8371
▁ཆོག་པ	-10.8373
▁མཚོ	-10.8382
▁ཐ་མལ་པ	-10.8386
▁བརྟེན	-10.839
▁བཅིང་བ་	-10.8398
▁དེ་བ་	-10.8402
▁འོ་མ	-10.8402
▁ནྱ་	-10.8404
▁འབྲོག་	-10.8414
▁ཤམ་ཐབས་	-10.8417
▁ཡུ་	-10.8421
▁བགྲོད་པ་	-10.8427
▁མིང་ཙམ་	-10.8433
▁ཇི་	-10.8443
▁གཅད་	-10.8448
▁བསྒྲལ་	-10.8448
▁ལ་བ་	-10.8448
▁རྗེའི་	-10.845
▁བཅུ་གཉིས་པ་	-10.8454
▁གཅད་པ	-10.8458
▁ཡེ་ཤེས	-10.8464
▁དགྱེས་པ་	-10.847
▁ཞིག་པ	-10.847
▁ཁྲོ་རྒྱལ་	-10.8472
▁འཁྲུངས་	-10.8508
▁མམ	-10.8514
▁སྡང་བ	-10.8514
▁བུ་རམ་	-10.852
▁མགོན་མེད་	-10.8525
▁མི་སློབ་པ	-10.8525
▁བརྩེ་	-10.8527
▁སྙན་པ་	-10.8527
▁ཨ་པ་	-10.8529
▁ཇ་	-10.8535
▁མདུད་པ་	-10.8539
▁བླུན་པོ་	-10.8558
▁རྒྱ་གྲམ་	-10.8558
▁རྡོ་རྗེ་_	-10.8558
▁བསྐྱོད་པ	-10.856
▁བསླུ་བ་	-10.856
▁རྒྱལ་ཚབ་	-10.856
▁སྦྱོང་བྱེད་	-10.856
▁གླང་པོ་ཆེ	-10.8562
▁མཆོད་གཏོར་	-10.8564
▁བསྒྲུབས་པ་	-10.8571
▁ཥེ་	-10.8573
▁ཡོངས་སུ་_	-10.8579
▁མཁྲིས་པ་	-10.8581
▁ཅི་རིགས་	-10.8592
▁རང་རིག་པ	-10.8594
▁སྲིན་པོ	-10.8594
▁མགོ་བོ	-10.8602
▁དྭངས་	-10.8604
▁འདུ	-10.8606
▁ནང་མཆོད་	-10.8617
▁བཅོམ་ལྡན་འདས་_	-10.8629
▁ཆུ་བོ	-10.8638
▁ལེན	-10.8648
▁ཞབས	-10.8659
▁ཕྱིན	-10.8676
▁ཁུ་བ	-10.8687
▁དྲི་བ	-10.8689
▁རེད་	-10.8706
▁སྐྱོ་བ	-10.8706
▁ཚངས་	-10.8723
▁ཡིད་གཉིས་	-10.8725
▁གླུད་	-10.8727
▁མི་ཟད་པ་	-10.8727
▁ལུང་བསྟན་པ	-10.8727
▁ཨ་ནུ་	-10.8727
▁ཟླུམ་པོ་	-10.8731
▁གཟུགས་སྐུ་	-10.8738
▁སྤེལ	-10.8742
▁བཞེངས	-10.8744
▁ཀུ་ཤ་	-10.8757
▁སྐྱེ་འགག་	-10.8759
▁སྲེག་པ	-10.8776
▁།།_༈_།	-10.8782
▁གསན	-10.8785
▁སྦོམ་པོ་	-10.8787
▁གོས་པ	-10.8793
▁འགྲོགས་	-10.8795
▁མཽད་གལ་	-10.8802
▁ཉལ་བ་	-10.8806
▁བསྒྲུབ	-10.881
▁གཅིག་_	-10.8815
▁གསང་འདུས་	-10.8815
▁ཀྱེ	-10.8817
▁བཅྭ་	-10.8817
▁ཙཱ་	-10.883
▁འཁྱུད་	-10.8832
▁སྔར་ལྟར་	-10.8832
▁རི་མོ	-10.8834
▁གླུ	-10.884
▁བྱུག་པ་	-10.886
▁གསང་གནས་	-10.8866
▁རྒྱང་	-10.8866
▁བཞེད	-10.8869
▁སྔགས	-10.8871
▁དམ་ཚིག་པ་	-10.8873
▁ཚེ་དབང་	-10.8879
▁ཧོར་	-10.8879
▁།་༼	-10.8884
▁བྷནྡྷ་	-10.8886
▁དཱི་	-10.889
▁འཇའ་ཚོན་	-10.8897
▁ཁུག་	-10.8901
▁གསལ་སྟོང་	-10.8901
▁འདྲི་བ་	-10.8912
▁ཕྱིར་རྒོལ་	-10.8914
▁རིགས་ལྡན་	-10.8916
▁བརླབས	-10.892
▁དཀར་བ	-10.8938
▁མཾ་	-10.894
▁འཕྲུལ་	-10.8942
▁བདུག་པ་	-10.8944
▁རྨད་བྱུང་	-10.8951
▁སྣ་བུག་	-10.8953
▁དམར་ནག་	-10.8962
▁མཐར་གྱིས་	-10.8966
▁ཁ་སྐོང་	-10.8968
▁དགེ་སྦྱོར་	-10.8973
▁ས་ལས་	-10.8975
▁དབྱེན་	-10.8981
▁རྩིག་པ་	-10.8984
▁དབང་བ	-10.8986
▁ལང་ཚོ་	-10.8988
▁ཐོ་རངས་	-10.8999
▁ནྲྀ་	-10.9006
▁འཇོམས	-10.903
▁ངོས་བཟུང་	-10.9041
▁དཔྱོད་	-10.9047
▁ཊི་	-10.9052
▁ཕུ་	-10.9052
▁རགས་པ	-10.9052
▁སྒྲོན་མེ་	-10.9071
▁སྐྱེད་མོས་ཚལ་	-10.9076
▁ཤོ	-10.9089
▁ཡོན་བདག་	-10.9094
▁དྲ་བ	-10.9098
▁འཁོད་པ་	-10.9098
▁བླངས	-10.9105
▁སྨྲོས་	-10.9111
▁སྨོན་པ	-10.9113
▁ལྷགས་	-10.9116
▁ནག་མོ་	-10.912
▁སྐལ་པ་	-10.912
▁ཕ་ལ་	-10.9127
▁སྲིང་མོ་	-10.9127
▁དམར་སེར་	-10.9131
▁བྱང་ཆུབ་པ་	-10.9138
▁༑_༑	-10.9142
▁ཤེས་ལྡན་	-10.9142
▁ཅོག་	-10.9144
▁སྐུད་པ་	-10.9147
▁འཛིན་སྟངས་	-10.9158
▁ནང་པ	-10.916
▁པད་མ	-10.9164
▁ཞུས	-10.9169
▁རྟ་མཆོག་	-10.9171
▁གཤིས་	-10.9173
▁དབུལ་བ་	-10.918
▁བརྩེགས་པ	-10.9182
▁སྤུན་	-10.9182
▁ཆ་བྱད་	-10.9189
▁ཆུ་སྐྱེས་	-10.9191
▁ལྐོག་གྱུར་	-10.9193
▁མཐོ་བ་	-10.9196
▁འདོར་བ་	-10.9202
▁ཐ་ན་	-10.9207
▁དྲེགས་པ	-10.9207
▁ཐོབ་བོ	-10.9209
▁ཉམས	-10.9211
▁ལོངས་སྤྱོད་པ་	-10.9214
▁བསིལ་བ	-10.9216
▁ཆོས་སྟོན་པ་	-10.9218
▁བཅིང་བ	-10.9229
▁སུམ་བརྒྱ་	-10.9229
▁ཁོ་	-10.9231
▁འཇུག་ཡུལ་	-10.9234
▁བར་མི་	-10.9236
▁རོང་	-10.9236
▁མུན་	-10.9238
▁ཀློག་པ་	-10.9247
▁ཝི་	-10.9247
▁གཟི	-10.9252
▁བ་སྤུ	-10.9263
▁སྒོམ་སྤང་	-10.9265
▁སྐོམ་	-10.927
▁སྨིག་རྒྱུ་	-10.9274
▁མཐོལ་	-10.9285
▁དམར་བ	-10.9308
▁བཅིང་	-10.9312
▁མི་འགལ་བ	-10.9312
▁གསལ་སྣང་	-10.9317
▁ཤིན་	-10.9317
▁འཛམ་གླིང་	-10.9321
▁ལས་ཅན་	-10.9324
▁རིམ་གཉིས་	-10.9326
▁ཀློག་	-10.9328
▁མངོན	-10.9328
▁རྃ་	-10.9333
▁བཅོམ་པ་	-10.934
▁ཨུ་པ་	-10.9349
▁གུ་གུལ་	-10.9355
▁ཆུབ་པ	-10.9355
▁རྩད་	-10.9355
▁ཞིག_	-10.9358
▁ཐེག་	-10.9365
▁པུཥྤེ་	-10.938
▁གཡོག་	-10.9394
▁ལོན་	-10.9399
▁ཕོ་ཉ	-10.9401
▁སྨོས	-10.9405
▁ལྷུང་བ	-10.9419
▁སྐལ་བཟང་	-10.9419
▁ཏྭ་	-10.9421
▁མེ་དཔུང་	-10.9421
▁ཧཾ	-10.9428
▁རྙིང་	-10.9431
▁མཚན་མོ	-10.9433
▁སྒྲོན་	-10.9447
▁བདེན་གྲུབ་	-10.9469
▁གསལ་བཏབ་	-10.9472
▁གཞལ་བྱ	-10.9479
▁དབང་བ་	-10.9479
▁དམིགས	-10.9479
▁འཕོས་	-10.9488
▁སྐྱིལ་མོ་ཀྲུང་	-10.9488
▁བཏུང་བ	-10.9495
▁བཅུ་བདུན་	-10.9497
▁ཀྲ་	-10.9509
▁གཞོམ་	-10.9513
▁གཡུལ་	-10.9515
▁དགུག་པ་	-10.9518
▁མྱུར་བ་	-10.9518
▁ཟོས་པ	-10.952
▁བཤེས་	-10.9522
▁འཐོབ	-10.9522
▁ཀཾ་	-10.9525
▁སླ་བ	-10.9536
▁འགྲུབ་བོ	-10.9545
▁རྒྱས་བཤད་	-10.9545
▁གཞུང་ལས་	-10.9555
▁དམིགས་མེད་	-10.9555
▁ཧ་རི་	-10.9557
▁སྲས	-10.9573
▁ཡེངས་	-10.9576
▁གཏུམ་མོ	-10.958
▁འདྲི་	-10.9585
▁འཁོད་པ	-10.9599
▁སྤང་བྱ	-10.9606
▁དམྱིགས་པ་	-10.961
▁འགལ་རྐྱེན་	-10.9624
▁ཙམ་པ	-10.9636
▁ཆབ་	-10.9643
▁སྙན་བརྒྱུད་	-10.9648
▁སླ་	-10.9652
▁ཕྱི་དོན་	-10.9662
▁དམིགས་བསལ་	-10.9664
▁བསྒྲིབས་	-10.968
▁བར་པ་	-10.9683
▁དགེ་བཤེས་	-10.9685
▁ངོས་འཛིན་	-10.9687
▁བཅོས་པ	-10.969
▁སྤྲད་	-10.9692
▁བམ་	-10.9695
▁༥་	-10.9697
▁སྐྱོབ་	-10.9699
▁ཁ་ཁ་	-10.9709
▁སྤྲ	-10.9711
▁ཆོས་བཞིན་	-10.9713
▁ཉི་ཁྲི་	-10.9716
▁གདུལ་བ	-10.9727
▁བབས་པ་	-10.9727
▁ལྕགས་སྒྲོག་	-10.9727
▁བདུག་སྤོས་	-10.9734
▁སྤྱན་སྔ་	-10.9737
▁གང་ཡིན	-10.9739
▁རྐྱང་པ་	-10.9744
▁ཧྱ་	-10.9749
▁དབྱིངས	-10.976
▁མེ་ལྕེ་	-10.9763
▁བཅུ་གཉིས་པ	-10.9765
▁འཁྲུག་པ་	-10.9772
▁སྨན་པ་	-10.9772
▁འབྲང་བ་	-10.9775
▁དྲང་པོ	-10.9777
▁འཕྲོ་བ་	-10.9782
▁གོ་སྐབས་	-10.9784
▁རྣམ་འབྱེད་	-10.9786
▁ལོག་འདྲེན་	-10.9798
▁འཆར	-10.981
▁རྣམ་ཀུན་	-10.9817
▁མཚན་གཞི	-10.982
▁བདེ་བླག་	-10.9827
▁ཙམ་པ་	-10.9832
▁ཁྲོ་བ	-10.9841
▁ཐོགས	-10.9841
▁དབྱུང་བ་	-10.9843
▁ཚུགས་	-10.9846
▁ཇོ་	-10.9851
▁གྲིབ་མ་	-10.9858
▁ཨུཏྤ་	-10.9858
▁ཚོང་དཔོན་	-10.987
▁མདུང་	-10.9882
▁དཔྱིད་	-10.9884
▁ཅིས་ཀྱང་	-10.9891
▁ཉིན་པ	-10.9894
▁དེ་ནས་_	-10.9894
▁རྫུན་	-10.9896
▁དལ་འབྱོར་	-10.9898
▁ཚེས་བཅུ་	-10.9901
▁གནས་མཆོག་	-10.9918
▁ཆོས་རྗེ	-10.993
▁ངོ་སྤྲོད་	-10.9942
▁མདོ་སྡེ་པ་	-10.9942
▁ཁྱུ་མཆོག་	-10.9951
▁གྲངས་མེད་པ	-10.9951
▁གཡོགས་	-10.9954
▁བསྲེགས་པ	-10.9954
▁ཕུར་པ	-10.9961
▁མ་མོ	-10.9963
▁དམ་ཉམས་	-10.9966
▁ཏམ	-10.9968
▁ཆོམ་རྐུན་	-10.997
▁ཟད	-10.9975
▁སྔོ	-10.9975
▁བྱིན	-10.9987
▁བྱོས་	-10.999
▁འདུ་བྱེད་པ་	-10.999
▁ཅ	-10.9995
▁སློང་བ་	-10.9995
▁ནོར་བ་	-10.9997
▁མགྲིན་	-10.9997
▁སྲ་བརྐྱང་	-10.9997
▁རྒྱལ་བྱེད་	-11.0002
▁ཕ་མ	-11.0016
▁མཚོན་ཆ	-11.0016
▁སྐྱ་རེངས་	-11.0019
▁མི་གཙང་བ་	-11.0021
▁ལེགས་ལྡན་	-11.0021
▁སྐྱོ་	-11.0029
▁གངས་	-11.0033
▁གསང་དབང་	-11.0036
▁བཞེས་པ	-11.0036
▁འཕངས་པ	-11.0038
▁བསྲེག་	-11.0043
▁ཉ	-11.0048
▁གཟུང་ཡུལ་	-11.0053
▁གཅིག་པོ་	-11.0058
▁ཏཾ་	-11.006
▁དཀར་མོ	-11.0063
▁གཟུགས་_	-11.0065
▁སྲེག་	-11.0067
▁གཞོལ་བ	-11.007
▁སྲོང་	-11.007
▁རངས་	-11.008
▁ཨིནྡྲ་	-11.008
▁བྱ་རྒོད་	-11.0092
▁དུམ་བུ	-11.0094
▁ཀུན་_	-11.0099
▁དྲག་སྔགས་	-11.0106
▁ཡིད་བྱེད་	-11.0114
▁འཕང་	-11.0124
▁གཞག	-11.0128
▁འཁོན་	-11.0133
▁།།_༈_	-11.0138
▁ཆུག་	-11.0143
▁དབང་_	-11.0143
▁ས་མཚམས་	-11.0143
▁སྡོང་པོ་	-11.0148
▁རྒྱུན་ཞུགས་	-11.0151
▁མནྟ་	-11.0165
▁གྱོན་	-11.0173
▁དབྱངས་ཅན་	-11.0175
▁དེ་ནས	-11.0185
▁སླུ་བ་	-11.0185
▁དགུན་	-11.0187
▁གང་ལྟར་	-11.019
▁ཕོག་	-11.019
▁མཐའ་ཅན་	-11.019
▁ནང་ཚན་	-11.0192
▁རབས་	-11.0195
▁ས་བཅུ	-11.02
▁ཐམས་ཅད	-11.0215
▁བསླངས་	-11.0222
▁ལ་སོགས་པ་_	-11.0227
▁འདྲི་བ	-11.0229
▁མཐའ་མ་	-11.0232
▁འཁོར	-11.0232
▁ཁ་བ་	-11.0239
▁རྒྱལ་མོ་	-11.0239
▁རྀ་	-11.0244
▁འདི་འདྲ	-11.0247
▁ཡ་མཚན་	-11.0252
▁སྟོབས་ལྡན་	-11.0252
▁བརྩམ་པ	-11.0254
▁ཇི་སྙེད་པ	-11.0272
▁གླང་པོ	-11.0279
▁ངུ་	-11.0279
▁མུ	-11.0282
▁ཕྱོགས་སྐྱོང་	-11.0284
▁རྙིང་པ་	-11.0284
▁འཆི	-11.0289
▁འཛག་	-11.0292
▁བཀྲུས་	-11.0297
▁གལ་ཆེ	-11.0304
▁གདའ	-11.0314
▁ཕེབས	-11.0316
▁སིལ་སྙན་	-11.0316
▁རྒོལ་	-11.0334
▁༦་	-11.0341
▁དྷརྨཱ་	-11.0344
▁མེད་དགག་	-11.0349
▁ཉིང་མཚམས་	-11.0357
▁མཐར་བྱེད་	-11.0367
▁ཤེས་སྒྲིབ་	-11.0369
▁དུམ་	-11.0372
▁མང	-11.0382
▁འཕྲོག་པ	-11.0382
▁སྲིད	-11.0384
▁དགོན་	-11.0392
▁ལུས	-11.0392
▁ནམ་ཞིག་	-11.0397
▁ཨ་ཝ་	-11.0402
▁མཐོ་བ	-11.0404
▁བྷྱོཿ_	-11.0407
▁ཚེགས་	-11.0409
▁ཉེར་བསྡོགས་	-11.0414
▁ཞིང་_	-11.0414
▁རྫས	-11.0417
▁བསྟེན	-11.0429
▁ཕྱེད་པ་	-11.0435
▁བྱས་_	-11.0435
▁སྐྱེད	-11.0437
▁?-_	-11.0442
▁ཐོ་བ་	-11.0445
▁ཙཎྜ་	-11.0447
▁སྨོད་པ	-11.045
▁སྲིན་	-11.0455
▁ཚད་འབྲས་	-11.0462
▁ཏ་ལ་	-11.0467
▁ཤཾ་	-11.0467
▁གྱུར་_	-11.047
▁ནུ་མ་	-11.0475
▁ལས་ཚོགས་	-11.0475
▁བཟླ་བ	-11.0478
▁སྲུང་མ	-11.0483
▁མནན	-11.0485
▁ཡོ་ག་	-11.0488
▁སྐབས	-11.0495
▁གཡུ་	-11.0506
▁བཅུ་དྲུག་པ་	-11.0506
▁ལྟ་སྟངས་	-11.0513
▁སྤེལ་བ་	-11.0513
▁གང་ཞེ་ན་	-11.0521
▁ཤི་འཕོས་	-11.0539
▁མྱོས་པ	-11.0544
▁བརླག་པ	-11.0549
▁དྲུག_	-11.0564
▁ཕ	-11.0564
▁གང་ལ་ལ་	-11.0567
▁ཏིའི་	-11.0569
▁ཕྲག་པ་	-11.0572
▁ཕྱོགས་པ་	-11.0577
▁00000000_	-11.0582
▁སྒྲོགས་པ	-11.0585
▁མཉམ་མེད་	-11.0587
▁རྙེད	-11.0587
▁སྔ་ཕྱི	-11.0587
▁བརྒྱ་པ	-11.0592
▁གཏང་བ	-11.0598
▁འཐོར་	-11.0613
▁རྣམ་དཔྱོད་	-11.0616
▁སྔ་དྲོ་	-11.0616
▁བསྐྱོད་པ་	-11.0618
▁སྩོལ་བ	-11.0623
▁གླགས་	-11.0628
▁དཀོན་	-11.0631
▁དཔག་མེད	-11.0639
▁རོ་ལངས་	-11.0641
▁དུས་གཞན་	-11.0644
▁ཁུང་	-11.0659
▁དྲག་ཤུལ་	-11.0662
▁རྩེར་	-11.0665
▁ལུང་རིགས་	-11.0665
▁རྣོན་པོ་	-11.067
▁བབས	-11.0675
▁དབང་མངོན་	-11.0677
▁ནོར་བ	-11.0683
▁ཡུལ་འཁོར་	-11.0685
▁ལཱི་	-11.069
▁རྨ་བྱ	-11.0693
▁གཅེར་བུ་	-11.0698
▁ཟོས་པ་	-11.0698
▁སྒྲུབ	-11.0698
▁བསྙེན་གནས་	-11.0703
▁སྐྱེས་མ་	-11.0709
▁འབད་རྩོལ་	-11.0711
▁མགྱོགས་	-11.0714
▁ཞོན་	-11.0716
▁རིགས་གསུམ་	-11.0716
▁ཆུ་རྒྱུན་	-11.0724
▁བརྗེད་པ	-11.0724
▁00000255	-11.0729
▁བནྡྷ་	-11.0735
▁གསོས་	-11.0745
▁རྟག་ཆད་	-11.0748
▁རང་བཞིན	-11.075
▁གོ་ཆ	-11.0753
▁འདོད་ཁམས་	-11.0753
▁འཚེ་བ	-11.0753
▁དྲུག་ཅུ	-11.0755
▁སྟེགས་	-11.0755
▁ནཾ་	-11.0761
▁འཁྲུལ་སྣང་	-11.0761
▁:_	-11.0763
▁དོན་མེད་པ་	-11.0763
▁སྤྱད	-11.0768
▁ཡུམ	-11.0771
▁ཉེ་འཁོར་	-11.0776
▁བསྣམས་	-11.0789
▁བསྡམས་པ་	-11.0792
▁ཟླུམ་པོ	-11.0795
▁ཐུན་མོང་བ	-11.0797
▁དུས་མཉམ་	-11.0797
▁དོན་ཡོད་པ	-11.0808
▁བྱད་	-11.0808
▁དྷེ་	-11.0816
▁དཀར་བ་	-11.0818
▁བཅུ་གཅིག་པ་	-11.0818
▁སྤྱོད་འཇུག་	-11.0818
▁ཕན་ཆད་	-11.0826
▁འདུན་	-11.0831
▁བརྒྱད་ཅུ	-11.0834
▁སེམས་ཅན་_	-11.0834
▁བྲི་བ་	-11.0845
▁གླིང་བཞི་	-11.0847
▁ཐུབ་བསྟན་	-11.085
▁ལྗོན་པ་	-11.085
▁སྲིན་ལག་	-11.085
▁བསྟན་_	-11.0852
▁རྣ་	-11.0852
▁བཟང་བ་	-11.0855
▁རང་བ	-11.0874
▁གསར་པ་	-11.0876
▁དབབ་	-11.0876
▁སྐྱེ་དགུ་	-11.0876
▁སྲོག་གཅོད་	-11.0876
▁སྐྱབས་གནས་	-11.0879
▁བྲང་	-11.0903
▁ཏིལ་མར་	-11.0905
▁ཐུགས	-11.0908
▁གོང་བུ་	-11.0929
▁ཐད་ཀ	-11.0932
▁སོགས་_	-11.0932
▁གདབ་བོ	-11.0945
▁བར་མ	-11.0948
▁གོས་པ་	-11.0958
▁གདོན་པ	-11.0977
▁ཡེངས་པ	-11.098
▁གདོད་མ	-11.0988
▁གསན་པ	-11.0993
▁ཧུཾ་	-11.0998
▁ཕྲན་	-11.1006
▁མི་གཙང་བ	-11.1009
▁ཁེགས་པ	-11.102
▁ར་མ་	-11.1028
▁དགེ་རྩ་	-11.1031
▁ཁ་ཏོན་	-11.1033
▁འཁྲུག་པ	-11.1036
▁སྐྱ་	-11.1036
▁ཕོ	-11.1039
▁སྐྱེ་དགུ	-11.1041
▁འཐུངས་	-11.106
▁འབངས་	-11.106
▁རིན་ཐང་	-11.106
▁ཐམས་_ཅད་	-11.1065
▁བྱེ་བ	-11.1079
▁བླ	-11.1084
▁ལྷ་དབང་	-11.1087
▁སླ་བ་	-11.1087
▁མཁྱེན	-11.1103
▁མདོ་སྡེ་པ	-11.1103
▁བསྔོས་	-11.1106
▁དང་པོ་པ	-11.1109
▁འཇིགས་མེད་	-11.1117
▁འཐོབ་བོ	-11.1117
▁སྦོམ་	-11.1117
▁དགུག་པ	-11.1122
▁ཐུགས་རྒྱུད་	-11.1125
▁གུང་མོ་	-11.1128
▁སེན་མོ་	-11.113
▁མནན་པ་	-11.1133
▁བགྱིད	-11.1149
▁ཆ་མེད་	-11.1152
▁ཚེ་རིང་	-11.1155
▁ཤར་ལྷོ	-11.1155
▁མི་མཇེད་	-11.1166
▁རང་འགྲེལ་	-11.1176
▁ཁོ་རང་	-11.1187
▁གསོན་	-11.119
▁མི་སྣང་བ་	-11.1195
▁ཅིའི་	-11.1198
▁མགོ	-11.1198
▁ན་ཁ་	-11.1206
▁གཡེང་བ	-11.1225
▁ལས་པ	-11.1228
▁འབེབས་པ་	-11.1236
▁སྲིན་བུ་	-11.1236
▁ཅེས་_	-11.1239
▁བསླབས་	-11.1245
▁རྒོད་པ་	-11.1245
▁དམ་བཅའ་བ་	-11.125
▁ཉོན	-11.1256
▁འཕྲོག་	-11.1258
▁གཟི་བྱིན་	-11.1272
▁ཚོང་པ་	-11.1275
▁ཆོས་སྐོར་	-11.1291
▁རིང་བསྲེལ་	-11.1297
▁ཕྱིར་དུ	-11.1302
▁ཕྲ་རྒྱས་	-11.1308
▁རྗེས་འཇུག་	-11.1308
▁སྨིན་མཚམས་	-11.1308
▁ཁྱམས་	-11.1327
▁སྙིང་སྟོབས་	-11.1327
▁སྔོན་མ་	-11.133
▁སྟོབས་པོ་	-11.133
▁གཟུངས་སྔགས་	-11.1341
▁གེ་སར་	-11.1347
▁བྲེ་	-11.1347
▁སུམ་ཅུ་རྩ་གསུམ་	-11.1347
▁འགུགས་པ	-11.136
▁བཅོམ་_	-11.1369
▁ཁྱོད	-11.138
▁དྲི་བཟང་	-11.1383
▁སངས་_	-11.1394
▁%-_	-11.1396
▁གདའ་	-11.1405
▁གསུངས་_	-11.1413
▁གཅོད	-11.1419
▁གནག་	-11.1419
▁འཁྱུད་པ་	-11.1422
▁འཕངས་	-11.1424
▁ཡིག་བརྒྱ་	-11.1427
▁རྒྱལ་མཆོག་	-11.1427
▁དག་བྱེད་	-11.143
▁ན་མོ	-11.1433
▁རྒ་	-11.1433
▁ཤན་	-11.1438
▁སྦྲེལ་	-11.1438
▁ཕྱེ	-11.1441
▁ལ་རྩེ་	-11.1441
▁ནུབ་པ་	-11.1444
▁དྲི་རོ་	-11.1452
▁བརྫུན་པ་	-11.1452
▁བཅོལ་བ	-11.1455
▁ཁེ་	-11.1461
▁བྱེད་པོ་	-11.1461
▁མཆོད་སྤྲིན་	-11.1463
▁ཙ་ན་	-11.1469
▁སྔོན་ཆད་	-11.1483
▁ལྟོ་འཕྱེ་	-11.1486
▁ཟླུམ་	-11.1489
▁གལ་ཆེ་	-11.1508
▁སྩལ་བ	-11.1508
▁སྒྱུ་	-11.152
▁བྱང་_	-11.1528
▁རྒན་	-11.1531
▁རྙོག་པ་	-11.1534
▁འདུ་ཤེས་པ	-11.1553
▁བརྟག	-11.1565
▁ལྕི་བ	-11.1573
▁སྐལ་	-11.1576
▁ལྷ་ཆེན་	-11.1579
▁འདི་ཁོ་ན་	-11.1585
▁བརླ་	-11.1596
▁དངོས་འགལ་	-11.1607
▁ཚབས་	-11.161
▁ལིངྒ་	-11.161
▁མཁྱེན་བརྩེ	-11.1613
▁དེ་ལྟར་_	-11.1633
▁དང་པོ་པ་	-11.1636
▁ཙུ་	-11.1636
▁མགོར་	-11.1653
▁ཐུག་པ	-11.1659
▁ཁྲོ་གཉེར་	-11.1661
▁གྲིབ་	-11.1667
▁ཕོབ་	-11.167
▁སྙིགས་མ་	-11.167
▁འཆད	-11.1676
▁ཆེན་པོ་_	-11.1684
▁གྲུབ་མཐ	-11.1693
▁བསྐྱངས་	-11.1696
▁བཀྲ་ཤིས་པ	-11.1699
▁བསྲེས་པ	-11.1707
▁རྒ་བ་	-11.1707
▁བར་སྐབས་	-11.171
▁དཀྱིལ་ཆོག་	-11.1713
▁ཕེབས་པ་	-11.1713
▁མཆོག་སྦྱིན་	-11.1713
▁ཤབྡ་	-11.1719
▁ལྷ་འདྲེ་	-11.1722
▁ངེས་ཚིག་	-11.1724
▁ཚད་ལྡན་	-11.1724
▁གྲོ་	-11.173
▁མ་བྱུང་བ་	-11.173
▁འགྲེལ་བཤད་	-11.173
▁སེར་བ་	-11.1733
▁དགེ་_	-11.1736
▁ཆོད	-11.1739
▁བདེ་སྐྱིད་	-11.1742
▁བཟའ་བཏུང་	-11.1742
▁མཧཱ་	-11.1742
▁ལྷུང་བ་	-11.1742
▁བཅོལ་	-11.1745
▁རང་རིག་པ་	-11.1745
▁ཁུ་	-11.1753
▁ཡིད་ཤེས་	-11.1753
▁པགས་པ	-11.1756
▁བརྒལ་	-11.1756
▁བསྣུན་	-11.1759
▁ཡོངས་གྲུབ་	-11.1768
▁ཕན	-11.1771
▁རྟགས	-11.1779
▁ཁེགས་	-11.1782
▁མི་གཙང་	-11.1782
▁ཚེ་ལོ་	-11.1791
▁ཟློས་	-11.1794
▁སྟེར་བ་	-11.1799
▁བྲིའོ	-11.1802
▁སྐམ་	-11.1817
▁བློ་བཟང་	-11.1823
▁ཀུན་བརྟགས་	-11.1828
▁༽_༄།	-11.1831
▁ཡང་སྲིད་	-11.1834
▁ཛ་ཡ་	-11.1837
▁འདབ་མ	-11.1843
▁ལུས་_	-11.1846
▁གྱད་	-11.1849
▁དམྱིགས	-11.1849
▁ཞབས་ཏོག་	-11.1858
▁དགོངས	-11.186
▁དེང་ནས་	-11.186
▁ཎཱ་	-11.1863
▁མཆན་	-11.1875
▁༄༅༅།_།	-11.1878
▁གུར་གུམ་	-11.1878
▁གཱ་	-11.1881
▁སྦས་པ་	-11.1881
▁རྩེ་གཅིག་པ	-11.1884
▁སྤྲས་པ	-11.189
▁ཐབ་ཁུང་	-11.1893
▁འདོད་དོན་	-11.1896
▁སྡང་	-11.1898
▁གཅེས་པ	-11.1901
▁རྩོལ་བ	-11.191
▁སུམ་ཅུ་རྩ་བདུན་	-11.191
▁ཨཱརྻ་	-11.1913
▁ཁྲ་	-11.1916
▁ཚེར་མ་	-11.1916
▁བདེན་བྲལ་	-11.1922
▁གཏུགས་	-11.1925
▁ཡོངས་འཛིན་	-11.1925
▁གསད་པ	-11.1928
▁སྲི་	-11.1931
▁སྡང་བ་	-11.1939
▁ཨཱི་	-11.1939
▁འཐབ་	-11.1945
▁ཀུན་བཏགས་	-11.1948
▁གོང་འོག་	-11.1948
▁མིག་སྨན་	-11.1948
▁གཙུག་ལག་	-11.1951
▁བཛྲ	-11.1951
▁རྣམ་ཐོས་	-11.196
▁གཡོ	-11.1963
▁རལ་པ	-11.1969
▁མཐེའུ་ཆུང་	-11.1972
▁སྒྲུབ་ཐབས	-11.1975
▁རྒྱན	-11.1978
▁ལང་ཀ	-11.1978
▁མཚོ་སྐྱེས་	-11.199
▁མཆི་	-11.1995
▁བསྲེག་པ	-11.1998
▁རིལ་	-11.1998
▁ཡམ་ཤིང་	-11.201
▁ཆེན་_	-11.2013
▁སྨན་པ	-11.2016
▁བློ་གསལ་	-11.2019
▁དུཿ	-11.2025
▁སད་པ་	-11.2025
▁དེ་ལྟ	-11.2031
▁བཅོམ་ལྡན་_	-11.2034
▁བསྡམས་	-11.2034
▁འགལ	-11.2034
▁བླ་དགས་	-11.2043
▁རུས་སྦལ་	-11.2043
▁གཏོར	-11.2046
▁གི_	-11.2046
▁བརྟན	-11.2046
▁རྟེན་པ	-11.2058
▁གསེར་སྐྱེམས་	-11.2067
▁དགག་བྱ	-11.2067
▁གིང་	-11.2072
▁ཐབས་མཁས་	-11.2072
▁མི་མཉམ་པ་	-11.2078
▁དཾ་	-11.2081
▁ཐོང་	-11.2084
▁ལ་ཆ་	-11.2084
▁ངུར་སྨྲིག་	-11.2087
▁ནཱཾ	-11.2087
▁མཐུན	-11.2087
▁རང་བཞིན་_	-11.2087
▁བཅང་བ	-11.2093
▁བསྙེན་རྫོགས་	-11.2093
▁རལ་	-11.2096
▁ས་ལམ་	-11.2099
▁ནད་པ	-11.2108
▁ཨཿ	-11.2114
▁ཚུལ་_	-11.2123
▁པ་སངས་	-11.2129
▁མཁའ་ཁྱབ་	-11.2132
▁སྡེ་དཔོན་	-11.2132
▁ཤིས་པ་	-11.2147
▁རྩེ་བ	-11.215
▁སྐུ་ཚེ་	-11.215
▁གྲང་རེག་	-11.2153
▁བུད་	-11.2156
▁གངྒཱའི་	-11.2159
▁གཞོམ་པ	-11.2159
▁བཅུ་བཞི	-11.2159
▁དགོས་འདོད་	-11.2162
▁སྡོང་བུ་	-11.2162
▁མ་འཁྲུལ་བ	-11.2168
▁ཕ་རོལ་པོ་	-11.2171
▁ལ་རྩ་	-11.2171
▁ཆོས་ལུགས་	-11.218
▁བགྲང་བ་	-11.2186
▁མདོག	-11.2186
▁འཆི་ལྟས་	-11.2186
▁།_༈	-11.2195
▁གཡས་སྐོར་	-11.2195
▁ཨེ་ཝཾ་	-11.2198
▁སརྦྦ་	-11.2204
▁བགྱིས	-11.2207
▁བཅུ་དྲུག་པ	-11.221
▁བཅོམ་ལྡན་འདས	-11.221
▁འཕངས་པ་	-11.221
▁ནོངས་པ་	-11.2213
▁མགོན	-11.2216
▁བཤད་རྒྱུད་	-11.2219
▁ཛཾ་	-11.2222
▁བ་ར་	-11.2228
▁དྲྭ་བ་	-11.2241
▁ཆེ་མཆོག་	-11.2247
▁སྲ་	-11.2247
▁སི	-11.225
▁བཀྲ་	-11.2256
▁འདོད་_	-11.2259
▁གཟེར་	-11.2262
▁མྱེད	-11.2262
▁མཚན་ལྡན་	-11.228
▁ལྷ་སྐུ་	-11.228
▁བསྡད་	-11.2289
▁རྟོག་དཔྱོད་	-11.2289
▁།༼	-11.2292
▁སྐུ་མཆེད་	-11.2295
▁བསྣུན་པ	-11.2304
▁ནོན་པ	-11.2307
▁པཎྜི་ཏ	-11.2307
▁ལྷ་སྲིན་	-11.231
▁གཞོན་	-11.2317
▁དགོངས་འགྲེལ་	-11.2317
▁ཕྱྭ་	-11.2317
▁རབ་གསལ་	-11.2323
▁ལུད་པ་	-11.2323
▁ད་ལྟར་བ་	-11.2329
▁ཚད	-11.2329
▁ཕལ་	-11.2335
▁དུ་དུ	-11.2338
▁ཀུན་དགའ་ར་བ་	-11.2344
▁གྱུར་བ་	-11.2344
▁གཏད་པ་	-11.2356
▁ཤྲི་	-11.2359
▁འཆགས་	-11.2369
▁ལུས་པ	-11.2372
▁དཔངས་	-11.2375
▁ལོ་ཙཱ་བ	-11.2375
▁མུས་	-11.239
▁ལྷས་བྱིན་	-11.2393
▁སྟོབས་ཆེན་	-11.2393
▁དར་བ	-11.2396
▁ཕལ་པ་	-11.2396
▁གཡུང་དྲུང་	-11.2399
▁དཔུང་པ་	-11.2399
▁ཐོག་མཐའ་	-11.2412
▁དག་མ་	-11.2418
▁གཙང་སྦྲ་	-11.2421
▁འཁྲུངས	-11.2439
▁དངས་	-11.2442
▁ཡང་གསང་	-11.2449
▁བསྒྲགས་	-11.2452
▁རྒྱ་ནག་	-11.2452
▁ཨཱརྱ་	-11.2458
▁རེག་བྱ	-11.2461
▁༡_	-11.2464
▁ཀུན་ཁྱབ་	-11.2464
▁ཞལ	-11.2464
▁བསླང་བ	-11.2473
▁འཇམ་མགོན་	-11.2476
▁དོན་སྤྱི་	-11.2483
▁རས་བྲིས་	-11.2483
▁སེ་གོལ་	-11.2486
▁མཚམས་མེད་	-11.2492
▁སཏྭཱ་	-11.2495
▁རློབ་པ	-11.2501
▁རྣམ་པ་_	-11.2504
▁ང་རོ་	-11.2511
▁ཨེ་མ	-11.2514
▁ས་བཅུ་པ་	-11.2517
▁དགེ་སྡིག་	-11.2535
▁བཞོན་པ་	-11.2539
▁མཎྜ་	-11.2539
▁མོ་ལ་	-11.2539
▁ཐུབ་དབང་	-11.2548
▁ཅིང་_	-11.2554
▁#_	-11.2557
▁ཀླད་	-11.2557
▁སྲས་པོ་	-11.2557
▁ཟུག་རྔུ་	-11.256
▁བལྟོས་	-11.2576
▁སྔོན་ཚེ་	-11.2576
▁ཚོགས་འཁོར་	-11.2579
▁ཞིང་སྐྱོང་	-11.2579
▁དཀྱིལ་འཁོར	-11.2585
▁བརྫུན་པ	-11.2585
▁རྩེ	-11.2585
▁ཀུན་རིག་	-11.2595
▁གཏུམ་	-11.2595
▁རང་གནས་	-11.2595
▁-_2	-11.2598
▁བསྟིམ་	-11.2598
▁བཅུ་གཅིག་པ	-11.2601
▁ཨ་རུ་	-11.2614
▁ཏཿ	-11.2617
▁རྦད	-11.2617
▁བསྣོལ་	-11.262
▁ལྷག་བསམ་	-11.2623
▁ཡང་བ་	-11.2629
▁བགྲང་བ	-11.2633
▁10000250	-11.2636
▁གྱུར་བ	-11.2636
▁སྤུངས་	-11.2636
▁ལས་ངན་	-11.2642
▁ཤངས་	-11.2648
▁ལྷུན་པོ་	-11.2651
▁རྒྱུ་ཅན་	-11.2655
▁ཤིག་པ	-11.2655
▁བྲིས	-11.2658
▁མྱུ་གུ	-11.2664
▁བྱོལ་སོང་	-11.267
▁ས་སྟེང་	-11.2674
▁ཤིང	-11.2686
▁མ་བྱུང་བ	-11.2693
▁བཙས་	-11.2699
▁བསངས་	-11.2699
▁གསེབ་	-11.2705
▁ཀུན་སྤྱོད་	-11.2718
▁རྗེས་ཟློས	-11.2718
▁བརྩམ་	-11.2731
▁འབྲུ	-11.2731
▁སྨྲེ་སྔགས་	-11.2743
▁ར་པ་	-11.2753
▁ལངས་པ	-11.2759
▁རང་ཡུལ་	-11.2762
▁བཟང་མོ་	-11.2766
▁འཛག་པ	-11.2769
▁རིགས་_	-11.2778
▁རབ་ཏུ་_	-11.2782
▁ལུས་གནད་	-11.2788
▁མཉམ	-11.2791
▁ཕྱག་དར་	-11.2794
▁ཚིམ་	-11.2794
▁ལ་མ	-11.2794
▁དུལ་བ	-11.2801
▁༢_	-11.281
▁ངེས་འབྱེད་	-11.2823
▁ཧྲི་	-11.2823
▁བསིལ་	-11.2826
▁སེར་མོ་	-11.2826
▁བག་མེད་པ	-11.2836
▁ལོ་ཆེན་	-11.2842
▁འཕྲེང་	-11.2846
▁གྲོས་	-11.2849
▁ཅི་འདྲ་	-11.2852
▁བོན་	-11.2852
▁འཇལ་བ	-11.2852
▁འཛག་པ་	-11.2852
▁ཡལ་བ	-11.2859
▁རགས་	-11.2859
▁སྲིད་རྩེ	-11.2865
▁འགུགས་	-11.2868
▁གཅིན་	-11.2881
▁བཞེས་པ་	-11.2881
▁ཅན་_	-11.2884
▁ལྷག་ཆད་	-11.2884
▁རྩུབ་	-11.2891
▁ལས་བུམ་	-11.2894
▁ཡལ་	-11.2897
▁ཙེ་	-11.29
▁རང་བ་	-11.29
▁ཁམས་_	-11.2907
▁གཏང་རག་	-11.291
▁མཁོ་བ	-11.291
▁སྐྲག་པ་	-11.291
▁སྒྲིབ་གཉིས་	-11.291
▁ཁྱད་པར	-11.2913
▁བང་རིམ་	-11.2917
▁འཕྲུལ་པ་	-11.2917
▁ཁ་ལོ་	-11.2923
▁ཉུང་བ་	-11.2923
▁དཀོར་	-11.2926
▁བཟང་བ	-11.2926
▁བཤིག་	-11.2926
▁ཞེང་	-11.2926
▁གཞན་ཕན་	-11.293
▁ས་གཞི	-11.293
▁ཝཾ་	-11.2933
▁འབྱུང་འགྱུར་	-11.2933
▁བཞིན་_	-11.2936
▁རྗེས་དྲན་	-11.2939
▁རྩེ་གཅིག་པ་	-11.2946
▁སོར་མོ	-11.2946
▁བརྗེད་	-11.2949
▁ཅི་ཕྱིར་	-11.2952
▁གཞི་བདག་	-11.2959
▁ཀ་ར	-11.2962
▁སྟེ་_	-11.2962
▁མགུ་	-11.2965
▁ཕོབ	-11.2969
▁དགུ་པོ་	-11.2978
▁མེད་པ་_	-11.2978
▁ཉིས་འགྱུར་	-11.2985
▁དཔང་	-11.2985
▁སྟྭཾ་	-11.2991
▁དམིགས་རྐྱེན་	-11.2995
▁ཤིས་བརྗོད་	-11.2998
▁མཚོན	-11.3011
▁འཚང་རྒྱ་བ་	-11.3011
▁ཆིངས་	-11.3014
▁བག་མེད་	-11.3014
▁ལུགས	-11.3018
▁དྲི་ཞིམ་	-11.3021
▁ལྕི་	-11.3021
▁སྐད	-11.3027
▁ལ་ལོ་	-11.3031
▁དུལ་བ་	-11.3034
▁བཏགས	-11.3037
▁ཡེ་ཤེས་_	-11.305
▁བོར་བ	-11.3054
▁ངལ་བ་	-11.306
▁ན་མ	-11.306
▁ལྷག་མེད་	-11.306
▁ཤ་ལ་	-11.306
▁ཎི	-11.3063
▁ཤ་པ་	-11.3063
▁ནད་མེད་	-11.3073
▁རིན་འབྱུང་	-11.3077
▁ཐོད་ཁྲག་	-11.309
▁ཞེའོ	-11.309
▁སྣམ་སྦྱར་	-11.309
▁དབང་མཆོག་	-11.3093
▁གདིང་བ་	-11.31
▁བན་	-11.31
▁མཚུངས་མེད་	-11.3103
▁ཆགས	-11.3106
▁བྷཱ་བ་	-11.3113
▁བཅུ་གསུམ་པ་	-11.3116
▁ཆུ་གཏེར་	-11.3119
▁རཿ	-11.3119
▁ཉམས་ཆག་	-11.3123
▁དབྱིག་གཉེན་	-11.3123
▁ཞུམ་པ་	-11.3123
▁རྡོར་དྲིལ་	-11.3123
▁བླ་གོས་	-11.3126
▁ལྗང་གུ	-11.3133
▁དཔྲལ་བ་	-11.3136
▁ཧ་ལ་	-11.3143
▁རྗེས	-11.3146
▁ཤླཽ་ཀ་	-11.3159
▁རྣོ་	-11.3166
▁བོད་ཡུལ་	-11.3169
▁སེང་ལྡེང་	-11.3169
▁སྨོས་ཅི་	-11.3169
▁རྩེ་སྦྱོར་	-11.3173
▁༤	-11.3176
▁ཁམ་	-11.3176
▁བཅུད་ལེན་	-11.3176
▁མ་ཧེ་	-11.3176
▁ཇི་ལྟར་_	-11.3179
▁འབྲལ་བ་	-11.3186
▁སོན་	-11.3186
▁རྐང་ལག་	-11.3189
▁ཤོད་	-11.3189
▁༔_་་་	-11.3199
▁བར་_	-11.3199
▁ཐོན་པ	-11.3202
▁ཕྱག་_	-11.3206
▁སྐར་	-11.3206
▁དཔའ་བ	-11.3209
▁སྤྲེའུ་	-11.3209
▁ཐམས་ཅད་པ་	-11.3212
▁ཕྱོགས་_	-11.3226
▁བཏུང་	-11.3232
▁སྲིད་ཞི	-11.3243
▁འགྲོ་འོང་	-11.3246
▁ལན་ཚྭ་	-11.3249
▁མཐོ་དམན་	-11.3253
▁མི་དགེ	-11.3253
▁དཀར་ནག་	-11.3256
▁ཕྲན་ཚེགས་	-11.3259
▁མཁྱེན་རབ་	-11.3259
▁སྲོད་	-11.3259
▁ཀཿ	-11.3266
▁གཏུམ་པོ་	-11.3273
▁ཕཊ྄་	-11.3283
▁བྷ	-11.3283
▁བྱར་མེད་	-11.3286
▁འཕྲེང་བ་	-11.3286
▁སྐྱིད་	-11.3286
▁གྲང་བ	-11.3289
▁མ་ཏི་	-11.3289
▁སྙིགས་མ	-11.3296
▁ཡོད་_	-11.33
▁ཆོས་བདག་	-11.3306
▁བཞེངས་པ་	-11.3306
▁ཕྱི་རྒོལ་	-11.3313
▁མི་དབང་	-11.3313
▁དམིགས་ཡུལ་	-11.333
▁སྐྲ་ཤད་	-11.3333
▁བརྟན་པོ	-11.3343
▁ལོ་ཏོག་	-11.3343
▁དེ་ཡན་	-11.3347
▁འཛུམ་པ་	-11.335
▁ཡང་སྙིང་	-11.335
▁སྦྲང་རྩི	-11.335
▁རྟེན	-11.3357
▁སྣང་ཡུལ་	-11.3357
▁སོན་པ	-11.336
▁ཞུགས་ཤིང་	-11.3364
▁ཉེན་	-11.3367
▁ཁྲོ་མོ་	-11.3374
▁བསྒྲིབས་པ་	-11.3377
▁ཁ་ཆེ་	-11.3381
▁ཐུང་ངུ་	-11.3381
▁མི་བཟད་པ	-11.3384
▁བྷ་བ་	-11.3387
▁ཤིགས་	-11.3387
▁ལག་མཐིལ་	-11.3394
▁ལྟོ་བ་	-11.3394
▁སེར་སྐྱ	-11.3394
▁ཆུང་མ	-11.3401
▁གཞུང་ལས	-11.3408
▁ལོག་ལྟ་	-11.3408
▁མཇལ་བ	-11.3411
▁འབྲས་གནས་	-11.3411
▁རོ་པ	-11.3415
▁བཅུད	-11.3418
▁རྔ་ཡབ་	-11.3425
▁རྣམ་བྱང་	-11.3425
▁གཟུགས་འཛིན་	-11.3428
▁མི་རིགས་པ་	-11.3428
▁ཞིབ་པ	-11.3428
▁ཡི་_	-11.3438
▁ཎ	-11.3442
▁བཅུག	-11.3442
▁སྟྭཾ	-11.3445
▁ལ་ད་	-11.3452
▁དུས་སྦྱོར་	-11.3459
▁འཕྲད་པ	-11.3459
▁བཅོ་ལྔ་པ་	-11.3466
▁བྱི་	-11.3466
▁སྒོས་	-11.3466
▁ཕོངས་པ་	-11.3473
▁མཚམས་མེད་པ་	-11.3476
▁ནས་ཆུ་	-11.3493
▁བློ་སྦྱོང་	-11.3493
▁ཀུན་རྟོག་	-11.35
▁སྨོད་པ་	-11.3504
▁འཁྱིལ་	-11.3507
▁ཟློག་པ་	-11.351
▁འཁྲུངས་པ	-11.3517
▁མཻ་	-11.3528
▁ནཾ	-11.3538
▁ཁམས	-11.3545
▁བལྟས་པ་	-11.3545
▁གལ་	-11.3548
▁དེ་ལྟ་ན	-11.3548
▁གསོག་	-11.3552
▁བརྙེས	-11.3562
▁པང་	-11.3566
▁།་་་_	-11.3576
▁སྤྱན་མ་	-11.3576
▁བཟླའོ	-11.3583
▁ཡུན་རིང་པོ	-11.3583
▁ཐུག་མེད་	-11.3586
▁བཀའ་སྲུང་	-11.3593
▁བཤད་སྒྲུབ་	-11.3593
▁ཏྱ་	-11.3597
▁འི་་་་་་	-11.3607
▁རྩ་འགྲེལ་	-11.3607
▁སྒྲོན་མ	-11.3617
▁བོང་	-11.3621
▁སྐྱོན་མེད་པ	-11.3621
▁བསྡམས་པ	-11.3624
▁ལམ་རིམ་	-11.3631
▁སྐུ་ཚེ	-11.3635
▁དབྱི	-11.3638
▁རེ་བ	-11.3638
▁ནོན་	-11.3642
▁སྔགས་སྡོམ་	-11.3649
▁ཅི་རིགས་པ་	-11.3656
▁དབུས་མ་	-11.3656
▁གྲང་བ་	-11.3659
▁ཤཱནྟིཾ་	-11.3659
▁ཏིང་	-11.3663
▁བདེ་འགྲོ་	-11.3673
▁བྱ་རྒྱུད་	-11.3684
▁འཇའ་	-11.3687
▁འགྱེད་	-11.3698
▁ཉུང་བ	-11.3701
▁བཏུལ་	-11.3719
▁བརྙེས་པ་	-11.3722
▁གཤེགས་_	-11.3726
▁བཀྲོལ་	-11.3726
▁ནི་་་་་་	-11.3729
▁ཡང་ཕྱི	-11.3729
▁བཀུར་	-11.3733
▁རྗེས་སུ	-11.3733
▁ག་ལ	-11.3736
▁བསལ	-11.3736
▁ས་བཅུ་པ	-11.3736
▁ནམས་	-11.374
▁ལྕམ་དྲལ་	-11.374
▁སྐུ་རྡོ་རྗེ་	-11.3743
▁བསྒྲིབས་པ	-11.3747
▁བསྐུས་	-11.375
▁མཐའ་བྲལ་	-11.375
▁སྙམ	-11.3754
▁བསྣམས་པ་	-11.3764
▁འབྱོར་བ	-11.3764
▁འབྲིང་པོ	-11.3768
▁སྟེར	-11.3771
▁གྲུབ་བོ་	-11.3775
▁བརྟན་པོ་	-11.3775
▁རྟོག	-11.3775
▁ལྟོས་མེད་	-11.3775
▁དམ་སྲི་	-11.3779
▁ངོས་བཟུང་བ་	-11.3782
▁ལྟས་ངན་	-11.3782
▁གོ་བྱེད་	-11.3793
▁ཆུ་བུར་	-11.3793
▁ཡིན་མོད	-11.3796
▁ཆོས་སྤྱོད་	-11.3807
▁མཉྫུ་	-11.381
▁སྐུར་བ་	-11.3814
▁ཁྱེར་བ་	-11.3821
▁ཚོགས་མཆོད་	-11.3821
▁རྔོག་	-11.3825
▁ཐོག་མེད་	-11.3828
▁མཆོག་ལྡན་	-11.3828
▁སྟོང་པ་ཉིད	-11.3828
▁བདུད་འདུལ་	-11.3832
▁སྒྲོལ	-11.3832
▁ཁོག་	-11.3835
▁གནད	-11.3839
▁སྒྲ་དབྱངས་	-11.3846
▁མྱང་	-11.3849
▁སེམས་_དཔའ་	-11.3849
▁སྤོ་བ་	-11.3853
▁ཞབས་དྲུང་	-11.3857
▁ཡང་དག་_	-11.3864
▁རྐང་མཐིལ་	-11.3864
▁སྒང་	-11.3867
▁གཏེར	-11.3874
▁བསྒྲགས་པ	-11.3874
▁དེ་མིན་	-11.3881
▁ངེ་	-11.3885
▁ཧཱ་བ་	-11.3885
▁ཕྲ་མ་	-11.3889
▁གསེར་དངུལ་	-11.3892
▁ཛྙཱ་	-11.3892
▁འགྱོད་པ	-11.3896
▁རྫིང་བུ་	-11.3896
▁གཏོད་	-11.3903
▁མངའ	-11.3903
▁གཡོས་པ	-11.3906
▁ཐོས	-11.3906
▁མ་ཟད	-11.3906
▁འབུམ	-11.3917
▁རྣོན་པོ	-11.3917
▁ཞི་བྱེད་	-11.3921
▁རྫིང་	-11.3924
▁ཕན་བདེ	-11.3928
▁རྟོག་གེ་	-11.3928
▁ཏ་ལ	-11.3931
▁པདྨེ་	-11.3935
▁ཚར་གཅོད་	-11.3942
▁ི་	-11.3946
▁བསླད་པ	-11.3949
▁ལྷམ་	-11.3949
▁གཏེར་ཆེན་	-11.3953
▁སྤྲིན་ཕུང་	-11.3953
▁སྤྲོ	-11.3953
▁དབྱིག་	-11.3967
▁ཅི་ཙམ་	-11.3971
▁ཙ་ན	-11.3971
▁ཡོང་བ་	-11.3975
▁ཀུན་འབྱུང་བ་	-11.3985
▁རབ་_	-11.3985
▁བརྐྱང་བ	-11.3993
▁ཆེན	-11.3996
▁བཅའ་བ	-11.4011
▁བསྲེག་རྫས་	-11.4011
▁ཞོག་	-11.4014
▁མཐའ་མེད་	-11.4022
▁གངས་རི	-11.4025
▁ཚངས་སྤྱོད་	-11.4029
▁ཤུདྡྷེ་	-11.4029
▁གསུང་པ་	-11.4036
▁ཚེ་སྒྲུབ་	-11.404
▁བྱེད་པ་_	-11.4054
▁གང་དེ	-11.4058
▁དན་	-11.4058
▁ཕབ་པ་	-11.4058
▁མྲྀཏ་	-11.4061
▁ལྡན་_	-11.4061
▁གདིང་	-11.4069
▁དེ་བཞིན	-11.4069
▁སྐམ་པོ་	-11.4072
▁དཀྲིས་	-11.4076
▁བྷོ་	-11.4083
▁ཡང	-11.4087
▁སྒྲོག་	-11.409
▁ཀུན་ཤེས་	-11.4094
▁འདུལ	-11.4101
▁སྒྱུར	-11.4105
▁ལུ	-11.4109
▁བཞི་_	-11.412
▁བཤམས	-11.412
▁སྡུག་བསྔལ་བ	-11.412
▁?	-11.4123
▁བཅོས་པ་	-11.4127
▁ལས་པ་	-11.4127
▁གནྡྷེ་	-11.4131
▁ཆོག་པ་	-11.4134
▁ཉི	-11.4134
▁བཤོས་	-11.4134
▁ཀླན་ཀ་	-11.4142
▁༄༅།	-11.4145
▁འབྲུ་མར་	-11.4145
▁གསོར་	-11.4149
▁གླིང་པ་	-11.4153
▁མཐུ་རྩལ་	-11.4153
▁དགུག་གཞུག་	-11.416
▁མཱཾ་	-11.416
▁ཁོང་ཁྲོ་	-11.4164
▁ཕྱོགས	-11.4164
▁རྣལ་འབྱོར	-11.4164
▁ཏང་	-11.4167
▁མཐེ་བོ་	-11.4167
▁སྙན་ངག་	-11.4171
▁དཔའ་མོ་	-11.4175
▁མཐའ་སྐོར་	-11.4175
▁ཉོན་སྒྲིབ་	-11.4178
▁སོམ་ཉི་	-11.4178
▁གཟུགས་ཁམས་	-11.4182
▁གྲྀཧྞ་	-11.4189
▁བགོ་བ	-11.4189
▁ལྷན་	-11.4189
▁མངོན་པར་_	-11.4193
▁འདོང་	-11.4193
▁དེ་ཉིད	-11.4215
▁བརྒྱ་ལ་	-11.4215
▁བྲིས་སྐུ་	-11.4215
▁མོས	-11.4219
▁རིན་ཆེན	-11.4219
▁རྒྱང་གྲགས་	-11.4219
▁བཅངས་	-11.4222
▁བྱད་མ་	-11.4222
▁དཀྱིལ་འཁོར་_	-11.4226
▁¡·_-_	-11.4233
▁གཙིགས་	-11.4233
▁ལ་སྟོང་	-11.4248
▁བུ་ལོན་	-11.4252
▁ར་ས་	-11.4252
▁བྱེད་རྒྱུ་	-11.4256
▁དཀྲོལ་	-11.4267
▁བལ་ཡུལ་	-11.4267
▁རྟེན་པ་	-11.4267
▁སྒོམས་	-11.4267
▁དྲྀ་	-11.4271
▁ཞྭ་	-11.4271
▁དམིགས་རྣམ་	-11.4278
▁རྒྱ་ཆེན་པོ	-11.4282
▁ཚེ་_	-11.4285
▁སིང་	-11.4296
▁བཟློག	-11.43
▁ཆད	-11.4304
▁ཛམྦྷ་	-11.4315
▁ཕྱག་རྡོར་	-11.4319
▁བོར་བ་	-11.4319
▁བྱི་དོར་	-11.4326
▁ཟླ་གམ་	-11.433
▁མཚན་_	-11.4334
▁བརྡུངས་	-11.4337
▁ཟླ་འོད་	-11.4337
▁གང་པོ་	-11.4341
▁རིགས་བཞི་	-11.4341
▁ལངས་པ་	-11.4341
▁བྱེ་བྲག་པ་	-11.4356
▁འབྱོར་བ་	-11.4356
▁དེ་སྟེ་	-11.436
▁བུང་བ་	-11.436
▁རྒྱ་བ	-11.436
▁ཕྱེ་མར་	-11.4364
▁ཨཽ་	-11.4364
▁ཚིག	-11.4367
▁འཁྱིལ་བ་	-11.4371
▁ནཱ་མ་	-11.4375
▁དངོས་_	-11.4382
▁དབྱངས་ཡིག་	-11.4382
▁དོན་བསྡུས་	-11.4386
▁ཞགས་	-11.439
▁འཆར་ཀ་	-11.4394
▁མཆི་མ་	-11.4401
▁བཅུ་བཞི་པ་	-11.4405
▁རྒྱུག་	-11.4405
▁དོན་མཐུན་	-11.4416
▁ཆོས་ལྡན་	-11.4424
▁ཐ་མལ་པ་	-11.4424
▁ཁ་སྦྱར་	-11.4431
▁ཕཊ྄ཿ_	-11.4435
▁སྐྱབས་སེམས་	-11.4439
▁གྲག་	-11.4443
▁ཀེང་རུས་	-11.4446
▁ཕཊ྄	-11.445
▁བླ་ཆེན་	-11.445
▁ལྷགས་པ་	-11.4454
▁ཡུལ་དུས་	-11.4458
▁དབུགས་དབྱུང་	-11.4465
▁རྣམ་_པ	-11.4465
▁བཅའ་	-11.4469
▁འགྱུར་པ	-11.4469
▁མི་སློབ་པ་	-11.4473
▁ཚུ་རོལ་	-11.4477
▁ཡཿ	-11.4477
▁དྲེགས་	-11.448
▁ཡོངས་_	-11.448
▁རློམ་པ་	-11.448
▁ཐབས་ཅིག་	-11.4484
▁བཅིངས	-11.4484
▁བཅོས་མ་	-11.4484
▁སྙིང་ཁ་	-11.4484
▁ཀུ་ཤ	-11.4488
▁ནུབ་མོ་	-11.4488
▁ཡང་བ	-11.4488
▁རྒན་པོ་	-11.4488
▁གདུག་	-11.4495
▁འཕྲད་	-11.4495
▁ཛེ་	-11.4499
▁ཞར་བྱུང་	-11.4499
▁བསྐོལ་བ	-11.4503
▁ཤཱུ་	-11.4503
▁སྐྲ	-11.4503
▁དག་སྣང་	-11.4507
▁སྣང་ཚུལ་	-11.4507
▁གཟི་	-11.4514
▁བཤད་_	-11.4518
▁འཁྱིལ་པ་	-11.4526
▁དཔོག་པ་	-11.453
▁བརྗིད་	-11.4533
▁འདོན	-11.4545
▁འབྱུང་_	-11.4549
▁བཏེག་	-11.4556
▁ཅི་འདྲ་བ་	-11.4564
▁དྭངས་མ	-11.4564
▁བཀང་བ་	-11.4568
▁གསེར་མདོག་	-11.4572
▁།_་་་་་	-11.4583
▁༧	-11.4583
▁མྱོས་	-11.4587
▁དུད་	-11.4591
▁སྡེབ་སྦྱོར་	-11.4591
▁ཡཀྵ་	-11.4602
▁ཡྃ་	-11.4602
▁དུ་ཐལ	-11.4606
▁སྒྲུབ་མཆོད་	-11.4614
▁རབ་བྱེད་	-11.4633
▁ཕྲིན་	-11.4637
▁གཡས་ཕྱོགས་	-11.4641
▁སིནྡྷུ་	-11.4644
▁གསུམ་པོ	-11.4648
▁མ་རྒྱུད་	-11.4648
▁ཟིན་བྲིས་	-11.4652
▁སྐུ་བཞི	-11.4656
▁སྤྲོས	-11.4656
▁རཀ་	-11.466
▁སྤུ་གྲི་	-11.466
▁མཉན་པ་	-11.4668
▁ལ་རྫས་	-11.4668
▁བསླང་	-11.4679
▁འཁྲིག་པ་	-11.4683
▁མངོན་_	-11.4691
▁མེ་རི་	-11.4695
▁ཁྲིད	-11.4706
▁སྲད་བུ་	-11.4706
▁མཚན་དཔེ	-11.471
▁?_	-11.4714
▁ཏཱ	-11.4714
▁ཉམས་རྟོགས་	-11.4718
▁བེ་ཅོན་	-11.4726
▁ཁེངས་པ	-11.4733
▁རིག་གནས་	-11.4737
▁ཕྱི་རོལ་པ་	-11.4741
▁ཆིབས་	-11.4749
▁དྲན	-11.4749
▁དྲོ་བ་	-11.4749
▁ཟུག་	-11.4749
▁མེ་ལྷ	-11.4753
▁སྲ་བ་	-11.4753
▁བསྒྲགས་པ་	-11.4757
▁ཤིང་_	-11.4757
▁བ་གླང་	-11.4761
▁གནོན	-11.4772
▁ཡང་ཐ་	-11.4772
▁རཱུ་པ་	-11.4772
▁དབབ	-11.478
▁ཆར་པ་	-11.4784
▁སཱི་	-11.4788
▁རྟོག་གེ	-11.4792
▁ཟང་ཐལ་	-11.4796
▁འཕགས	-11.4804
▁བཙལ་བ་	-11.4807
▁ལོ་ཀ་	-11.4811
▁ཤ་ལྔ་	-11.4811
▁ཐོད་རྒལ་	-11.4815
▁འགོ	-11.4815
▁བླུད་	-11.4823
▁གོམ་པ་	-11.4831
▁རྒྱ་བོད་	-11.4831
▁གློ་	-11.4839
▁གཅན་གཟན་	-11.4851
▁ཚིག་ལེའུ	-11.4851
▁འགྲན་ཟླ་	-11.4866
▁དུས་ཕྱིས་	-11.487
▁ཆོས་ཤེས་	-11.4882
▁བྱེད་ཚུལ་	-11.4882
▁ཁྲི་ཕྲག་	-11.4886
▁རྒྱུན་ཆགས་	-11.489
▁གདུལ་	-11.4894
▁འབེབས	-11.4894
▁དམར་བ་	-11.4898
▁བསྔོས་པ	-11.4906
▁སེར་སྣ	-11.4906
▁གནས་འགྱུ	-11.491
▁འཆོལ་བ	-11.491
▁རྫོགས་ཆེན་	-11.491
▁ཧཱུྃ་_	-11.4918
▁ཀོ྅ཧཾ	-11.4922
▁ཊཱིཀ་	-11.4922
▁བཤང་བ་	-11.4926
▁བསྲེ་བ་	-11.493
▁འཇམ་པ་	-11.493
▁སོ་ཤིང་	-11.493
▁ཏཱཾ	-11.4933
▁སྐུ་བཞི་	-11.4933
▁ལས་འཕྲོ	-11.4937
▁ཕ་རོལ་པོ	-11.4945
▁སྟོད་གཡོགས་	-11.4945
▁ཤ་ཆེན་	-11.4949
▁དཔལ་མགོན་	-11.4953
▁ཕལ་པོ་	-11.4953
▁འོ་_	-11.4953
▁གཞུང་དོན་	-11.4957
▁མཁའ་མཉམ་	-11.4961
▁ལྷན་ཅིག་པ	-11.4965
▁སཱུ་	-11.4969
▁ཥྱ་	-11.4977
▁སྟོང་_	-11.4977
▁བཤམས་པ་	-11.4981
▁བསེ་རུ་	-11.4985
▁བསྒྲིགས་	-11.4985
▁རྟོག་བྲལ་	-11.4985
▁ཐབས་མཁས་པ	-11.4989
▁འབོད་	-11.4993
▁གདོན་པ་	-11.4997
▁འདི་རང་	-11.5001
▁ཟས་གཙང་	-11.5005
▁དུར་	-11.5009
▁འཇིག་རྟེན་_	-11.5009
▁དེ་ཝ་	-11.5013
▁དྲང་བ་	-11.5013
▁ཕོ་མོ	-11.5013
▁འབབ	-11.5017
▁དགུག་	-11.5021
▁དོར	-11.5021
▁མཁྱེན་བརྩེ་	-11.5025
▁རྒྱལ་ཁམས་	-11.5025
▁མ་རུངས་	-11.5029
▁དོན་ལྡན་	-11.5033
▁ཡང་སློབ་	-11.5033
▁ལྷུན་གྲུབ	-11.5037
▁བྱུག་པ	-11.5041
▁ལྷུན་པོ	-11.5041
▁ཧྲིཾ་	-11.5041
▁མཁན	-11.5053
▁ལ་ཁ	-11.5053
▁ཁྱོན་	-11.5057
▁ཐེབས་	-11.5057
▁བསྡུས་དོན་	-11.5057
▁ངག་གི་ལས་	-11.5065
▁ཤམ་	-11.5077
▁སྒྲོགས་པ་	-11.5077
▁རྒྱལ་དབང་	-11.5081
▁ལ་བཏགས་	-11.5089
▁ཁ་ཁྱེར་	-11.5097
▁ཉུང་ངུ་	-11.5097
▁མགུར་	-11.5097
▁བསྐང་བ	-11.5101
▁བསྔོ་སྨོན་	-11.5101
▁སྟངས་	-11.5101
▁གཟ	-11.5113
▁དུས་_	-11.5113
▁བསྟི་སྟང་	-11.5117
▁སུ་ར་	-11.5121
▁བགོས་པ	-11.5125
▁སྟེགས་བུ་	-11.5125
▁འཚོལ་	-11.513
▁སྐྱོན་མེད་པ་	-11.513
▁ཁེངས་པ་	-11.5146
▁མགུ་བ་	-11.5146
▁སྐྱེ་འཆི་	-11.515
▁བྱཱ་	-11.5154
▁ཡུ་བ་	-11.5162
▁ཞུམ་པ	-11.5166
▁རེངས་པ	-11.517
▁གྱིའོ	-11.5174
▁རྣམ་བཤད	-11.5174
▁ཨེ	-11.5174
▁བླ་བྲང་	-11.5178
▁མི་མ་ཡིན་པ་	-11.5186
▁རྟགས་ཆོས་	-11.5186
▁སྨིན་མ་	-11.5194
▁མཐུ་ཆེན་	-11.5203
▁བཏིང་	-11.5211
▁སྟུག་པོ་	-11.5211
▁བདུག་པ	-11.5215
▁བསམ་སྦྱོར་	-11.5215
▁འཁོར་_	-11.5219
▁རྐྱང་པ	-11.5219
▁གྲྀ་	-11.5223
▁རྣལ་	-11.5223
▁ཅན་པ་	-11.5227
▁དལ་བུ	-11.5227
▁སུམ་ཅུ	-11.5227
▁ཕྱེས་	-11.5231
▁བརྟན་བཞུགས་	-11.5235
▁བྲ་	-11.5235
▁དེ་འོག་	-11.5239
▁ཞོག	-11.5239
▁ན་སོ་	-11.5243
▁མཇུག་ཐོགས་	-11.5243
▁ཐུགས་དགོངས་	-11.5247
▁བསྣན་	-11.5247
▁ལས་དབང་	-11.5247
▁རྒལ་	-11.5251
▁འཁྲུག་	-11.5256
▁རྨ་བྱ་	-11.5256
▁མཐོང་_	-11.5264
▁གཏོར་བ	-11.5268
▁གདན	-11.5268
▁ཐོན་པ་	-11.5268
▁-_:	-11.5272
▁གཅེས	-11.5284
▁མ་ཚང་བ	-11.5284
▁ཁང་བཟང་	-11.5292
▁གསད་	-11.5292
▁མ་ཟིན་	-11.5292
▁འཆར་ཀ	-11.5292
▁མ་ཟིན་པ	-11.5297
▁མདོར་བསྡུས་པ་	-11.5297
▁ཡུན་རིང་པོ་	-11.5297
▁ཤར་ལྷོ་	-11.5301
▁སྐར་མ	-11.5301
▁ཚོས་	-11.5305
▁གདོལ་པ་	-11.5309
▁གཙང་བ་	-11.5313
▁ཡིད་ཆེས་པ་	-11.5313
▁ས་ཡ་	-11.5313
▁དཀྲིས་པ་	-11.5317
▁ཚིལ་	-11.5317
▁འོད་ལྡན་	-11.5317
▁བཞད་གད་	-11.5321
▁ཤེ་	-11.5321
▁སྐོར	-11.5321
▁འདྲིས་པ	-11.5325
▁བ་སྤུ་	-11.5329
▁མི་འདའ་	-11.5338
▁དགེ་སློང་_	-11.5342
▁ཐབས་མཁས་པ་	-11.5346
▁དྷཱི་	-11.535
▁ཕོད་	-11.535
▁རྫས་ཡོད་	-11.5354
▁གཟུང་རྣམ་	-11.5358
▁ཕུབ་	-11.5367
▁སུམྦྷ་	-11.5367
▁ལམ་བདེན་	-11.5375
▁གསང་བ་པ	-11.5379
▁རྗེས་ཤེས་	-11.5391
▁རློམ་	-11.5391
▁འཕགས་ལམ་	-11.5396
▁ལོང་བ་	-11.5396
▁བནྡེ་	-11.54
▁བླ་རེ་	-11.54
▁ཁྱེར་བ	-11.5408
▁གང་ཅི་	-11.5408
▁དྲོ་བ	-11.5416
▁བཞད་	-11.5416
▁ཅེ་ན་	-11.5421
▁སྲིན་མོ་	-11.5421
▁ཐོར་ཚུགས་	-11.5433
▁བརྩོན	-11.5433
▁མཛེ་	-11.5437
▁རྒྱུན	-11.5437
▁ཁྲིད་ཡིག་	-11.5441
▁ཐེ་ཙོམ་	-11.5441
▁བསྲེ་བ	-11.5446
▁ཚུགས་པ	-11.545
▁སྔགས་_	-11.5454
▁ཞལ་གདམས་	-11.5458
▁ལུང་སྟོན་པ	-11.5458
▁བསྟན་སྲུང་	-11.5462
▁ཙནྡྲ་	-11.5466
▁བྱིང་བ་	-11.5471
▁ཟིན	-11.5471
▁10000300_	-11.5483
▁མདའ་དར་	-11.5483
▁འདི་རུ་	-11.5483
▁གྲུ	-11.5487
▁ང་རང་	-11.5487
▁སོན་པ་	-11.5487
▁འཁྱིལ	-11.5496
▁རི་བོ	-11.5504
▁སོ་སྐྱེ	-11.5504
▁གཉན་པོ་	-11.5508
▁གཡོན་སྐོར་	-11.5513
▁བཤང་གཅི་	-11.5513
▁ཕྱི་བཞིན་	-11.5521
▁བདེ་འགྲོ	-11.5525
▁འཇལ་	-11.5525
▁བཅུ་གསུམ་པ	-11.5542
▁འཚམ་པ	-11.555
▁སངས་_རྒྱས་	-11.5559
▁ཤེར་	-11.5563
▁དམྱལ་	-11.5571
▁གཉིས་པོ	-11.5576
▁སྒོ་མ་	-11.5576
▁མར་མེ་མཛད་	-11.558
▁ལྷ་_	-11.558
▁ཌཱཀྐི་	-11.5584
▁སྟོབས	-11.5588
▁སྤང་བླང་	-11.5588
▁རློབས་	-11.5593
▁བཅུ་གཉིས་པོ་	-11.5597
▁འཁྱིལ་བ	-11.5597
▁འདུད་	-11.5597
▁དྲྭ་	-11.5601
▁ཚོལ་བ	-11.5601
▁ཏཱཾ་	-11.5605
▁རིགས་མཆོག་	-11.561
▁ཀྲི་	-11.5614
▁ཇི་བཞིན་པ་	-11.5622
▁བྱ་དེ་	-11.5622
▁སྒེག་	-11.5622
▁སྒྲོ་འདོགས་པ་	-11.5627
▁སྤྲིན	-11.5627
▁རེ་ཤིག་	-11.5631
▁བསྐྲད་པ	-11.5635
▁དབྱངས	-11.5639
▁བཀུར་སྟི	-11.5639
▁དཔོག་པ	-11.5644
▁བཅོམ	-11.5644
▁མངའ་རིས་	-11.5644
▁རྟོགས་ལྡན་	-11.5644
▁སྟོངས་	-11.5644
▁ཀུན་རྫོབ་པ	-11.5648
▁བསྐོས་	-11.5652
▁དྲིན་ཅན་	-11.5656
▁ཧྲཱིཾ་	-11.5669
▁བཟླ་བ་	-11.5673
▁བརྗོད་_	-11.5673
▁གཞལ་བ	-11.5678
▁དུད་པ་	-11.5682
▁འཇིག་_	-11.5682
▁རིག	-11.5682
▁ཆུ་ཟླ་	-11.5686
▁འཚོང་	-11.5686
▁བརྐྱང་བ་	-11.569
▁བརྡེག་	-11.5699
▁འགོ་	-11.5699
▁ཡིད་འཕྲོག་	-11.5712
▁/-_	-11.5725
▁༥	-11.5725
▁སོ་སོ་བ་	-11.5725
▁བཤམ་	-11.5729
▁བསྐོལ་	-11.5729
▁བུ་ག	-11.5729
▁ཞེ་འདོད་	-11.5729
▁ཤེས་པ་_	-11.5729
▁འཕེལ་འགྲིབ་	-11.5733
▁དབོན་	-11.5738
▁འཐབ་པ་	-11.5742
▁རིངས་	-11.575
▁འཕྲང་	-11.5755
▁ཀྱིན་	-11.5763
▁འགྱེད་པ	-11.5763
▁གཞི་མེད་	-11.5768
▁མལ་སྟན་	-11.5768
▁བྱིང་རྒོད་	-11.5772
▁མཚན་མེད་	-11.5776
▁འཚེ་	-11.5776
▁དམག་ཚོགས་	-11.5781
▁རེའུ་མིག་	-11.5781
▁ཇི་སྟེ་	-11.5785
▁བསྐྲད་	-11.5785
▁གཟུངས་ཐག་	-11.5789
▁དགྲོལ་བ	-11.5789
▁རྗེས་སུ་_	-11.5789
▁སྡོམ་བརྩོན་	-11.5789
▁ཕྱིར་བཅོས་	-11.5793
▁འགྱོད་	-11.5793
▁ལམ་_	-11.5793
▁གཙུག་ཕུད་	-11.5798
▁ཡ་གྱལ་	-11.5798
▁སྡུད	-11.5798
▁སྐུ་ལུས་	-11.5802
▁ཨིཊ་	-11.5802
▁མི་ལ	-11.5806
▁སྡོད་པ	-11.5811
▁ཆོག	-11.5815
▁དུལ་	-11.5815
▁སྒེག་པ	-11.5815
▁འཕྲོག་པ་	-11.5819
▁ཡིད་_	-11.5824
▁ཇོ་བོ	-11.5828
▁བསྣན་པ	-11.5828
▁མི་བཟད་པ་	-11.5837
▁ཤེས་རབ་_	-11.5837
▁-_3	-11.5841
▁བྱུགས་པ	-11.5841
▁མཿ_	-11.585
▁བསྲུངས་པ	-11.5858
▁བསླབས་པ	-11.5858
▁སྤེལ་ཚིག་	-11.5858
▁ཚུན་	-11.5863
▁སོད་	-11.5863
▁ཀུན་འགྲོ་	-11.5867
▁མཐའ	-11.5867
▁བརྣབ་སེམས་	-11.5876
▁ཌྷ་	-11.588
▁ལ་སྒོ་	-11.5885
▁ངེད་རང་	-11.5889
▁མཁས	-11.5889
▁མཆོད་ནས་	-11.5889
▁འདྲེན	-11.5893
▁བཀའ་ལུང་	-11.5898
▁ལྗང་ཁུ་	-11.5898
▁རྩུབ་པ་	-11.5902
▁སོལ་	-11.5915
▁གཏེར་སྟོན་	-11.5924
▁ཅུང་	-11.5924
▁བཅང་	-11.5928
▁ཏུ་རེ་	-11.5933
▁རྩ་འཁོར་	-11.5933
▁ཆུ་ཤིང་	-11.5937
▁ཁེངས་	-11.5941
▁ཐུགས་བསྐྱེད་	-11.5941
▁ཏྲཾ་	-11.595
▁པི་ཝང་	-11.595
▁ཕྲ་མེན་	-11.595
▁ཐིགས་པ་	-11.5955
▁མནོས་	-11.5955
▁སྒྲོ་འདོགས་པ	-11.5959
▁ཐིག་སྐུད་	-11.5963
▁ལམ་ཤེས་པ་	-11.5963
▁ལྷུར་	-11.5963
▁མད	-11.5977
▁ལ་ཚིགས་	-11.5981
▁རྒྱུད་སྡེ	-11.5985
▁སྲུངས	-11.5985
▁རིམས་ནད་	-11.599
▁ཐོན	-11.5994
▁ཇི་བཞིན་པ	-11.5999
▁སྐལ་མཉམ་	-11.5999
▁འགལ་ཟླ་	-11.6003
▁བརྟན་མ་	-11.6012
▁ཡཱ	-11.6021
▁ཁྱད་མེད་	-11.6034
▁ཉིང་ལག་	-11.6034
▁མཁའ་དབྱིངས་	-11.6034
▁ཁྲོས་པ་	-11.6038
▁སྤུ	-11.6038
▁ཏྲ	-11.6047
▁བྱོས	-11.6052
▁གཙང་བ	-11.606
▁གཟའ་སྐར་	-11.606
▁ངོ་མ་	-11.606
▁བསླང་བ་	-11.606
▁ལས་རིམ་	-11.6065
▁ནང་གསེས་	-11.6069
▁ཕྲལ་	-11.6069
▁སྲིང་	-11.6069
▁རིག་མ	-11.6074
▁རྫ་མཁན་	-11.6074
▁མཆོག་_	-11.6078
▁ཊ	-11.6083
▁བག་མེད་པ་	-11.6083
▁རྐན་	-11.6083
▁ཐ་སྙད་པ	-11.6087
▁མཚོན་བྱ	-11.6087
▁ཡིག་ཆ་	-11.6087
▁དུས་ཚོད་	-11.6091
▁རྩོལ་བྱུང་	-11.6096
▁ངོ་མཚར་བ	-11.61
▁དོད་	-11.6105
▁ཡིད་མངོན་	-11.6105
▁འབྱོན་པ	-11.6109
▁དགའ་བྱེད་	-11.6114
▁ཕོག་པ་	-11.6118
▁རིགས་བཞི	-11.6118
▁ནཱཾ་	-11.6127
▁ཕན་བདེ་	-11.6127
▁རིང་ཐུང་	-11.6127
▁བཅྭོ་	-11.6132
▁བཏུབ་	-11.6132
▁དཾ་བ་	-11.6136
▁ཨགྣ་	-11.6136
▁གཏོད་པ	-11.6141
▁གཡག་	-11.6141
▁ཆེས་པ	-11.6145
▁དེ་ཉིད་_	-11.6145
▁བྱུག་	-11.6154
▁ཕྲ་རགས་	-11.6158
▁སྔོ་བ	-11.6158
▁སྤངས་རྟོགས་	-11.6163
▁དངུལ་ཆུ་	-11.6167
▁སྤྱི་མཚན་	-11.6167
▁ཁ་ཆེ	-11.6172
▁འཐུང་བ་	-11.6176
▁བྱ་ཁྱུང་	-11.6185
▁ལ་ད	-11.6185
▁ལ་སྨན་	-11.6185
▁མི་ལུས་	-11.619
▁ལས་སྣ་ཚོགས་	-11.6194
▁ཏམ་	-11.6199
▁ཧཱུྂ	-11.6199
▁དགའ་མགུ	-11.6208
▁མདོར་བསྡུས་པ	-11.6212
▁སྔོན་མོ་	-11.6212
▁ང་ཉིད་	-11.6217
▁མཇལ	-11.6217
▁མཐོན་པོ་	-11.6217
▁མེས་པོ	-11.6221
▁དང་ལ་	-11.6226
▁ཏུའོ	-11.623
▁ཕལ་ཆེ་བ་	-11.623
▁ལས་ལམ་	-11.623
▁སྙན་གྲགས་	-11.623
▁སྨ་ར་	-11.623
▁ཕྱེད་ཕྱེད་	-11.6235
▁ཨ་མ་	-11.6235
▁བཀུར་བ	-11.6239
▁བཅོམ་_ལྡན་འདས་	-11.6239
▁རིམ་གྲོ	-11.6239
▁ཤིགས་པ	-11.6239
▁ཧཱི་	-11.6239
▁ཧྲྀ་	-11.6239
▁མཁའ་ལྡིང་	-11.6244
▁ཕྱི་རོལ་པ	-11.6248
▁བཅོམ་ལྡན་_འདས་	-11.6248
▁འདབ་ཆགས་	-11.6248
▁བུ་_	-11.6257
▁ཏ་པ་	-11.6262
▁ཅིག་པ	-11.6267
▁བསངས	-11.6267
▁ཕོངས་པ	-11.6271
▁བཞད་པ	-11.6271
▁འཁྱིལ་པ	-11.6271
▁གདོང་པ་	-11.6276
▁འབྱམ་	-11.6276
▁ཆོས་ཤེས་པ	-11.628
▁ཐུལ་	-11.628
▁བསྒོས་པ	-11.628
▁སྟོང་གསལ་	-11.628
▁བསྒྲལ་བ་	-11.6285
▁ཟློས་པ	-11.6285
▁རྡོ	-11.6289
▁བུམ་ཆུ་	-11.6294
▁རྣམ་གཡེང་	-11.6294
▁འཁྱུད	-11.6298
▁ཆིག་སྟོང་	-11.6307
▁རྣམ་དག་པ	-11.6307
▁ལུ་གུ་རྒྱུད་	-11.6307
▁ཚབ་	-11.6312
▁བཀྲུ་བ	-11.6316
▁སྤར་	-11.6316
▁འཛོམ་	-11.6321
▁ཡག་	-11.6321
▁བརྙས་པ	-11.6326
▁མྱི་_	-11.6326
▁འགྱེད	-11.6326
▁རྫོགས་_	-11.6326
▁པྃ་	-11.633
▁ཚུལ་ཤིང་	-11.633
▁སྟི་	-11.633
▁རེ་དོགས་	-11.6335
▁པོད་	-11.6339
▁བཞུད་	-11.6339
▁རྩེ་བ་	-11.6344
▁གྱོན་པ་	-11.6348
▁དབང་མ་	-11.6353
▁༽༄༅།	-11.6357
▁མོ་གཤམ་	-11.6367
▁ཇི་_	-11.6371
▁བྱེ་བྲག་པ	-11.6376
▁སོག་	-11.6376
▁ཁག་	-11.6385
▁བང་མཛོད་	-11.6385
▁བསམ་_	-11.6385
▁བསྐྱང་	-11.6385
▁བདག་འཇུག་	-11.6389
▁ཆོས་གྲགས་	-11.6394
▁འཚམས་	-11.6394
▁ལེ་ལོ	-11.6394
▁དྲན་ཤེས་	-11.6403
▁གདེང་	-11.6408
▁བསྐང	-11.6408
▁ཤེས་པ་པོ་	-11.6408
▁ཨ་ན་	-11.6408
▁པྲཛྙཱ་	-11.6412
▁ཕྱེ་མ	-11.6412
▁རིགས་འདྲ་	-11.6412
▁གསུང་པ	-11.6417
▁གྲུ་བཞི་པ་	-11.6417
▁འགོས་	-11.6422
▁སོད	-11.6422
▁སེར་སྐྱ་	-11.6426
▁ཏཱ་ར་	-11.6431
▁དགེ་ཚོགས་	-11.6435
▁བཀང་བ	-11.6435
▁བསླད་པ་	-11.6435
▁གཟིར་བ	-11.644
▁ཐུགས་ལས་	-11.644
▁བཀྲེས་པ་	-11.644
▁ཞལ་ཏ་	-11.644
▁ཤེད་	-11.644
▁ཀློག་པ	-11.6445
▁ཏན་	-11.6445
▁ལགས་སོ་	-11.6449
▁བཅུ་བཞི་པ	-11.6454
▁སྐ་རགས་	-11.6454
▁ཁཾ	-11.6468
▁ས་ག་	-11.6472
▁བཙུན་པ	-11.6477
▁ལྀ་	-11.6477
▁ཡོང་བ	-11.6486
▁གཞན་འཕྲུལ་	-11.6491
▁ནོར་ལྷ་	-11.65
▁སེངྒེ་	-11.65
▁འཁྲིལ	-11.6509
▁ཕྱོགས་མེད་	-11.6514
▁སྤྲོས་བཅས་	-11.6514
▁སྤྲད་པ	-11.6519
▁བསྒྲུབས	-11.6523
▁ཞིབ་མོ	-11.6523
▁སྲོག་ཤིང་	-11.6523
▁ལུང་དོན་	-11.6528
▁བུ་ཆུང་	-11.6533
▁མཆོག་གྱུར་	-11.6542
▁མཉེས་པ་	-11.6542
▁ཡང་ཕྱི་	-11.6556
▁མཐའ་མ	-11.6565
▁ཅུང་ཞིག་	-11.6575
▁དཀར་ཆག་	-11.6575
▁ནོད་	-11.6575
▁མཐེབ་	-11.6579
▁དཀྲུགས་	-11.6584
▁བསིལ་བ་	-11.6589
▁མི་མཉམ་པ	-11.6589
▁ཐུན་ཚོད་	-11.6593
▁འཕྱང་	-11.6593
▁བློན་པོ	-11.6598
▁འདུས་མ་བྱས་པ་	-11.6598
▁རྟ་ལ་	-11.6598
▁འགྲོགས་པ	-11.6603
▁རྩིག་པ	-11.6607
▁ཥི་	-11.6607
▁པད་དཀར་	-11.6626
▁ཕུགས་	-11.6626
▁སྐུས་	-11.6626
▁དགེ་བསྙེན་མ་	-11.6635
▁རྣམ་བཅད་	-11.6635
▁ཐུབ	-11.664
▁དཀྱིལ་_	-11.664
▁བསྐངས་	-11.664
▁དྲོ་	-11.6645
▁ལེགས་བྱས་	-11.6645
▁བསོད་	-11.6649
▁ཆོས་སྡེ་	-11.6659
▁འོས	-11.6659
▁སྩལ་བ་	-11.6659
▁མཚང་	-11.6664
▁གཞོལ་བ་	-11.6673
▁ཏྲཱཾ་	-11.6682
▁འཐོན་	-11.6682
▁རྟེན་འབྱུང་	-11.6682
▁ཆ་ཕྲན་	-11.6687
▁རྔམ་	-11.6687
▁བསྐྲད་པ་	-11.6692
▁འབྲས་ཆན་	-11.6697
▁ཤག་	-11.6706
▁འབྲི་བ	-11.6716
▁ཟླ་ཕྱེད་	-11.6725
▁རང་ཚིག་	-11.6725
▁༦	-11.673
▁ཟུངས་	-11.673
▁སྤྱིར་བཏང་	-11.673
▁གཡའ་	-11.6735
▁ཡུལ་ཕྱོགས་	-11.6735
▁སྨྲ་བ་པོ་	-11.6735
▁།།_།།_༈_	-11.6739
▁གཅེས་	-11.6739
▁རྒུད་པ་	-11.6739
▁དམར་མོ	-11.6754
▁འཕར་	-11.6754
▁གསལ་པོ	-11.6763
▁གསང་བདག་	-11.6768
▁མུན་ནག་	-11.6768
▁རྒྱལ་_	-11.6768
▁སྐུ་གཉིས་	-11.6768
▁རབ་མཆོག་	-11.6773
▁རྭ་བ་	-11.6773
▁སོ་སྐྱེ་	-11.6773
▁གཤེགས་པ་_	-11.6777
▁གོང་བུ	-11.6777
▁རང་རྒྱུད་པ	-11.6777
▁དམག་དཔུང་	-11.6782
▁བསྲེགས་པ་	-11.6782
▁ནག་པ་	-11.6787
▁ཀུན་དག	-11.6796
▁སྒོ་ང་	-11.6796
▁ནུས་མཐུ་	-11.6801
▁ཧེ	-11.6801
▁དྱ་	-11.6806
▁འཁོད	-11.6806
▁ལོ་མ	-11.6806
▁བསྔོས་པ་	-11.6811
▁འགྲེང་	-11.6811
▁འཛུམ་པ	-11.6811
▁ཊའི་	-11.682
▁དམིགས་_	-11.682
▁འཁྲིད་	-11.682
▁འོ་ན	-11.682
▁ལུང་པ་	-11.6825
▁མཱནྟ་	-11.6835
▁སྒོམ	-11.6835
▁འདོད་དགུ	-11.6839
▁ལྷ་སྐུ	-11.6839
▁དྲི་ཆུ་	-11.6844
▁སྐྱེ་འགྲོ་	-11.6849
▁བཅུ་གཉིས	-11.6854
▁བསྒོས་	-11.6854
▁སར་པ་	-11.6859
▁བརྐྱང་བསྐུམ་	-11.6863
▁ཚོར་བ་པོ་	-11.6863
▁རྗེས་ཆགས་	-11.6868
▁ཚིག་པ་	-11.6878
▁རྣག་	-11.6878
▁མནར་མེད་	-11.6887
▁གསོག་འཇོག་	-11.6892
▁དམག་དཔོན་	-11.6892
▁མཐོན་པོ	-11.6892
▁གཟུགས་བཟང་	-11.6897
▁བདག་མོ་	-11.6902
▁བརྙས་པ་	-11.6902
▁འཆོས་	-11.6907
▁ཆུ་མིག་	-11.6912
▁སྐུད་	-11.6912
▁གྱོན་པ	-11.6916
▁རྗེས་ཐོགས་	-11.6916
▁མུ་བཞི་	-11.6926
▁སྟེང	-11.6931
▁ཕུ	-11.6936
▁འཇའ་ལུས་	-11.6936
▁སྒྲིབ་བྱེད་	-11.6936
▁ཧྱེ་	-11.6936
▁བྱང་_ཆུབ་	-11.6941
▁ཚེ་ཚད་	-11.6941
▁ཧྲཱི་	-11.6941
▁བཀྲམ་	-11.695
▁མཆོད་བརྗོད་	-11.695
▁རློབ་	-11.695
▁སྒྲ་བརྙན་	-11.695
▁གསལ་རྒྱལ་	-11.6955
▁བསྣོལ་བ	-11.6955
▁རཾ	-11.6955
▁ཏཾ	-11.696
▁བགྲང་ཕྲེང་	-11.6965
▁ཡིད	-11.6965
▁བསྔགས	-11.697
▁ཚ	-11.697
▁བརྩིགས་	-11.6975
▁མི་མངོན་པ	-11.6975
▁ས་་་་་་	-11.6975
▁གླུ་དབྱངས་	-11.6979
▁གྲོང་རྡལ་	-11.6989
▁ན་ཚོད་	-11.6989
▁མཐོང་ཆོས་	-11.6989
▁རྣོ་བ	-11.6989
▁བཀབ་	-11.6994
▁བསྒྲགས	-11.6999
▁འཆགས་པ	-11.7004
▁སྨིན	-11.7004
▁ཨྃ་	-11.7004
▁བཏུས་པ་	-11.7009
▁ཁོང་ཁྲོ་བ་	-11.7014
▁ཏྭཱ་	-11.7014
▁བསྐོས་པ	-11.7014
▁འཕྲོད་	-11.7014
▁ཤིས་པ	-11.7014
▁དམའ་བ	-11.7018
▁རྒ་ཤི	-11.7018
▁མ་ཆགས་པ་	-11.7023
▁འབྱུང	-11.7023
▁དུས་བྱ	-11.7028
▁འཁྲི་ཤིང་	-11.7028
▁དམངས་རིགས་	-11.7033
▁བྷྱཿ_	-11.7033
▁ཡུལ་མི་	-11.7043
▁མཆི་བ	-11.7053
▁ཏྲཱ་	-11.7058
▁མཐའ་རྟེན་	-11.7062
▁ཡིད་དཔྱོད་	-11.7072
▁གཟུངས	-11.7077
▁ཞུ་ཆེན་	-11.7077
▁སྤོངས་	-11.7077
▁གདུངས་	-11.7082
▁འགོག་བདེན་	-11.7082
▁ཀུན་བརྟགས་པ	-11.7087
▁ཁལ་	-11.7087
▁ཆིག་	-11.7087
▁ཉན་པ་པོ་	-11.7087
▁ཀུན་ཤེས་པ	-11.7092
▁མ་དད་པ་	-11.7092
▁བསྲེས་པ་	-11.7107
▁བློ་གྲོས	-11.7107
▁མཉམ་རྗེས་	-11.7107
▁ན་ཚུལ་	-11.7112
▁ཤུདྡྷ་	-11.7116
▁ལོངས	-11.7121
▁ནེ	-11.7126
▁གཞི་ནས་	-11.7131
▁བྷེ་	-11.7131
▁ཨང་	-11.7131
▁རྣོ་བ་	-11.7141
▁ཁྱི	-11.7146
▁སྨྱོན་པ་	-11.7146
▁གདོན་བགེགས་	-11.7151
▁གྲུ་བཞི	-11.7151
▁དུས་མཐ	-11.7156
▁འཐད	-11.7156
▁ཡས	-11.7156
▁མ་རུངས་པ་	-11.7161
▁ཡང་སྤྲུལ་	-11.7166
▁མཆོག་མ་	-11.7176
▁སྒྲོན་མེ	-11.7176
▁གཞེས་	-11.7181
▁ཉང་	-11.7186
▁དབང་མེད་	-11.7186
▁རིམ་ཅན་	-11.7186
▁ཁྲོམ་	-11.7191
▁སྔོན་བྱུང་བ་	-11.7196
▁གཡང་ས་	-11.7201
▁ཉག་	-11.7201
▁པདྨོའི་	-11.7201
▁ཚགས་	-11.7201
▁འགྲོ་བ་པོ་	-11.7201
▁རྒྱུ་_	-11.7201
▁བཙུགས	-11.7206
▁བསླུ་	-11.7206
▁སྨྱོ་	-11.7206
▁ཀཽ་	-11.7211
▁འགྲོགས་པ་	-11.7211
▁ཆེ་ཞེ	-11.7216
▁དགང་བླུགས་	-11.7216
▁བསྐོ་བ	-11.7216
▁འཛམ་བུ་གླིང་	-11.7216
▁ལྷོད་	-11.7216
▁སོལ	-11.7221
▁ཀྱི་ཧུད་	-11.7225
▁བཛྲི་	-11.723
▁མ་འཁྲུལ་བ་	-11.723
▁ཚ་གྲང་	-11.724
▁དཔེ་མེད་	-11.725
▁ཕྲོགས་	-11.725
▁འདུས་མ་བྱས་པ	-11.725
▁ཤོ་གམ་	-11.725
▁སེམས་རྒྱུད་	-11.725
▁ཁྭ་	-11.726
▁སྙིང་ཐིག་	-11.726
▁མཐོ	-11.7265
▁ཤོར་བ	-11.7265
▁ཤློ་	-11.727
▁ཆོས་སྲུང་	-11.7275
▁ད་རེས་	-11.728
▁ཞོན་པ་	-11.728
▁ཨཱུ་	-11.728
▁གཤམ་	-11.7285
▁དབང་ཕྱུག_	-11.7285
▁ཞེ	-11.7285
▁ལ་བཏགས་པ	-11.729
▁འཇལ་བ་	-11.7306
▁འཛིན་བྱེད་	-11.7306
▁སྣང་བྱེད་	-11.7306
▁གསན་པ་	-11.7311
▁དྷྭ་	-11.7316
▁མུ་ཁ་	-11.7316
▁སྟ་	-11.7321
▁གཟིམས་	-11.7326
▁དར་རྒྱས་	-11.7326
▁ཉོན་ཡིད་	-11.7331
▁པི་པི་ལིང་	-11.7336
▁ཝཱི་	-11.7336
▁སྤོབས་པ	-11.7336
▁གངས་རི་	-11.7341
▁ཏུའང་	-11.7341
▁འཆད་ཉན་	-11.7341
▁འབྱིན	-11.7341
▁ཀོང་	-11.7346
▁གཅད་པ་	-11.7346
▁བཞི་ཆ	-11.7346
▁ལྟར་_	-11.7346
▁གཟར་	-11.7351
▁བྱ་སྤྱོད་	-11.7351
▁མྱོས་པ་	-11.7351
▁རང་ལྡོག་	-11.7351
▁ཌི་	-11.7356
▁བཞི་པོ	-11.7356
▁ངང་པ	-11.7361
▁མཐོང་བ་པོ་	-11.7366
▁དགང་	-11.7371
▁སྤྲུལ	-11.7381
▁ནད་གཡོག་	-11.7386
▁འདོམ་གང་	-11.7391
▁སྦལ་	-11.7391
▁ནན་ཏུར་	-11.7396
▁བསྐང་བ་	-11.7396
▁ཉིན་བྱེད་	-11.7417
▁བསྡོམས་	-11.7417
▁ཚོགས་_	-11.7417
▁སྙེམས་	-11.7417
▁བརྒྱུད	-11.7422
▁བླངས་ཀྱང་	-11.7422
▁ཥཱ་	-11.7422
▁སྐྱེས་ཆེན་	-11.7422
▁ངང་པ་	-11.7427
▁འཐོར་བ་	-11.7427
▁བརླག་	-11.7432
▁བཾ	-11.7437
▁༣_	-11.7442
▁གི་བ་	-11.7442
▁བཏུས་པ	-11.7442
▁ཀ་བ	-11.7447
▁ཆོག_	-11.7452
▁རེངས་	-11.7452
▁རྦ་རླབས་	-11.7457
▁ལྤགས་	-11.7457
▁ཚོང་	-11.7462
▁འགྲོ་མགོན་	-11.7462
▁ཡུལ་དབུས་	-11.7462
▁དམའ་བ་	-11.7473
▁སོ་མ་	-11.7473
▁གཙིགས་པ	-11.7483
▁སྤྲད་པ་	-11.7483
▁ཐེར་ཟུག་	-11.7488
▁བཀྲ་བ	-11.7488
▁རས་ཡུག་	-11.7488
▁ལས་ལོག་པ	-11.7488
▁བལྟོས་པ	-11.7493
▁འཕགས་མཆོག་	-11.7493
▁གང་ཡོད་	-11.7498
▁བཀྲ་ཤིས	-11.7503
▁གཞི་མ་	-11.7508
▁འཕགས་ཡུལ་	-11.7508
▁ཡོལ་བ	-11.7508
▁གླེང་བ	-11.7514
▁མདོར་ན	-11.7514
▁ཚྭ་	-11.7514
▁ཕབ	-11.7519
▁དེ་_བཞིན་	-11.7529
▁ཐགས་	-11.7534
▁ལྡེ་	-11.7534
▁གྲྭ་པ་	-11.7539
▁མཁོ་	-11.7539
▁ལ་སྟོང་པ་	-11.7544
▁བེམ་པོ་	-11.755
▁ལྟག་ཆོད་	-11.755
▁དེ་སྒྲ་	-11.7555
▁བཞི་ཆ་	-11.7555
▁ཡོན་ཏན	-11.7555
▁སྒྲུབས་	-11.7565
▁མུ་གེ་	-11.757
▁འབྲུ་དང་	-11.757
▁སྤོ་	-11.7575
▁བསླད་	-11.7581
▁བུ་ཆོས་	-11.7581
▁རྗེས་བཟུང་	-11.7581
▁བསྲེ་	-11.7586
▁རང་རྒྱུད་པ་	-11.7586
▁དོན་ལྡོག་	-11.7591
▁རྔུབ་	-11.7591
▁སྐུ་ལྔ་	-11.7591
▁བརྒྱལ་	-11.7596
▁བཤད་ཚུལ་	-11.7601
▁སྡོད་པ་	-11.7601
▁ལམ་མཆོག་	-11.7606
▁སྒྲུབས	-11.7606
▁ཉེས་མེད་	-11.7617
▁འཐུང་བ	-11.7622
▁སྦ་བ	-11.7622
▁བསྣུན་པ་	-11.7627
▁མི་ཕྱེད་པ་	-11.7627
▁ཡིད་བརྟན་	-11.7627
▁སྐྱུར་	-11.7627
▁ཆ་གསུམ་	-11.7632
▁ར་པ	-11.7632
▁མཛའ་བོ་	-11.7637
▁དུས་མཉམ་པ	-11.7643
▁གཟུགས་ཕུང་	-11.7648
▁འཐུན་པ་	-11.7653
▁རྒྱན་ཆ་	-11.7653
▁ཤད་	-11.7653
▁ཁྱབ་བྱ་	-11.7658
▁པད་འདབ་	-11.7658
▁འུར་	-11.7658
▁གདགས	-11.7663
▁ཐོབ་བྱེད་	-11.7663
▁བསྐྱར་	-11.7663
▁པཎ་	-11.7669
▁བདར་	-11.7669
▁རང་གཟུགས་	-11.7669
▁གཞུ	-11.7674
▁གཞོང་	-11.7674
▁འཕུར་	-11.7674
▁ཉེ་དགའ་	-11.7679
▁ཚེ་བུམ་	-11.7679
▁ཟ་མ་ཏོག་	-11.7679
▁སྟེངས་	-11.7679
▁ཕ་རོལ་_	-11.7684
▁བསྒྲེང་	-11.7695
▁ཞབས་བསིལ་	-11.7695
▁འཐོར	-11.77
▁དབྱངས་གསལ་	-11.7705
▁ནྱ་གྲོ་	-11.7705
▁ཞོན་པ	-11.771
▁བྱུང	-11.7716
▁ཤྲ་	-11.7716
▁ཉུང་ངུ	-11.7721
▁ཉག་གཅིག་	-11.7726
▁བསྡོམས་པ	-11.7726
▁མི་ཚེ་	-11.7737
▁ཟས་ནོར་	-11.7737
▁ཚེམས་	-11.7742
▁ཀ་པཱ་ལ་	-11.7752
▁ཁོལ་	-11.7752
▁ན་ཚ་	-11.7752
▁འདུ་འཛི་	-11.7752
▁གསེར་འོད་	-11.7758
▁ལོག་ཤེས་	-11.7763
▁སྨོད་	-11.7763
▁འདོམས་	-11.7768
▁བསྐྱང་བ	-11.7779
▁མ་ཧེ	-11.7779
▁མེད་_པ	-11.7789
▁ཁྲོལ་	-11.7794
▁དཔར་	-11.7794
▁འཕྱང་བ	-11.7794
▁འཛིན་མ་	-11.7794
▁ནག་མོ	-11.78
▁འགུལ་	-11.78
▁འཇལ་བྱེད་	-11.78
▁ཡི་གེ་པ་	-11.78
▁ཚེ་བསོད་	-11.781
▁འབུ	-11.781
▁དཀྱིལ་འཁོར་པ་	-11.7816
▁དབུས་མ	-11.7821
▁མ་གཏོགས	-11.7826
▁འགྱུར་པ་	-11.7826
▁རློན་	-11.7826
▁རློབ་པ་	-11.7837
▁ཉམ་ང་	-11.7842
▁ཕྱག་བཞེས་	-11.7842
▁སྐྱབས་ཡུལ་	-11.7842
▁བརྒལ་བ	-11.7847
▁མཁྲིས་པ	-11.7847
▁མི་སྨྲ	-11.7853
▁ཞབས་པད་	-11.7853
▁འཕྲོས་པ་	-11.7853
▁གྷཱ་	-11.7858
▁ཕལ་པ	-11.7858
▁སྙིགས་དུས་	-11.7858
▁གྷུ་	-11.7863
▁བིགྷྣཱན་	-11.7863
▁རྒྱུ་དུས་	-11.7863
▁གཟུགས་སྐུ	-11.7869
▁ཏུཏྟཱ་	-11.7869
▁ནཱི	-11.7874
▁ཐི་	-11.7879
▁གཏེར་བདག་	-11.7885
▁ལས་མཁན་	-11.7885
▁རྦོད་གཏོང་	-11.789
▁རྩ་མདུད་	-11.789
▁གཟིར་བ་	-11.7895
▁ཕེཾ་	-11.7895
▁མཐོང་ཐོས་	-11.7895
▁ས་པཎ་	-11.7895
▁བསུ་	-11.79
▁མངར་	-11.79
▁ཡོས་	-11.79
▁སྐྱེ་_	-11.7906
▁ཉེས་ལྟུང་	-11.7916
▁ཐབས་ལམ་	-11.7916
▁འཕོས་པ	-11.7922
▁སྒོམ་ཆེན་	-11.7922
▁སྲན་མ་	-11.7922
▁རྨུགས་པ་	-11.7927
▁ཐེག་མཆོག་	-11.7933
▁མངོན་ཞེན་	-11.7933
▁ཉི་ཤུ་པ་	-11.7938
▁བདག་ཉིད	-11.7938
▁དར་བ་	-11.7943
▁སོམས་	-11.7949
▁བཀུར་བ་	-11.7954
▁འགྱུ་	-11.7954
▁ལྟག་	-11.7954
▁ཤ་མ་	-11.7954
▁ཞེས་པ་_	-11.7959
▁འགྱེད་པ་	-11.7959
▁དཔའ་མོ	-11.7965
▁འདུག་སྟངས་	-11.7965
▁འདུད་པ	-11.7965
▁ལུའི་	-11.797
▁དམ་བཅའ་བ	-11.7981
▁རྒྱུད་བླ་མ	-11.7981
▁ཀ་མ་ལ་	-11.7986
▁ལག་ནས་	-11.7986
▁སྟོང་པ་ཉིད་_	-11.7986
▁བཤིག་པ	-11.7992
▁པྲི་	-11.7997
▁མཚལ་	-11.7997
▁རྗེས་འབྲེལ་	-11.7997
▁མར་པ་	-11.8008
▁རྒྱས་བཏབ་པ	-11.8008
▁སེམས་བསྐྱེད	-11.8013
▁འབྱུང་གནས	-11.8018
▁ཁོ	-11.8024
▁གཞིག་	-11.8024
▁གཞན་ལུགས་	-11.8029
▁ཀུན་བཏུས་	-11.8035
▁རབ་དགའ་	-11.8035
▁འགོད	-11.804
▁སྲིད་ཞི་	-11.804
▁དཀྲིས་པ	-11.8045
▁འཕན་	-11.8045
▁གཤེད	-11.8051
▁འཕྲུལ་པ	-11.8051
▁གླིང་བུ་	-11.8056
▁མི་འཆད་པ་	-11.8056
▁ཚུལ་ཁྲིམས	-11.8056
▁འོད་འབར་	-11.8056
▁འབྱོན་	-11.8062
▁ལྕོགས་	-11.8062
▁བོང་བུ་	-11.8067
▁བརྙས་	-11.8078
▁བུ་ནོར་	-11.8078
▁སྭསྟི	-11.8078
▁རང་ས་	-11.8083
▁ལེན་པ་པོ་	-11.8083
▁ཀུཎྜ་	-11.8089
▁མཆེད་པ་	-11.8089
▁ཛཔ྄་	-11.8094
▁ཞིང་ལས་	-11.8094
▁རིལ་བུ	-11.8094
▁སྐོམ་པ	-11.81
▁དྭངས་པ	-11.8105
▁ནོག་	-11.8105
▁འཁྱམས་	-11.8105
▁རྡུང་	-11.8105
▁མུ་སྟེགས་པ་	-11.8116
▁ཚོམ་བུ	-11.8116
▁ཀརྵ་	-11.8121
▁མཐིང་ག་	-11.8127
▁ཚིག་_	-11.8127
▁བརྡའ་	-11.8132
▁ལན་ཆགས་	-11.8132
▁སྒོ་བ་	-11.8132
▁བསླངས་པ	-11.8143
▁ལྕང་ལོ་	-11.8143
▁གཤིན་	-11.8149
▁ཇི་ལྟ་བ	-11.8149
▁ཟོང་	-11.8149
▁བརྐུས་	-11.816
▁ཆོས་བཟོད་	-11.8165
▁ནོད་པ	-11.8165
▁པོ་ཏི་	-11.8165
▁བདེར་གཤེགས་	-11.8165
▁འཁྲུལ	-11.8165
▁ཡུལ་_	-11.8171
▁སྡེ་པ	-11.8176
▁མི་འགལ་བ་	-11.8187
▁འཁྲིག་པ	-11.8187
▁རྒྱགས་པ་	-11.8187
▁དྲི་ཞིམ་པོ	-11.8198
▁ལྟོ་བ	-11.8198
▁དང་པོ་_	-11.8204
▁ལྔ་_	-11.8209
▁ཆོས་ཤེས་པ་	-11.8215
▁ཀེ	-11.822
▁གྱ་	-11.822
▁ནོངས་	-11.822
▁འགྲན་	-11.822
▁སྤྱོད་_	-11.822
▁ཚོགས་ཆེན་	-11.8226
▁ཞི་ལྷག་	-11.8226
▁གིའོ	-11.8231
▁ལྷུག་པ	-11.8231
▁སྒྲོག་པ	-11.8231
▁ཨརྒྷཾ་_	-11.8231
▁_༔_	-11.8237
▁ཙྪ་	-11.8237
▁གཏིང་དཔག་	-11.8242
▁དཔུང་གཉེན་	-11.8242
▁བགོས་པ་	-11.8242
▁དང་ག	-11.8248
▁མངོན་བརྗོད་	-11.8248
▁ནངས་པ	-11.8253
▁ཀུན་བདག་	-11.8259
▁ཀྵེ་	-11.8259
▁གྲུལ་བུམ་	-11.8259
▁དྲི་ཆབ་	-11.8259
▁དྲྭ་བ	-11.8259
▁བཀའ་འབུམ་	-11.8259
▁ཡོལ་	-11.8259
▁མི་བདག་	-11.8264
▁ཁྲིད་པ	-11.827
▁།__༼	-11.8275
▁ཆག་ཆག་	-11.8281
▁ནུས་ལྡན་	-11.8281
▁མདའ་གཞུ་	-11.8286
▁ཞུམ་	-11.8292
▁རྒས་	-11.8308
▁ཧྃ་	-11.8308
▁དབྱར་གནས་པ	-11.8314
▁ཞིག་_	-11.8314
▁སྩལ	-11.8314
▁གྱ་ནོམ་པ་	-11.832
▁བསྲང་	-11.832
▁བྲོས་	-11.832
▁འཚམས་པ	-11.832
▁ཐར་ལམ་	-11.8331
▁གྱུར་_པ	-11.8342
▁དཀར་ཕྱོགས་	-11.8342
▁མཛའ་བཤེས་	-11.8342
▁ལྟ་_	-11.8347
▁ཀླད་པ་	-11.8359
▁ལཱུ་	-11.8359
▁ཅན་པ	-11.8364
▁ཤོར་བ་	-11.8364
▁ནཿ	-11.837
▁འཆབ་	-11.837
▁འཇིམ་པ་	-11.8375
▁སྐྱེས་མཆོག་	-11.8381
▁ཙོང་	-11.8387
▁སྲན་	-11.8387
▁བྱིང་	-11.8392
▁བྲྀ་	-11.8392
▁ལ་སོ	-11.8392
▁གསར་རྙིང་	-11.8398
▁ཏཱིའི་	-11.8398
▁དབང	-11.8398
▁བསྐོས་པ་	-11.8403
▁མཐའ་_	-11.8409
▁རཀྵི་	-11.8409
▁བློ་འདས་	-11.8415
▁ཡོངས་ཤེས་	-11.8415
▁ས་བཅད་	-11.8415
▁རྔ་བོ་	-11.842
▁བཏབ་བོ	-11.8426
▁ཤིན་ཏུ་_	-11.8426
▁ཐུང་བ་	-11.8431
▁བཟ	-11.8431
▁དཀའ་འགྲེལ་	-11.8437
▁ཕྱོགས་མཐུན་	-11.8437
▁འཇུག་_	-11.8437
▁ཐ་ཆུང་	-11.8443
▁ལེགས་ཉེས་	-11.8448
▁བར་མ་དོ	-11.8454
▁མི་གང་	-11.8454
▁རས་ཆེན་	-11.8454
▁ཅང་ཏེའུ་	-11.846
▁མཚན་ཉིད་པ	-11.846
▁བགེགས	-11.8465
▁རྭ	-11.8465
▁ཤྱ་	-11.8465
▁ཕྱིས	-11.8471
▁བརྟུལ་	-11.8471
▁བུདྡྷཱ་	-11.8471
▁ཞུན་མར་	-11.8471
▁དལ་བ་	-11.8476
▁ནཱ་མ	-11.8476
▁མིང་དོན་	-11.8476
▁བཅུ་དྲུག་པོ་	-11.8482
▁རྒྱུ་མཚན	-11.8482
▁ཆེ་གེ་མོ	-11.8488
▁གཞིག་པ	-11.8493
▁གཱི་	-11.8493
▁མཐའ་འཁོབ་	-11.8493
▁ཨུ་རྒྱན་	-11.8493
▁ལྡོག་ཁྱབ་	-11.8499
▁རྙིང	-11.8505
▁སྣོད	-11.8505
▁ཉེ་རིང་	-11.851
▁ཞེན་ཡུལ་	-11.851
▁སླེབ་	-11.851
▁གོང་འཕེལ་	-11.8516
▁བསྐྱངས་པ	-11.8516
▁འཛིན་_	-11.8516
▁ཚང་མ་	-11.8522
▁སྲེག་པ་	-11.8522
▁བྱུང་ཚུལ་	-11.8533
▁ཟུག་པ	-11.8533
▁ལྷུམས་	-11.8533
▁གེགས་བྱེད་	-11.8539
▁བཛྲཱ་	-11.8539
▁འབྲུག་སྒྲ་	-11.8539
▁ལས་རྒྱ་	-11.8544
▁ལིངྟ་	-11.8544
▁ག་པུར་	-11.8562
▁འགྲིག་	-11.8562
▁ལས་འཕྲོ་	-11.8562
▁སྐྱེས་_	-11.8562
▁སྐྱེལ་	-11.8567
▁གཤོག་	-11.8573
▁བསྐྱབ་པ	-11.8579
▁བསྙད་	-11.8579
▁མི་མགོ་	-11.8579
▁ཙམ་_	-11.8579
▁བཏོན་པ	-11.8584
▁གཡོགས་པ	-11.859
▁གྱེས་པ	-11.859
▁དངོས་པོ་_	-11.859
▁མཐུན་དཔེ་	-11.859
▁ཙཀ་	-11.859
▁ཡར་ངོ	-11.859
▁དུ་ཞིག་	-11.8596
▁ཚིམ་པ་	-11.8596
▁གཡེལ་	-11.8601
▁ངོས་བཟུང་བ	-11.8601
▁དྭགས་པོ་	-11.8601
▁མཆོད་ནས	-11.8601
▁རྔམ་པ	-11.8601
▁ག་བ་	-11.8607
▁ཏིང་ངེ་འཛིན	-11.8607
▁བསྟུན་པ	-11.8607
▁འབབ་ཆུ་	-11.8607
▁སྒྲོགས	-11.8613
▁ཁཎྜ་	-11.8619
▁ཤེས་རབ	-11.8624
▁ཧུྃ་	-11.8624
▁བཟང་སྐྱོང་	-11.863
▁མི་མ་ཡིན་པ	-11.863
▁སྲིན་བུ	-11.863
▁ཕྱིན་པ་_	-11.8636
▁བླུན་པོ	-11.8636
▁བརྗེད་པ་	-11.8642
▁བགྲངས་	-11.8647
▁བསྐུམ་	-11.8647
▁མྱོས་བྱེད་	-11.8647
▁རྐྱེན་ངན་	-11.8647
▁བྱུང་_	-11.8653
▁སྐོམ་པ་	-11.8653
▁དབྱུག་པ	-11.8659
▁འཛུགས་	-11.8659
▁མཐེ་བོ	-11.867
▁ཚངས་རིས་	-11.867
▁ཉེན་པ་	-11.8676
▁སྙེ་མ་	-11.8676
▁དམུས་ལོང་	-11.8682
▁བསང་གཏོར་	-11.8682
▁འཚོ་བྱེད་	-11.8682
▁འབྲི་གུང་	-11.8688
▁རྐུ་བ་	-11.8688
▁རྣལ་འབྱོར་_	-11.8688
▁སྐད་དོད་	-11.8688
▁སྤུ་གྲི	-11.8688
▁ཇི་སྲིད་པ	-11.8699
▁ཐེག་པ་པ	-11.8699
▁སྒྲོམ་	-11.8699
▁རཀྟའི་	-11.8705
▁དེ་ཡང་_	-11.8722
▁ནོར་རྫས་	-11.8722
▁ཀོ྅་	-11.8728
▁ཀླས་པ	-11.8728
▁རྔམས་	-11.8728
▁དཀར་སེར་	-11.8734
▁འུ་	-11.8734
▁ཤོང་	-11.8734
▁ཀུན་སྤངས་	-11.874
▁རོ་_	-11.874
▁ཤ་ཟ	-11.874
▁སུཾ་	-11.874
▁།།_།།__	-11.8745
▁གདུངས་པ	-11.8745
▁བལྟམས་པ་	-11.8745
▁ཚིག་པ	-11.8745
▁ཁུང་བུ་	-11.8757
▁ཐར་བ་	-11.8757
▁ཕྱི་དྲོ་	-11.8757
▁བརྩམ	-11.8757
▁འཇིག	-11.8757
▁ཕན་གནོད་	-11.8763
▁བསྲེགས	-11.8769
▁དགག	-11.8774
▁བཞད་པ་	-11.8774
▁མཁན་སློབ་	-11.8774
▁ཁྱེར	-11.878
▁རྐུན་པོ་	-11.878
▁གཉིད་ལོག་	-11.8786
▁དཔལ་འབར་	-11.8786
▁མ་ཏི	-11.8786
▁རྐུ་	-11.8786
▁མཱི་	-11.8792
▁ཚར་གཅོད་པ	-11.8792
▁ཚོད་མ་	-11.8792
▁འཕགས་མ	-11.8792
▁འགྲིབ་པ	-11.8798
▁ནོན་པ་	-11.8804
▁འདི་པ་	-11.8804
▁རྗེ་ས་	-11.8804
▁ཙ་པ་	-11.8809
▁དྲིས་ལན་	-11.8815
▁ཚུད་པ	-11.8815
▁ཚེ་སྲོག་	-11.8815
▁།།_༄༅།	-11.8821
▁འཐོར་བ	-11.8821
▁འཆལ་པ	-11.8827
▁ངེས་ལེགས་	-11.8833
▁ཆེས་པ་	-11.8833
▁ཚིག་གསལ་	-11.8833
▁འགྲོལ་	-11.8833
▁བསྐལ་	-11.8839
▁འདག་	-11.8839
▁འབྱེད	-11.8839
▁།_།།	-11.8845
▁ཁ་ན་མ་ཐོ་	-11.8845
▁བསྐལ་བ་	-11.8845
▁སྔོན་རོལ་	-11.8845
▁སླེབས་	-11.885
▁བ་ཤེ	-11.8856
▁གདུགས་ཚོད་	-11.8862
▁དར་མ་	-11.8862
▁མཛད་_	-11.8862
▁ཛྷ་	-11.8862
▁བཅས་_	-11.8868
▁རྩང་	-11.8868
▁སྤྲེལ་	-11.8868
▁༩	-11.8874
▁ཇོ་མོ་	-11.8874
▁དྷཱིཿ	-11.8874
▁ཕྱི་རབས་	-11.888
▁བང་	-11.888
▁སྔོ་བསངས་	-11.888
▁མཚན་ཉིད་_	-11.8886
▁ཡོ	-11.8886
▁རྫོགས་བྱེད་	-11.8892
▁ལམ་བཟང་	-11.8892
▁སུམ་ཅུ་རྩ་གསུམ་པ	-11.8892
▁གནས་ཆེན་	-11.8897
▁ནང་པ་	-11.8897
▁ཕྱོགས་གླང་	-11.8897
▁རྐེད་པ་	-11.8897
▁ལྷ་ང་	-11.8897
▁བུ་སློབ་	-11.8903
▁ཀ་རུ་	-11.8909
▁འཆལ་བ	-11.8909
▁ཆོས་གྲྭ་	-11.8915
▁བསྐྲུན་པ	-11.8915
▁འགྱུ་བ་	-11.8915
▁རོ་པ་	-11.8915
▁ཁྲ་བོ་	-11.8921
▁ཕྱིར་རྒོལ་བ་	-11.8921
▁བརྒྱལ་བ་	-11.8921
▁ཆུ་སྲང་	-11.8927
▁ཆོ་ག_	-11.8927
▁བར་མཚམས་	-11.8927
▁མཁོ་བ་	-11.8927
▁འགྲེལ་བ་	-11.8927
▁བསེ་	-11.8933
▁ཚལ་པ་	-11.8933
▁ཏིག་	-11.8939
▁འབྲེལ	-11.8945
▁རྩུབ་པ	-11.8945
▁འདི་འདྲ་བ་	-11.8951
▁ཤོག_	-11.8951
▁རྗེས་འཛིན་	-11.8956
▁ཤང་	-11.8956
▁མགྱོགས་པ	-11.8962
▁མལ་ཆ་	-11.8962
▁ཁེབས་པ	-11.8968
▁ཐུང་ངུ	-11.8968
▁བསུ་བ་	-11.8968
▁ཕྱི་རིམ་	-11.8974
▁མྱང་བ	-11.8974
▁ཀོ་ས་ལ	-11.898
▁ཁད་	-11.898
▁དྲལ་	-11.898
▁རང་སྟོང་	-11.898
▁རྒྱགས་	-11.898
▁པྲེ་	-11.8986
▁འཕྲོད་པ་	-11.8986
▁རེ་ཙམ་	-11.8986
▁བྱུ	-11.8992
▁འཇའ་འོད་	-11.8992
▁ཤྲཱི	-11.8992
▁གློད་	-11.8998
▁དོ་ནུབ་	-11.8998
▁བསྐྱལ་	-11.8998
▁སྦར་བ	-11.8998
▁པུཀྐ་	-11.9004
▁མ་བཅོས་པ	-11.901
▁ཐོ་བ	-11.9016
▁སྦ་	-11.9016
▁ནོར	-11.9022
▁བཀའ	-11.9022
▁སྟོན་ཀ	-11.9022
▁གཞུག_	-11.9028
▁ཕྲུགས་	-11.9028
▁གདན་ས	-11.9034
▁བྱུགས་པ་	-11.9034
▁ཨཱོཾ་	-11.9034
▁༩༧་	-11.904
▁མང་ཉུང་	-11.904
▁དུས་ཚིགས་	-11.9046
▁ཐུང་བ	-11.9052
▁ནང་_	-11.9052
▁ཡལ་འདབ་	-11.9052
▁ཨེ་མ་ཧོ	-11.9052
▁འབྱམས་	-11.9058
▁ས་སྐྱོང་	-11.9058
▁མཛུབ་	-11.9064
▁མིན་ནམ་	-11.9064
▁ཞིང་བདག་	-11.9064
▁འཛིན་མ	-11.9064
▁ལྡན་པ་_	-11.9064
▁གར་མཁན་	-11.907
▁འཁྲུགས	-11.907
▁འབྲི	-11.907
▁སྡུག་བསྔལ་_	-11.907
▁སྲ་བ	-11.907
▁བསླབ་བྱ	-11.9076
▁རྣམ་རྒྱལ	-11.9076
▁ཨཱོྃ་	-11.9076
▁དབང་དོན་	-11.9082
▁མྱེ	-11.9088
▁འཆི་ཁ	-11.9088
▁སྐྱབས་གསུམ་	-11.9094
▁གལ་ཏེ་_	-11.91
▁གཡུལ་ལས་	-11.9106
▁གུ	-11.9106
▁ནགས་ཁྲོད་	-11.9106
▁མ་རུངས་པ	-11.9106
▁གྷོ་	-11.9112
▁དར་ལ་	-11.9112
▁བཀྱེ་	-11.9112
▁འདུ་བྱེད་པ	-11.9112
▁འོད་འཕྲོ་	-11.9112
▁ཚོམས་	-11.9118
▁སྲེག་བླུགས་	-11.9124
▁ངལ་བ	-11.913
▁རིང་ལུགས་	-11.913
▁སྤྲས་པ་	-11.913
▁གཙྪ་	-11.9142
▁ངོམས་	-11.9142
▁བརྒྱད་_	-11.9142
▁ཟག་	-11.9142
▁སོ་_	-11.9148
▁སྔས་	-11.9154
▁ཁམས་པ་	-11.916
▁གཡོན་ཕྱོགས་	-11.916
▁གསར་པ	-11.916
▁འདོད་ཚུལ་	-11.9166
▁ཁྲིའུ་	-11.9172
▁གཡོན	-11.9172
▁ཤཱཀ་	-11.9184
▁དངོས་འཛིན་	-11.9196
▁ཡུག་	-11.9196
▁རྟེན་བྱེད་པ	-11.9196
▁བཙན་ཐབས་	-11.9208
▁གོ་མི་	-11.9215
▁ར་་་་་་	-11.9215
▁རོ་ཙ་	-11.9215
▁རྩ་ལག་	-11.9215
▁ང་རྒྱལ་ཅན་	-11.9221
▁མཆན	-11.9221
▁མཆན་ཁུང་	-11.9221
▁གྲངས	-11.9227
▁ཌ	-11.9227
▁ཐེབས་པ	-11.9227
▁བླུག་	-11.9227
▁མཆེད་པ	-11.9227
▁འཆག་	-11.9227
▁སྐྱབས་འགྲོ	-11.9227
▁.-_	-11.9233
▁རེངས་པ་	-11.9233
▁ཕྱེད	-11.9239
▁ཀཱ་ལི	-11.9245
▁ཀྱེ་མ	-11.9245
▁ཁེགས་པ་	-11.9245
▁གུར་ཁང་	-11.9245
▁རླུང་ནད་	-11.9245
▁གར་སྟབས་	-11.9257
▁གཏེར་སྲུང་	-11.9263
▁དེ་བས་ན	-11.9263
▁རང་བབས་	-11.9263
▁སྤྱི་བླུགས་	-11.9263
▁བཀྲམ་པ	-11.9269
▁བདོག་པ་	-11.9269
▁འབྲི་བ་	-11.9269
▁མུཿ	-11.9275
▁ཧཱུཾ་_	-11.9275
▁ཞལ་ལ	-11.9282
▁མ་འཚལ་	-11.9288
▁འཕོ་འགྱུར་	-11.9288
▁ཊཱ་	-11.9294
▁འཕར་བ་	-11.9294
▁ནམ་ཕྱེད་	-11.93
▁སྒེག་པ་	-11.93
▁-_.	-11.9306
▁མདུད་	-11.9306
▁ཚོ	-11.9306
▁སྒྲིག་	-11.9306
▁ཅི་_	-11.9312
▁ཁྱོད་_	-11.9318
▁ངུ་འབོད་	-11.9318
▁ལམ་གཉིས་	-11.9325
▁རྫ་	-11.9331
▁སྐུ་གསུང་ཐུགས	-11.9331
▁སྦེད་	-11.9331
▁ཨན་	-11.9331
▁།་་་་་_	-11.9337
▁གཡོགས་པ་	-11.9337
▁དྲི་ཆེན་	-11.9337
▁ཕ་_	-11.9337
▁བསྒྲིམས་	-11.9337
▁འཛིན་རྣམ་	-11.9337
▁གནག་པ་	-11.9343
▁ཀི	-11.9349
▁ཤིང་ཀུན་	-11.9349
▁བཅུ་_	-11.9355
▁རིམ་བཞིན	-11.9355
▁སེན་	-11.9355
▁སྙིང་ཁྲག་	-11.9355
▁དུད་པ	-11.9361
▁བཙུགས་པ་	-11.9361
▁མཆོག་ཉིད་	-11.9361
▁ཀྲྀཏ་	-11.9368
▁གཞོལ་	-11.9368
▁ཎཱི་	-11.9368
▁དབུལ་པོ་	-11.9368
▁ཚིག་འབྲུ་	-11.9368
▁ལས་རྒྱ	-11.9368
▁སྣང་གསལ་	-11.9368
▁ཁ་རྒྱན་	-11.9374
▁འབྲས་བུ་_	-11.938
▁དགེ་མཚན་	-11.9386
▁རྒྱལ་རབས་	-11.9386
▁བརྫུས་	-11.9392
▁འདོད་ཉོན་	-11.9392
▁ཕྱིན་_	-11.9399
▁སྒེག་མོ་	-11.9399
▁བརྒྱ་པོ་	-11.9405
▁འདོམ་	-11.9405
▁༽་༼	-11.9417
▁ཁྲོ་མོ	-11.9417
▁བསླུ་མེད་	-11.9417
▁སྟི	-11.9417
▁གནོད	-11.9423
▁པྲཱ་	-11.9423
▁མི་མ་ཡིན་	-11.9423
▁ཤེད་ཅན་	-11.9423
▁སྐྱོན་ཡོན་	-11.943
▁༧་	-11.9436
▁བཤམས་པ	-11.9436
▁མཱཾ	-11.9436
▁འཐེན་	-11.9436
▁གོས	-11.9442
▁བཞོན་པ	-11.9442
▁ཝེ་	-11.9442
▁མནར་མེད་པ	-11.9448
▁རྐྱང་མ་	-11.9448
▁ཆུ་ཤེལ་	-11.9461
▁ཚུད་	-11.9461
▁འཕོ	-11.9461
▁དྲུག་_	-11.9467
▁འགྱིང་	-11.9467
▁འཇུག_	-11.9467
▁སྟེགས་བུ	-11.9467
▁རྣམ་དཀར་	-11.9473
▁ལྷ་བཤོས་	-11.9473
▁ཕ་རྒྱུད་	-11.9479
▁འཁྲིལ་	-11.9479
▁རུ་རུ་	-11.9479
▁ལྗོན་པ	-11.9479
▁གཡོ་སྒྱུ་	-11.9486
▁ཆ་མཉམ་	-11.9486
▁ཕུང་བ	-11.9486
▁བྱར་རུང་	-11.9492
▁རྒྱུད་བླ་མ་	-11.9492
▁སྲོག་གཅོད་པ	-11.9492
▁བལ་པོ་	-11.9498
▁འགོ་བ	-11.9498
▁ཉི་ཤུ་པ	-11.9504
▁བདེ་_	-11.9504
▁མི་ལྟ་བ	-11.9504
▁རྟོན་པ་	-11.9504
▁ཆུད	-11.9511
▁ཡུངས་དཀར་	-11.9511
▁སྔོན་བཞིན་	-11.9511
▁དོན་ཡོད་པ་	-11.9517
▁མངར་གསུམ་	-11.9517
▁ཟག་པ	-11.9517
▁མཆིལ་མ་	-11.9523
▁ཛུ་	-11.9523
▁ཉི་ཟེར་	-11.9536
▁བསྐྲུན་	-11.9536
▁མར་ཁུ་	-11.9536
▁ཛམ་	-11.9536
▁རློན་པ་	-11.9542
▁སྣང་_	-11.9542
▁ཧ་ལ	-11.9548
▁ཁི་	-11.9555
▁གློ་བུར་བ་	-11.9555
▁རྒས་པ་	-11.9555
▁མཛེས་མ་	-11.9561
▁ལས་ཚིག་	-11.9567
▁ལྟ་སྤྱོད་	-11.9573
▁བསྙད་པ	-11.958
▁འཕྲེང་བ	-11.958
▁རྒྱ་སྐྱེགས་	-11.9586
▁།་།_	-11.9592
▁དོམ་	-11.9592
▁གཅོད་བྱེད་	-11.9599
▁གཡེངས་	-11.9599
▁ཤ་བ་	-11.9605
▁སྙོམས་པ་	-11.9605
▁གདུགས་དཀར་	-11.9611
▁ཞུན་	-11.9611
▁སྤྲིན་ཆེན་	-11.9611
▁བཅད་ཤེས་	-11.9618
▁འདྲིལ་	-11.9618
▁བསྲེག	-11.9624
▁ཆ་ལག་	-11.963
▁འཕོས་པ་	-11.963
▁ཕོངས་	-11.9643
▁རྫུན་པ་	-11.9643
▁ལྕག་	-11.9643
▁སིཾ་	-11.9643
▁སྐོར་བ་	-11.9643
▁སྡུས་	-11.9643
▁འཐབ་བྲལ་	-11.9649
▁བཅོལ་པ	-11.9656
▁བསླབ	-11.9656
▁འབེབ་	-11.9656
▁གཟོད་	-11.9662
▁འོངས	-11.9662
▁ཁྱད་པར་_	-11.9668
▁འཆལ་	-11.9668
▁འོ་སྐོལ་	-11.9668
▁རུམ་	-11.9668
▁སྦས་དོན་	-11.9668
▁ཁྲམ་	-11.9675
▁ཉེས་སྤྱོད་	-11.9675
▁ཐེ་	-11.9675
▁དཀོན་པ	-11.9675
▁བཀའ་_	-11.9675
▁ཙམ་པོ་	-11.9675
▁འབྲས	-11.9675
▁བྲན་མོ་	-11.9681
▁འདི་པ	-11.9681
▁ནག་པོ་པ	-11.9688
▁ཚེས་གྲངས་	-11.9688
▁སྣ་རྩེ	-11.9688
▁བདེན་སྟོང་	-11.9694
▁རན་	-11.9694
▁རྒྱུད་_	-11.9694
▁གྷསྨ་	-11.97
▁མཐོ་གང་	-11.97
▁ཞིབ་མོ་	-11.97
▁བསྐོལ་བ་	-11.9707
▁འོད་མ	-11.9707
▁གླ་རྩི་	-11.9713
▁རཱུ་	-11.9713
▁ཀློང་ཆེན་	-11.9719
▁ཟ་མ་	-11.9719
▁ཤུ་དག་	-11.9719
▁ཕྱི་མོ་	-11.9726
▁བཀྲུ་བ་	-11.9726
▁མཁྲིས་	-11.9726
▁མེ་འོད་	-11.9726
▁སེན་མོ	-11.9732
▁རྔུབ་པ་	-11.9739
▁རྨ	-11.9739
▁མངོན་མཐོ་	-11.9745
▁སྐུད་པ	-11.9745
▁ཉེ་བར་_	-11.9751
▁དཀར་གསུམ་	-11.9751
▁བྱི་བ་	-11.9751
▁བཙུགས་པ	-11.9758
▁ཤེད་བདག་	-11.9758
▁དྲིལ	-11.9764
▁དེ་བཞིན་ཉིད	-11.9771
▁སྔོ་བ་	-11.9771
▁དཔག་མེད་པ	-11.9777
▁དབྱར་ཟླ་	-11.9777
▁མས	-11.9777
▁གཏེར་ཁ་	-11.9784
▁བྷྱ་	-11.9784
▁མཚར་	-11.9784
▁འམ་_	-11.9784
▁ཡུརྫྙཱ་	-11.9784
▁/-_0	-11.979
▁བྱུག	-11.979
▁འོག་རླུང་	-11.979
▁ཨ་ཞེ	-11.979
▁སྒྲ་སྙན་	-11.9796
▁སྤྱན་གཟིགས་	-11.9796
▁གར	-11.9803
▁དཔའ་བ་	-11.9803
▁བྷྲཱུྃ	-11.9803
▁ངོ་བོ་_	-11.9809
▁ཚོགས་བདག་	-11.9809
▁འདི་འདྲ་བ	-11.9809
▁རངས་པ	-11.9809
▁སྔོན་བྱུང་	-11.9809
▁བསྐྱབ་	-11.9816
▁ལུས་སྲོག་	-11.9816
▁རྗེས་_	-11.9822
▁བག་ཙམ་	-11.9829
▁བསྔལ་	-11.9829
▁འདི་ཁོ་ན	-11.9829
▁རུའི་	-11.9829
▁གཏམ་རྒྱུད་	-11.9835
▁འཇོག	-11.9835
▁ཐག	-11.9842
▁ནད་མེད་པ་	-11.9842
▁ཞིང་ཆེན་	-11.9842
▁ཚངས་བུག་	-11.9848
▁འང་_	-11.9848
▁ལྐོག་ཤལ་	-11.9848
▁ཁྲུས་གསོལ་	-11.9855
▁སྡུག་_	-11.9855
▁དབལ་	-11.9861
▁རིག་_	-11.9861
▁ཉེན་ཀོར་	-11.9874
▁ཡཾ	-11.9881
▁ལྷ་ས	-11.9881
▁གླུ་གར་	-11.9887
▁བྲེགས་	-11.9887
▁རན་པ	-11.9887
▁མཐེབ་སྲིན་	-11.9894
▁བདག་ཉིད་_	-11.99
▁འདག་པ	-11.99
▁རྒྱུན་མཐ	-11.99
▁སླེབ་པ་	-11.99
▁གཏུགས་པ	-11.9907
▁ངེས་མེད་	-11.9907
▁ཕྱིར་ཞིང་	-11.9907
▁བློ་ཡུལ་	-11.9907
▁དར་དཔྱངས་	-11.9913
▁ཡེ་_	-11.9913
▁བཀྲུ་	-11.992
▁འཁྲུངས་པ་	-11.992
▁རང་ཆས་	-11.9926
▁སེམས་_ཅན་	-11.9926
▁སྐྱོངས	-11.9926
▁བཀྲལ་བ	-11.9933
▁འགྲེས་	-11.9933
▁འཇིགས	-11.9933
▁འབྲས་_	-11.9933
▁ཁྲོན་པ་	-11.9946
▁བོད་པ	-11.9952
▁འགྲིབ་	-11.9952
▁རྩོད་གཞི་	-11.9952
▁སྐོང་བ	-11.9959
▁ཁོ་མོ་	-11.9965
▁ངང	-11.9965
▁ཉི་ཤུ་རྩ་གཉིས་	-11.9965
▁མཆོག་ཐོབ་	-11.9965
▁རིལ་བ་	-11.9965
▁རྫུས་	-11.9972
▁སྤང་ལྟུང་	-11.9972
▁ཚིག་རྩུབ་	-11.9979
▁རླན་	-11.9979
▁བཀྲེས་སྐོམ་	-11.9985
▁བོས་པ་	-11.9985
▁ཞལ་ལུང་	-11.9985
▁སམྦྷ་	-11.9985
▁དངོས་མིང་	-11.9992
▁སཽ་	-11.9992
▁མཆུ	-11.9998
▁འཐབ་པ	-11.9998
▁སྐུར	-11.9998
▁སྦྲེལ་བ	-11.9998
▁ཨོཾ་_	-12.0005
▁ཁྱད་འཕགས་	-12.0011
▁གྱུར་པ་_	-12.0011
▁རང་འདོད་	-12.0018
▁སྲིད་རྩེ་	-12.0018
▁བགྲངས་པ	-12.0025
▁བེར་	-12.0025
▁བྱི་བ	-12.0025
▁སྣམ་བུ	-12.0025
▁མཛུབ་མོ	-12.0031
▁གསོད་བྱེད་	-12.0044
▁དམ་_	-12.0044
▁བསྒྲལ	-12.0044
▁དྭ་	-12.0051
▁བསྣན་པ་	-12.0051
▁སྡོང་	-12.0051
▁ལ་དུག་	-12.0058
▁གཡོ་མེད་	-12.0064
▁མཆོད་འབུལ་	-12.0064
▁རྐུ་བ	-12.0064
▁བཏིང་བ་	-12.0071
▁རྩ་_	-12.0071
▁ཀླ་ཀློ	-12.0077
▁ལོ་འདབ་	-12.0084
▁གླེང་བ་	-12.0091
▁དངོས་རྒྱུ་	-12.0091
▁རློག	-12.0091
▁ཧ་ས་	-12.0091
▁གྲོགས་པོ	-12.0097
▁མ་ཆགས་པ	-12.0097
▁མཚན་ཉིད་གསུམ་	-12.0097
▁མཚམས་མེད་པ	-12.0097
▁ཉེ་སྙིང་	-12.0104
▁རྨུགས་	-12.0104
▁སྔ་དྲོ	-12.0104
▁སྤ་	-12.0104
▁ཆུ་སེར་	-12.0111
▁ནམ་_	-12.0111
▁བཅུ་དགུ་	-12.0111
▁ཟབ	-12.0111
▁གླེན་པ་	-12.0117
▁འབད	-12.0124
▁ཕུལ་བྱུང་	-12.0131
▁བྷྲཱུཾ་	-12.0131
▁སྱ	-12.0131
▁ཐུགས་སྲས་	-12.0137
▁ཐོད་སྐམ་	-12.0137
▁ཤིང་སཱ་ལ་	-12.0137
▁ཤུདྡྷཿ	-12.0137
▁གཏན་པ་	-12.0144
▁དྲ	-12.0144
▁བདུག་	-12.0144
▁བྷཻ་	-12.0144
▁རྟོགས་_	-12.0144
▁སྐྱེ་སྲིད་	-12.0144
▁གཅེར་བུ་པ་	-12.0157
▁དགའ་མོ	-12.0157
▁ཚང་ཚིང་	-12.0157
▁ཟུག་པ་	-12.0157
▁རླངས་	-12.0157
▁བོང་བུ	-12.0164
▁ཟློས་གར་	-12.0171
▁ཏྲེ་	-12.0177
▁དགའ་_	-12.0177
▁བེའུ་	-12.0177
▁འདོམས་པ	-12.0177
▁དབེན་གནས་	-12.0184
▁ལོས་	-12.0184
▁རྨིས་	-12.0191
▁སྐུ་རྡོ་རྗེ	-12.0191
▁ཙ་ར་	-12.0197
▁ཚིག་ཕྲད་	-12.0197
▁ཡུལ་མེད་	-12.0197
▁སྐས་	-12.0197
▁བླུགས་པ་	-12.0204
▁བསམ་བརྗོད་	-12.0211
▁ལོ་ཐོག་	-12.0218
▁དམའ་	-12.0238
▁རུལ་	-12.0238
▁དཔག་ཡས་	-12.0245
▁པུཥྚིཾ་	-12.0245
▁ཕྱི་རུ་	-12.0245
▁ལུགས་འབྱུང་	-12.0251
▁ནི་སྒྲ	-12.0258
▁ཀྵི་	-12.0265
▁དགྲ་སྟ་	-12.0265
▁དབང་རྣོན་	-12.0265
▁ཡམ་	-12.0265
▁ཏཻ་	-12.0271
▁ཕྱུངས་	-12.0271
▁ལ་དུ་	-12.0271
▁ལེབ་	-12.0271
▁མངལ་སྐྱེས་	-12.0278
▁ཞིང་མཆོག་	-12.0278
▁ཐུམ་	-12.0285
▁མཛའ་བ་	-12.0285
▁འགྲོ་_	-12.0285
▁ས་གོང་	-12.0285
▁ད་ལྟ་བ་	-12.0292
▁ཆ་ཙམ་	-12.0305
▁བརྗེ་བ	-12.0305
▁འདི་སྐབས་	-12.0305
▁དཔྱོད་ལྡན་	-12.0312
▁བཀླག་	-12.0312
▁མ་ནུ་	-12.0312
▁འཁོར་ཡུག་	-12.0312
▁བགེགས་གཏོར་	-12.0319
▁དགའ་རབ་	-12.0332
▁བཏགས་པ་བ་	-12.0332
▁ཟོ་	-12.0332
▁ལྷ་ཆེན་པོ་	-12.0332
▁སོས་པ	-12.0332
▁སྐལ་བ	-12.0332
▁ཉི་འོད་	-12.0339
▁རོལ་བ	-12.0339
▁སྐུ་ཕྲེང་	-12.0339
▁སྷོ	-12.0339
▁ཁམ་ཕོར་	-12.0346
▁དམོད་པ་	-12.0346
▁བགོ་བ་	-12.0346
▁ལ་ཆ	-12.0346
▁བཀླགས་	-12.0353
▁རྙིང་མ	-12.0353
▁སྙད་	-12.0353
▁སླེབ་པ	-12.0353
▁ཁྃ་	-12.036
▁མཚན་དཔེ་	-12.036
▁འཁྲིགས་པ	-12.036
▁དུས་བཞི་	-12.0367
▁ལན	-12.0373
▁ཁྱིམ་ཐབ་	-12.038
▁གང	-12.038
▁སྤྱོད་ཚུལ་	-12.0387
▁འཆའ་བ	-12.0394
▁འོང་ཞིང་	-12.0394
▁བཅག་	-12.0401
▁མོན་	-12.0401
▁འགའ་རེ་	-12.0401
▁སྒྲོ་སྐུར་	-12.0401
▁མིག་དམར་	-12.0408
▁སླུ་	-12.0408
▁རྩེད་མོ་	-12.0414
▁གཡས	-12.0421
▁བསྡེབས་	-12.0421
▁བཅོ་ལྔ་པ	-12.0428
▁བསྟན་འགྲོ	-12.0428
▁ག་བུར་	-12.0435
▁གྲུ་པ	-12.0435
▁ཐལ་སྦྱར་	-12.0435
▁བུང་བ	-12.0435
▁ཚོགས་ཆེན་པོ་	-12.0435
▁ཁོ་མོ	-12.0442
▁གསིལ་	-12.0442
▁གེགས་བྱེད་པ	-12.0442
▁ཕཊཿ_	-12.0442
▁རྩིག་	-12.0449
▁ལ་འོག་	-12.0449
▁བརྟན་གཡོ་	-12.0456
▁སྙོམས་པ	-12.0456
▁ཉིད་རང་	-12.0462
▁དྷརྨཱཿ	-12.0462
▁འོད་_	-12.0462
▁ངེས་_	-12.0469
▁བརྒལ་བ་	-12.0469
▁འ་	-12.0469
▁ཡུལ་དྲུག་	-12.0469
▁རྔོ་	-12.0469
▁རྫུན་པ	-12.0469
▁ཁོང་སྟོང་	-12.0483
▁བཟའ	-12.049
▁བརྐྱངས་	-12.049
▁བིདྱཱ་	-12.049
▁བི་མ་ལ་	-12.0497
▁མན་ངག_	-12.0497
▁སྒྲོལ་བ་	-12.0497
▁ནེའུ་ལེ་	-12.0504
▁བཙོ	-12.0504
▁འཆལ་པ་	-12.0504
▁གདེངས་ཀ་	-12.0511
▁སྟོད་སྨད་	-12.0511
▁ཨཿ_	-12.0511
▁ནང་མ་	-12.0518
▁ནི་གུ	-12.0518
▁མྱང་བ་	-12.0518
▁མགུལ་ཆིངས་	-12.0525
▁ཀ_	-12.0532
▁གླིང་བཞི	-12.0532
▁བརྡུངས་པ	-12.0532
▁རང་བཟོ	-12.0532
▁སྐྱེས་རབས་	-12.0532
▁མནལ་ལམ་	-12.0539
▁ཡོངས་_སུ་	-12.0539
▁ལྷ་གནས་	-12.0539
▁གཅེར་བུ	-12.0545
▁གདམ་ངག་	-12.0552
▁གཞན་སྟོང་	-12.0559
▁དད་གུས་	-12.0559
▁བྱ་ན	-12.0559
▁འཕྲོད་པ	-12.0559
▁རྩ་དབུ་མ་	-12.0559
▁སྲོག་རྩ་	-12.0559
▁གཤོག་པ་	-12.0566
▁མཐའ་ཅན	-12.0566
▁མྱ་	-12.0566
▁ལྗང་ཁུ	-12.0566
▁འདོད་མ་	-12.0573
▁ངད་	-12.058
▁མཛོད་འགྲེལ་	-12.058
▁བཀྲམ	-12.0587
▁མནའ་	-12.0587
▁ཤེས་རབ་བོ	-12.0587
▁སུ་ལུ	-12.0587
▁ཚུགས་པ་	-12.0594
▁སྣང་གྲགས་	-12.0594
▁གོ་དོན་	-12.0601
▁བགེགས་བསྐྲད་	-12.0601
▁བསམ་དོན་	-12.0608
▁འདོད་གསོལ་	-12.0608
▁རྒྱ་ཤུག་	-12.0608
▁སྒྱུ་རྩལ་	-12.0608
▁བཤད་སྲོལ་	-12.0622
▁མུན་སེལ་	-12.0622
▁ཁྲིགས་	-12.0629
▁གཞན་རྒྱུད་	-12.0636
▁བདུད	-12.0636
▁གཡོས་པ་	-12.065
▁གྱ་ནོམ་	-12.065
▁དར	-12.0664
▁བརྐོས་	-12.0664
▁མེ་_	-12.0664
▁གཏན་མེད་	-12.0671
▁བཀླག་པ	-12.0671
▁རྒོད་པ	-12.0671
▁རྗེས་འགྲོ	-12.0671
▁སྟོན་མོ་	-12.0678
▁སྤྲུགས་	-12.0678
▁སྨན	-12.0678
▁ཉམ་ཐག་	-12.0685
▁ན་རོ་	-12.0685
▁བཅོས་མ	-12.0685
▁མི་ཆོས་	-12.0685
▁མཾ	-12.0685
▁དྷའི་	-12.0692
▁ལུས་པོ་	-12.0692
▁མཆིད་	-12.0699
▁ཁྱབ་བོ	-12.0706
▁བཀུག་པ་	-12.0706
▁བུ་ཆེན་པོ་	-12.0706
▁འཇུག་ལྡོག་	-12.0706
▁སྒོག་	-12.0706
▁སློབ་བུ་	-12.0706
▁པེ	-12.0714
▁བམ	-12.0714
▁བེམ་པོ	-12.0714
▁ཤུན་པ་	-12.0714
▁སྒྲོག	-12.0714
▁སྣ་ཚོགས་_	-12.0714
▁གཟིམ་	-12.0721
▁གསད་པ་	-12.0721
▁དུང་ཆོས་	-12.0721
▁བསྡད་པ	-12.0721
▁ཡོན་མཆོད་	-12.0721
▁ལྷས	-12.0721
▁ཎེ་	-12.0728
▁དཀྲུགས་པ	-12.0735
▁ཀུན་འབྱུང་བ	-12.0742
▁བཏིང་བ	-12.0742
▁རྟིང་	-12.0742
▁སྨད་གཡོགས་	-12.0742
▁ཕུག་པ་	-12.0749
▁བཛྲེ་	-12.0749
▁རང་ལོ་	-12.0749
▁ནག	-12.0756
▁བསྟན་པ་_	-12.0756
▁-_/	-12.0763
▁དྲཱ་	-12.0763
▁འཐབ་མོ་	-12.0763
▁དུང་ཕྱུར་	-12.077
▁འཚོལ་བ་	-12.077
▁གཏམས	-12.0777
▁དེ་_དག་	-12.0777
▁རིག་རྩལ་	-12.0777
▁ད་ལྟར་བ	-12.0784
▁དཀུ	-12.0784
▁ཐེམ་སྐས་	-12.0792
▁དངོས་པོ་བ་	-12.0792
▁དཔོག་	-12.0792
▁བསྲུངས་པ་	-12.0792
▁ཚེ་གང་	-12.0792
▁འཕྱར་	-12.0792
▁འབྱུང་ཁུངས་	-12.0806
▁ཐང་ལ་	-12.0813
▁ཅེ་སྤྱང་	-12.082
▁མཇལ་བ་	-12.082
▁ཟུངས	-12.082
▁དམོད་པ	-12.0827
▁མ་རྡོ་	-12.0827
▁འདྲེ	-12.0827
▁རྒན་པ་	-12.0827
▁སྟོང་པ་_	-12.0827
▁ཐོབ་_	-12.0834
▁བཅོལ	-12.0834
▁ཞོན	-12.0834
▁ཁུལ་	-12.0841
▁ཙོག་པུ	-12.0841
▁ང་རོ	-12.0849
▁ཉམ་ཆུང་	-12.0849
▁ཕྱི་དྲོ	-12.0849
▁བསགས	-12.0849
▁སྙུན་	-12.0849
▁ཐབས་_	-12.0856
▁རྣལ་མ་	-12.0856
▁སྙིང་བརྩེ་	-12.0856
▁ཧི་ཧི་	-12.0856
▁དགའ་བདེ་	-12.0863
▁དཔྱིད་ཟླ་	-12.0863
▁ལྷགས་པ	-12.0863
▁གང་ཞིག	-12.087
▁དཀའ་སྤྱད་	-12.087
▁པན་	-12.087
▁འཕྲུལ་འཁོར་	-12.087
▁དགེ་སློབ་མ་	-12.0877
▁འབྱོངས་པ	-12.0877
▁སྒོམ་བཟླས་	-12.0877
▁ཀུན་ལྡན་	-12.0884
▁བདེ་བྱེད་	-12.0884
▁རྗེ་འབངས་	-12.0884
▁བསྲེ	-12.0892
▁སྒྲ་_	-12.0892
▁ཀྵ	-12.0899
▁གཉའ་ཤིང་	-12.0899
▁མཆེ་	-12.0899
▁ཀརྨ་པ་	-12.0906
▁གཡབ་	-12.0906
▁གོལ་ས་	-12.0906
▁དྭངས་པ་	-12.0913
▁བདུད་དཔུང་	-12.0913
▁མདོ་ཁམས་	-12.092
▁ཏྲའི་	-12.0928
▁ཐེག་པ་པ་	-12.0928
▁རླུང་_	-12.0928
▁ཤུད་	-12.0928
▁གཏོད་པ་	-12.0935
▁ཏཱ་ལ	-12.0935
▁ནོར་ལྷ	-12.0935
▁བོད་ཡིག་	-12.0935
▁འབྲས་བུ་འབྱུང་	-12.0942
▁སྤྱང་	-12.0942
▁གཡེངས་པ	-12.0949
▁སྣམ་	-12.0949
▁ངག་འདོན་	-12.0957
▁འདུས་_	-12.0957
▁ས་འཛིན་	-12.0957
▁སྔ་ལྟས་	-12.0957
▁སྟོན་_	-12.0957
▁ངོམས་པ	-12.0964
▁ནི་ལ་	-12.0964
▁ས་གནས་	-12.0964
▁ཨཻ་	-12.0964
▁དུ་ཞག་	-12.0971
▁གནུབས་	-12.0978
▁དེངས་	-12.0978
▁མིང་མེད་	-12.0978
▁ཟློས་པ་	-12.0978
▁བུག་པ་	-12.0986
▁བྱིན་རླབས	-12.0986
▁འབའ་ཞིག་པ་	-12.0986
▁མཐུ་བོ་	-12.0993
▁རྒྱལ་པོ་_	-12.0993
▁སེམས་དཔའ	-12.0993
▁གཡེམ་པ་	-12.1
▁བྱ་ན་	-12.1
▁འདོད་རྒུ	-12.1
▁སེར་བ	-12.1
▁སྟོབས་_	-12.1
▁མེ་སྟག་	-12.1007
▁དུ་ཐལ་བ	-12.1015
▁ཧཿ	-12.1015
▁ཚོམ་	-12.1022
▁ཁྲུང་	-12.1029
▁བྱེ་མ	-12.1037
▁རྣམ་འདྲེན་	-12.1037
▁པད་མོ་	-12.1044
▁འབྲུ་སྣ་	-12.1044
▁ཡོ་ག	-12.1044
▁ཤེས་རིག་	-12.1044
▁བསག་	-12.1051
▁ལང་ཚོ	-12.1051
▁ལྕམ་	-12.1051
▁དྲིལ་བ	-12.1058
▁རབ་འབྱོར་_	-12.1058
▁སན་	-12.1058
▁བྷན་	-12.1066
▁འཇོམས་བྱེད་	-12.1066
▁ཡང་མིག་	-12.1066
▁དང་རུས་	-12.1073
▁རིགས་རྒྱུད་	-12.1073
▁ཏི་ལ་	-12.108
▁ཟས་གོས་	-12.108
▁སྐྱོབས་	-12.108
▁བརྩམས	-12.1088
▁མིག	-12.1088
▁རློམ་པ	-12.1088
▁ས་ཆོག་	-12.1088
▁གདུངས་པ་	-12.1102
▁བརྐུས་པ་	-12.1102
▁དངོས་ཡུལ་	-12.111
▁ལན་འགའ་	-12.1117
▁དྲག་མོ་	-12.1124
▁པྲྀ་	-12.1124
▁བརྡུང་བ	-12.1124
▁འཆའ་	-12.1124
▁ཐེངས་	-12.1132
▁ཕྱིར་བཅོས་པ	-12.1139
▁ཛཱི་	-12.1139
▁དྲིལ་བུ་པ	-12.1147
▁ཀྱིའང་	-12.1154
▁རྒྱལ་མོ	-12.1161
▁རྗོད་པ་	-12.1161
▁སྐུལ་བ	-12.1161
▁སྐྲན་	-12.1161
▁གཞན་སེམས་	-12.1169
▁འཁྲིད་པ	-12.1169
▁ལྔ་ཆ	-12.1169
▁བསྲེག་པ་	-12.1176
▁མིག་ཡོར་	-12.1176
▁ཚོགས་སྦྱོར་	-12.1176
▁ལེགས་སྦྱར་	-12.1176
▁ཤན་པ་	-12.1176
▁མྱ་ངན་མེད་	-12.1183
▁ཞ་	-12.1183
▁འཆགས་པ་	-12.1183
▁10000300་1000024010000270	-12.1191
▁ཡན་ལག་_	-12.1191
▁པུས་མོ	-12.1198
▁རིངས་པ	-12.1198
▁སླན་ཆད་	-12.1198
▁ཕོག	-12.1206
▁འདོང་བ	-12.1206
▁ཡམས་	-12.1206
▁སྦྲང་བུ་	-12.1206
▁སྲབ་	-12.1206
▁གཅི་བ་	-12.1213
▁མཁོ	-12.1213
▁མིང	-12.1213
▁ཞན་པ་	-12.1213
▁མཆེ་བ	-12.1221
▁ཡབ་ཡུམ	-12.1221
▁རང་རིགས་	-12.1221
▁ཀུན་བྱང་	-12.1228
▁དབང་ཐང་	-12.1228
▁འདྲེས	-12.1228
▁ལྡེ་མིག་	-12.1228
▁ཨརྷ་	-12.1228
▁༽༼	-12.1235
▁མཐའ་མེད་པ	-12.1235
▁ཞལ་གཟིགས་	-12.1235
▁འུག་	-12.1235
▁ལུང་རྟོགས་	-12.1235
▁སྣང་མེད་	-12.1235
▁སོལ་བ་	-12.1243
▁རྒལ་བ	-12.125
▁རྩ་དབུ་མ	-12.125
▁ཤིང་བལ་	-12.125
▁ཀློང་ཡངས་	-12.1258
▁གཞི་མེད་པ	-12.1258
▁མཐའ་དབུས་	-12.1258
▁གཅེས་སྤྲས་	-12.1273
▁དགའ་མོ་	-12.1273
▁བཀྲུ་སྨན་	-12.1273
▁བླུགས་གཟར་	-12.1273
▁ཟླ་ཚེས་	-12.1273
▁རྡེག་	-12.1273
▁གཡོག་འཁོར་	-12.128
▁དགང་གཟར་	-12.128
▁སེམས་དབེན་	-12.128
▁འོད་ཞུ་	-12.1288
▁གྱིན་	-12.1295
▁བསྟི་གནས་	-12.1295
▁ཡིད་ཅན་	-12.1295
▁ལུས་འཕགས་	-12.1295
▁སྒ་	-12.1295
▁བཀྲམ་པ་	-12.1303
▁མང་ཐོས་	-12.1303
▁ཟ་བྱེད་	-12.1303
▁ཤིང་ཐོག་	-12.1303
▁།___	-12.131
▁དཔ	-12.131
▁འཕྲོག་བྱེད་	-12.131
▁སྐུར་འདེབས་	-12.131
▁་།_	-12.1318
▁མངའ་ཐང་	-12.1318
▁མཆོད་_	-12.1318
▁སྙིང་_	-12.1318
▁གདུ་བུ་	-12.1325
▁ནུབ	-12.1325
▁མ་བུ་	-12.1325
▁འཁྲིག་	-12.1325
▁འཚོལ་བ	-12.1325
▁དཀོན	-12.1333
▁གནས་པ་_	-12.134
▁ཕྲེང	-12.134
▁གཡང་གཞི་	-12.1348
▁ཏིང་ངེ་འཛིན་_	-12.1348
▁ཀྱེ་རྡོར་	-12.1355
▁ཕུཿ	-12.1355
▁སྨུག་ནག་	-12.1355
▁གཉིད་ལོག་པ	-12.1363
▁རྡོ་བ་	-12.1363
▁ལ་བཏགས་པ་	-12.1363
▁ཀླུ་དབང་	-12.137
▁གསོལ་འདེབས	-12.137
▁བརླབ་བོ	-12.137
▁མིག་འཕྲུལ་	-12.137
▁རང་ཕྱོགས་	-12.1378
▁ལྡོག	-12.1378
▁དུན་	-12.1385
▁དོང་བ་	-12.1385
▁ཛོ་	-12.1385
▁གཟིངས་	-12.1393
▁བཀའ་མ་	-12.1393
▁མཆོག་རབ་	-12.14
▁དགུན་ཟླ་	-12.1408
▁བརྒྱལ་བ	-12.1408
▁བརྗེ་བ་	-12.1408
▁སྨ་	-12.1408
▁གདུང་ཤུགས་	-12.1416
▁དྷི་པ་	-12.1423
▁ཕྱོགས་རིས་	-12.1423
▁གྲུ་བཞི་པ	-12.1431
▁མེ་དྲོད་	-12.1431
▁དགེ་ཚུལ་མ་	-12.1438
▁བསྐྱབ་པ་	-12.1438
▁ཁུག	-12.1446
▁གཏོར་བ་	-12.1446
▁དག་པ་_	-12.1446
▁སཿ	-12.1446
▁གྲས་	-12.1454
▁ཐ་_	-12.1454
▁བཙོན་	-12.1454
▁རིལ་པོ་	-12.1454
▁ལས་སྒྲ་	-12.1454
▁ལི་མ་	-12.1454
▁སེར་མོ	-12.1454
▁ཏྲྀ་	-12.1461
▁ཁོག་པ་	-12.1469
▁གཅུང་	-12.1469
▁གཟོད་མ་	-12.1469
▁བུག་	-12.1469
▁འདོད་ལྷ་	-12.1469
▁ལ་རྩ་བ	-12.1469
▁ཆུས	-12.1476
▁ཉི་ཚེ་བ	-12.1476
▁བཟང་མོ	-12.1476
▁བྱང་འཕགས་	-12.1476
▁རྩི	-12.1476
▁ཆག་པ	-12.1484
▁སྨྱོན་པ	-12.1484
▁དོན་དག་	-12.1492
▁ཕྱམ་	-12.1492
▁སྐབས་དོན་	-12.1492
▁དཀོན་པ་	-12.1499
▁ཧུར་	-12.1499
▁སྐྲོད་པ	-12.1507
▁གཟན་	-12.1515
▁ཏྱཱ་	-12.1515
▁ཐལ་རང་	-12.1515
▁བཀུག་པ	-12.1515
▁མདའ་ཡབ་	-12.1515
▁༤_	-12.1522
▁དུགས་	-12.1522
▁ཀྱཻ	-12.153
▁འཇོག_	-12.153
▁རྔ་མོ་	-12.153
▁རྫ་རྔ་	-12.153
▁རྒྱུ་གཉིས་	-12.1538
▁ལྔ་པོ	-12.1538
▁བར་བར་	-12.1545
▁འདོད་རྒྱལ་	-12.1545
▁རོ་སྟོད་	-12.1545
▁གྱུ	-12.1553
▁ཞལ་བཞེས་	-12.1553
▁རྒྱང་རིང་	-12.1553
▁གན་རྐྱལ་	-12.1561
▁བྱུགས	-12.1561
▁བླུད	-12.1561
▁འདྲིས་	-12.1561
▁ལྟེ་འོག་	-12.1561
▁དུས་བཞི	-12.1568
▁བརྟགས	-12.1568
▁ཡལ་བ་	-12.1568
▁ལ་པ་	-12.1568
▁དྲང་པོ་	-12.1576
▁ཀླ་ཀློ་	-12.1584
▁གྲིབ་མ	-12.1584
▁དམར་ལྗང་	-12.1584
▁གནག་པ	-12.1591
▁ཁ་བ	-12.1599
▁ཡང་ཐོག་	-12.1599
▁ཐམས་	-12.1607
▁བཅུ་བདུན་པ་	-12.1607
▁ཡེ་ཤེས་པ	-12.1607
▁སུམ་ཆ་	-12.1607
▁གྲུབ་_	-12.1615
▁བདེ་བ་_	-12.1615
▁ཟེའུ་འབྲུ་	-12.1615
▁རྐྱེན	-12.1615
▁སྨྱུང་བ་	-12.1615
▁གཞན་རིག་	-12.1622
▁བསྲིངས་	-12.1622
▁བླ་གབ་	-12.1622
▁བཏེགས་	-12.163
▁མར	-12.163
▁གདུང་རབས་	-12.1638
▁གཞོན་པ་	-12.1638
▁རས་བལ་	-12.1638
▁དཔུང་རྒྱན་	-12.1645
▁བརྩི་བ	-12.1645
▁འཆད་པ་པོ་	-12.1645
▁ལྷན	-12.1645
▁ཅོད་	-12.1653
▁མདུང་ཐུང་	-12.1653
▁ཞན་པ	-12.1653
▁ལུས་རྟེན་	-12.1653
▁བིད་	-12.1661
▁ལུས་མེད་	-12.1661
▁སྐྱ	-12.1661
▁འདྲེ་བ་	-12.1669
▁།_།་་་་་	-12.1677
▁བཙན་པོ་	-12.1677
▁འགྱེལ་	-12.1677
▁འཐག་	-12.1677
▁ལོག	-12.1677
▁སྦུ་གུ་	-12.1677
▁དབང་ལུང་	-12.1684
▁མཆོད་གནས་	-12.1684
▁གཎྜཱི་	-12.1692
▁སྐུ་_	-12.1692
▁གྲཱ་	-12.1708
▁བརྗིད་པ	-12.1708
▁བྱར་མེད་པ	-12.1708
▁འགུལ་བ	-12.1708
▁སྤྲད	-12.1708
▁ཀུན་རྫོབ་པ་	-12.1715
▁མཇུག་མ་	-12.1715
▁ངན	-12.1723
▁ཎའི་	-12.1723
▁ཐུ་བོ་	-12.1723
▁བརྒྱུད་འཛིན་	-12.1723
▁མིག་_	-12.1723
▁ཡོན་ཏན་_	-12.1723
▁སྙན་དངགས་	-12.1723
▁སྤྱན	-12.1723
▁གཏུབས་	-12.1731
▁འོན་པ་	-12.1731
▁ཆུན་པོ་	-12.1739
▁ཐོག་ཐག་	-12.1739
▁བསྟིམས་	-12.1739
▁རྒྱ་དཔེ་	-12.1739
▁ལ་་་་་་	-12.1739
▁ལན་_	-12.1739
▁ངོགས་	-12.1747
▁ཡུལ་ཁམས་	-12.1747
▁ཀུ་རུ	-12.1755
▁མཛོད་སྤུ་	-12.1755
▁ཚལ	-12.1755
▁རབ་ཏུ་གཡོ	-12.1755
▁སུམ་བརྩེགས་	-12.1755
▁འཁྲུ་བ་	-12.1762
▁ལྷན་ཅིག་པ་	-12.1762
▁དོན་གྲུབ	-12.177
▁བཟོའི་	-12.177
▁བར་པ	-12.177
▁བཤལ་	-12.1778
▁ཡིད་འབྱུང་	-12.1778
▁ཁ་ན་མ་ཐོ་བ	-12.1786
▁དུས་མཉམ་པ་	-12.1786
▁སྒྲུབ་ཁང་	-12.1786
▁གཏུན་ཤིང་	-12.1794
▁བཅུ་ཕྲག་	-12.1794
▁སྐེ་	-12.1794
▁དོ་ཧ་	-12.1802
▁འདྲིར་	-12.1802
▁རྣལ་མ	-12.1802
▁སྣེ་	-12.1802
▁ཉི་ཚེ་བ་	-12.181
▁བསྟིམ་པ	-12.181
▁མཚམས	-12.181
▁ཀུན་ཏུ་འོད་	-12.1818
▁ཀུན་སྦྱོར་	-12.1818
▁གཡེང་	-12.1818
▁མངར་བ་	-12.1818
▁མདའ	-12.1818
▁རྟོག་_	-12.1818
▁སྟེན་	-12.1818
▁དེས་པ་	-12.1825
▁བྲག་ཕུག་	-12.1825
▁གུག་	-12.1833
▁ཀཱ	-12.1841
▁གཏུམ་པ	-12.1841
▁བསྡམ་པ	-12.1841
▁ཐོགས་བཅས་	-12.1849
▁འདུད་པ་	-12.1849
▁གཟུགས་མཛེས་	-12.1857
▁བླུད་པ	-12.1857
▁འགེངས་པ	-12.1857
▁རབ	-12.1857
▁ལྷ་འདྲེ	-12.1857
▁དུའོ་	-12.1865
▁གཾ་	-12.1873
▁ཚངས་ཐིག་	-12.1873
▁གསོ	-12.1881
▁༔_༈_	-12.1889
▁ནོར་བདག་	-12.1889
▁སྐྱེལ་བ	-12.1897
▁སྦྱིན་_	-12.1897
▁བཏོན་པ་	-12.1905
▁གོལ་	-12.1913
▁དཀྱིལ་འཁོར་པ	-12.1913
▁དགུང་	-12.1913
▁ཕྲུག་	-12.1913
▁མུག་	-12.1913
▁འགོག	-12.1913
▁འཇིགས་རུང་	-12.1913
▁རྒས་པ	-12.1913
▁རྡེའུ་	-12.1913
▁དེ་ག་	-12.1921
▁རྒྱ་བ་	-12.1921
▁རྨྱི་ལམ་	-12.1921
▁ཤོ་ལོ་	-12.1921
▁བཏུབ་པ་	-12.1929
▁ཅིའང་	-12.1937
▁ཀླུ་གཉན་	-12.1944
▁གཡོས	-12.1944
▁དུ་ཡོད	-12.1944
▁རྔ་སྒྲ་	-12.1944
▁མདུང་རྩེ་	-12.1952
▁མཛའ་	-12.1952
▁མར་པ	-12.1952
▁མདོངས་	-12.196
▁སྟོངས་པ	-12.196
▁ཅོ་	-12.1968
▁འགུགས་པ་	-12.1968
▁རྫི་	-12.1968
▁ལས་ཀ་	-12.1968
▁ལྗང་ནག་	-12.1968
▁སྡིག་ཏོ་	-12.1968
▁ཀླུ་རྒྱལ་	-12.1976
▁ཐོ	-12.1976
▁བད་	-12.1976
▁འདས་_	-12.1976
▁སྐྱེ་བ་_	-12.1976
▁ཕྱག་མཆོད་	-12.1985
▁ཅ་ཅོ་	-12.1993
▁ནག་པ	-12.1993
▁བཤང་ལམ་	-12.1993
▁བྱེད་པོ	-12.1993
▁མཆོག་འཛིན་	-12.1993
▁འཛབ་	-12.1993
▁སྡུག་བསྔལ	-12.1993
▁སློབ་གཉེར་	-12.1993
▁གལ་ཏེ	-12.2001
▁བརྩི་	-12.2001
▁ཞིང་ས་	-12.2001
▁ལེགས་_	-12.2001
▁ལྟད་མོ་	-12.2001
▁སེངྒེའི་	-12.2001
▁སྟེན་པ	-12.2001
▁ཁྱད་པར་བ་	-12.2009
▁ཐུར་མ་	-12.2009
▁དུབ་པ་	-12.2009
▁¡·¡¶_	-12.2017
▁གྲྭར་	-12.2017
▁ཆམ་	-12.2017
▁མདུན་ན་འདོན་	-12.2017
▁མིག་དབང་	-12.2017
▁འཇིམ་པ	-12.2017
▁རྒྱུག་པ	-12.2017
▁མྱེད་_	-12.2025
▁བསྒྲིལ་	-12.2033
▁ཞན་	-12.2033
▁ཟས་སྐོམ་	-12.2033
▁གྱེས་པ་	-12.2041
▁བྱིན་_	-12.2041
▁ཚད་_	-12.2041
▁འཁྱམས་པ	-12.2041
▁འབྲོམ་	-12.2041
▁རྟུལ་པོ་	-12.2041
▁དང་ག་	-12.2049
▁དིང་སང་	-12.2049
▁ནད་གཞི་	-12.2049
▁བྱིས་	-12.2049
▁ཡ་ལ་	-12.2049
▁ཏཱིར་	-12.2057
▁མུས་པ་	-12.2057
▁ཁ་པ་	-12.2065
▁ཡོལ་བ་	-12.2065
▁ལྡེབ	-12.2065
▁༡༨་	-12.2073
▁ཀུ	-12.2073
▁ཆུ་ལྷ་	-12.2073
▁ཚྭ་ཚྭ་	-12.2073
▁སྒོ་_	-12.2073
▁སྒྲུབ་པོ་	-12.2073
▁དྱཾ་	-12.2081
▁བསླུས་	-12.2081
▁ཚན་པ་	-12.2081
▁འབོད་པ	-12.2081
▁འོན་	-12.2081
▁ཁ་_	-12.2089
▁བརྟ་	-12.2089
▁ལུས་དབེན་	-12.2089
▁གསོན་པ	-12.2097
▁བྷ་བ	-12.2097
▁མགུལ་རྒྱན་	-12.2097
▁མཆོག་དགའ་	-12.2097
▁ཚེག་དྲག་	-12.2097
▁མཉམ་_	-12.2106
▁སྒྲུབ་_	-12.2106
▁བླུགས་པ	-12.2114
▁གསལ་བཏབ	-12.2122
▁འགྱུར་བ་_	-12.2122
▁སྐུ་བརྙན་	-12.2122
▁སྐྱོན་བྲལ་	-12.213
▁-_=	-12.2138
▁སྤེལ་མ	-12.2138
▁ཏྲིག་	-12.2146
▁ཕ་གུ་	-12.2146
▁ཚེས་བཅུ	-12.2154
▁འབྲོ	-12.2154
▁ཧར་	-12.2154
▁འཛེགས་	-12.2162
▁མིང་ཚིག་	-12.2171
▁ཡོངས་གཅོད་	-12.2171
▁གསོལ་བཞི	-12.2179
▁ཡིད་དབང་	-12.2179
▁སྦྲེལ	-12.2179
▁ཀཾ	-12.2187
▁ཕྲུ་གུ་	-12.2187
▁སྒོ་སྐྱོང་	-12.2187
▁གསང་ཚིག་	-12.2195
▁གསལ་_	-12.2195
▁གསེར་འགྱུར་	-12.2195
▁དེ་ལས	-12.2195
▁བསམ་བཞིན་	-12.2195
▁མཐར་གྱིས་པ	-12.2195
▁འདི་ལྟར་_	-12.2195
▁སྐུ་ཁམས་	-12.2195
▁ཉོན་_	-12.2203
▁པུས་	-12.2203
▁འཁོར་ལོ་ཅན་	-12.2203
▁རྣམ་སྲས་	-12.2203
▁ཅུ་	-12.2212
▁དཔང་པོ	-12.2212
▁བརྟན་གཡོ	-12.2212
▁བརྡེག་པ་	-12.2212
▁རླངས་པ་	-12.2212
▁ལྡེ་གུ་	-12.2212
▁དཔྱད	-12.222
▁འཕེན	-12.222
▁སྤང་པ	-12.222
▁ད་རུང་	-12.2228
▁དུ་ཐལ་བ་	-12.2228
▁དྲོད་གཤེར་	-12.2228
▁ཕྲ	-12.2228
▁བདོག་	-12.2228
▁བསྒོམས	-12.2228
▁འདུས་མ་བྱས	-12.2228
▁འཚལ་_	-12.2228
▁ལོང་བ	-12.2228
▁གླིང་ཕྲན་	-12.2236
▁དགེས་པ	-12.2236
▁མུཿ_	-12.2236
▁ཡིག་འབྲུ	-12.2236
▁སྦ་བ་	-12.2236
▁༨༡་	-12.2244
▁གཟུ་བོ	-12.2244
▁བདེ་ལྡན་	-12.2244
▁མཆོག_	-12.2244
▁རྙེད་བཀུར་	-12.2244
▁སྐེམ་	-12.2244
▁སྡུས	-12.2253
▁?-_G	-12.2261
▁བྱམས་མགོན་	-12.2261
▁སྨྲ་བ་པོ	-12.2261
▁ཆོས་པ་	-12.2269
▁བཅུ་བདུན་པ	-12.2269
▁བསླུས་པ	-12.2269
▁བྷྱོཿ	-12.2286
▁སྒྲུབ་པོ	-12.2286
▁ཆེས	-12.2294
▁ཙཽ་	-12.2294
▁ཁྱུང་ཆེན་	-12.2302
▁ངོམས་པ་	-12.2302
▁དྲིལ་བ་	-12.2302
▁ཕྱག་རྒྱ་_	-12.2302
▁ཙྪ་བ་	-12.2302
▁འབུ་	-12.2302
▁བརླན་	-12.2311
▁ཞོ	-12.2311
▁རང་བཟོ་	-12.2311
▁༨	-12.2319
▁བཀོལ་	-12.2319
▁མུ་གེ	-12.2319
▁འཕྲད་པ་	-12.2319
▁འོད་ཟེར	-12.2319
▁ཤ་ཆང་	-12.2319
▁བསྒྲིགས་པ	-12.2327
▁མ་ཟིན་པ་	-12.2327
▁འདོད་པ་_	-12.2327
▁ཐོབ་བོ་	-12.2335
▁དྷཱའི་	-12.2335
▁ཡ་_	-12.2335
▁རྩྭ	-12.2344
▁གཉིད་ལོག་པ་	-12.2352
▁མཐའ་མི་	-12.2352
▁ཝཱན་	-12.2352
▁འཕགས་_	-12.2352
▁འབྲངས་པ	-12.2352
▁སྒར་	-12.2352
▁ཁེབས་	-12.236
▁ཉམ་ང་བ་	-12.236
▁འཁྲུལ་ཤེས་	-12.236
▁རང་ངོས་	-12.236
▁རྒྱལ་ཁབ་	-12.236
▁སྐྱི་	-12.2369
▁གྱོན	-12.2377
▁གདེངས་	-12.2385
▁ཏཱྃ་	-12.2385
▁བཀྲེས་	-12.2385
▁བཅོལ་བ་	-12.2385
▁བསྩལ་པ	-12.2385
▁མཆི་མ	-12.2385
▁ཏ་_	-12.2394
▁དབོན་པོ་	-12.2394
▁ཡེངས་པ་	-12.2394
▁ཤུདྡྷོ྅ཧཾ	-12.2394
▁མཐུན་_	-12.2402
▁མདངས	-12.2402
▁ཡང་སྲིད་པ	-12.2402
▁དཔང་པོ་	-12.241
▁བཟོད་གསོལ་	-12.241
▁འཛོམ་པ	-12.241
▁རེག	-12.241
▁ལུང་སྟོན་པ་	-12.241
▁ལྡེ་གུ	-12.241
▁སྟོ	-12.241
▁སྤྱན་མ	-12.241
▁སྤྲེའུ	-12.241
▁ཟླ་གྲགས་	-12.2427
▁ཁང་ཁྱིམ་	-12.2436
▁རིགས་ངན་	-12.2436
▁སྣ་_	-12.2436
▁གྲོ་བཞིན་	-12.2444
▁འཕར་མ་	-12.2444
▁འབུད་	-12.2444
▁སྦྱོར་_	-12.2444
▁གྱེས་	-12.2452
▁དྲི་བྲལ་	-12.2452
▁བུ་རམ་ཤིང་	-12.2452
▁མར་ངོ	-12.2452
▁རྒ་བ	-12.2452
▁གཞུང་འགྲེལ་	-12.2461
▁གི་ཝང་	-12.2461
▁བགེགས་བསྐྲད	-12.2461
▁མི་མཆོག་	-12.2461
▁འདྲེ་བ	-12.2461
▁རང་_བཞིན་	-12.2461
▁རྒྱལ་ཕྲན་	-12.2461
▁རྙིང་མ་	-12.2461
▁གནས་ཡུལ་	-12.2469
▁དུབ་པ	-12.2469
▁བརྩེར་	-12.2469
▁མིང་_	-12.2469
▁འགྲུབ་བོ་	-12.2469
▁འཛུགས་པ	-12.2469
▁རིམ་གྲོ་པ་	-12.2469
▁རྨི་	-12.2469
▁འོབས་	-12.2478
▁ཀྲུང་	-12.2486
▁རྡོལ་	-12.2486
▁གཞོག་	-12.2503
▁གིན་	-12.252
▁ཆར་སྤྲིན་	-12.252
▁ཀླུ་ཆེན་	-12.2528
▁ཉེས་སྐྱོན་	-12.2528
▁དོའི་	-12.2528
▁བཀྲ་བ་	-12.2528
▁རི་ལུ་	-12.2528
▁གེགས་བྱེད་པ་	-12.2537
▁ནོད་པ་	-12.2537
▁བཀྲུས་པ	-12.2537
▁ཚུགས	-12.2537
▁འཁྲུར་	-12.2537
▁འཆམས་	-12.2537
▁འབྲོས་པ	-12.2537
▁10000250_	-12.2545
▁གཏུམ་པོ	-12.2545
▁ནོ་_	-12.2545
▁ཕུག་པ	-12.2545
▁འཁྱམས་པ་	-12.2545
▁ཡུལ་མེད་པ	-12.2545
▁ཨ་_	-12.2545
▁མགོན་ཁང་	-12.2554
▁ཤེ་ན་	-12.2554
▁སྒོ་མཚམས་	-12.2554
▁སྙིམ་པ་	-12.2554
▁སྨྱིག་	-12.2554
▁ཅི་མ་རུང་	-12.2562
▁ལྡེའུ་	-12.2562
▁སྣལ་མ་	-12.2562
▁ཁང་བུ་	-12.2571
▁རྗེས་ཆོག་	-12.2571
▁སྟག་ལྤགས་	-12.2571
▁10000270_	-12.2579
▁བསྒོས་པ་	-12.2579
▁རྒྱུ་དག་	-12.2579
▁ཁོན་	-12.2588
▁གཡུང་མོ་	-12.2588
▁རཀྵ	-12.2596
▁ཎཾ་	-12.2605
▁ལྷ་སྣམ་	-12.2605
▁ཁོས་	-12.2613
▁ཀ་ལི་	-12.2622
▁ཕོ་བ	-12.2622
▁བཏུབ་པ	-12.2622
▁འགྲོ་བ་_	-12.2622
▁སྒོ་ཁང་	-12.2622
▁ཀྱ་	-12.263
▁བརྡུང་བ་	-12.263
▁སྒྲུབ་གནས་	-12.263
▁སྨ	-12.263
▁ཕྱུག་པོ་	-12.2639
▁མཎྜལ	-12.2639
▁ལུང་པ	-12.2639
▁གནྡྷེ	-12.2656
▁དྲི་ཆུ	-12.2656
▁མུ་སྟེགས་པ	-12.2656
▁ཤིང་མངར་	-12.2656
▁སྐྱོན	-12.2656
▁གཏེར་མཛོད་	-12.2665
▁འཁྱེར་	-12.2665
▁གུས་ཕྱག་	-12.2673
▁གཏང་བ་	-12.2682
▁གཤེར་བ་	-12.2682
▁བཀྲ་ཤིས་དཔལ་	-12.2682
▁མི་རོ་	-12.2682
▁འཁོར་ལོ་_	-12.2682
▁སྤྲོད་	-12.2682
▁སྐུལ་	-12.269
▁ཨི	-12.269
▁གཏམ	-12.2699
▁དགུ་སྟེ	-12.2699
▁བརྡེག་པ	-12.2699
▁འབོད་པ་	-12.2699
▁རྒྱུག་པ་	-12.2699
▁གནམ་སྟོང་	-12.2708
▁དོག་པ་	-12.2708
▁མདངས་ལྡན་	-12.2708
▁གཏམས་པ	-12.2716
▁གསོལ་_	-12.2716
▁ཅི་དག	-12.2716
▁དྲིས	-12.2716
▁རུ་མཚོན་	-12.2716
▁སྔ་རབས་པ་	-12.2716
▁༡༠	-12.2725
▁དཔལ་_	-12.2725
▁དར་ཟབ་	-12.2725
▁འཆོས་པ་	-12.2725
▁རྣམ་རིག་པ	-12.2725
▁ལྟ་ངན་	-12.2725
▁སྔོན་_	-12.2725
▁ལ་འཇམ་	-12.2734
▁སྦེད་པ	-12.2734
▁ཨིན་	-12.2734
▁གཟི་མདངས་	-12.2742
▁འཕྱར་བ	-12.2742
▁ལུས་དབང་	-12.2742
▁བལྟོས་པ་	-12.2751
▁བསྐལ་བཟང་	-12.2751
▁སྔ་བ	-12.2751
▁.-_0:	-12.276
▁ལྃ་	-12.276
▁སྐྱུ་རུ་ར་	-12.276
▁སྤྲིང་ཡིག་	-12.276
▁དངང་	-12.2768
▁བསྡུད་	-12.2768
▁ཡེ་གྲོལ་	-12.2768
▁ཤ་རུས་	-12.2768
▁ཤེས་_རབ་	-12.2768
▁ཐ་སྐར་	-12.2777
▁ཐུ་	-12.2777
▁ཕཻཾ་	-12.2777
▁ཨ་ར་	-12.2777
▁ཀཱར་	-12.2786
▁དེ་དག	-12.2786
▁བྱ་ར་	-12.2786
▁མི་ལྟུང་	-12.2786
▁རིགས་བརྒྱ	-12.2786
▁སྤུངས་པ་	-12.2786
▁༢༤	-12.2794
▁ཐེབས་པ་	-12.2794
▁བཤད་པ་_	-12.2794
▁འགྲམ་པ་	-12.2794
▁ལོག་ལྟ	-12.2794
▁སམྦུ་	-12.2794
▁ཝ_	-12.2803
▁ཞིམ་	-12.2803
▁སྣབས་	-12.2803
▁གཡེངས་པ་	-12.2812
▁བཅོ་བརྒྱད་པ་	-12.2812
▁བྲན	-12.2812
▁ལྐུགས་པ་	-12.2812
▁ལྷ་ས་	-12.2812
▁གྲངས་_	-12.282
▁དགུག	-12.282
▁དད	-12.282
▁ནོངས་པ	-12.282
▁གཉིས་པ་_	-12.2829
▁པུཥྤེ	-12.2829
▁མུ་ནི་	-12.2829
▁ཞབས་འབྲིང་	-12.2829
▁རྒན་པོ	-12.2829
▁ཀུནྡ་	-12.2838
▁ཁུ་བྱུག་	-12.2838
▁ངོ་སྐལ་	-12.2838
▁ནང་ལྟར་	-12.2838
▁བདེན་ཚིག་	-12.2838
▁ཡལ	-12.2838
▁སྒོ་སྲུང་	-12.2838
▁སྤུངས་པ	-12.2838
▁བསོད་སྙོམས་པ་	-12.2847
▁འདེགས་པ	-12.2847
▁དཔུང་པ	-12.2855
▁ནིའི་	-12.2855
▁ནིའོ	-12.2855
▁རང་མཚན་པ་	-12.2855
▁རྒྱབ་རྟེན་	-12.2855
▁ཐལ་འགྱུར་བ	-12.2864
▁བླ་ཚེ་	-12.2864
▁ཁ་ཕྱི	-12.2873
▁རྡུལ་མེད་	-12.2873
▁སྒྲིལ་	-12.2873
▁3	-12.2882
▁དྲས་	-12.2882
▁བརྙན་	-12.2882
▁མི་ལོ་	-12.2882
▁འཕྲོས་དོན་	-12.2882
▁ས་ག	-12.2882
▁ཁུར་བ་	-12.289
▁ཉོན་མོངས་_	-12.289
▁འཆམ་	-12.289
▁འཛིན་དབང་	-12.289
▁སྣང་ཞེན་	-12.289
▁ཀུན་ཤེས་པ་	-12.2899
▁གཅེས་པ་	-12.2899
▁ཡིག་ཆུང་	-12.2899
▁རྣ་ཆ་	-12.2899
▁དྲིང་	-12.2908
▁ཡིས་_	-12.2908
▁ལུགས་ལྡོག་	-12.2917
▁ལྷ་སྲས་	-12.2917
▁དཔུང་ཚོགས་	-12.2926
▁པུར་	-12.2926
▁མཆོད་འོས་	-12.2926
▁ཤིང་ཏོག་	-12.2926
▁སྒོ་ཁྱུད་	-12.2926
▁ཀུན་དགའ་ར་བ	-12.2934
▁གྱོ་མོ་	-12.2934
▁བལ་པོ	-12.2934
▁བུས་པ་	-12.2934
▁མི་ཁ་	-12.2934
▁འགྲེ	-12.2934
▁ལོངས་པ་	-12.2934
▁ཉན	-12.2943
▁བེམས་པོ་	-12.2943
▁ཞི་དྲག་	-12.2943
▁ཕལ་ཆེ་བ	-12.2952
▁བག་ཡངས་	-12.2952
▁བསྒྲག་པ	-12.2952
▁ཞེན	-12.2952
▁ཟས	-12.2952
▁འདུ་_	-12.2952
▁རཏྣའི་	-12.2952
▁རྔོན་པ་	-12.2952
▁རྡུལ་བྲལ་	-12.2952
▁ཐམ་པ་	-12.2961
▁དྲོངས་	-12.2961
▁རིལ་པོ	-12.2961
▁རྒྱམ་	-12.2961
▁སིབ་སིབ་	-12.2961
▁གབ་	-12.297
▁ཆུ་འཛིན་	-12.297
▁ལྷ་ཡུལ་	-12.297
▁སྟུག་པོ	-12.297
▁གོར་	-12.2979
▁དར་དཀར་	-12.2979
▁འཚེར་	-12.2979
▁ལྟ་ཞོག་	-12.2979
▁སྐམ་པ	-12.2979
▁སྙིང་བརྩེ་བ་	-12.2979
▁སྦྱར་_	-12.2979
▁གཉེན་བཤེས་	-12.2987
▁བླ་མེད་པ	-12.2987
▁ཚོན་རྩི་	-12.2987
▁འདུས་བྱས་པ་	-12.2987
▁སྐར་ཁུང་	-12.2987
▁བཀག	-12.2996
▁རྗེན་	-12.2996
▁བཤིག་པ་	-12.3005
▁མཉེན་	-12.3005
▁ཞལ་ཤེས་	-12.3005
▁འཐུན་	-12.3005
▁ཀ་ཁ་	-12.3014
▁བཙས་པ	-12.3014
▁ལྷུར་ལེན་པ་	-12.3014
▁ཧྲིང་	-12.3014
▁གསལ་པོ་	-12.3032
▁གོན་	-12.3032
▁དཀར་གསལ་	-12.3032
▁དཀྱིལ་_འཁོར་	-12.3032
▁ནད་མེད་པ	-12.3032
▁བཙོས་པ་	-12.3032
▁ལྟ་བ་པོ་	-12.3032
▁གཞང་འབྲུམ་	-12.3041
▁དེངས	-12.3041
▁མན	-12.3041
▁རོ་མཆོག་	-12.3041
▁ཡབ་རྗེ་	-12.305
▁རྒུད་པ	-12.305
▁དཔེ་མེད་པ	-12.3059
▁ཞོར་	-12.3059
▁ལོ་ཟླ་	-12.3059
▁གྲུབ་མཆོག་	-12.3068
▁དགའ་མ་	-12.3068
▁འཕྲིན་	-12.3068
▁རྟོག་གེ་པ་	-12.3068
▁གྲུ་མོ་	-12.3076
▁དབུལ་པོ	-12.3076
▁བཤང་བ	-12.3076
▁ཉལ	-12.3085
▁ཉི་ཚེ་	-12.3085
▁བོད་པ་	-12.3085
▁འབོགས་པ	-12.3085
▁ཨ་ར་པ་	-12.3085
▁གརྦྷ་	-12.3094
▁ངེས་པར་_	-12.3094
▁ཉ་ཕྱིས་	-12.3094
▁བཅུག_	-12.3094
▁ལྷབ་ལྷུབ་	-12.3094
▁ཨུད་པ་	-12.3094
▁གུར	-12.3103
▁བྲག་ཅ་	-12.3103
▁ཧོམ་	-12.3103
▁ཀླས་	-12.3112
▁ཡུངས་འབྲུ་	-12.3112
▁སྒོམ་རིམ་	-12.3112
▁དབང་ཕྱུག	-12.3121
▁བྷཉྫ་	-12.3121
▁བྷྲ་	-12.3121
▁རྣམ་དབྱེ	-12.3121
▁ལྟེ་	-12.3121
▁སྤྲིང་	-12.3121
▁ཉན་པ་པོ	-12.313
▁དྭི་	-12.313
▁ཞག་གྲངས་	-12.3139
▁ཞུགས་_	-12.3139
▁ཐར	-12.3148
▁དོན་ཚན་	-12.3148
▁བཙལ	-12.3148
▁བཿ	-12.3148
▁འདི་དག་_	-12.3148
▁འུག་པ་	-12.3148
▁བཏེག་པ	-12.3157
▁འཆབ་པ་	-12.3157
▁རིགས་འགྲེ	-12.3157
▁གཟུགས་འཛིན་པ	-12.3166
▁གསོབ་	-12.3166
▁རྔུལ་	-12.3166
▁ཀྲོལ་	-12.3175
▁གངྒཱ་	-12.3175
▁གས་པ་	-12.3175
▁ཟླ་མཚན་	-12.3175
▁རྐུན་མ་	-12.3175
▁ཀླུ་བདུད་	-12.3184
▁དེ་ལས་_	-12.3184
▁བཀྲུ	-12.3184
▁བཙིར་	-12.3184
▁བསྟན་མ་	-12.3184
▁བྲག་ལ་	-12.3184
▁སླེབས་པ་	-12.3184
▁གོས་ཅན་	-12.3193
▁ནད	-12.3193
▁བཀྲག་	-12.3193
▁བཅའ	-12.3193
▁མཱ	-12.3193
▁འཇམ་པོ	-12.3193
▁ཡི་གེ་_	-12.3193
▁ངེས་བཟུང་	-12.3203
▁དམར་གཏོར་	-12.3203
▁དེ་ལྡན་	-12.3203
▁བསམ་གཏན་པ་	-12.3203
▁བླུགས	-12.3203
▁མ་ནས་	-12.3203
▁སྐྱབས	-12.3203
▁སྡོམ	-12.3203
▁ཆུ་སྟོད་	-12.3212
▁མོ་ལ	-12.3212
▁རྫས་གཅིག་པ	-12.3212
▁ཁྱད་_	-12.3221
▁གསེར་སྲང་	-12.3221
▁སྐར་མདའ་	-12.3221
▁སྐྱིད་པ	-12.3221
▁ཨཱཿ་	-12.3221
▁?-_?	-12.323
▁ཏི་སེ་	-12.323
▁ཚ་རེག་	-12.323
▁ཚར་བ་	-12.323
▁ཤ་ར་	-12.323
▁སྤྱན་ལྡན་	-12.323
▁གལ་ཆེ་བ་	-12.3239
▁ཌཱ་ཀི	-12.3239
▁བསྒོམ་_	-12.3239
▁མཆི་བ་	-12.3239
▁རི་པ	-12.3239
▁རླབས་ཆེན་	-12.3239
▁དབྱི་བ	-12.3248
▁བྱང་སྡོམ་	-12.3257
▁འདེགས་	-12.3257
▁འཕྱང་བ་	-12.3257
▁སྐྱེས་ཐོབ་	-12.3257
▁8	-12.3266
▁༨་	-12.3266
▁ཉམས་སྣང་	-12.3266
▁མཚན་བཅས་	-12.3266
▁ཞི་བ་ལྷ	-12.3266
▁ཤོལ་	-12.3266
▁ཆེན་_པོ་	-12.3275
▁ཚར་བ	-12.3275
▁ཕྱག	-12.3284
▁བདུགས་	-12.3284
▁ཀན་	-12.3294
▁བསྒྲེང་བ	-12.3294
▁འཚོགས་	-12.3294
▁ལུགས་མ་	-12.3294
▁ཁྱེའུ	-12.3303
▁འཕྲོགས་པ	-12.3303
▁རོ་མྱང་བ་	-12.3303
▁རྣལ་_	-12.3303
▁ཁ་ཕྱེ་	-12.3312
▁གཙིགས	-12.3312
▁གྱ་ནོམ་པ	-12.3312
▁ཕྱར་	-12.3312
▁བར་གཅོད་	-12.3312
▁བརླན་པ	-12.3312
▁རྦད་རྦད	-12.3312
▁ཆོག་ཤེས་	-12.3321
▁འཐུངས་པ	-12.3321
▁ཏི་པ་	-12.333
▁ན་པ་	-12.333
▁འགུལ་བ་	-12.333
▁འཕོང་	-12.333
▁འབྱུང་བ་_	-12.333
▁རྒྱགས་པ	-12.333
▁ལུགས་བཞིན་	-12.333
▁སཱཙྪ་	-12.333
▁།_༅	-12.3339
▁བཅུ་དགུ	-12.3339
▁ཁ་རུ་	-12.3349
▁ཞལ་ལ་	-12.3349
▁འབའ་ཞིག་པ	-12.3349
▁ཡང་སྲིད་པ་	-12.3349
▁ཡུལ་འཁོར་སྲུང་	-12.3349
▁རྐང་གླིང་	-12.3349
▁ལྷོ་བྲག་	-12.3349
▁ཤོག་བུ་	-12.3349
▁སྔོན་དུས་	-12.3349
▁བསླབས་པ་	-12.3358
▁མེ་ཏོག་ཕྲེང་བ་	-12.3358
▁ཡོད་པ་_	-12.3358
▁ལྷག་བཅས་	-12.3358
▁གློ་བ་	-12.3367
▁རིམ	-12.3367
▁རྒྱ་སྐད་	-12.3367
▁རྙིང་པ	-12.3367
▁ལ་ཆུང་	-12.3367
▁གཏིབས	-12.3376
▁འཇམ་པོ་	-12.3376
▁ལོངས་པ	-12.3376
▁ཏྲཱྃ་	-12.3385
▁སྐུལ་བྱེད་	-12.3385
▁སྒྲ་བཤད་	-12.3385
▁ནས་བསོད་	-12.3395
▁བུས	-12.3395
▁རེ་རེ་བ་	-12.3395
▁རྐུན་	-12.3395
▁དགའ་བོ	-12.3404
▁མི་མོ	-12.3404
▁རབ་དཀར་	-12.3404
▁དྲགས་	-12.3413
▁ཚང་མ	-12.3413
▁ཚུད་པ་	-12.3413
▁ལྡིར་བ་	-12.3413
▁ངོ་_	-12.3422
▁བརྩལ་	-12.3422
▁འདའ	-12.3422
▁རང་མི་	-12.3422
▁སོ་ཕག་	-12.3422
▁གསུང་འབུམ	-12.3432
▁རྫོགས་_པ	-12.3432
▁ལྷང་	-12.3432
▁གཟུགས་ཅན	-12.3441
▁ཥ	-12.3441
▁སྨད	-12.3441
▁འོ་དོད་	-12.345
▁ཎཱཾ	-12.3459
▁གཞོགས་	-12.3469
▁དབྱི་བ་	-12.3469
▁བེ	-12.3469
▁འབྲུམ་བུ་	-12.3469
▁སྒྲུབ་བརྒྱུད་	-12.3469
▁ནམ་མཁའ་_	-12.3487
▁བསྒོའོ	-12.3487
▁རང་སྡེ་	-12.3487
▁ཤུགས་ཅན་	-12.3487
▁སྲེག་རྫས་	-12.3487
▁ཀུན་གསལ་	-12.3497
▁/	-12.3506
▁ཁྲི་ཆེན་	-12.3506
▁བཅུད་ལྡན་	-12.3506
▁མཛོད་སྤུ	-12.3506
▁བསྐྱངས	-12.3515
▁ལྕགས་རི་	-12.3515
▁ཀུ་རུ་ཀུལླེ་	-12.3525
▁ཁོང་ཁྲོ་བ	-12.3525
▁ཆ་མཉམ་པ	-12.3525
▁ཐལ་མོ	-12.3525
▁བཀྲི་བ	-12.3525
▁བརྩེགས	-12.3525
▁བསོད་པ་	-12.3525
▁མིང་གཟུགས་	-12.3525
▁ཥུ་	-12.3525
▁-_?	-12.3534
▁བཀལ་	-12.3534
▁མཐའ་མེད་པ་	-12.3534
▁འགེངས་	-12.3534
▁འཇུག་ངོགས་	-12.3534
▁རྩ་ཐིག་	-12.3534
▁ཁང	-12.3543
▁བདུན་_	-12.3543
▁བྱུང་པ	-12.3543
▁ཛྙ་	-12.3543
▁ཡར་ངོ་	-12.3543
▁སྒོ་ང	-12.3543
▁དཔྱིས་	-12.3553
▁བགྲོས་	-12.3553
▁མཆོད་སྡོང་	-12.3553
▁བསྐུར་པ	-12.3562
▁རྗེའུ་རིགས་	-12.3562
▁ལནྡྷ་	-12.3562
▁དེ་བར་	-12.3572
▁ཀཿ_	-12.3581
▁ག_	-12.3581
▁གསར་བུ་	-12.3581
▁ནུ་མ	-12.3581
▁མཛེ་ནད་	-12.3581
▁ཚེས་ཞག་	-12.3581
▁ཡིན་ལུགས་	-12.3581
▁ལམ་སྣ་	-12.3581
▁སྲོག་རླུང་	-12.3581
▁འོད་སྣང་	-12.359
▁ཨུད་	-12.359
▁བཛྲཱི་	-12.36
▁བུ་ཆེན་པོ	-12.36
▁ལན་ཚྭ	-12.36
▁སྔར་_	-12.36
▁ཀློང	-12.3609
▁ཏི་ཀ་	-12.3609
▁དཔལ་མོ་	-12.3619
▁བསྐྱེད་_	-12.3619
▁རླབས་པོ་ཆེ་	-12.3619
▁སེམས་ཤེས་པ་	-12.3619
▁ཡང་དག་_པ	-12.3628
▁རཱི	-12.3638
▁ོ་	-12.3638
▁དགྱེས	-12.3647
▁མཉམ་པོ	-12.3647
▁ཙན་	-12.3647
▁འཛམ་བུ་	-12.3647
▁རྒྱུད་པ་	-12.3647
▁ལུང་བསྟན	-12.3647
▁སྒྲོས་	-12.3647
▁?-_0:	-12.3657
▁དབྱུ་གུ་	-12.3657
▁དྲེད་	-12.3657
▁ཟུར་ཕུད་	-12.3657
▁ཆུངས་	-12.3666
▁བྱིང་བ	-12.3666
▁འཇིགས་སྐྲག་	-12.3666
▁རིང་མོ་	-12.3666
▁དུས་རྒྱུན་	-12.3675
▁འཇིག་_རྟེན་	-12.3675
▁འཐུངས་པ་	-12.3675
▁འདུས་བྱས་པ	-12.3675
▁ཡིན་_པ	-12.3675
▁དྱེ་	-12.3685
▁བཀབ་པ	-12.3685
▁བརྒྱ་རྩ	-12.3685
▁སྒྲ་འཇུག་པ	-12.3685
▁ཁོམ་	-12.3694
▁དེཾ	-12.3694
▁གཅིག་ཅིག་	-12.3704
▁གདན་པ་	-12.3704
▁ཞབས་བརྟན་	-12.3704
▁ཞིམ་པ་	-12.3704
▁འགྲེང་བ་	-12.3704
▁འདི་ཉིད	-12.3704
▁ལེགས་ཚོགས་	-12.3704
▁རྒྱག་	-12.3714
▁ལམ་པ་	-12.3714
▁ཀར	-12.3723
▁དེ་ལྟར	-12.3723
▁བརྩིས་	-12.3723
▁མཚན་དོན་	-12.3723
▁ཚངས་ཆེན་	-12.3723
▁འཐབ་རྩོད་	-12.3723
▁ལོད་	-12.3723
▁ཀ་པཱ་ལ	-12.3733
▁ཁྲག	-12.3733
▁གྲག་པ	-12.3733
▁དམིགས་རྟེན་	-12.3733
▁མེ་དབལ་	-12.3733
▁འགྲེའོ	-12.3733
▁#__	-12.3742
▁གསག་	-12.3742
▁འཛོམས་	-12.3742
▁གྲི	-12.3752
▁ཉིད་པ	-12.3752
▁ན་བཟ	-12.3752
▁བརྗིད	-12.3752
▁མ་སྐྱེས་དགྲ	-12.3752
▁འབྲས་དུས་	-12.3752
▁རྩི་ཤིང་	-12.3752
▁ཤམ་བུ་	-12.3752
▁ཌུ་	-12.3761
▁བཏུལ	-12.3761
▁བསོ	-12.3761
▁མདུད་པ	-12.3761
▁ཆེམས་	-12.3771
▁བོས་པ	-12.3771
▁མྱ་ངན་_	-12.3771
▁ཟིན་བྲིས	-12.3771
▁རྟུལ་	-12.3771
▁སྔགས་ལམ་	-12.3771
▁ཁྲིད་པ་	-12.378
▁ཎྱ་	-12.378
▁ཐེར་འབུམ་	-12.378
▁མིག་ཅན་	-12.378
▁ཡང་_དག་པ	-12.378
▁མཆོང་	-12.379
▁སྐོར་བ	-12.379
▁སྙིང་བརྩེ་བ	-12.379
▁ཅུ	-12.38
▁ཏིཥྛ	-12.38
▁དུག་སྦྲུལ་	-12.38
▁བསྐྱོད	-12.38
▁འཁྲུ་བ	-12.38
▁རིམ་གྲོ་པ	-12.38
▁སྤྱི་ཁྱབ་	-12.38
▁ཁུ་ཁྲག་	-12.3809
▁དགོས་འབྲེལ་	-12.3809
▁ནེམ་ནུར་	-12.3809
▁ནོར་འཛིན་	-12.3809
▁སྨྱུང་བ	-12.3809
▁དངོས་སློབ་	-12.3819
▁དྲོས་པ་	-12.3819
▁བསྐྱང་བ་	-12.3819
▁ཡིག་བརྒྱ	-12.3819
▁རྟག་_	-12.3819
▁དང་བསྟོད་པ་	-12.3829
▁དྲག་པ	-12.3829
▁བྱི་རུ་	-12.3829
▁བྲོ་བ་	-12.3829
▁འདོད་འཇོ	-12.3829
▁ལྕིད་	-12.3829
▁སྒྲུབ་བོ	-12.3829
▁བསྟབས་	-12.3838
▁མར་ཁུ	-12.3838
▁རི་བ་	-12.3838
▁ལྟག་པ	-12.3838
▁ལྷ་རྗེ་	-12.3838
▁གཤིབས་	-12.3848
▁ཆེད	-12.3848
▁སྡིངས་	-12.3848
▁ངོ་མཚར་བ་	-12.3858
▁ཐུ	-12.3858
▁དཔོན་གཡོག་	-12.3858
▁མཐིང་ག	-12.3858
▁རྒྱལ་བསྟན་	-12.3858
▁སྐ་	-12.3858
▁སྒོང་	-12.3858
▁གཤེ་	-12.3867
▁ཌཱུརྱ་	-12.3867
▁དྷྱ་	-12.3867
▁ཉམས་_	-12.3877
▁འགལ་རྟགས་	-12.3877
▁ལྕོག་	-12.3877
▁ལྷུར་ལེན་	-12.3877
▁ཧི་པ	-12.3877
▁གཟི་འོད་	-12.3887
▁གསོན་པ་	-12.3887
▁བསླངས་པ་	-12.3887
▁མེ་ལྕེ	-12.3887
▁ཤིགས་པ་	-12.3887
▁སྡིག་ལྟུང་	-12.3887
▁བག་མ་	-12.3896
▁བཏུལ་བ	-12.3896
▁བླ་བྲེ་	-12.3896
▁མཆིལ་ལྷམ་	-12.3896
▁མུ་མེད་པ་	-12.3896
▁སྣ་ཚོགས	-12.3896
▁_༈_	-12.3906
▁གྲུབ་པོ	-12.3906
▁ཚེ་འགུགས་	-12.3906
▁འགྲན་པ	-12.3906
▁ཡང་སོས་	-12.3906
▁དཀུ་	-12.3916
▁པ་ཕ་	-12.3916
▁འགྲིག	-12.3916
▁གསུང་རྒྱུན་	-12.3925
▁བག་ཚ་བ་	-12.3925
▁མཁས་མཆོག་	-12.3925
▁སྤྲིན་ཆེན་པོ	-12.3925
▁དྲན་རྟོག་	-12.3935
▁བསྙད་པ་	-12.3935
▁རྐྱེན་_	-12.3935
▁ལ་སྟོད་	-12.3935
▁སྟོན་པ་པོ་	-12.3945
▁ཉེར་ཞི་	-12.3955
▁མེད་རྟོགས་པ	-12.3955
▁ལུས་སོ	-12.3955
▁༧_	-12.3965
▁བཟོད	-12.3965
▁ཚ་བོ་	-12.3965
▁སྣུམ་པ་	-12.3974
▁ངོ་སྤྲོད་པ	-12.3984
▁དབྱི་	-12.3984
▁དྲི་ཞིམ་པོ་	-12.3984
▁བཙུད་	-12.3984
▁འཆའ་བ་	-12.3984
▁འཇུས་	-12.3984
▁སྦྲང་	-12.3984
▁གང་རིགས་	-12.3994
▁ཆུན་	-12.3994
▁ཐོལ་	-12.3994
▁ཕོ་བ་	-12.3994
▁ཕྱི་བ	-12.3994
▁བཙས་པ་	-12.3994
▁རྒན་པ	-12.3994
▁སྒྲ་མེད་	-12.3994
▁༥_	-12.4004
▁གཙིགས་པ་	-12.4004
▁དགྲ་ནག་	-12.4004
▁ཕུ་ནུ་	-12.4004
▁སྔགས་རྒྱ	-12.4004
▁ཁ་ཤས་	-12.4014
▁གདོན	-12.4014
▁གསུངས་པ་_	-12.4014
▁དཔེ་སྐྲུན་	-12.4014
▁མིག་ནད་	-12.4014
▁སྐྱུག་	-12.4014
▁བདེན་རྫུན་	-12.4023
▁ཡུཿ	-12.4023
▁སོ་ནམ་	-12.4023
▁སྐུ་དྲིན་	-12.4023
▁ཁེངས	-12.4033
▁ཁོ་ར་	-12.4033
▁གདམས	-12.4033
▁ད་ལྟ་བ	-12.4033
▁འདུ་ཤེས	-12.4033
▁སུམ་འགྱུར་	-12.4033
▁གཉེར་མ་	-12.4043
▁བཀྲག་མདངས་	-12.4043
▁ཀྲཱི་	-12.4053
▁མུ་རན་	-12.4053
▁མྱ་ངན་མེད་པ	-12.4053
▁རུ་རྟ་	-12.4053
▁ས་སྤྱོད་	-12.4053
▁སྐྱོངས་	-12.4053
▁སྟ	-12.4053
▁གཉེར	-12.4063
▁གསང་_	-12.4063
▁ན་བུན་	-12.4063
▁ཕྱེས	-12.4063
▁བརྩོན་འགྲུས	-12.4063
▁འོད་སྟོང་	-12.4063
▁ལྷག་པོ་	-12.4063
▁བསྒྲེང་བ་	-12.4073
▁མྃ་	-12.4073
▁ལྡོང་རོས་	-12.4073
▁ནང་དོན་	-12.4083
▁ཞིབ་འཇུག་	-12.4083
▁ཟུག་རྔུ	-12.4083
▁གཡང་ས	-12.4092
▁གཤེགས་_པ་	-12.4092
▁དབང་པོ་_	-12.4092
▁དྷི	-12.4092
▁བརྗོད་དོན་	-12.4092
▁ཆག་པ་	-12.4102
▁གསུང་འབུམ་	-12.4112
▁བགོ་	-12.4112
▁རྟོན་པ	-12.4112
▁ལྷན་ཐབས་	-12.4112
▁སྤོས	-12.4112
▁ཧྲིལ་	-12.4112
▁བསད	-12.4122
▁ཡོངས་གྲགས་	-12.4122
▁སྦགས་པ	-12.4122
▁།།__	-12.4132
▁ཆགས་སེམས་	-12.4132
▁བུ་ཡུག་	-12.4132
▁འབྱོངས་	-12.4132
▁ལབ་	-12.4132
▁ས་མོ་	-12.4132
▁གའུ་	-12.4142
▁གཤེད་པོ་	-12.4142
▁ཏྲཻ་	-12.4142
▁གད	-12.4152
▁བཻ་རོ་ཙ་ན་	-12.4152
▁ཚིག་དབང་	-12.4152
▁རྩེར	-12.4152
▁ལྗོངས་རྒྱུ་	-12.4152
▁སྐམ་པ་	-12.4152
▁སྐྱེད་ཚལ་	-12.4152
▁སྔོན་མོ	-12.4152
▁བར་གནས་པ	-12.4162
▁སི་ཏུ་	-12.4162
▁སྒྲ་འཛིན་	-12.4162
▁དྲག་པ་	-12.4172
▁འཆབ་པ	-12.4172
▁ཁོང་པ	-12.4182
▁ཚོང་འདུས་	-12.4182
▁འབོགས་པ་	-12.4182
▁རྒལ་བ་	-12.4182
▁སྦྲགས་	-12.4182
▁དགེ་འདུན་_	-12.4202
▁བདུག	-12.4202
▁བསམ་གཏན་_	-12.4202
▁འཛུགས་པ་	-12.4202
▁ཡང་འཇུག་པ	-12.4202
▁སྣང་ངོ	-12.4202
▁དམྱལ་བ་པ་	-12.4212
▁བར་ཆོད་	-12.4212
▁བཀྲེས་པ	-12.4222
▁བསུ་བ	-12.4222
▁བསྡིགས་པ	-12.4222
▁ཇི་ལྟར	-12.4232
▁ཏ་བ་	-12.4232
▁ཚེ་བཅུད་	-12.4232
▁འཆལ་བ་	-12.4232
▁འཇུ་	-12.4232
▁འདོད་དགུ་	-12.4232
▁བརྗེས་	-12.4242
▁ཟང་	-12.4242
▁རྒྱུ་གསུམ་	-12.4242
▁ཆོས་སྒོ་	-12.4252
▁ཕྱེད་ཙམ་	-12.4252
▁བཅབས་པ་	-12.4252
▁ཙ་རི་	-12.4252
▁རྩོལ་སྒྲུབ་	-12.4252
▁ལྐོག་མ་	-12.4252
▁ལྷུར་ལེན་པ	-12.4252
▁སེམས་སྐྱེས་	-12.4252
▁སྟོར་	-12.4252
▁སྡང་མིག་	-12.4252
▁གཅན་	-12.4262
▁ལམ་ཤེས་པ	-12.4262
▁ཆུ་ཚགས་	-12.4272
▁བསྐུམ་པ	-12.4272
▁སྐབས་_	-12.4272
▁སྐྱུགས་	-12.4272
▁ཁ་ར་	-12.4282
▁གདུལ་བ་	-12.4282
▁ཉུལ་	-12.4282
▁འཐོན་པ	-12.4282
▁ཡུ	-12.4282
▁སེམས་ཤེས་	-12.4282
▁གཞོན་པ	-12.4292
▁དེད་	-12.4292
▁ལྡེམ་པོ	-12.4292
▁སླད	-12.4292
▁ཎཱཾ་	-12.4303
▁དགྲོལ་	-12.4303
▁ཡུར་	-12.4303
▁རྐྱལ་	-12.4303
▁རྒྱལ་མ	-12.4303
▁ལས་ལོག་པ་	-12.4303
▁སྙམ་_	-12.4303
▁གང་ཡོད་པ་	-12.4313
▁འཛུད་པ	-12.4313
▁རྔ	-12.4313
▁རྟོག་པ་_	-12.4313
▁ངུས་	-12.4323
▁སྲིང་མོ	-12.4323
▁དཀྲི་བ	-12.4333
▁མུ་བཞི	-12.4333
▁རླུང་ལྷ་	-12.4333
▁ཤེས་རྒྱུད་	-12.4333
▁དོན་སྤྱི	-12.4343
▁ཕྱིས་པ	-12.4343
▁ཟླ་ཟེར་	-12.4343
▁2	-12.4353
▁གདགས་གཞི་	-12.4353
▁ཆུ་ཞེང་	-12.4353
▁པཾ	-12.4353
▁བསྡད	-12.4353
▁མིང་པོ་	-12.4353
▁ཞིང་ཁ་	-12.4353
▁ལམ་བསྟན་	-12.4353
▁སྐལ་མེད་	-12.4353
▁སྦྱིན་པ་པོ་	-12.4353
▁-_8	-12.4363
▁ཕུག་རོན་	-12.4363
▁མྱུག་	-12.4363
▁ཚིག་མ་	-12.4363
▁ཝྃ་	-12.4363
▁རཱ	-12.4363
▁རྡོག་	-12.4363
▁སྐོང་བ་	-12.4363
▁སྱཱ་	-12.4363
▁ཨ་མྲ་	-12.4363
▁བཀླགས་པ	-12.4374
▁བུ་དཔེ	-12.4374
▁འགྲིག་པ	-12.4374
▁གཙང་ཁང་	-12.4384
▁བྷྱཱཾ	-12.4384
▁ཕྱོགས་ལྷུང་	-12.4394
▁བཟོས་པ	-12.4394
▁མེ་ཏོག_	-12.4394
▁ཚུལ་ཁྲིམས་_	-12.4394
▁སྤོངས	-12.4394
▁ཉོ་ཚོང་	-12.4404
▁འོད་འཕྲོ་བ་	-12.4404
▁ལྷོ་སྒོ	-12.4404
▁སྣ་རྩེ་	-12.4404
▁གོ་_	-12.4414
▁གླིང་བཞི་པ་	-12.4414
▁ཊུ་	-12.4414
▁བསྐོ་བ་	-12.4414
▁སྒྲོག་པ་	-12.4414
▁ཀ་པ་	-12.4425
▁ཁྱོ་	-12.4425
▁ཆོས་སྡེ	-12.4425
▁ཕྲག་པ	-12.4425
▁མི་སྨྲ་བ་	-12.4425
▁ཚེ་རིང་བ་	-12.4425
▁སྒམ་པོ	-12.4425
▁གླ་	-12.4435
▁འཆག་པ་	-12.4435
▁སྦེད་པ་	-12.4435
▁སྨྲོས	-12.4435
▁དྲིན་ལན་	-12.4445
▁བྱང་བུ་	-12.4445
▁མེ་ཐབ་	-12.4445
▁སྐུ་ལྔ	-12.4445
▁གཡུ	-12.4455
▁གཡོན་ཅན་	-12.4455
▁ཊཱིཀ_	-12.4455
▁དད་མོས་	-12.4455
▁མཐུ་ལྡན་	-12.4455
▁འཆོས་པ	-12.4455
▁འདུ་འཛི	-12.4455
▁བསྐྱལ	-12.4466
▁འཇུག་བྱེད་	-12.4466
▁རྗེན་པ	-12.4466
▁ཥཱ་པ་	-12.4466
▁སྟག་ལུང་	-12.4466
▁ཐོངས་	-12.4476
▁ལྤགས་པ་	-12.4476
▁སྐུ་རྟེན་	-12.4476
▁སྟུ་	-12.4476
▁_།__	-12.4486
▁དྲོངས	-12.4486
▁བྲལ་_	-12.4486
▁འདོར	-12.4486
▁ལ་བཏགས	-12.4486
▁སྐག་	-12.4486
▁གཡེལ་བ	-12.4496
▁གཤེད་མ་	-12.4496
▁དྲུག་ཅུ་པ་	-12.4496
▁བྱ་བྲལ་	-12.4496
▁ཛྭཱ་	-12.4496
▁ཁྱད་པར་ཅན	-12.4507
▁ཁྲོལ	-12.4507
▁བཏུ་བ་	-12.4507
▁མི་མིན་	-12.4507
▁འདི་སྐད་_	-12.4507
▁སྒོམ་པ་པོ་	-12.4507
▁སྦྱང་བྱ་	-12.4507
▁སླེབས་པ	-12.4507
▁གསོག་པ	-12.4517
▁མཐུ་ཆེན་པོ་	-12.4517
▁སྨོན་སེམས་	-12.4517
▁ཏུཿ	-12.4527
▁བཅོས་མིན་	-12.4527
▁བརྒྱ་_	-12.4527
▁བརྡ་དོན་	-12.4527
▁སྟོན་པ་པོ	-12.4527
▁སྤྱོད་པ་_	-12.4527
▁ཨ་མྲ	-12.4527
▁ངོ་སྤྲོད་པ་	-12.4538
▁རྟོགས་བརྗོད་	-12.4538
▁ལུང་_	-12.4538
▁ཆེན་པ	-12.4548
▁འཁྲིགས་པ་	-12.4548
▁འཛད་	-12.4548
▁ལྷ་སྲུང་	-12.4548
▁རྱ་	-12.4559
▁ལོཙྪ་བ་	-12.4559
▁གཡར་	-12.4569
▁མིན་ནམ	-12.4569
▁གང་ཡིན་_	-12.4579
▁གནོད་_	-12.4579
▁དུང་སྐྱོང་	-12.4579
▁འཆོལ་	-12.4579
▁འབྱོར	-12.4579
▁རྭ་ཅན་	-12.4579
▁སྙན་གསན་	-12.4579
▁སྭསྟི་	-12.4579
▁གསུས་པ་	-12.459
▁མཆོངས་	-12.459
▁ཟ་འོག་	-12.459
▁འདོད་ཆགས་_	-12.459
▁ཡཻ་	-12.459
▁ས་བོན	-12.459
▁ཁྲིག་	-12.46
▁བརྡ་སྤྲོད་པ་	-12.46
▁ཚད་པ་	-12.46
▁རྒན་མོ་	-12.46
▁.་	-12.4611
▁༔_༔_	-12.4611
▁ཉེ་_	-12.4611
▁དབུགས་དབྱུང་བ་	-12.4611
▁བརྗོད་ཚུལ་	-12.4611
▁འཁྲིགས	-12.4611
▁སྦྲེལ་བ་	-12.4611
▁ནང་གསལ་	-12.4621
▁རྒྱུན་ལས་	-12.4621
▁ལྷག་པོ	-12.4621
▁ཤོག་དྲིལ་	-12.4621
▁ཟམ་པ་	-12.4631
▁ཨཏ་	-12.4631
▁གནས་མིན་	-12.4642
▁ཆུ་_	-12.4642
▁ཐལ་ཆེན་	-12.4642
▁དྲུངས་	-12.4642
▁དྷརྨྨ་	-12.4642
▁འདོམས་པ་	-12.4642
▁ས་རྡོ་	-12.4642
▁སྐྱིད་པ་	-12.4642
▁སྒྲ་སྒྲོག་	-12.4642
▁གཞན་ཕྱོགས་	-12.4652
▁ཆོས་སྦྱིན་	-12.4652
▁མཆོག་གྱུར་པ	-12.4652
▁འུག་པ	-12.4652
▁སྠཱ་	-12.4652
▁དབྱིབས	-12.4663
▁བཞུ་	-12.4663
▁རྒྱུ་བྱེད་པ	-12.4663
▁ས་ལས	-12.4663
▁སྲད་བུ	-12.4663
▁ཇ	-12.4673
▁དེ་ལྟ་_	-12.4673
▁བརྒལ་ལན་	-12.4673
▁བསྡེབས་པ་	-12.4673
▁ལ་ག་	-12.4673
▁སྦུབ་	-12.4673
▁སྨན་དཔྱད་	-12.4673
▁སྭཱཧཱ་	-12.4673
▁ཟུར་ཙམ་	-12.4684
▁འཇུ་བ	-12.4684
▁རྨང་	-12.4684
▁བཅག་པ	-12.4694
▁མོན་སྲན་	-12.4694
▁ཀིཾ་	-12.4705
▁གློ་བུར་བ	-12.4705
▁བཅབས་པ	-12.4705
▁ས་བ་	-12.4705
▁གཞོམ་པ་	-12.4715
▁དངུལ་ཆུ	-12.4715
▁འདི་ག་	-12.4715
▁སྩོལ་བ་	-12.4715
▁ཀུན་སྣང་	-12.4726
▁དེ་ཝ	-12.4726
▁པུཎྱེ་	-12.4726
▁ཕ་ལ	-12.4726
▁མནལ་	-12.4726
▁རྒྱུས་པ་	-12.4726
▁རྟོན་	-12.4726
▁རྣ་རྒྱན་	-12.4726
▁གནྡྷ་	-12.4736
▁བཏོན	-12.4736
▁བཙན་པོ	-12.4736
▁བརྒྱབ་	-12.4736
▁ཏིར་	-12.4747
▁དྲི་བསུང་	-12.4747
▁ཕྱིར་ལོག་	-12.4747
▁མཐོན་	-12.4747
▁རྐེད་	-12.4747
▁གྲངས་པ	-12.4758
▁དང་རུས་པ་	-12.4758
▁ཕྱིར་བཅོས་པ་	-12.4758
▁བརྟགས་འགོག་	-12.4758
▁བརྩི་བ་	-12.4758
▁བྲག་རི་	-12.4758
▁སྒལ་ཚིགས་	-12.4758
▁གྷྲྀ་	-12.4768
▁ཆུ་ཕོ་	-12.4768
▁ད་ལན་	-12.4768
▁དབང་རྟུལ་	-12.4768
▁བཀྲལ་བ་	-12.4768
▁བྱི་ལ་	-12.4768
▁ཉེན་པ	-12.4779
▁བཅུ་དྲུག_	-12.4779
▁བྱད་ཁ་	-12.4779
▁གཡེལ་བ་	-12.4789
▁བཞི་མདོ	-12.4789
▁གལ་_	-12.48
▁གྲཱི་བ་	-12.48
▁ནོས་	-12.48
▁དགང་བ	-12.4811
▁རུས་རྒྱན་	-12.4811
▁རྒྱལ་བློན་	-12.4811
▁ཤཱནྟི་པ	-12.4821
▁སྐྱོར་	-12.4821
▁རི་སུལ་	-12.4832
▁རོ་མྱང་	-12.4832
▁སྣས་	-12.4832
▁ཁྱོགས་	-12.4843
▁བསྒྲིགས་པ་	-12.4843
▁མེ་ཏོག་_	-12.4843
▁འོག་སྒོ་	-12.4843
▁སྣང་བ་_	-12.4843
▁ེ་	-12.4843
▁གཏུབ་	-12.4853
▁ཆེན་པོ་པ་	-12.4853
▁དང་_པོ་	-12.4853
▁ཕྱི་_	-12.4853
▁གཅལ་	-12.4864
▁གླན་	-12.4864
▁དྲུག་ཅུ་པ	-12.4864
▁བརྡ་སྤྲོད་པ	-12.4864
▁མཛད་པ་པོ	-12.4864
▁ལུད་	-12.4864
▁གཏམས་	-12.4875
▁གཞག_	-12.4875
▁ཕྱིས་འབྱུང་	-12.4875
▁བདུག་སྤོས	-12.4875
▁མདུན་རྒྱབ་	-12.4875
▁ལྷག་ལྡན་	-12.4875
▁སྒོ་དྲུང་	-12.4875
▁གསུང་_	-12.4885
▁དགོས་_	-12.4885
▁མཆིམས་	-12.4885
▁ཡོན་གནས་	-12.4885
▁སོར་བཞག་	-12.4885
▁མཱུ་	-12.4896
▁འདྲིས་པ་	-12.4896
▁ཤཔྟ་	-12.4896
▁ད་ལམ་	-12.4907
▁བཞི་བརྒྱ་པ་	-12.4907
▁མི་མངོན་པ་	-12.4907
▁སྐུ་མཚམས་	-12.4907
▁སྤྲང་པོ་	-12.4907
▁༡༡	-12.4918
▁ཀུན་འགྲོ	-12.4918
▁གསལ་ཤིང་	-12.4918
▁ཐབས་མེད་	-12.4918
▁བསྡད་པ་	-12.4918
▁འཕྱ་བ་	-12.4918
▁རྫུས་སྐྱེས་	-12.4918
▁སྦྱོར་སྒྲོལ་	-12.4918
▁སྨིག་རྒྱུ	-12.4918
▁མིད་	-12.4928
▁རྩ་ཤེ	-12.4928
▁ཀླུ་མོ་	-12.4939
▁གསོན་པོ	-12.4939
▁གོ་ས་	-12.4939
▁དྲན་མེད་	-12.4939
▁མི་པ་	-12.4939
▁སྦྱང་གཞི	-12.4939
▁༡༢	-12.495
▁ཆོས་སྐྱོང་བ	-12.495
▁བསྐོན་	-12.495
▁འཇོག་པོ་	-12.495
▁རི་བ	-12.495
▁དབུ་བ་	-12.4961
▁དབྱར་གནས་	-12.4961
▁དེ་_ལྟར་	-12.4961
▁བཏུ་བ	-12.4961
▁འཕོངས་	-12.4961
▁སྐྲོད་	-12.4961
▁ཧན་	-12.4961
▁ཉམ་	-12.4972
▁བྲོ	-12.4972
▁ལྐོག་མ	-12.4972
▁ཨ་ཧོ་	-12.4972
▁བཟུང	-12.4982
▁ཀླས་པ་	-12.4993
▁མ་སྐྱེས་དགྲ་	-12.4993
▁མཆེད་ལྕམ་	-12.4993
▁འདུ་ཤེས་_	-12.4993
▁ཨརྠ་	-12.4993
▁ནུས་_	-12.5004
▁ནོར་སྦྱིན་	-12.5004
▁བརྫེས་པ	-12.5004
▁བསོད་ནམས	-12.5004
▁བསྒྲུབ་_	-12.5004
▁བུ་ཚ་	-12.5004
▁བྱ་_བ	-12.5004
▁བྷྱཱ་	-12.5004
▁ཚིག_	-12.5004
▁གྲུ་པ་	-12.5015
▁དོན་སྙིང་	-12.5015
▁ཚད་པ	-12.5015
▁ཟོལ་	-12.5015
▁འདྲེན་མ་	-12.5015
▁ཎཱི	-12.5026
▁དཔེ་ཆ་	-12.5026
▁བསླུས་པ་	-12.5026
▁མགོན་སྐྱབས་	-12.5026
▁སློན་	-12.5026
▁ཏེ་ལོ་	-12.5037
▁བསྐྱུར་	-12.5037
▁ཏེའོ	-12.5047
▁ནཱ	-12.5047
▁གདོལ་པ	-12.5058
▁དོན་གྲུབ་པ	-12.5058
▁བསྟུན	-12.5058
▁ཡོངས་འདུ	-12.5058
▁རང་ཞལ་	-12.5058
▁སྐྱུར་བ་	-12.5058
▁སྐྱོ	-12.5058
▁ཐུགས་_	-12.5069
▁མཛད་པ་པོ་	-12.5069
▁མར་ངོ་	-12.5069
▁གྲཱི་	-12.508
▁ཏོན་	-12.508
▁བརྟན་མ	-12.508
▁བྱས་པ་_	-12.508
▁ལྷག་གནས་	-12.508
▁བཤམ་པ་	-12.5091
▁ཟབ་བོ	-12.5091
▁འདོད་གཟུགས་	-12.5091
▁འོད་ཅན་	-12.5091
▁ཤགས་	-12.5091
▁ཤིང་བྱང་	-12.5091
▁ཤིང་ལོ་	-12.5091
▁སྡེ་སྲིད་	-12.5091
▁དྲི་མཆོག་	-12.5102
▁བཛྲ་_	-12.5102
▁བསྒོ	-12.5102
▁འཕྲོགས་པ་	-12.5102
▁སྡུད་པ་པོ	-12.5102
▁དང་་་་་་	-12.5113
▁དེབ་	-12.5113
▁བརྩིས་པ	-12.5113
▁མགྱོགས་པ་	-12.5113
▁རང་སོར་	-12.5113
▁རྒུད་	-12.5113
▁གཟེངས་	-12.5124
▁དམ་པོ	-12.5124
▁མཐེ་	-12.5124
▁འཕྱ་བ	-12.5124
▁སྐྱེམས་	-12.5124
▁སྙོམ་ལས་	-12.5124
▁སྦྲང་མ་	-12.5124
▁ཅང་ཤེས་	-12.5135
▁བཞེད་དོན་	-12.5135
▁རྒྱལ་ཡུམ་	-12.5135
▁པཱི་	-12.5146
▁མུ་མེད་པ	-12.5146
▁སྦུ་གུ	-12.5146
▁ཀུ་མཱ་ར་	-12.5157
▁ཐུབ་ཆེན་	-12.5157
▁དྱཾ	-12.5157
▁མཚར	-12.5157
▁ཛི་ན་མི་ཏྲ་	-12.5157
▁ཞིམ་པོ་	-12.5157
▁འགྲེལ་བ	-12.5157
▁འཕྱར	-12.5157
▁འཕྲོགས་	-12.5157
▁ལུས་ཟུངས་	-12.5157
▁ཚེ་ཆང་	-12.5168
▁ལས་ཐིག་	-12.5168
▁སྐྱུགས་པ་	-12.5168
▁སྲིན་བལ་	-12.5168
▁ངེས་གཟུང་	-12.5179
▁ཎཿ	-12.5179
▁ཁྲེལ་	-12.519
▁གཏ	-12.519
▁རྒྱུགས་	-12.519
▁ཤཿ	-12.519
▁སྔོན་མ	-12.519
▁སྡོང་པོ	-12.519
▁ཆ་མེད་པ	-12.5201
▁དགག་རྟགས་	-12.5201
▁དགེ་རྒྱས་	-12.5201
▁ཕལ་ཆེན་	-12.5201
▁བགོམ་པ་	-12.5201
▁མཉམ་པ་ཉིད	-12.5201
▁འཚེད་པ	-12.5201
▁ཡན་ལག_	-12.5201
▁ཨགྣེ་	-12.5201
▁ཆས་པ་	-12.5212
▁དབུས་_	-12.5223
▁དམ་ཚིག་_	-12.5223
▁དམ་ཡེ་	-12.5223
▁དྷོ་	-12.5223
▁རྒྱས་བཏབ་པ་	-12.5223
▁ཞལ་ཟས	-12.5234
▁འགྲེལ་བཤད	-12.5234
▁རྐུ་སེམས་	-12.5234
▁ཤེར་དབང་	-12.5234
▁སཱིར་	-12.5234
▁།_།_༄༅།_།	-12.5246
▁༡༡་	-12.5246
▁ཆར་རྒྱུན་	-12.5246
▁བཀུག	-12.5246
▁བྲུབ་ཁུང་	-12.5246
▁ཕྱོགས་ཕྱོགས་	-12.5257
▁བུལ་	-12.5257
▁མད་	-12.5257
▁འདམ་རྫབ་	-12.5257
▁རྐེད་པ	-12.5257
▁སིདྡྷཾ	-12.5257
▁གཡུལ་ངོ	-12.5268
▁མང་ཚིག་	-12.5268
▁འབབ་བོ	-12.5268
▁ཡན་_	-12.5268
▁རོག་	-12.5268
▁ལྷག་_	-12.5268
▁ཤུདྡྷེ	-12.5268
▁ས་ཆ་	-12.5268
▁སྒོང་སྐྱེས་	-12.5268
▁ཆེན་པ་	-12.5279
▁ཆེན་མ་	-12.5279
▁དེ་_ནས་	-12.5279
▁པ་རུ་	-12.5279
▁འདུན་མ་	-12.5279
▁བརྗེད་བྱེད་	-12.529
▁རྫིང་བུ	-12.529
▁ད་ར་	-12.5301
▁དུད་ཁ་	-12.5301
▁བྷྲུཾ་	-12.5301
▁མགོ་མཇུག་	-12.5301
▁ཀུ་མུ་ད་	-12.5312
▁ཉེ་དབང་	-12.5312
▁ཐུར་མ	-12.5312
▁དགྱེས་པ་རྡོ་རྗེ་	-12.5312
▁བྱུར་	-12.5312
▁མགུལ་པ་	-12.5312
▁རུ་མ་	-12.5312
▁སྣང་བརྙན་	-12.5312
▁ཀྱུ་	-12.5324
▁ནམ་ལངས་	-12.5324
▁བཏུལ་བ་	-12.5324
▁རུང་_	-12.5324
▁རྣག་ཁྲག་	-12.5324
▁ལག་རྗེས་	-12.5324
▁ཁྱུ་	-12.5335
▁ཐུལ་བ	-12.5335
▁བ་བྱུང་	-12.5335
▁ཤྲུ་	-12.5335
▁སྦར་བ་	-12.5335
▁སྨྱན་	-12.5335
▁སྲོལ་འབྱེད་	-12.5335
▁དངོས་མེད་པ	-12.5346
▁ཚིག་ཟིན་	-12.5346
▁འདོད་སེམས་	-12.5346
▁རངས་པ་	-12.5346
▁སྟང་	-12.5346
▁དོ་_	-12.5357
▁ཕ་_རོལ་	-12.5357
▁བཅོ་བརྒྱད་པོ་	-12.5357
▁མཐོང་སྣང་	-12.5357
▁འདུལ་འཛིན་	-12.5357
▁ལོང་བུ་	-12.5357
▁སྒོམས	-12.5357
▁སློབ་དཔོན་_	-12.5357
▁དང་སེམས་པ་	-12.5368
▁རྔམས་པ	-12.5368
▁སྱེ་	-12.5368
▁ཀོ་ཊ་	-12.538
▁ཆགས་_	-12.538
▁ཉེར་ཐོབ་	-12.538
▁དབྱིག་པ་	-12.538
▁བསྒྲག་	-12.538
▁བསྟིམ་པ་	-12.538
▁མ་དད་པ	-12.538
▁རྙོག་	-12.538
▁ཀ་_	-12.5391
▁ཀཱི	-12.5391
▁ཁྲ	-12.5391
▁དུས་སྟོན་	-12.5391
▁ན་ཁ	-12.5391
▁བཞི་མདོ་	-12.5391
▁བིར་	-12.5391
▁མེ་ཁྱེར་	-12.5391
▁ཚེ་རིལ་	-12.5391
▁ཡབ	-12.5391
▁རྒྱས་_	-12.5391
▁སྐྱོད་	-12.5391
▁སྒྲེང་	-12.5391
▁སྔོན	-12.5391
▁སྙིང་ཏིག་	-12.5391
▁ནིར་	-12.5402
▁བརྟེན་_	-12.5402
▁ཟ་བ་པོ་	-12.5402
▁ཡུགས་	-12.5402
▁སྔོན་ལས་	-12.5402
▁སྲེག	-12.5414
▁ཏྲག་	-12.5425
▁བཏེགས་པ	-12.5425
▁མནར་སེམས་	-12.5425
▁རྟོགས་དཀའ་	-12.5425
▁ལགས་_	-12.5425
▁༎་	-12.5436
▁ཀུ་མུད་	-12.5436
▁པགས་	-12.5436
▁འདྲེན་བྱེད་	-12.5436
▁རྟགས་_	-12.5436
▁ཤིང་ཕོ་	-12.5436
▁གནས་_པ	-12.5448
▁བཅས་པ་_	-12.5448
▁བྷཀྵ་	-12.5448
▁ཚུལ་མིན་	-12.5448
▁ཤམྦྷ་	-12.5448
▁ངོས་འཛིན་པ་	-12.5459
▁དཀྱིལ	-12.5459
▁%-	-12.547
▁ཅིག་_	-12.547
▁བསྡམས	-12.547
▁ཛི་ན་	-12.547
▁ལས་འབྲེལ་	-12.547
▁བསྐོ་	-12.5482
▁ཝཾ	-12.5482
▁འུབ་	-12.5482
▁ལ་ཉེ་བ	-12.5482
▁སློངས་	-12.5482
▁གཏད་རྒྱ	-12.5493
▁གོ་བགོ	-12.5493
▁ཏིས་	-12.5493
▁བོར	-12.5493
▁མ་བཅོས་པ་	-12.5493
▁ཚོགས་རྫས་	-12.5493
▁ཚོགས་སྒྲུབ་	-12.5493
▁འཚེར་བ	-12.5493
▁གཅི་བ	-12.5504
▁ཉིང་ཁུ་	-12.5504
▁ཐ་དད	-12.5504
▁ཕན་_	-12.5504
▁ཕྱིར་བཟློག་	-12.5504
▁བྱད་བཞིན་	-12.5504
▁ལས་སྣང་	-12.5504
▁ཐལ་འགྱུར་བ་	-12.5516
▁ཐུཾ་	-12.5516
▁དཀར་ཟལ་	-12.5516
▁དེ་ག	-12.5516
▁བཙོན་ར	-12.5516
▁མིག་འབྲས་	-12.5516
▁ཡུལ་ལྷ་	-12.5516
▁རང་རྟགས་	-12.5516
▁སྤྱོད་པ་པ་	-12.5516
▁སྨེ་བ་	-12.5516
▁སྩོགས་པ་	-12.5516
▁སྲྀ་	-12.5516
▁ཀུན་བརྟགས་པ་	-12.5527
▁ཟླུམ་པ	-12.5527
▁འགྲེང་བ	-12.5527
▁འཇིགས་_	-12.5527
▁10000270་་་་་	-12.5539
▁ཁྲབ་	-12.5539
▁བརླག	-12.5539
▁བྲབ	-12.5539
▁=-_	-12.555
▁༦༠་	-12.555
▁གློ་བོ་	-12.555
▁ཆོག་ཤེས་པ་	-12.555
▁མངག་གཞུག་	-12.555
▁མི་ཡུལ་	-12.555
▁འཆོལ་བ་	-12.555
▁འཐོར་འཐུང་	-12.555
▁གདན་འདྲེན་	-12.5562
▁གསོད	-12.5562
▁བྱེད་ལས	-12.5562
▁མཛའ་བ	-12.5562
▁མེ་ཏོག	-12.5562
▁སྐྱོན་བརྗོད་པ་	-12.5562
▁དཀར་ཆ་	-12.5573
▁དཔལ་ལྷ་	-12.5573
▁དུས་སྐབས་	-12.5573
▁ཁང་ཆེན་	-12.5585
▁གཞིར་བཞག་	-12.5585
▁གསང་མཚན་	-12.5585
▁ཐབས་མེད་པ	-12.5585
▁དགེ་སློབ་མ	-12.5585
▁མཆོད་ཡོན	-12.5585
▁ཟིང་	-12.5585
▁མིའུ་ཐུང་	-12.5596
▁ཙཀྵུ་	-12.5596
▁སྦྱོར་བ་_	-12.5596
▁གཞན་ངོ	-12.5608
▁གཡས་_	-12.5608
▁ཆིལ་	-12.5608
▁ཕྲི་	-12.5608
▁མ་རབས་	-12.5608
▁རྒྱུད་པ	-12.5608
▁ལ་ཕུག་	-12.5608
▁ཤུན་	-12.5608
▁སྐམས་	-12.5608
▁སྙིང་གཏམ་	-12.5608
▁༡༩༤	-12.5619
▁གཡན་པ་	-12.5619
▁ཐམ་པ	-12.5619
▁དགེ་_སློང་	-12.5619
▁དུབ་	-12.5619
▁དེ་མིན་པ	-12.5619
▁ཥྱོ་	-12.5619
▁དཔགས་	-12.5631
▁དཔལ་ཡོན་	-12.5631
▁འཚེད་	-12.5631
▁ཡིད་འཕྲོག་པ	-12.5631
▁ཁྲ་བོ	-12.5642
▁སྙེམས་པ་	-12.5642
▁གནམ་ས་	-12.5654
▁གཤེར་	-12.5654
▁ཉི་ཤུ་པོ་	-12.5654
▁པདྨ་_	-12.5654
▁འགྱུ་བ	-12.5654
▁འདི་དག	-12.5654
▁བྱེད་རྒྱུ	-12.5665
▁ཛ་ཡ	-12.5665
▁འཚེར་བ་	-12.5665
▁རྒྱུག	-12.5665
▁སྟག་ཤམ་	-12.5665
▁སྡེ་གཉིས་	-12.5665
▁དག་པ་བ་	-12.5677
▁དངོས་གྲུབ	-12.5677
▁བཞམས་	-12.5677
▁འཕང་བ	-12.5677
▁ཡུད་	-12.5677
▁རྒྱང་རིང་པོ་	-12.5677
▁རྣམ་གཞག_	-12.5677
▁འི་བ་	-12.5689
▁རལླི་	-12.5689
▁རི་བྲགས་	-12.5689
▁ཆོམ་རྐུན་པ་	-12.57
▁བསྡོམས་པ་	-12.57
▁སློབ་_	-12.57
▁རིམ་_	-12.5712
▁རྒྱ་མ་	-12.5712
▁ཤ_	-12.5712
▁སུམ་ཅུ་པ་	-12.5712
▁སྟེང་ཕྱོགས་	-12.5712
▁།་༈་།	-12.5723
▁གསལ་ཁ་	-12.5723
▁བསྐལ་བ	-12.5723
▁གཞལ་བ་	-12.5735
▁ཐོར་བུ་	-12.5735
▁ད་གཟོད་	-12.5735
▁དཔེ་མེད་པ་	-12.5735
▁བགྲོད	-12.5735
▁བཏགས་མིང་	-12.5735
▁བདེན	-12.5735
▁བཟང	-12.5735
▁འཆར་སྒོ་	-12.5735
▁དལ་བར་	-12.5747
▁བཀྲལ་	-12.5747
▁བརྩམ་པ་	-12.5747
▁གསུང་སྒྲོས་	-12.5758
▁ཏྲཱཾ	-12.5758
▁ཕབས་	-12.5758
▁འགྲན་པ་	-12.5758
▁རྒྱལ་མ་	-12.5758
▁ལྷྭམ་	-12.5758
▁ལོངས་སྤྱོད	-12.577
▁ཤེས་_པ	-12.577
▁ས་མང་པོ་	-12.577
▁ཨེ་མ་ཧོ་	-12.577
▁བཏུབ	-12.5782
▁མིན་_	-12.5782
▁ཞིམ་པ	-12.5782
▁འཁྲུལ་རྒྱུ་	-12.5782
▁རཀྟ	-12.5782
▁སྨིན་མ	-12.5782
▁གོད་	-12.5794
▁བསྐྲད	-12.5794
▁མ་ལ་ཡ་	-12.5794
▁ཁོ་ན་_	-12.5805
▁གསུང་མཆོག་	-12.5805
▁ཏྲི་པ	-12.5805
▁མི་ཁོམ་པ་	-12.5805
▁འགའ	-12.5805
▁གག	-12.5817
▁བརྒྱ་ལམ་	-12.5817
▁འཁྲོལ་	-12.5817
▁འདི་དུས་	-12.5817
▁ཨ་ཤད་	-12.5817
▁གཉིས་པ་་་་་་	-12.5829
▁ངུ་བ	-12.5829
▁ཅི་འདྲ་བ	-12.5829
▁ཆུ་མོ་	-12.5829
▁ཆུ་སྦྱིན་	-12.5829
▁ཎེ	-12.5829
▁བསྟབ	-12.5829
▁བསྩལ་བ	-12.5829
▁འཇུག་པ་_	-12.5829
▁འདྲིལ་བ	-12.5829
▁ལྕི	-12.5829
▁ལྕུག་མ་	-12.5829
▁སྐྱིལ་	-12.5829
▁སྤྲིན་ཚོགས་	-12.5829
▁གདུང་རྒྱུད་	-12.5841
▁བྱེད་_པ	-12.5841
▁འཛེམ་པ་	-12.5841
▁ཡེ་_ཤེས་	-12.5841
▁རྒྱ་མདུད་	-12.5841
▁བཅུ་དྲུག	-12.5852
▁མོངས་པ་	-12.5852
▁རོ་བརྒྱ་	-12.5852
▁ལྟོ	-12.5852
▁ཨ་ཡ་	-12.5852
▁༽།	-12.5864
▁ཉོས་	-12.5864
▁བུན་	-12.5864
▁སྟོང་བ་	-12.5864
▁སྲེག་བྱེད་	-12.5864
▁ངན་སྔགས་	-12.5876
▁དགག་དབྱེ	-12.5876
▁ཡ་རབས་	-12.5876
▁ཡིག་དཀར་པོ་	-12.5876
▁ལེགས་སྤྱད་	-12.5876
▁སྟྭ་	-12.5876
▁སྦྱིན་གནས་	-12.5876
▁གད་མོ་	-12.5888
▁དུས་ཡུན་	-12.5888
▁འོར་	-12.5888
▁ཤིང་བུ་	-12.5888
▁སྙེ་	-12.5888
▁ཧཱུྃཿ_	-12.5888
▁གཅེ	-12.59
▁གོ་མ་	-12.59
▁བསྒྱིངས་	-12.59
▁བསྡིགས་	-12.59
▁ཚིམས་པ	-12.59
▁ལེ་ཚན་	-12.59
▁སྤོབས་	-12.59
▁གཏོར་མགྲོན་	-12.5912
▁དཀྲུགས་པ་	-12.5912
▁མཉེས	-12.5912
▁འཁྲིལ་བ	-12.5912
▁ཀླུ་ཆེན་པོ་	-12.5924
▁ཉམ་ཐག་པ	-12.5924
▁བསྐུ་བ	-12.5924
▁བློ་ཁ་	-12.5924
▁མགར་	-12.5924
▁འབའ་	-12.5924
▁:.	-12.5935
▁གཅིག་པོ	-12.5935
▁གསུར་	-12.5935
▁གྷ	-12.5935
▁མདོ་དོན་	-12.5935
▁གཞི་རྩ་	-12.5947
▁གཟིག་	-12.5947
▁ཆོས་ཐུན་	-12.5947
▁མོང་	-12.5947
▁ཡུལ་ཆོས་	-12.5947
▁རས་པ་	-12.5947
▁སྐབས་མེད་	-12.5947
▁ཨུ་མ་	-12.5947
▁ངོ་ཚ་བ་	-12.5959
▁མང་_	-12.5959
▁ཞབས་བསིལ	-12.5959
▁ཁ་བྱང་	-12.5971
▁ཁ་ཚར་	-12.5971
▁དངོས་འབྲས་	-12.5971
▁བཙོང་	-12.5971
▁བཟང་ལྡན་	-12.5971
▁མནྟྲ་	-12.5971
▁རྒྱུ་མ	-12.5971
▁ས་ཕོ་	-12.5971
▁སྐྲ་དཀར་	-12.5971
▁སྲིད་གཞུང་	-12.5971
▁དུས་མཆོད་	-12.5983
▁གསུང་ཆོས་	-12.5995
▁ཆུབ་པ་	-12.5995
▁བློན་	-12.5995
▁།_།__༼	-12.6007
▁གདེངས་ཅན་	-12.6007
▁བཀའ་འགྱུར་	-12.6007
▁འདུག་_	-12.6007
▁རྒྱས་བྱེད་	-12.6007
▁སྤོ་བ	-12.6007
▁ཐོངས	-12.6019
▁བཤམ་པ	-12.6019
▁བསོད་ནམས་_	-12.6019
▁བྲེལ་	-12.6019
▁མཆོད་འབུལ	-12.6019
▁འཛུད་	-12.6019
▁རཱྀ་	-12.6019
▁རྩིབ་ལོགས་	-12.6019
▁ཆིག་ཐུབ་	-12.6031
▁དམུ་	-12.6031
▁ཚེ་རིང་བ	-12.6031
▁ཚེར་མ	-12.6031
▁འགྱིང་བག་	-12.6031
▁འབེབ	-12.6031
▁ཡུལ་གྲུ་	-12.6031
▁ལྟེང་	-12.6031
▁དངོས་གྲུབ་_	-12.6043
▁བུདྡྷ་བོ་	-12.6043
▁སྐྱ་བོ་	-12.6043
▁སྤྲུལ་བ	-12.6043
▁སྲུང་སྐྱོབ་	-12.6043
▁སློབ་བོ	-12.6043
▁།༽་༼	-12.6055
▁༦_	-12.6055
▁སྙིམ་པ	-12.6055
▁བསམས	-12.6067
▁བྱད་མ	-12.6067
▁ཟབས་	-12.6067
▁ལྷན་ཅིག་_	-12.6067
▁ས་ཐམས་	-12.6067
▁ཁ་ཚོན་	-12.6079
▁ཆོ་ག་_	-12.6079
▁བསྲིང་	-12.6079
▁རྔ་ཆེན་	-12.6079
▁ལྷ་རྗེ	-12.6079
▁ཁྲེགས་ཆོད་	-12.6091
▁གཞོལ	-12.6091
▁དོན་འགྲེལ་	-12.6091
▁བྷྲ	-12.6091
▁ཚོལ	-12.6091
▁མི་ལྟ་བ་	-12.6104
▁ལ་ཆེན་པོ་	-12.6104
▁སྒྲོ	-12.6104
▁ཧྭ་ཤང་	-12.6104
▁ཁྲེལ་ཡོད་	-12.6116
▁ཅེ་	-12.6116
▁བཤང་	-12.6116
▁རང་སྐྱོང་	-12.6116
▁སྨན་མར་	-12.6116
▁༩་	-12.6128
▁ཉལ་པོ་	-12.6128
▁བསྐམས་	-12.6128
▁བུམ་ཆུ	-12.6128
▁འཆོར་བ	-12.6128
▁རྔམ་པ་	-12.6128
▁སྐོས་	-12.6128
▁སྨྲོས་པ་	-12.6128
▁དང་ཁ	-12.614
▁དལ་བ	-12.614
▁བློ་སྐྱེ་བ	-12.614
▁སྐད་ཅིག་པ་	-12.614
▁གཟོ་བ་	-12.6152
▁ཕན་སེམས་	-12.6152
▁ཕྱོགས་ཆ་	-12.6152
▁ལེ་བརྒན་	-12.6152
▁གཞི་_	-12.6164
▁དགྲ་གཉེན་	-12.6164
▁ནང་མི་	-12.6164
▁མཐུན་སྦྱོར་	-12.6164
▁འཚམ་པ་	-12.6164
▁གཏོགས	-12.6176
▁གསང་མཛོད་	-12.6176
▁ཕྱུག་པ	-12.6176
▁ལས་མ	-12.6176
▁ལས་སྒྲིབ་	-12.6176
▁སྦལ་པ་	-12.6176
▁སྲི་ཞུ་	-12.6176
▁ཡལ་ག	-12.6189
▁རི་དབང་	-12.6189
▁རྒྱ་_	-12.6189
▁ཁྱུང་པོ་	-12.6201
▁ཉ་བ་	-12.6201
▁བྱ་_བ་	-12.6201
▁བྲག་དམར་	-12.6201
▁མཐའ་འཁོབ་པ	-12.6201
▁འགྲིམ་	-12.6201
▁གཤེ་བ་	-12.6213
▁ཁ་ཤ	-12.6225
▁གཏན་མ་	-12.6225
▁དགྲོལ་བ་	-12.6225
▁རྦ་	-12.6225
▁༽_།	-12.6238
▁ངེ་བ་	-12.6238
▁མཛའ་བོ	-12.6238
▁འཁྲུ་	-12.6238
▁སྨྱུག་	-12.6238
▁གསེག་མ་	-12.625
▁གླེགས་བུ་	-12.625
▁ཆར་པ	-12.625
▁བློ་_	-12.625
▁ཚིནྡྷ་	-12.625
▁རབ་འབྱམས་པ་	-12.625
▁ལྗིད་	-12.625
▁1000022010000270	-12.6262
▁དགོས་དོན་	-12.6262
▁དྲི་ཞིམ་པ	-12.6262
▁ནུབ་སྒོ	-12.6262
▁བཅུ་གཅིག་པོ་	-12.6262
▁བཙོས་པ	-12.6262
▁མེད་_པ་	-12.6262
▁ཛཱ་ཏི་	-12.6262
▁ཞལ་ངོ་	-12.6262
▁རྟེན་_	-12.6262
▁རྡོལ་བ་	-12.6262
▁སྲིན་མོ	-12.6262
▁བློ་ངན་	-12.6274
▁འགའ་ཙམ་	-12.6274
▁༩_	-12.6287
▁གཡུལ་ངོ་	-12.6287
▁པ་ཊ་	-12.6287
▁བབ་ཅོལ་	-12.6287
▁མདོ་སྨད་	-12.6287
▁འཁར་བ་	-12.6287
▁འཁྲུག་ལོང་	-12.6287
▁འདབས་	-12.6287
▁སྲོག་_	-12.6287
▁འཕར་བ	-12.6299
▁སཔྟ་	-12.6299
▁སྟག་ཚང་	-12.6299
▁ཐན་	-12.6311
▁ནང་སེམས་	-12.6311
▁བདུད་_	-12.6311
▁འཛིན་པ་_	-12.6311
▁སྤེན་པ་	-12.6311
▁བཞི་བ་	-12.6324
▁མདང་	-12.6324
▁འོད་འཕྲོ་བ	-12.6324
▁ལྟ་བུ་_	-12.6324
▁སྐེད་པ་	-12.6324
▁སྣྲོན་	-12.6324
▁ཧཱས་	-12.6324
▁བཅབས་	-12.6336
▁ཚིམས་	-12.6336
▁གཏུགས་པ་	-12.6349
▁གོལ་བ	-12.6349
▁ཆུ་ཁམས་	-12.6349
▁ལོ་པཎ་	-12.6349
▁?-_0	-12.6361
▁ནེ་ཙོ་	-12.6361
▁བཅོ་བརྒྱད་པ	-12.6361
▁བཞུགས་_	-12.6361
▁བསྐྱིལ	-12.6361
▁བསྙིལ་བ	-12.6361
▁བྷྲྀ་	-12.6361
▁མྱངས་པ	-12.6361
▁ཞིང་ལྷ་	-12.6361
▁རང་ཤུགས་	-12.6361
▁སྐུལ་ཚིག་	-12.6361
▁ཏ་པ	-12.6373
▁བསོད་པ	-12.6373
▁བསྟི་	-12.6373
▁མོ་རྒྱུད་	-12.6373
▁ཚིལ་ཆེན་	-12.6373
▁ཞུར་	-12.6373
▁ལོ་ལེགས་	-12.6373
▁ཁྱིམ་_	-12.6386
▁གདུབ་	-12.6386
▁གཙང་པ་	-12.6386
▁བཅུ་དགུ་པ་	-12.6386
▁བྱམས་ཆེན་	-12.6386
▁རྩོམ་པ་པོ་	-12.6386
▁ལཱི	-12.6386
▁ཉིང་	-12.6398
▁ནམ་གྲུ་	-12.6398
▁བསོ་	-12.6398
▁ཟུ	-12.6398
▁འཁྲིས་	-12.6398
▁འབེབ་པ	-12.6398
▁སྟེང་མ་	-12.6398
▁ཉ་བ	-12.6411
▁དབྱར་ཁང་	-12.6411
▁དམ་ཚིག་པ	-12.6411
▁ཕྲོགས་པ་	-12.6411
▁མཆོག་ལྡན་པ	-12.6411
▁མན་ཤེལ་	-12.6411
▁རི་པ་	-12.6411
▁སྦྱོངས་	-12.6411
▁གྲོ་ག་	-12.6423
▁ཅིའི་_	-12.6423
▁ཏིཿ	-12.6423
▁དུས་ཆེན་	-12.6423
▁མཛེས་ལྡན་	-12.6423
▁མིད་པ་	-12.6423
▁མེ་མཚམས་	-12.6423
▁འདོད་ལྷ	-12.6423
▁རྡོ་_རྗེ་	-12.6423
▁སེར་ནག་	-12.6423
▁3-_	-12.6436
▁ཆོ་	-12.6436
▁ཉིན་ཕྱེད་	-12.6436
▁བཙོ་མ་	-12.6436
▁འབྲེལ་_	-12.6436
▁རྩ་བ་_	-12.6436
▁སིལ་	-12.6436
▁ཁྲུ	-12.6448
▁ཕྱི་མཐའ་	-12.6448
▁མདུན་རོལ་	-12.6448
▁རྣམ་_པ་	-12.6448
▁སྐྱིད་སྡུག་	-12.6448
▁སྨན་སྣ་	-12.6448
▁ཱ་	-12.6448
▁།_།།_	-12.6461
▁༨_	-12.6461
▁གཅིག་གྱུར་	-12.6461
▁ཕྱལ་	-12.6461
▁འཛོམས་པ	-12.6461
▁འོག་གཞི་	-12.6461
▁ལུང་ཞུ་བ་	-12.6461
▁སེམས་མ	-12.6461
▁སྐད་ཆ་	-12.6461
▁སྲུལ་པོ་	-12.6461
▁གཟོ་	-12.6473
▁ཇི་ཞིག་	-12.6473
▁དབྱེ་གཞི་	-12.6473
▁དྭང་	-12.6473
▁མེ་ཤེལ་	-12.6473
▁འཕྱས་	-12.6473
▁གཉེན	-12.6486
▁བཅངས་པ་	-12.6486
▁བརྩིགས་པ	-12.6486
▁བསྙོན་	-12.6486
▁མིང་འདོགས་	-12.6486
▁ཡི་ག་	-12.6486
▁ཡིག་དྲུག་	-12.6486
▁རུང	-12.6486
▁ཤ་ན་	-12.6486
▁.-_.	-12.6499
▁བླུན་	-12.6499
▁དྲོས་པ	-12.6511
▁ཝང་	-12.6511
▁འདྲ་_	-12.6511
▁རྗེས་ཁྱབ་	-12.6511
▁རྡོ་_	-12.6511
▁ཤར་པ་	-12.6511
▁སྐུ་འཁོར་	-12.6511
▁སྣ་མ	-12.6511
▁སྲས་མོ་	-12.6511
▁ཁྲོས་མ་	-12.6524
▁བརྟས་པ	-12.6524
▁བློ་སྣ་	-12.6524
▁རྒྱངས་	-12.6524
▁ཇི་བཞིན	-12.6536
▁བཤོལ་	-12.6536
▁བྲལ་འབྲས་	-12.6536
▁རྐུན་པོ	-12.6536
▁ལག་ཆ་	-12.6536
▁ལེན་པ་པོ	-12.6536
▁བགོས	-12.6549
▁བསྟར་	-12.6549
▁འབྱུང་གྱུར་	-12.6549
▁སྔ་རྒོལ་	-12.6549
▁༡༣	-12.6562
▁ནང	-12.6562
▁བརྟག་དཔྱད་	-12.6562
▁ཞེ་_	-12.6562
▁རྡུལ་རྫས་	-12.6562
▁ཨ་འཐས་	-12.6562
▁ཨཽ	-12.6562
▁ཆུག	-12.6574
▁ཉིང་དགོས་	-12.6574
▁དགྲ་ལྷ་	-12.6574
▁འགོང་	-12.6574
▁སྟོབས་པ	-12.6574
▁གསང་རྒྱ	-12.6587
▁ཅེར་	-12.6587
▁ཏྭེ་	-12.6587
▁བོང་བ་	-12.6587
▁བྱུང་པ་	-12.6587
▁བྷཱི་	-12.6587
▁མངོན་_པར་	-12.6587
▁ཟེའུ་འབྲུ	-12.6587
▁སྐེ་ཚེ་	-12.6587
▁སྐེ་རགས་	-12.6587
▁སྙིང་རུས་	-12.6587
▁སྲུ་	-12.6587
▁ནི་གུ་	-12.66
▁བཀྲ་ཤིས་པ་	-12.66
▁མེས་པོ་	-12.66
▁རྣ	-12.66
▁སོལ་བ	-12.66
▁དྲི་ཞིམ་པ་	-12.6613
▁ནག་ཕྱོགས་	-12.6613
▁བསྒྲིབས	-12.6613
▁མཆིས་_	-12.6613
▁རྐྱལ་པ་	-12.6613
▁རྫོགས་རིམ་པ	-12.6613
▁ལ་ཟུར་	-12.6613
▁ཤ་ན	-12.6613
▁ཤུག་	-12.6613
▁སྣག་	-12.6613
▁ཧཱའི་	-12.6613
▁ཁོང་ཁྲོ	-12.6625
▁གཞིག་པ་	-12.6625
▁གསོག་པ་	-12.6625
▁ཉིས་བརྩེགས་	-12.6625
▁བགོ་བཤའ་	-12.6625
▁མཚམས་_	-12.6625
▁ལྷ་ཆེན་པོ	-12.6625
▁གཅེན་	-12.6638
▁གཡོན་_	-12.6638
▁ཆོས་གྲགས	-12.6638
▁བློ་བུར་	-12.6638
▁སྒུར་	-12.6638
▁ཁུ	-12.6651
▁གང་པ་	-12.6651
▁གུང་མོ	-12.6651
▁ངལ་གསོ་	-12.6651
▁ཟམ་	-12.6651
▁རྩ་ཚིག་	-12.6651
▁ལ་སོགས་_པ	-12.6651
▁ལྷ་ཚོགས	-12.6651
▁ལྷོད་པ	-12.6651
▁ཁྃ	-12.6664
▁ནངས་	-12.6664
▁མཁྱེན་_	-12.6664
▁འབིགས་པ	-12.6664
▁ཉེ་འདབས་	-12.6677
▁འདུག་གནས་	-12.6677
▁འབུམ་པ་	-12.6677
▁འབོད	-12.6677
▁ཡང་འཇུག་	-12.6677
▁ས་སྙིང་	-12.6677
▁སྨུག་	-12.6677
▁སྲིད་མཐ	-12.6677
▁ཁུ་དབོན་	-12.6689
▁གཤེར་བ	-12.6689
▁མ་པ	-12.6689
▁འཆི་ཀ	-12.6689
▁འདག་པ་	-12.6689
▁ཡོན་_	-12.6689
▁ས་སྲུང་	-12.6689
▁སྒྲུབ་བྱེད་པ	-12.6689
▁གང་ཡིན་པ་_	-12.6702
▁ཏུར་	-12.6702
▁མ་ཆེན་	-12.6702
▁མྱངས་	-12.6702
▁ཡིག་རྙིང་	-12.6702
▁སྨྲོས་པ	-12.6702
▁ཀྲྀཥྞ་	-12.6715
▁ཁོག་པ	-12.6715
▁ཏཱི	-12.6715
▁ན་རིམ་	-12.6715
▁བཀྲེན་པ་	-12.6715
▁བནྡྷ	-12.6715
▁བྱི་ལ	-12.6715
▁འཕྲུལ་དགའ་	-12.6715
▁གཏིང་མཐའ་	-12.6728
▁ཇག་	-12.6728
▁མཚེའུ་	-12.6728
▁རོགས་	-12.6728
▁-_2:	-12.6741
▁གླ་སྒང་	-12.6741
▁ཆོག་ཤེས་པ	-12.6741
▁དག་ས་	-12.6741
▁དགའ་མགུ་	-12.6741
▁དགྲམ	-12.6741
▁བདུན་ཅུ	-12.6741
▁རློན་པ	-12.6741
▁གང་ཞིག་_	-12.6754
▁དམོད་	-12.6754
▁བསྐུམ་པ་	-12.6754
▁ཚན་གཅིག་	-12.6754
▁འཕྲུལ	-12.6754
▁རཱུ་པ	-12.6754
▁རིམ་གྱིས་པ་	-12.6754
▁སྡུད་པ་པོ་	-12.6754
▁གདོས་བཅས་	-12.6767
▁བགྲད	-12.6767
▁བི	-12.6767
▁མ་པ་	-12.6767
▁ས་ཁམས་	-12.6767
▁སྤངས་_	-12.6767
▁ཎཾ	-12.678
▁དབུགས་ཕྱུང་	-12.678
▁མངྒལཾ	-12.678
▁ཕྱོགས་སྔ	-12.6793
▁མཛེས་མ	-12.6793
▁རི་རྒྱལ་	-12.6793
▁སིམ་པ	-12.6793
▁སྐྱོ་ཤས་	-12.6793
▁ཀླུ་སྒྲུབ	-12.6806
▁ཁྲོཾ་	-12.6806
▁གྲོ	-12.6806
▁དབྱེ་གཞི	-12.6806
▁བརྐུས་པ	-12.6806
▁ཚུལ་འཆོས་	-12.6806
▁ཤམ་བུ	-12.6806
▁གདངས་པ	-12.6819
▁དཔྱལ་	-12.6819
▁ནོར་པ་	-12.6819
▁ཕོ་མཚན་	-12.6819
▁བསྟན་དགྲ་	-12.6819
▁རྔ་མོ	-12.6819
▁རྩེས་	-12.6819
▁རྭ་བ	-12.6819
▁སྒྲིབ་གཡོགས་	-12.6819
▁སྒྲོན	-12.6819
▁གཅིག་ཚིག་	-12.6832
▁ངུར་	-12.6832
▁བརྩད་པ	-12.6832
▁བསྣོལ་བ་	-12.6832
▁འཚུབས་	-12.6832
▁རྩེད་མོ	-12.6832
▁ལྷང་ངེ	-12.6832
▁ཧ་པ་	-12.6832
▁ནོན	-12.6845
▁བསྲིང་བ	-12.6845
▁ཤ་_	-12.6845
▁སྐྱབས་རྗེ་	-12.6845
▁སྡུག	-12.6845
▁)_	-12.6858
▁.-_G	-12.6858
▁གནང་བཀག་	-12.6858
▁ཆེན་མ	-12.6858
▁འཕང་བ་	-12.6858
▁ཡུས་	-12.6858
▁ཤིང་དབང་	-12.6858
▁ཀུན་དགའ་བོ	-12.6871
▁ཀཽཎྜི་	-12.6871
▁གཙང	-12.6871
▁གཟུངས་མ་	-12.6871
▁རྒྱལ་ས་	-12.6871
▁སྙོམས་པར་_	-12.6871
▁དབྱངས་སྙན་	-12.6884
▁དབྱིངས་_	-12.6884
▁དྱཱ་	-12.6884
▁བྲན་གཡོག་	-12.6884
▁ཚོགས་གསོག་	-12.6884
▁ཞོལ་	-12.6884
▁ས་རི་	-12.6884
▁གདུག་རྩུབ་	-12.6897
▁ངེ་_	-12.6897
▁ཆུ་སྣོད་	-12.6897
▁དམངས་	-12.6897
▁བདེན་_	-12.6897
▁བཙན	-12.6897
▁བྲེང་	-12.6897
▁ལངས	-12.6897
▁གྲོགས	-12.691
▁གླ་རྩི	-12.691
▁ཆངས་བུ་	-12.691
▁ནི་བ་	-12.691
▁བརྡ་ཙམ་	-12.691
▁རྒྱལ་བུ	-12.691
▁རྒྱལ་མཚན་པ	-12.691
▁སྙོམ་	-12.691
▁སྡོད	-12.691
▁བརྐྱངས་པ	-12.6923
▁ཚོགས་གཏོར་	-12.6923
▁ལས་ལོག་	-12.6923
▁སྦྱང་བྱ	-12.6923
▁ཨགྣི་	-12.6923
▁གིའང་	-12.6936
▁མཆོག་སྤྲུལ་	-12.6936
▁འོ་ཐུག་	-12.6936
▁གཞི་མཐུན་པ་	-12.6949
▁ཆན་	-12.6949
▁ཉི་ཤར་	-12.6949
▁ཐང་ཤིང་	-12.6949
▁ཕྱགས་	-12.6949
▁བྲོ་བ	-12.6949
▁ཐེབ་	-12.6963
▁ན་་་་་་	-12.6963
▁བཟའ་བཅའ་	-12.6963
▁བརྡ་སྤྲོད་	-12.6963
▁བསིལ	-12.6963
▁འབྲས་བུ་འབྱུང་བ་	-12.6963
▁རྒྱ་ལ་	-12.6963
▁ཀླད་པ	-12.6976
▁བཞོན་	-12.6976
▁ཟླུམ་པ་	-12.6976
▁འཛེམ་	-12.6976
▁ར་ར་	-12.6976
▁ལ་_སོགས་པ་	-12.6976
▁ས་བཟང་	-12.6976
▁༧༩་	-12.6989
▁དུ་མ་_	-12.6989
▁བྱུང་རྒྱལ་	-12.6989
▁འཛོམ་པ་	-12.6989
▁ཤོག་གྲངས་	-12.6989
▁སུམ་ཅུ་པ	-12.6989
▁ཾ་	-12.6989
▁ཉན་ཐོས་པ་	-12.7002
▁ཏནྟྲ་	-12.7002
▁པད་མོ	-12.7002
▁ཕྱ་	-12.7002
▁མཐོངས་	-12.7002
▁མིང་སྲིང་	-12.7002
▁རི་_	-12.7002
▁སྐྱོབས	-12.7002
▁གསང་སྤྱོད་	-12.7016
▁ཐ་བ་	-12.7016
▁བསྡུད་པ་	-12.7016
▁འཕྱ་	-12.7016
▁གདན་པ	-12.7029
▁མཁ	-12.7029
▁མིད་པ	-12.7029
▁ཤོང་བ	-12.7029
▁ས་ལུགས་	-12.7029
▁༥༧་	-12.7042
▁གཟུངས་རིང་	-12.7042
▁ཅིའི་ཕྱིར་_	-12.7042
▁མངོན་སུམ་_	-12.7042
▁འཕུལ་	-12.7042
▁རྣོན་	-12.7042
▁ཀན	-12.7055
▁དབུ་འཕང་	-12.7055
▁བརྒྱད་པོ	-12.7055
▁བསྟབ་	-12.7055
▁བྱང་ཆུབ	-12.7055
▁མི་རྒོད་	-12.7055
▁རྨོར་	-12.7055
▁སྐུ་རིམ་	-12.7055
▁སྐུར་བ	-12.7055
▁སྐྱོན་བརྗོད་	-12.7055
▁བཅུ་དགུ་པ	-12.7069
▁བཟོ་བོ་	-12.7069
▁བརྩོན་_	-12.7069
▁མཆོད་བསྟོད	-12.7069
▁མོངས་	-12.7069
▁ས་ར	-12.7069
▁ཁྱད་མེད་པ	-12.7082
▁ཆུང་པ	-12.7082
▁དགོས་ཆེད་	-12.7082
▁དོར་སྟབས་	-12.7082
▁ཕུ་དུད་	-12.7082
▁བཀའ་བློ་	-12.7082
▁བགྲད་	-12.7082
▁བསོད་_	-12.7082
▁བཱ་རཱ་ཎ་སཱི་	-12.7082
▁འཕང་ལོ་	-12.7082
▁འཕྲོག	-12.7082
▁རཏྣ	-12.7082
▁རྒྱུས	-12.7082
▁སིད་	-12.7082
▁ངོས་འཛིན་པ	-12.7095
▁ཐ་ག་པ་	-12.7095
▁ནང་གསེས	-12.7095
▁མཐོན་མཐིང་	-12.7095
▁མཛོ་	-12.7095
▁འཕུར་བ་	-12.7095
▁ཡོངས་རྫོགས་པ	-12.7095
▁ལྷག	-12.7095
▁།།_༄༅།_།	-12.7109
▁གྷི་	-12.7109
▁ངོས	-12.7109
▁ཏི་ལ	-12.7109
▁མངོན་མཚན་	-12.7109
▁སོང	-12.7109
▁ཀྭ་	-12.7122
▁ཆ་_	-12.7122
▁བྲག་ཆ་	-12.7122
▁སྠི་	-12.7122
▁ཨཏྨ་	-12.7122
▁ཁ་ཅིག	-12.7136
▁ཕུབ	-12.7136
▁བཀོལ་བ་	-12.7136
▁བཅང་བ་	-12.7136
▁བཤད་_པ	-12.7136
▁རྟིང་པ་	-12.7136
▁ལྡ་ལྡི་	-12.7136
▁སྟོང་ཐུན་	-12.7136
▁གང་ཡོད་པ	-12.7149
▁བཙོད་	-12.7149
▁རི་བྲག་	-12.7149
▁རྐང་སྟབས་	-12.7149
▁རྩེག་	-12.7149
▁ཧྲིཿ	-12.7149
▁ཐད་ཀ་	-12.7163
▁ཐེམས་	-12.7163
▁བརྩིགས་པ་	-12.7163
▁སྐྱེ་བ་ཕྱི་མ་	-12.7163
▁སྣག་ཚ་	-12.7163
▁ཨཱཾ་	-12.7163
▁1000027010000220	-12.7176
▁གནང	-12.7176
▁ཆེན་_པོ	-12.7176
▁ཐེག་པ་_	-12.7176
▁དགོངས་བཞེད་	-12.7176
▁དྲའི་	-12.7176
▁དྷེ་བ་	-12.7176
▁བསང་ཆུ་	-12.7176
▁བསང་མཆོད་	-12.7176
▁མེར་མེར་པོ་	-12.7176
▁རྡོ་ལེབ་	-12.7176
▁_༽_	-12.7189
▁ཁྲོན་པ	-12.7189
▁གྱ་གྱུ་	-12.7189
▁ངལ་གསོ	-12.7189
▁བསྐུ་	-12.7189
▁འབྲང་རྒྱས་	-12.7189
▁སླེབ	-12.7189
▁གསལ་བྱེད	-12.7203
▁ཉན་ཐོས་_	-12.7203
▁བཀྲས་	-12.7203
▁རྩོད་དུས་	-12.7203
▁སྃ་	-12.7203
▁སྔོ་ནག་	-12.7203
▁ཐ་དད་_	-12.7216
▁བཅུ་ཆ	-12.7216
▁བཤད་སྦྱར་	-12.7216
▁མཆོག་དག	-12.7216
▁ལིང་ཏོག་	-12.7216
▁སྟོང་པ་_ཉིད་	-12.7216
▁༡༤	-12.723
▁དོན་བསྡུས་པ་	-12.723
▁བསྡུས་_	-12.723
▁སཱ་ལ	-12.723
▁སྲོག	-12.723
▁གྲེ་	-12.7244
▁དྲོད་ཆུང་	-12.7244
▁བསྲེག་བྱ་	-12.7244
▁མདོ་_	-12.7244
▁མོ་_	-12.7244
▁ལཊ་	-12.7244
▁སྐུ་དངོས་	-12.7244
▁སྣམ་ཕྲན་	-12.7244
▁སྨྱོས་པ་	-12.7244
▁དྲལ་བ	-12.7257
▁བཀྲུས	-12.7257
▁མཐར་ཆགས་	-12.7257
▁མི་དོ	-12.7257
▁འདུལ་ཞིང་	-12.7257
▁ཡར་ཚེས་	-12.7257
▁སྟག་གཟིག་	-12.7257
▁ཁྲུས་གསོལ	-12.7271
▁གདངས	-12.7271
▁དགོངས་རྫོགས་	-12.7271
▁དང་ལེན་པ་	-12.7271
▁བརླ	-12.7271
▁མཐང་གོས་	-12.7271
▁མུ་མཐའ་	-12.7271
▁ཡ་བ་	-12.7271
▁སྐུལ་བ་	-12.7271
▁སྤུངས	-12.7271
▁༎་_	-12.7284
▁གཟེངས་བསྟོད་	-12.7284
▁ཊྭཱྃ་	-12.7284
▁བཙིར་བ	-12.7284
▁མཐོང་ལམ་པ་	-12.7284
▁མུ་ཟི་	-12.7284
▁འགོང་པོ་	-12.7284
▁འོད་འབར་བ	-12.7284
▁P	-12.7298
▁གང་དག་_	-12.7298
▁གཡར་དམ་	-12.7298
▁ཕྱིས་པ་	-12.7298
▁མོན་པ་	-12.7298
▁རན་པ་	-12.7298
▁རྗེས་མ་	-12.7298
▁གསེར	-12.7312
▁གྲུབ་པོ་	-12.7312
▁ཊཱིཀྐ་	-12.7312
▁དྷྲྀཀ་	-12.7312
▁ནང་ཚངས་	-12.7312
▁མ་གཞན་	-12.7312
▁ཚོང་པ	-12.7312
▁འགྱིང་བ	-12.7312
▁རྒྱུ་བྱེད་	-12.7312
▁ལཱཾ་	-12.7312
▁སྐྱེས་པོ་	-12.7312
▁བསྐྲུན་པ་	-12.7325
▁རཱ་ཧུ་ལ་	-12.7325
▁༡༥	-12.7339
▁ཉམ་ཆུང་བ་	-12.7339
▁ཏོག	-12.7339
▁སྔལ་	-12.7339
▁ཀྱི་་་་་་	-12.7353
▁ཆོས་ཁམས་	-12.7353
▁ཐུན་གཏོར་	-12.7353
▁བཙག་	-12.7353
▁སྐེད་	-12.7353
▁སྐྱེས་པོ	-12.7353
▁(_	-12.7366
▁ཆིངས	-12.7366
▁ཊི	-12.7366
▁ཐོས་_	-12.7366
▁བགོ་སྐལ་	-12.7366
▁བལྟམས་	-12.7366
▁མི་རིགས	-12.7366
▁འབྲོ་	-12.7366
▁རོང་པ་	-12.7366
▁རོལ་རྩེད་	-12.7366
▁རྗེན་པ་	-12.7366
▁ཤ་པ	-12.7366
▁སྙིང་པོ་_	-12.7366
▁ཀཻ་	-12.738
▁ཁོ་_	-12.738
▁ཐད་སོ	-12.738
▁ཕངས་པ་	-12.738
▁བཀླགས་པ་	-12.738
▁བསྡམ	-12.738
▁མངོན་རྟོགས	-12.738
▁སྒོ་རུ་	-12.738
▁གསལ་ཆ་	-12.7394
▁ཐོར་བུ	-12.7394
▁སྟེང་_	-12.7394
▁གང་ལ་ལ	-12.7408
▁དྭགས་	-12.7408
▁མ་ཡིན་པ་_	-12.7408
▁གད་	-12.7422
▁དོན་བསྡུས་པ	-12.7422
▁བརྒྱུས་	-12.7422
▁ས་བོན་_	-12.7422
▁སྦགས་	-12.7422
▁།༽་	-12.7435
▁ག་_	-12.7435
▁གདིང་བ	-12.7435
▁འགས་པ	-12.7435
▁ཡན་གར་བ་	-12.7435
▁ཤི་འཕོས་པ	-12.7435
▁གྲག་པ་	-12.7449
▁དཔག་མེད་པ་	-12.7449
▁དེ་ལྟ་བས་ན	-12.7449
▁ཛྙཱ་ན	-12.7449
▁འཚེད་པ་	-12.7449
▁སྡེ་དགེ་	-12.7449
▁གང་ཟག_	-12.7463
▁གང་ཟག་_	-12.7463
▁གསུམ་པ་_	-12.7463
▁གྲོངས་	-12.7463
▁ཉེ་དུ	-12.7463
▁ཕས་རྒོལ་	-12.7463
▁བྲཧྨ་	-12.7463
▁འབྱོར་ལྡན་	-12.7463
▁ལག་ངར་	-12.7463
▁ལོག་_	-12.7463
▁སྲུང་སྐུད་	-12.7463
▁གཏམས་པ་	-12.7477
▁དེང་དུས་	-12.7477
▁ཕྱར	-12.7477
▁བྷིཿ	-12.7477
▁ཙོ་	-12.7477
▁འཁུར་	-12.7477
▁ལམ་སྲོལ་	-12.7477
▁སྒོ་མོ་	-12.7477
▁ཉེར་འཚེ་	-12.7491
▁ཕན་ཡོན	-12.7491
▁བསྡེབས་པ	-12.7491
▁སྦྲེང་	-12.7491
▁།_༄༅།	-12.7505
▁གཿ	-12.7505
▁ཐེམ་	-12.7505
▁བརྡེགས་	-12.7505
▁བརྫེས་	-12.7505
▁ཚར་གཅོད་པ་	-12.7505
▁ཤུ་བ་	-12.7505
▁གཞོན་ཤ་	-12.7519
▁ཉེ་ཉོན་	-12.7519
▁ཐོག་དྲངས་	-12.7519
▁ནུར་ནུར་པོ་	-12.7519
▁བཅུ་གསུམ	-12.7519
▁མགོར	-12.7519
▁མངགས་	-12.7519
▁འབྱང་བ	-12.7519
▁སྦགས་པ་	-12.7519
▁ཁུག་པ་	-12.7533
▁གཟེབ་	-12.7533
▁འཁྲོལ	-12.7533
▁འབྱོན་པ་	-12.7533
▁རྗེ་བོ་	-12.7533
▁ལང་བ	-12.7533
▁སྡོང་བུ	-12.7533
▁སྨྲྀ་	-12.7533
▁ཁྲལ་	-12.7547
▁གཏོད	-12.7547
▁ནང་བཞིན་	-12.7547
▁ནེའི་	-12.7547
▁ལས་ཤིང་	-12.7547
▁ས་རབ་	-12.7547
▁སུམ་མདོ	-12.7547
▁སྡུག་བདེན་	-12.7547
▁ཀུན་འཛིན་	-12.7561
▁གཞག་_	-12.7561
▁གི་བ	-12.7561
▁རྣམ་ཐར	-12.7561
▁རྨོངས	-12.7561
▁ཤེས་_པ་	-12.7561
▁ཨཱི	-12.7561
▁གསོས་པ	-12.7575
▁པདྨཱནྟ་	-12.7575
▁བསྒྲུབ་བོ	-12.7575
▁བྱེད་_པ་	-12.7575
▁འབྱར་	-12.7575
▁རང་ཅག་	-12.7575
▁ལྷ་ཆོས་	-12.7575
▁ཤོང་བ་	-12.7575
▁ཁྲེལ་ཡོད་པ་	-12.7589
▁གཏན་མེད་པ	-12.7589
▁དཿ	-12.7589
▁བསྐུལ་མ་	-12.7589
▁བསྙེལ་བ་	-12.7589
▁བསྡིགས་པ་	-12.7589
▁མཆིན་པ་	-12.7589
▁འཁྱམས	-12.7589
▁ཐིགས་པ	-12.7603
▁དགོན་གནས་	-12.7603
▁ཕུང་པོ་_	-12.7603
▁བགྲངས་པ་	-12.7603
▁འཆོར་	-12.7603
▁འདམ་བུ	-12.7603
▁འཛིན་སྐྱོང་	-12.7603
▁རྣམས་པ	-12.7603
▁ཤུག་པ་	-12.7603
▁ཤུགས་དྲག་	-12.7603
▁སོན	-12.7603
▁སྐྱོགས་	-12.7603
▁གཉའ་	-12.7617
▁དགྲམ་པ	-12.7617
▁སློབ	-12.7617
▁གྲགས་ཆེན་	-12.7631
▁བཞག་_	-12.7631
▁བསྐུ་བ་	-12.7631
▁རྒན་རབས་	-12.7631
▁ཤིང་ཤུན་	-12.7631
▁སེལ་འཇུག་	-12.7631
▁གོས་_	-12.7645
▁བཟོས་	-12.7645
▁ལ་ཏ་	-12.7645
▁སྨན་བླ	-12.7645
▁སྨོན་ལམ	-12.7645
▁༡༠_	-12.7659
▁ཐི	-12.7659
▁བཤན་པ་	-12.7659
▁སང་ཉིན་	-12.7659
▁སྐུ་མདུན་	-12.7659
▁སྔར་བཞིན	-12.7659
▁ཨཥྚ་	-12.7659
▁པ་ཚབ་	-12.7673
▁བསྐྱེད་རིམ་པ	-12.7673
▁བཱན་	-12.7673
▁ཝེ	-12.7673
▁འདར་བ་	-12.7673
▁རྫོངས་	-12.7673
▁རློགས	-12.7673
▁ཀྵུ་	-12.7687
▁དབུལ་ཕོངས་	-12.7687
▁མཚོ་ཆེན་	-12.7687
▁འུར་འུར་	-12.7687
▁འོང	-12.7687
▁རིན་_	-12.7687
▁རྩོད་གཞི	-12.7687
▁ཤྲཱིའི་	-12.7687
▁སྒྲིགས་	-12.7687
▁དཀྲུག་	-12.7702
▁བླང་པ	-12.7702
▁འཁྱེར་བ	-12.7702
▁འཕྲོག་མ་	-12.7702
▁ལི་ཡུལ་	-12.7702
▁ལུང་གཞི་	-12.7702
▁སྡེབས་	-12.7702
▁ངག་དབེན་	-12.7716
▁ཌྷོ་	-12.7716
▁དམིགས་པ་_	-12.7716
▁ནང་ཁྲོལ་	-12.7716
▁བན་དེ་	-12.7716
▁མཚན་ཕྱེད་	-12.7716
▁ཟོས	-12.7716
▁འཁྲིགས་	-12.7716
▁རིམ་གྱིས་པ	-12.7716
▁ཤིང་མོ་	-12.7716
▁སྤང་པ་	-12.7716
▁བསྟན་_པ	-12.773
▁བསྩལ	-12.773
▁མི་སྨྲ་བ	-12.773
▁རབ་དག	-12.773
▁སྤྱི་ཆོས་	-12.773
▁ཁབ་ལེན་	-12.7744
▁ཕ་བོང་	-12.7744
▁བཙའ་བ	-12.7744
▁རིམ་པ་_	-12.7744
▁ལུགས་སྲོལ་	-12.7744
▁སེའུ་	-12.7744
▁ངོས་ཟིན་	-12.7759
▁འཆག་པ	-12.7759
▁རེ་མོས་	-12.7759
▁ཉན་བཤད་	-12.7773
▁བཏང	-12.7773
▁མེ་ཕོ་	-12.7773
▁འཇམ་རྩི་	-12.7773
▁རྟུལ་པོ	-12.7773
▁ལོ་_	-12.7773
▁སྐྱབས་མགོན་	-12.7773
▁ཁེབས་པ་	-12.7787
▁མྱུར་ལམ་	-12.7787
▁ཞིང་ལྤགས་	-12.7787
▁ཞེན་དོན་	-12.7787
▁སྐྱོན་བརྗོད་པ	-12.7787
▁སྟོང་བ	-12.7787
▁ྈ	-12.7787
▁ཆུ་མ་	-12.7802
▁ཐིབས་པོ་	-12.7802
▁ཟླ་བ་_	-12.7802
▁ཡུངས་	-12.7802
▁སྤུར་	-12.7802
▁ཏིང་ལོ་	-12.7816
▁བསླབས	-12.7816
▁ཟ་ཧོར་	-12.7816
▁རལ་བ་	-12.7816
▁སྟཾ་	-12.7816
▁ཨརྒྷཾ	-12.7816
▁གྱེར་	-12.783
▁བརྡལ་	-12.783
▁བསམ་གཏན	-12.783
▁ཡང་རྩེ་	-12.783
▁རིན་ཆེན་_	-12.783
▁ལམ་པོ་ཆེ	-12.783
▁ལུད་པ	-12.783
▁ཁྱོར་	-12.7845
▁ཏི་ས་	-12.7845
▁དྲོས་	-12.7845
▁ཕུན་ཚོགས	-12.7845
▁བཅོ་བརྒྱད	-12.7845
▁བརྒྱུད་མ	-12.7845
▁བིལ་བ་	-12.7845
▁ལག་_	-12.7845
▁ལམ་རིམ་པ་	-12.7845
▁ཤིན་_	-12.7845
▁ཥའི་	-12.7845
▁གཏོར་ཟོར་	-12.7859
▁བཞུ་བ	-12.7859
▁ལ་_སོགས་པ	-12.7859
▁=	-12.7874
▁གར་མ་	-12.7874
▁ཉེར་གནས་	-12.7874
▁དག་_པ	-12.7874
▁འཇུད་	-12.7874
▁འཚམ་	-12.7874
▁མཚན་མ་_	-12.7888
▁ཞ	-12.7888
▁འདྲི	-12.7888
▁རྨི་ལྟས་	-12.7888
▁རྫི་མ་	-12.7888
▁ལཿ	-12.7888
▁སྐྱོབ	-12.7888
▁སྟྭམྦྷ་	-12.7888
▁སྤྱང་ཀི་	-12.7888
▁སླད་མ	-12.7888
▁ཁམ་པ་	-12.7903
▁ཆུ་ལུད་	-12.7903
▁དགའས་	-12.7903
▁འཐུས་	-12.7903
▁ལྐུགས་པ	-12.7903
▁དག་ཅི་	-12.7917
▁དྲག་མོ	-12.7917
▁བརྡབས་	-12.7917
▁བྲེས་	-12.7917
▁འཆེ་བ་	-12.7917
▁རྒན་ཞུགས་	-12.7917
▁རྣལ་འབྱོར་བ་	-12.7917
▁ཆོས་འབྲེལ་	-12.7932
▁ཞལ་_	-12.7932
▁རྣམ་གྲོལ་བ	-12.7932
▁ཁྲོ་གཏུམ་	-12.7946
▁གཉན་པོ	-12.7946
▁གཡོ་འགུལ་	-12.7946
▁བྲེལ་བ	-12.7946
▁མ་རྒན་	-12.7946
▁འདར་བ	-12.7946
▁ཡོན་པོ་	-12.7946
▁སྤྲིན་ཆེན་པོ་	-12.7946
▁%-_2:	-12.7961
▁ཀརྨ	-12.7961
▁ཆེ་བཙན་	-12.7961
▁དཔོན་པོ་	-12.7961
▁དྲི་མེད་པ	-12.7961
▁བསམས་_	-12.7961
▁བསྐ་བ་	-12.7961
▁བསྡམ་	-12.7961
▁བྱུང་བ་_	-12.7961
▁མཐུན་དཔེ	-12.7961
▁རཀྨོ་	-12.7961
▁རྒྱལ་འགོང་	-12.7961
▁རྨིས	-12.7961
▁སིམ་པ་	-12.7961
▁སྐྱེལ་བ་	-12.7961
▁གཞི་མེད་པ་	-12.7975
▁ཐུལ	-12.7975
▁ནང་སོ་	-12.7975
▁བཀྲོལ་བ	-12.7975
▁མཉྫིའི་	-12.7975
▁སྟེ་ཁ་	-12.7975
▁༡༧	-12.799
▁ཁྱབ་བརྡལ་	-12.799
▁གཉེན་འདུན་	-12.799
▁གསོས	-12.799
▁ཕེ་	-12.799
▁བསྡུད་པ	-12.799
▁བེམས་པོ	-12.799
▁བྱེར་	-12.799
▁མཁྱེན་པ་_	-12.799
▁མཆོག་ཐོབ་པ	-12.799
▁མནར་མེད་པ་	-12.799
▁སངས	-12.799
▁སྔགས་ལུགས་	-12.799
▁༡༦	-12.8005
▁གཙྪ	-12.8005
▁ཅ་	-12.8005
▁ཆུ་བ་	-12.8005
▁མཐུར་	-12.8005
▁མེལ་ཚེ་	-12.8005
▁སྙན	-12.8005
▁-_28	-12.8019
▁ཅིག་ཅར་བ་	-12.8019
▁དགའ་བ་_	-12.8019
▁དེས་པ	-12.8019
▁ནང་མ	-12.8019
▁བཅ	-12.8019
▁བཙགས་	-12.8019
▁བཟླས་_	-12.8019
▁མདེའུ་	-12.8019
▁མིང་ཡིག་	-12.8019
▁འབྲི་གུང་པ་	-12.8019
▁འོལ་	-12.8019
▁ལོ་པ	-12.8019
▁སྤགས་པ་	-12.8019
▁གཏུམ་པ་	-12.8034
▁ཏྱེ་	-12.8034
▁དགྲ་_	-12.8034
▁དྲི་ང་བ་	-12.8034
▁དྲི་ཆབ	-12.8034
▁བཛྲེ	-12.8034
▁བོ	-12.8034
▁མེ་མོ་	-12.8034
▁རྗེས་བཟོད་	-12.8034
▁ཤུགས་བསྟན་	-12.8034
▁སྟངས་སྟབས་	-12.8034
▁ཀ་པ	-12.8049
▁བརྟས་	-12.8049
▁བྱ་རྩོལ་	-12.8049
▁འགྲུབ་པོ	-12.8049
▁ཡིག་མགོ་	-12.8049
▁ཏྲི	-12.8063
▁དཀྲིས	-12.8063
▁དུས་རབས་	-12.8063
▁བཀན་	-12.8063
▁བསྐང་གསོ་	-12.8063
▁མནོས་པ་	-12.8063
▁ཞུ་རྗེས་	-12.8063
▁ཟི་	-12.8063
▁འཆི་སྲིད་	-12.8063
▁ཁ་པ	-12.8078
▁དྭེ་	-12.8078
▁དྲག་རྩལ་	-12.8078
▁ཕྱུག་པོ	-12.8078
▁བླ་རེ	-12.8078
▁རྒྱུ་བྱེད་པ་	-12.8078
▁སོག་པ	-12.8078
▁སྟ་རེ་	-12.8078
▁སྟོད	-12.8078
▁ཧཱུ་	-12.8078
▁༡༠་	-12.8093
▁གཟུང་_	-12.8093
▁ཌཱུརྻ་	-12.8093
▁ཕྱག་དཔེ་	-12.8093
▁བྱང་སེམས	-12.8093
▁རྐང་རྗེས་	-12.8093
▁སྐུ་འདྲ་	-12.8093
▁དག་ཅི	-12.8108
▁བསྟབས་པ	-12.8108
▁བསྲུངས	-12.8108
▁མ་ཤ་ཀ་	-12.8108
▁མཆིའོ་	-12.8108
▁རང་མིང་	-12.8108
▁རུ་པ་	-12.8108
▁སྟོད་པ	-12.8108
▁གཎྜི་	-12.8122
▁གདའ་བ་	-12.8122
▁དུཥྚ་	-12.8122
▁བགོ	-12.8122
▁བཙོན་ར་	-12.8122
▁ཚ་ཚ་	-12.8122
▁འཚེར	-12.8122
▁རོལ་མཚོ་	-12.8122
▁སྒོམ་ཆེན་པ་	-12.8122
▁གཅེར་བུ་པ	-12.8137
▁དཎྜ་	-12.8137
▁ཕྱི་ས་	-12.8137
▁ཚིག་རྩུབ་པོ་	-12.8137
▁ཚོགས་ཆེན་པོ	-12.8137
▁འབོལ་	-12.8137
▁ཧོམ་ཁུང་	-12.8137
▁ཐོག་པ་	-12.8152
▁སྐྲངས་པ་	-12.8152
▁གང་པོ	-12.8167
▁བསྐྱངས་པ་	-12.8167
▁མགྲོན་པོ་	-12.8167
▁འགྲོ་འདུག་	-12.8167
▁ལཱ	-12.8167
▁.-_0	-12.8182
▁དབུ་རྒྱན	-12.8182
▁ཕྱི་བ་	-12.8182
▁རང་སྲོག་	-12.8182
▁རྨོས་	-12.8182
▁ཎྱེ་	-12.8197
▁དོན་གྲུབ་པ་	-12.8197
▁ནད་_	-12.8197
▁བཙན་རྒོད་	-12.8197
▁བྲོས་པ	-12.8197
▁ཚིམ་བྱེད་	-12.8197
▁ལ་སོགས་_པ་	-12.8197
▁ཤྲཱིས་	-12.8197
▁སྒྱུ	-12.8197
▁སྒྲོལ་བྱེད་	-12.8197
▁ཁྲོ་ཆུ་	-12.8212
▁ཕུར་མ་	-12.8212
▁ཕྱིནད་པ་	-12.8212
▁བྲབ་	-12.8212
▁ཞི་བ་འཚོ	-12.8212
▁འདོད་རྒུ་	-12.8212
▁ཡས་ལ་	-12.8212
▁རྒྱ་ཁྱོན་	-12.8212
▁རྟེན་བྱེད་པ་	-12.8212
▁གཏན་ཚིག་	-12.8227
▁གཟུད་པ	-12.8227
▁ཆེན་པོ་པ	-12.8227
▁ཏྲཾ	-12.8227
▁བློ་སྐྱེ་བ་	-12.8227
▁མིག་ལམ་	-12.8227
▁ཡན་ལག	-12.8227
▁རེས་འཇོག་	-12.8227
▁རྨོག་	-12.8227
▁༡༥་	-12.8242
▁ཁུགས་	-12.8242
▁ཆོས་པ	-12.8242
▁ཉི་གདན་	-12.8242
▁ཉོན་མོངས	-12.8242
▁སྐྱུ་རུ་ར	-12.8242
▁ཅི་འདྲ	-12.8257
▁དཔག་_	-12.8257
▁བསྣོལ	-12.8257
▁སོ་བ་	-12.8257
▁སྡང་སེམས་	-12.8257
▁ཀཱིརྟི་	-12.8272
▁ཇི་ཙམ་པ་	-12.8272
▁པུཥྤ་	-12.8272
▁བཀབ་པ་	-12.8272
▁བཀལ་བ	-12.8272
▁བབ་བོ	-12.8272
▁རིག་པ་_	-12.8272
▁རེ་_	-12.8272
▁སྒམ་པོ་པ	-12.8272
▁ཀེཾ་	-12.8287
▁ཆ་ཅན་	-12.8287
▁བགྲེས་	-12.8287
▁ལྕགས་རི	-12.8287
▁སྐྱོད་པ	-12.8287
▁ཉོན་མོངས་པ་_	-12.8302
▁ནམ་མཁའ	-12.8302
▁ནུ་བོ་	-12.8302
▁བདུད་མོ་	-12.8302
▁བསྒྱིངས་པ	-12.8302
▁བཽ་	-12.8302
▁ཙཎྜཱ་	-12.8302
▁འགུགས	-12.8302
▁འགུལ	-12.8302
▁རབ་_ཏུ་	-12.8302
▁རྒྱབ་ཕྱོགས་	-12.8302
▁ལིཊ་	-12.8302
▁སུམ་མདོ་	-12.8302
▁སྦྲུལ་མགོ་	-12.8302
▁སྨད་འཚོང་མ་	-12.8302
▁སློང་མོ་	-12.8302
▁ངོམ་	-12.8317
▁ཐིང་	-12.8317
▁དྲུ་	-12.8317
▁པ་ཏྲ་	-12.8317
▁བྲེལ་བ་	-12.8317
▁མི་མགོ	-12.8317
▁འབྲས་བུ་འབྱིན་པ	-12.8317
▁ལངྐ་	-12.8317
▁སྐྱུག་སྨན་	-12.8317
▁སྤྲ་ཚིལ་	-12.8317
▁སྨོས་_	-12.8317
▁ཉུང་ཟད་	-12.8332
▁ཐང་སྟོང་	-12.8332
▁ཐོར་ཅོག་	-12.8332
▁བརྡུངས་པ་	-12.8332
▁བསིལ་ཟེར་	-12.8332
▁འཛག	-12.8332
▁རེག་_	-12.8332
▁རྟ་ཐུལ་	-12.8332
▁རྨིས་པ་	-12.8332
▁ལེནྡྲ་	-12.8332
▁ལྷུན་གྲུབ་པ	-12.8332
▁༡༨	-12.8347
▁ཀློད་	-12.8347
▁ཆོངས་	-12.8347
▁བཟང་སྤྱོད་	-12.8347
▁ཡིད་འོང་བ	-12.8347
▁རུང་ཁང་	-12.8347
▁ཤུ་བྷཾ	-12.8347
▁སྦྱིན་བྱེད་	-12.8347
▁ཇི་ལྟ	-12.8362
▁དབུ་མཛད་	-12.8362
▁པད་ཚལ་	-12.8362
▁བརྐྱང་པ	-12.8362
▁བརྩད་	-12.8362
▁མི་ལྕོགས་པ་	-12.8362
▁འཛེར་	-12.8362
▁རླབས་པ	-12.8362
▁ལོགས་པ་	-12.8362
▁གཞི་མ་གྲུབ་པ	-12.8377
▁གཤེགས་_པ	-12.8377
▁དགོང་	-12.8377
▁ཕུབ་མ་	-12.8377
▁བབ་བོ་	-12.8377
▁བླ་དྭགས་	-12.8377
▁འཁྱམ་	-12.8377
▁འགྲོགས	-12.8377
▁ལོ་པ་	-12.8377
▁ལྷན་ནེ་	-12.8377
▁སུམ་ཅུ་རྩ་གསུམ་པ་	-12.8377
▁སྐུ་གཤེགས་	-12.8377
▁སྐྱེས་པ་_	-12.8377
▁བརྡབས་པ	-12.8393
▁བྲིས་སྐུ	-12.8393
▁བླུན་པ་	-12.8393
▁མོ་མཚན་	-12.8393
▁ཛ་གད་	-12.8393
▁འཛེག་	-12.8393
▁སྐྲྀ་	-12.8393
▁-_5	-12.8408
▁_༑༑_	-12.8408
▁ཀུ་རེ་	-12.8408
▁གཞི་གྲུབ་	-12.8408
▁གརྫ་	-12.8408
▁གོམ་པ	-12.8408
▁གྲུ་གསུམ་པ་	-12.8408
▁ཕྱུག་པ་	-12.8408
▁ཕྲེང་ལྡན་	-12.8408
▁བདག་པ	-12.8408
▁ཚ་ལ་	-12.8408
▁འཕགས་པ་_	-12.8408
▁སྙེ་མ	-12.8408
▁ཆུ་འགྲམ་	-12.8423
▁འགྲུས་	-12.8423
▁སད	-12.8423
▁གཤེད་མ	-12.8438
▁ཇི་_ལྟར་	-12.8438
▁བཤུས་	-12.8438
▁མཆོངས་པ་	-12.8438
▁མེ་ཏོག་མ་	-12.8438
▁ཝན་	-12.8438
▁འཆང	-12.8438
▁སིན་	-12.8438
▁གཏིབས་པ་	-12.8454
▁བཟུང་_	-12.8454
▁བསག་པ་	-12.8454
▁མགོན་མེད་པ་	-12.8454
▁ཞིབ་ཆ་	-12.8454
▁འཕྱོང་	-12.8454
▁ལ་རྩ་བ་	-12.8454
▁སྒོ་གླེགས་	-12.8454
▁སྦྱོར་ལམ་པ་	-12.8454
▁གཟུགས་ཅན་པ་	-12.8469
▁གྭའུ་	-12.8469
▁ཝརྨ་	-12.8469
▁གོང་ས་	-12.8484
▁ཆིབས	-12.8484
▁བག་མ	-12.8484
▁བདག་མོ	-12.8484
▁མི་གུ	-12.8484
▁འཛུད་པ་	-12.8484
▁ཡུན་ཐུང་	-12.8484
▁རྒྱུན་_	-12.8484
▁ལམ་བསྟན་པ	-12.8484
▁ལོ་ན	-12.8484
▁ལྷ་བཙུན་	-12.8484
▁ལྷགས	-12.8484
▁སྩལ་_	-12.8484
▁དེས་ན་_	-12.85
▁མན་ངག	-12.85
▁སྤོ	-12.85
▁ནུ་ཞོ་	-12.8515
▁བཙན་པ	-12.8515
▁མུངྒ་	-12.8515
▁ཡཱཾ་	-12.8515
▁ཤ་ར་ར	-12.8515
▁སྐམ་པོ	-12.8515
▁ཀྵིཾ་	-12.8531
▁གོ་མི	-12.8531
▁བསམ་ངན་	-12.8531
▁བསྙེན་བཀུར་བ་	-12.8531
▁འགེགས་པ	-12.8531
▁ལུས་སྟོབས་	-12.8531
▁སྐྱེས་མ	-12.8531
▁སྤྱི་བྱེ་	-12.8531
▁།_།༈_	-12.8546
▁ཁྲི་སྟན་	-12.8546
▁གཞུང་ལམ་	-12.8546
▁ཆ་མཉམ་པ་	-12.8546
▁ནུ	-12.8546
▁བླ་_	-12.8546
▁ཡིན་པ་_	-12.8546
▁སྐྱེ་འགྲོ	-12.8546
▁སྒྲ་སྤྱི་	-12.8546
▁ཀོ	-12.8561
▁གཏེར་ཆེན་པོ་	-12.8561
▁གདུགས་དཀར་པོ་	-12.8561
▁གཞི་ལྔ་	-12.8561
▁ཆགས་ཞེན་	-12.8561
▁དངོས་བཏགས་	-12.8561
▁ནད་རིམས་	-12.8561
▁ནྱཱ་	-12.8561
▁ཞི་_	-12.8561
▁འགལ་_	-12.8561
▁འདེགས་པ་	-12.8561
▁འབོགས་	-12.8561
▁སིདྡྷ་	-12.8561
▁སྟེན་པ་	-12.8561
▁སྤྱི་གཏོར་	-12.8561
▁གོ་ས	-12.8577
▁ནི་པ་	-12.8577
▁བཅུ་བཞི་པོ་	-12.8577
▁མི་མོ་	-12.8577
▁ཝ་ལ་	-12.8577
▁ཞིང་པ་	-12.8577
▁འདྲེན་མ	-12.8577
▁ཡང་ན་_	-12.8577
▁རིགས་བརྒྱ་	-12.8577
▁ལུགས་མཐུན་	-12.8577
▁སྒོ་ཚད་	-12.8577
▁སློབ་དཔོན	-12.8577
▁གང་གཱ་	-12.8592
▁གུམ་	-12.8592
▁གོའུ་	-12.8592
▁ཆོམས་	-12.8592
▁ཐབས་ཚུལ་	-12.8592
▁དཀྲུག་པ	-12.8592
▁ནད་ཞི་བ	-12.8592
▁བསྐོས	-12.8592
▁བྱེའུ་	-12.8592
▁ཚུད	-12.8592
▁ལིན་	-12.8592
▁སྔགས་སྐྱེས་	-12.8592
▁སྤྲིངས་པ	-12.8592
▁སྲན་མ	-12.8592
▁གད་རྒྱངས་	-12.8608
▁དྲི་བཟང་པོ	-12.8608
▁བདེ་ཆེན་པོ	-12.8608
▁བརྒྱ་ལ	-12.8608
▁བསྐུས་པ	-12.8608
▁མཉེན་པ་	-12.8608
▁མཚན་_ཉིད་	-12.8608
▁ལམ་བགྲོད་	-12.8608
▁ལྷ་ལྕམ་	-12.8608
▁གླིང་བཞི་པ	-12.8624
▁ཇི་ལྟ་བ་_	-12.8624
▁དང་ཐོག་	-12.8624
▁དམ་པོ་	-12.8624
▁ནིམ་པ	-12.8624
▁བཙོ་	-12.8624
▁བར་བསྐལ་	-12.8624
▁བརྗེ་	-12.8624
▁མཁར	-12.8624
▁འཁྲི་བ་	-12.8624
▁ཡ་པ་	-12.8624
▁ལེགས་སྐྱེས་	-12.8624
▁ཤིག་_	-12.8624
▁ཤུདྡྷོ྅་	-12.8624
▁བཙོ་མ	-12.8639
▁ཛྙཱ་པ་	-12.8639
▁རྗེས་མེད་	-12.8639
▁གསུམ་ཅ	-12.8655
▁ངན་ངོན་	-12.8655
▁ཊིའི་	-12.8655
▁ནུས་སྟོབས་	-12.8655
▁འགྱེལ་བ	-12.8655
▁ཀུན་དཀྲིས་	-12.867
▁གསོས་པ་	-12.867
▁ཊེ་	-12.867
▁ཏྲས་	-12.867
▁ཐིག་ཚོན་	-12.867
▁ཐཾ	-12.867
▁དམུ་རྫིང་	-12.867
▁ཕྱག་བརྙན་	-12.867
▁ཕྲན་བུ་	-12.867
▁རེས་འགའ་བ་	-12.867
▁རྩ་བཤད་	-12.867
▁-_0:	-12.8686
▁ཀོའུ་	-12.8686
▁གྷཎྜེ་	-12.8686
▁ཉམ་ཐག་པ་	-12.8686
▁བརྟོལ་	-12.8686
▁བལྟས	-12.8686
▁མཐས་གཏུགས་པ	-12.8686
▁མཚུངས་_	-12.8686
▁ཞེ་ས་	-12.8686
▁འོག་_	-12.8686
▁རེ་ལྡེ་	-12.8686
▁རྫ་མ་	-12.8686
▁སྨོན	-12.8686
▁ཨཱ་ལི	-12.8686
▁གཡེར་	-12.8702
▁གོ་ཁྲབ་	-12.8702
▁གོར་མ་ཆག་	-12.8702
▁དང་པ་	-12.8702
▁དཔེ་ཙམ་	-12.8702
▁ཕོག_	-12.8702
▁བརྡ་ཆད་	-12.8702
▁བྱེས་	-12.8702
▁ལྤགས་པ	-12.8702
▁སེ་བ་	-12.8702
▁སྔ་མ་_	-12.8702
▁སྤྲིང་བ་	-12.8702
▁ཉེས་བྱས	-12.8717
▁དགའ་བདེ	-12.8717
▁བཞུད་པ	-12.8717
▁བསྩལ་པ་	-12.8717
▁འགེངས་པ་	-12.8717
▁འདོགས	-12.8717
▁རོལད་	-12.8717
▁རྦ་ཀློང་	-12.8717
▁སྟོན་པ་_	-12.8717
▁གཏན་_	-12.8733
▁ཆོས་ཚན་	-12.8733
▁ཐ་མ་པ	-12.8733
▁དུས་འཁོར་བ་	-12.8733
▁ནད་བདག་	-12.8733
▁ལྟག་མ་	-12.8733
▁ལྦུ་བ་	-12.8733
▁གཏོང་ལེན་	-12.8749
▁བསྣུན	-12.8749
▁མཁས་_	-12.8749
▁ཞེས་_པ་	-12.8749
▁ཞྭ་དམར་	-12.8749
▁འཐོབ་པོ	-12.8749
▁ལཱྀ་	-12.8749
▁སླེ་ཏྲེས་	-12.8749
▁/-_3	-12.8765
▁༡༡_	-12.8765
▁བཀྲོལ་བ་	-12.8765
▁བཞུགས་སྟངས་	-12.8765
▁འཆད་པ་པོ	-12.8765
▁ཨནྟ་	-12.8765
▁དྲུག་པོ	-12.8781
▁ཕྲ་མ	-12.8781
▁བྲེད་	-12.8781
▁ཟླ་བོ་	-12.8781
▁ལྗང་བ	-12.8781
▁ལྷན་_	-12.8781
▁སྔོ་སྐྱ་	-12.8781
▁སྟོབ་པ	-12.8781
▁སྤྲོའོ	-12.8781
▁སྦྱངས་འབྲས་	-12.8781
▁སྲབ་པ་	-12.8781
▁གཅུགས་	-12.8796
▁མགལ་མེ་	-12.8796
▁འགྲུབ་_	-12.8796
▁འདས་པ་_	-12.8796
▁འབུད	-12.8796
▁ཡན་ཆོད་	-12.8796
▁སེང་ཁྲི་	-12.8796
▁སོར་ཆུད་	-12.8796
▁སྡོམས་	-12.8796
▁སྤོགས་	-12.8796
▁གནས་དུས་	-12.8812
▁ངྷ་	-12.8812
▁དབེན	-12.8812
▁དུཥྚཱན་	-12.8812
▁ཕེཾ	-12.8812
▁བཤེས་གཉེན	-12.8812
▁མ་མཐའ་	-12.8812
▁མརྒད་	-12.8812
▁འཇུག་ཤེས་	-12.8812
▁རོལ་བ་	-12.8812
▁རྒྱལ་བསེན་	-12.8812
▁རྒྱུས་པ	-12.8812
▁ལྟག་པ་	-12.8812
▁སྲིད་_	-12.8812
▁༡༩	-12.8828
▁ཅེས་བྱ་བ་_	-12.8828
▁དོགས་གཅོད་	-12.8828
▁པྲ་མོ་	-12.8828
▁ཕན་དོན་	-12.8828
▁བསམ་གཏན་པ	-12.8828
▁འཐོན་པ་	-12.8828
▁འོད་ཟེར་_	-12.8828
▁རུ་རུ	-12.8828
▁རུལ་བ་	-12.8828
▁རྗེ་རིགས་	-12.8828
▁ལྟེང་ཀ་	-12.8828
▁ཀཀྐོ་	-12.8844
▁གནང་སྦྱིན་	-12.8844
▁ཆུང་པ་	-12.8844
▁དགའ་མ	-12.8844
▁དྷར་	-12.8844
▁བཙོག་	-12.8844
▁བཟང་_	-12.8844
▁བྱང་ཆུབ་བོ	-12.8844
▁བྷཾ་	-12.8844
▁རིགས་འགྲེ་	-12.8844
▁རྣོ་རྟུལ་	-12.8844
▁ལམ་པ	-12.8844
▁ས་ཡ	-12.8844
▁སིདྡྷི	-12.8844
▁སྤྲང་	-12.8844
▁གུར་ཀུམ་	-12.886
▁ཕ་མཐའ་	-12.886
▁མཆོག་ལྡན	-12.886
▁ལིཙྪ་	-12.886
▁སྔོན་བྱོན་	-12.886
▁སྤྲོད	-12.886
▁ཉམས་ལྡན་	-12.8876
▁དབང་ཕྱུག་_	-12.8876
▁མ་དྲུག་	-12.8876
▁མེ་རིས་	-12.8876
▁རྒྱུན་ཆགས་པ་	-12.8876
▁ཤིག་ཤིག་	-12.8876
▁གཅད	-12.8892
▁གཏད་མེད་	-12.8892
▁མི་ནག་	-12.8892
▁ཞལ་གཟིགས	-12.8892
▁འགྲོན་	-12.8892
▁རྔུབ་པ	-12.8892
▁རྔུབས་	-12.8892
▁ལུས་ཚད་	-12.8892
▁སྐུ་འབག་	-12.8892
▁སྩོགས་	-12.8892
▁གཏུན་	-12.8908
▁ཆེ་_	-12.8908
▁དགའ་ཚལ་	-12.8908
▁དགའ་ལྡན་པ་	-12.8908
▁བཤོས་བུ་	-12.8908
▁བྲག་དཀར་	-12.8908
▁འཚོགས་པ	-12.8908
▁འོག་རོལ་	-12.8908
▁རིས	-12.8908
▁ཤཱནྟི་	-12.8908
▁སྐྱོ་སྔོགས་	-12.8908
▁༧༧་	-12.8924
▁ཀལྤ་	-12.8924
▁དགག་གཞག་	-12.8924
▁ཕུད	-12.8924
▁ཕྱི་ཡུལ་	-12.8924
▁བཞི་བརྒྱ་པ	-12.8924
▁བཤིག	-12.8924
▁བསྟན་འཛིན	-12.8924
▁རཀྟ་བ་	-12.8924
▁རྩེན་	-12.8924
▁ལྟ་བ་_	-12.8924
▁ས་བླ་	-12.8924
▁སྐུལ་ཚིག_	-12.8924
▁ཀྱིར་	-12.894
▁མནྡཱ་	-12.894
▁རང་བྱུང་བ	-12.894
▁སྐྱེ་རྒུ་	-12.894
▁སྟག་མོ་	-12.894
▁སྨྲ་བརྗོད་	-12.894
▁ཁ་ཡར་	-12.8956
▁ཙི་ཏྲ་	-12.8956
▁ཡིན་ཚུལ་	-12.8956
▁ལོ་རྒྱུས	-12.8956
▁སྟོང་_པ་ཉིད་	-12.8956
▁/-_0:	-12.8972
▁དང་རུས་པ	-12.8972
▁དངོས་ཤུགས་	-12.8972
▁དབྲི་བ་	-12.8972
▁ཕ་ལམ་	-12.8972
▁བཟོ་བ	-12.8972
▁མཚན་གཉིས་པ་	-12.8972
▁ཙང་	-12.8972
▁ཚོར་བ་_	-12.8972
▁ཝརྞ་	-12.8972
▁འོད་ཆུང་	-12.8972
▁རྻ་	-12.8972
▁ཨརྻ་	-12.8972
▁གདང་	-12.8988
▁པཎ་གྲུབ་	-12.8988
▁རྒུན་འབྲུམ་	-12.8988
▁རྩོམ་པ་པོ	-12.8988
▁ཤ་ལ	-12.8988
▁ཁ་ཆུ་	-12.9005
▁རིད་	-12.9005
▁ལྟོགས་	-12.9005
▁ཤི་འཕོས་པ་	-12.9005
▁གཞན་སེལ་བ	-12.9021
▁གཡོ་སྒྱུ	-12.9021
▁ཆད་ལྷག་	-12.9021
▁ཆི་	-12.9021
▁ཐིག་ནག་	-12.9021
▁ནོར་_	-12.9021
▁ཕྱོགས་མཐའ་	-12.9021
▁བསུས་	-12.9021
▁བེེ་	-12.9021
▁མཐོང་བ་_	-12.9021
▁མཧཱ་ཀཱ་ལ་	-12.9021
▁རིགས་ཆེན་	-12.9021
▁ལྐུགས་	-12.9021
▁སིལ་བུ	-12.9021
▁སྡུག་_བསྔལ་	-12.9021
▁%-_28	-12.9037
▁/-_/	-12.9037
▁གཞང་	-12.9037
▁གྲུབ་རྟགས་	-12.9037
▁ཕུབ་པ	-12.9037
▁འཁྲུལ་རྒྱུ	-12.9037
▁འགེངས	-12.9037
▁སྣ་སྒོ་	-12.9037
▁ཉི་ཚེ	-12.9053
▁ཉེ་ལམ་	-12.9053
▁ཕྱུག	-12.9053
▁བཅངས་པ	-12.9053
▁ཚུ	-12.9053
▁འོག་ཕྱོགས་	-12.9053
▁རྗེད་པ	-12.9053
▁ལམ་པོ་ཆེ་	-12.9053
▁ལེནྡྲའི་	-12.9053
▁ཨུཥྞཱི་	-12.9053
▁གསེར་ཆོས་	-12.907
▁ངོ་ཚ	-12.907
▁དགེས་པ་	-12.907
▁དོད་པ་	-12.907
▁ནས་ཕྱེ་	-12.907
▁པདྨོར་	-12.907
▁ཕྱེད་སྐྱིལ་	-12.907
▁བྲག་རྫོང་	-12.907
▁བླུན་པ	-12.907
▁མངོན་མཐོ	-12.907
▁འཇིམ་	-12.907
▁རུལ་པ་	-12.907
▁རྒྱལ་ས	-12.907
▁སོང་_	-12.907
▁སྟམྦྷ་	-12.907
▁ཌཱུརྱའི་	-12.9086
▁མདོག་དམར་	-12.9086
▁འདྲེས་མ	-12.9086
▁ཡང་ཆ་	-12.9086
▁རྡེག་པ་	-12.9086
▁རྡོ་རྗེ་་་་་་	-12.9086
▁།།_།།_༄༅།_།	-12.9102
▁ག་རེ་	-12.9102
▁གདུགས	-12.9102
▁གཙུབ་ཤིང་	-12.9102
▁གཟུར་གནས་	-12.9102
▁ཕྱག་བྲིས་	-12.9102
▁བསྐྱལ་བ	-12.9102
▁བསླབ་བོ	-12.9102
▁མཐོལ་བཤགས་	-12.9102
▁ཞལ་བསིལ་	-12.9102
▁འདུ་བྱེད་_	-12.9102
▁རླབས་པོ་ཆེ	-12.9102
▁༢༠	-12.9118
▁ཆོས་སྲིད་	-12.9118
▁དཔལ་མོ	-12.9118
▁ཚོགས་ཁང་	-12.9118
▁ཟས་མཆོག་	-12.9118
▁ཡོན་པོ	-12.9118
▁ཁོར་	-12.9135
▁ད་ཕྱིན་	-12.9135
▁མཚོ་ཆེན་པོ་	-12.9135
▁འཐག་པ་	-12.9135
▁རྗེ་དཔོན་	-12.9135
▁རྗེས་_སུ་	-12.9135
▁རྟུལ་བ་	-12.9135
▁ཆོམ་	-12.9151
▁དྷིཥྛི་	-12.9151
▁བདས་	-12.9151
▁ཡིན་གྲང་	-12.9151
▁རྐང་གདུབ་	-12.9151
▁ལྱཱ་	-12.9151
▁སྐྲངས་	-12.9151
▁སྒྲིབ	-12.9151
▁ཀུན་ཁྱབ་པ	-12.9168
▁ཁྱབ་_	-12.9168
▁བླངས་_	-12.9168
▁འཁོར་བ་པ་	-12.9168
▁ཤེ	-12.9168
▁ཥེ	-12.9168
▁ཁུང་བུ	-12.9184
▁གསར་མ	-12.9184
▁གྲོག་མཁར་	-12.9184
▁དམར་སྐྱ་	-12.9184
▁ཕྱི་སྐོར་	-12.9184
▁ཕྲོགས་པ	-12.9184
▁བྷིནྡྷ་	-12.9184
▁འབྲོང་	-12.9184
▁ལ་ག	-12.9184
▁དངངས་	-12.9201
▁དུའམ་	-12.9201
▁པར་བྱང་	-12.9201
▁བཀོལ་བ	-12.9201
▁བཀྲུས་པ་	-12.9201
▁བསྟབས་པ་	-12.9201
▁མི་འད	-12.9201
▁འདབ་སྟོང་	-12.9201
▁ལེ་བ་	-12.9201
▁ཤིན་སྦྱངས་	-12.9201
▁ཁྱབ་བོ་	-12.9217
▁གཟོ་བ	-12.9217
▁ཉི་མ་_	-12.9217
▁ནད་ཡམས་	-12.9217
▁ཕྱི་དུས་	-12.9217
▁བདེ་སྐྱོང་	-12.9217
▁མངོན་དག	-12.9217
▁ཙཎྜི་	-12.9217
▁ཟླུམ་སྐོར་	-12.9217
▁རྐྱང་མ	-12.9217
▁ལྷད་	-12.9217
▁ངལ་དུབ་	-12.9234
▁ངེས་བརྗོད་	-12.9234
▁བསྒྲག་པ་	-12.9234
▁བླགས་	-12.9234
▁མཆོད་རྟེན	-12.9234
▁མནོས་པ	-12.9234
▁རྟེན་འབྲེལ	-12.9234
▁རྣ་ལམ་	-12.9234
▁སྨན་མཆོག་	-12.9234
▁¡¶_	-12.925
▁ཀརྨ་པ	-12.925
▁ཁ་ཤོ	-12.925
▁ཆོས་མཛད་	-12.925
▁དུ་་་་་་	-12.925
▁བཀབ	-12.925
▁བཙའ་	-12.925
▁བྲག་ཕུག་པ	-12.925
▁འཚིག་པ་	-12.925
▁རུལ་བ	-12.925
▁སྤྲུག་	-12.925
▁སྦོས་	-12.925
▁གཟུ་བོ་	-12.9267
▁གོ་མཚོན་	-12.9267
▁དངོས་རྫས་	-12.9267
▁མཆིལ་	-12.9267
▁ཡུལ་ལྗོངས་	-12.9267
▁ལྟོས་བཅས་	-12.9267
▁ཨོཾ་བ་	-12.9267
▁ཁྱེད	-12.9284
▁ནང་མཆོད	-12.9284
▁པ་_	-12.9284
▁ཕྱིན་_པ་	-12.9284
▁བྱད་གཟུགས་	-12.9284
▁ཙཀླི་	-12.9284
▁འཇོ་བ	-12.9284
▁འབོག་པ་	-12.9284
▁ཡོཿ	-12.9284
▁རླུང་དམར་	-12.9284
▁ལེགས་པོ་	-12.9284
▁༤༩་	-12.93
▁ཀྱྀ་	-12.93
▁ཊཀྐི་	-12.93
▁བདེན་པ་_	-12.93
▁བསམ་བློ་	-12.93
▁མཁའ	-12.93
▁རྡེག་པ	-12.93
▁སཏྭཾ་	-12.93
▁སར་པ	-12.93
▁སྨེ་	-12.93
▁གཟེགས་	-12.9317
▁ངུ་བ་	-12.9317
▁དེ་པ་	-12.9317
▁དྲ་ཕྱེད་	-12.9317
▁བདོག་པ	-12.9317
▁བཞིན་བཟང་	-12.9317
▁བསལ་པ་	-12.9317
▁མཁའ་ཀློང་	-12.9317
▁ལ་_སོགས་	-12.9317
▁ལྗང་སེར་	-12.9317
▁སྐབས་མེད་པ	-12.9317
▁སྤྱན་_	-12.9317
▁དོག་པ	-12.9334
▁བརྗོད་པ་_	-12.9334
▁མཆོག་སྦྱིན་པ	-12.9334
▁མཛད་སྤྱོད་	-12.9334
▁ཡམས་ནད་	-12.9334
▁སྡོང་དུམ་	-12.9334
▁སྤྱི་གསལ་	-12.9334
▁སྲིད་དབང་	-12.9334
▁གུས་འདུད་	-12.935
▁ཉུངས་	-12.935
▁ཐམ་	-12.935
▁དགྱེས་པ་རྡོ་རྗེ	-12.935
▁དུག	-12.935
▁ན་ཚ	-12.935
▁ནང་རོལ་	-12.935
▁བྱར་མེད་པ་	-12.935
▁ཙི་ཏ་	-12.935
▁ཞུ་ཡིག་	-12.935
▁རོ་དྲུག་	-12.935
▁རྫས་གཅིག་པ་	-12.935
▁ལྷོག་	-12.935
▁སྤུ་རིས་	-12.935
▁སྦོས	-12.935
▁གང་སྟོང་པ་	-12.9367
▁ཆལ་	-12.9367
▁དྲགས་པ	-12.9367
▁རྨུགས་པ	-12.9367
▁ཀུལླེའི་	-12.9384
▁གོང་གསལ་	-12.9384
▁ཐིགས་	-12.9384
▁དགོངས་_	-12.9384
▁དེ་དག་པ	-12.9384
▁ན_	-12.9384
▁ཕོད	-12.9384
▁བརྩེགས་མ	-12.9384
▁མདོམས་	-12.9384
▁མྨེ་	-12.9384
▁ཞུས་དག་	-12.9384
▁རྐྱ་	-12.9384
▁ལུས་ཤེས་	-12.9384
▁སྙོམས	-12.9384
▁ཧྲིག་	-12.9384
▁ཁོད་	-12.9401
▁གསུངས་_པ	-12.9401
▁དམ་ལྡན་	-12.9401
▁ཕུབ་པ་	-12.9401
▁བསམ་འཕེལ་	-12.9401
▁བསྙུན་	-12.9401
▁བསྲབས་པ	-12.9401
▁འགྲོ་ས་	-12.9401
▁རྐང་བཞི་	-12.9401
▁སྒོ་བ	-12.9401
▁སྤོམ་	-12.9401
▁ཨངྐུ་	-12.9401
▁༢༡	-12.9418
▁གོམ་	-12.9418
▁ཕཊ་_	-12.9418
▁བརྩད་པ་	-12.9418
▁མཁན་མོ་	-12.9418
▁མཚོན་དོན་	-12.9418
▁ཞེས་_པ	-12.9418
▁ཡིག་_	-12.9418
▁རྣམ་གསལ་	-12.9418
▁ལས་ཐོག་	-12.9418
▁སྐོལ་	-12.9418
▁ནས་ཆུ	-12.9434
▁བཅའ་སྒ་	-12.9434
▁མིག་སེར་	-12.9434
▁ཁབ་རལ་	-12.9451
▁གཞུང་ཚིག་	-12.9451
▁ཉན་_	-12.9451
▁ཐུགས་བསྐྱེད་པ་	-12.9451
▁དབྲལ་བ	-12.9451
▁ན་སོ	-12.9451
▁ཕོད་པ	-12.9451
▁བཏུད་པ	-12.9451
▁བརྒྱབ་པ	-12.9451
▁ཟངས་མདོག་	-12.9451
▁ཡ་ལ	-12.9451
▁སྨྱོན་	-12.9451
▁ཀང་	-12.9468
▁དགུང་གྲངས་	-12.9468
▁ཚ་ཟེར་	-12.9468
▁ཟེར་_	-12.9468
▁འབྲི་གུང་པ	-12.9468
▁རཱ་ཧུ་ལ	-12.9468
▁རྔ་མ་	-12.9468
▁རླུང་ལྷ	-12.9468
▁སྙིང་རྩ་	-12.9468
▁སྟན་གཅིག་	-12.9468
▁ཆུ་ལྷ	-12.9485
▁ད་_	-12.9485
▁དཔལ་བེའུ་	-12.9485
▁བསྒུལ་	-12.9485
▁ཚོང་དུས་	-12.9485
▁འབག་	-12.9485
▁འབྲངས་པ་	-12.9485
▁རྒྱོབ་	-12.9485
▁སྒོ་འཕར་	-12.9485
▁སྒྱུར་བྱེད་	-12.9485
▁ཉམས་འགྱུར་	-12.9502
▁ཐེའུ་རང་	-12.9502
▁བལྟམས་པ	-12.9502
▁བུ་རྒྱུད་	-12.9502
▁མཆེད་གྲོགས་	-12.9502
▁མིང་བྱང་	-12.9502
▁ཚུར་སྤྱོན་	-12.9502
▁འགྲེམ་	-12.9502
▁འཛེམ་པ	-12.9502
▁རྩོད་ལན་	-12.9502
▁རླབས	-12.9502
▁སིངྷ་	-12.9502
▁སྟོབས་པ་	-12.9502
▁ཆུ་བདག་	-12.9519
▁དྲེའུ་	-12.9519
▁བི་མ་ལ	-12.9519
▁ཝཱཀྐ་	-12.9519
▁འཆིབ	-12.9519
▁རུ་_	-12.9519
▁རྣལ་_འབྱོར་	-12.9519
▁སྙིགས་	-12.9519
▁ཀུན་གཟིགས་	-12.9536
▁གནོང་	-12.9536
▁གཡུང་མོ	-12.9536
▁དུང་ཆེན་	-12.9536
▁པར་ཤོག	-12.9536
▁ཚངས་དབྱངས་	-12.9536
▁སྐྱོན་_	-12.9536
▁ཀོང་བུ་	-12.9553
▁དྲི་_	-12.9553
▁བསུང་	-12.9553
▁བསྲུབས་པ་	-12.9553
▁ཡོང	-12.9553
▁ལྷན་པ་	-12.9553
▁སྨུག་པོ་	-12.9553
▁ཨོཾ་བོ་	-12.9553
▁༡༢_	-12.957
▁ངོ་འཕྲོད་	-12.957
▁ཉེ་འགྲམ་	-12.957
▁དཱུ་	-12.957
▁ཕྱར་ཀ་	-12.957
▁ཙཾ་	-12.957
▁རླུ	-12.957
▁སྐྱེས་བུ་མཆོག་	-12.957
▁སྦྱིན་སྲེག_	-12.957
▁ཀོོ་	-12.9588
▁གངས་དཀར་	-12.9588
▁གཡོགས	-12.9588
▁བ་བླ་	-12.9588
▁བཟོ་བ་	-12.9588
▁མནར་བ	-12.9588
▁འདྲིལ	-12.9588
▁འོད་བྱེད་པ་	-12.9588
▁ཡཙྪ་	-12.9588
▁རྩི་བ་	-12.9588
▁ལྕགས་མོ་	-12.9588
▁ལྡན་_པ	-12.9588
▁སྐད་_	-12.9588
▁གསོལ་མཆོད་	-12.9605
▁ཏར་	-12.9605
▁དུས་སྔ་	-12.9605
▁ཞིབ་པ་	-12.9605
▁འགྱིང་བ་	-12.9605
▁འཛེག་པ	-12.9605
▁ལུས་མེད་པ	-12.9605
▁ལྡིར་	-12.9605
▁༢༢	-12.9622
▁༴།_	-12.9622
▁ཀྵཿ	-12.9622
▁ཆིང་	-12.9622
▁ཐ་སྙད་པ་	-12.9622
▁དཀྱུས་མ་	-12.9622
▁དཀྲོལ	-12.9622
▁དུས་བཟང་	-12.9622
▁དོང་བ	-12.9622
▁བཀླག་པ་	-12.9622
▁འཁྱོག་	-12.9622
▁འཐོན	-12.9622
▁རྡུགས་	-12.9622
▁སྔོན་ཆོག་	-12.9622
▁ཧྱ	-12.9622
▁ཆུན་པོ	-12.9639
▁ཆོས་སྐད་	-12.9639
▁དཾ	-12.9639
▁ཕྱི་དར་	-12.9639
▁རྒྱང་འཕེན་པ་	-12.9639
▁རྫས་_	-12.9639
▁ལུན་	-12.9639
▁སྐྱ་རྦབ་	-12.9639
▁སྨྱོ་བ	-12.9639
▁གཟུ་	-12.9656
▁གོ་རོ་ཙ་ན་	-12.9656
▁ཆོས་སྒྲ་	-12.9656
▁ནནྡ་	-12.9656
▁ཕྱི་རོལ་_	-12.9656
▁ཥཱི་	-12.9656
▁ཨ་ཧ་	-12.9656
▁བཅུ་གསུམ་པོ་	-12.9674
▁བཤད་_པ་	-12.9674
▁བསྐོལ	-12.9674
▁འབེན་	-12.9674
▁རྣམས་པ་	-12.9674
▁ཤལ་	-12.9674
▁ས་ལེ་སྦྲམ་	-12.9674
▁སྐུ་ཚབ་	-12.9674
▁སྐྱེ་མཆེད་_	-12.9674
▁སྒམ་པོ་	-12.9674
▁ཁེ	-12.9691
▁ངོ་ཏི་	-12.9691
▁ཆུང་_	-12.9691
▁བསྒྲལ་པ	-12.9691
▁མངོན་དགའ་	-12.9691
▁མི་དམངས་	-12.9691
▁ཨཎ་	-12.9691
▁-_0	-12.9708
▁ངམ་རིང་	-12.9708
▁ཆོས་རྗེ་པ	-12.9708
▁ཉིན	-12.9708
▁དབང་མེད་པ	-12.9708
▁བྱ་དེ	-12.9708
▁འགྱེལ་བ་	-12.9708
▁-_.%-	-12.9726
▁གནོད་འཚེ་	-12.9726
▁ཆབ་སྲིད་	-12.9726
▁ཊེ	-12.9726
▁བསྡམ་པ་	-12.9726
▁མི་ཆེ་བ་	-12.9726
▁ཞི་བདེ་	-12.9726
▁རྔོན་པ	-12.9726
▁ཀོར་	-12.9743
▁ཁེགས	-12.9743
▁གང་བུ་	-12.9743
▁གཟུགས་བཟང་བ་	-12.9743
▁གླེངས་	-12.9743
▁དེ་_ཉིད་	-12.9743
▁ཕ་མཐ	-12.9743
▁བཞིན་རས་	-12.9743
▁བྱས་རྗེས་	-12.9743
▁མ་མཆུ་	-12.9743
▁ཚེ་ཚེ་	-12.9743
▁རྣམ་རིག་པ་	-12.9743
▁-_:.	-12.9761
▁གདེངས	-12.9761
▁ཕོད་པ་	-12.9761
▁ཙཱ་བ་	-12.9761
▁ཙིཏྟའི་	-12.9761
▁སྙེམས་པ	-12.9761
▁སྤྱི་མིང་	-12.9761
▁གྲབས་	-12.9778
▁ཆགས་ཐོགས་	-12.9778
▁ནག_	-12.9778
▁མང་དག་	-12.9778
▁རགས་རིམ་	-12.9778
▁ལས་དམ་	-12.9778
▁ལྱ་	-12.9778
▁ལྷོད་པ་	-12.9778
▁སཏྭཾ	-12.9778
▁སྐྱ་བོ	-12.9778
▁གཟར་བུ་	-12.9796
▁གས་པ	-12.9796
▁ན་མཉམ་	-12.9796
▁མཐོང་ཚུལ་	-12.9796
▁མི་ཤ་	-12.9796
▁འཕྲེད་	-12.9796
▁སུམ་བརྒྱ	-12.9796
▁གཏུབས	-12.9813
▁གཙེས་	-12.9813
▁གཟུགས་མཆོག་	-12.9813
▁ནང་བསྟན་	-12.9813
▁བཀུར	-12.9813
▁ཟླ་_	-12.9813
▁ཟླ་ལྟར་	-12.9813
▁འཆར་གཞི་	-12.9813
▁འཕགས་ལུགས་	-12.9813
▁རང་བྱོན་	-12.9813
▁ལྕགས་ཕོ་	-12.9813
▁སྐད་ཅིག་_	-12.9813
▁སྤོང་པ	-12.9813
▁སྤྱི་སྒྲ་	-12.9813
▁སྤྲོར་	-12.9813
▁ཁྲེལ་མེད་	-12.9831
▁གནས་བདག་	-12.9831
▁ང་_	-12.9831
▁ཉུག་	-12.9831
▁ཐ་ཆད་	-12.9831
▁བསྡུས་དོན	-12.9831
▁བྱད་ཕུར་	-12.9831
▁བྷནྡྷའི་	-12.9831
▁མང་ཡུལ་	-12.9831
▁ཚེ་ཟད་	-12.9831
▁ཡོན་ཆབ་	-12.9831
▁སྐྱེད་_	-12.9831
▁ཀླེ་	-12.9848
▁དོགས	-12.9848
▁བརྩིགས	-12.9848
▁མགལ་མེ	-12.9848
▁མི་མཐུན་དཔེ་	-12.9848
▁ཟས་སྣ་	-12.9848
▁འཛུགས	-12.9848
▁རྨས་པ	-12.9848
▁སྤགས་	-12.9848
▁ཀོ་ལྤགས་	-12.9866
▁ཁྲིའུ	-12.9866
▁ཉམས་ཁྲིད་	-12.9866
▁ཐེག་ཆེན་པ	-12.9866
▁དབུས་པ་	-12.9866
▁བྱིའུ་	-12.9866
▁མ་ཐོགས་པ	-12.9866
▁ཟླ་མེད་པ	-12.9866
▁སྲུབ་	-12.9866
▁༡༢་	-12.9884
▁༢༧་	-12.9884
▁ཁོང་པ་	-12.9884
▁ཆོ་ངེ	-12.9884
▁ཐ་ཤལ་པ་	-12.9884
▁དབའ་རླབས་	-12.9884
▁བཏུད་པ་	-12.9884
▁བཙོངས་	-12.9884
▁མཐུན་འཇུག་	-12.9884
▁རྩོམ	-12.9884
▁རླག་པ	-12.9884
▁སྦོམ་ཕྲ་	-12.9884
▁སྨད་འཚོང་མ	-12.9884
▁༢༣	-12.9901
▁༨༠་	-12.9901
▁ཀཱིའི་	-12.9901
▁ཁྲོད་པ་	-12.9901
▁གཙུག་ཏོར་ཅན་	-12.9901
▁ངག་མ་	-12.9901
▁དྲན་_	-12.9901
▁ནིམ་པ་	-12.9901
▁བ་གམ་	-12.9901
▁བརྗེད་བྱང་	-12.9901
▁བསྒྱུར་པ	-12.9901
▁མ་ཕམ་པ་	-12.9901
▁མུན་ཁུང་	-12.9901
▁ཞབས་ཀྱུ་	-12.9901
▁འདི་རུ	-12.9901
▁ཡོ་བྱད	-12.9901
▁རོ་བཅུད་	-12.9901
▁ལུས་སོ་	-12.9901
▁གེར་	-12.9919
▁ཉེ་རེག་	-12.9919
▁པ་ལོ་	-12.9919
▁ཕུན་སུམ་_	-12.9919
▁མཁལ་མ་	-12.9919
▁ཡན	-12.9919
▁རས	-12.9919
▁རིམ་མིན་	-12.9919
▁ལྷུག་པ་	-12.9919
▁སྒེར་	-12.9919
▁ཨོཾ་པ་	-12.9919
▁༡༣་	-12.9937
▁གནས་གཞི་	-12.9937
▁ཕོལ་མིག་	-12.9937
▁ཟོམ་	-12.9937
▁རྒྱབ་ཡོལ་	-12.9937
▁...	-12.9954
▁གསེར་ཐུབ་	-12.9954
▁ནིང་	-12.9954
▁ཕྱི་ཕྱིར་	-12.9954
▁རྒྱུན་ཆགས་པ	-12.9954
▁ཤངས་པ་	-12.9954
▁ས་གཡོ	-12.9954
▁སརྦ་_	-12.9954
[...]
