<unk>	0
ས་	-0
་བ	-1
ི་	-2
ན་	-3
ང་	-4
ད་	-5
ར་	-6
ག་	-7
པ་	-8
འི་	-9
མ་	-10
ལ་	-11
▁།	-12
ེ་	-13
ུ་	-14
གས་	-15
ོ་	-16
དང་	-17
ྱི	-18
ེས་	-19
མས་	-20
ྱི་	-21
པའི་	-22
ིན་	-23
བ་	-24
ང་བ	-25
ོད་	-26
ར་བ	-27
ེད་	-28
འད	-29
ྒྱ	-30
རྒྱ	-31
གས	-32
སྐ	-33
དེ་	-34
ོན་	-35
ོ།	-36
ོས་	-37
ངས་	-38
སྟ	-39
རྣ	-40
ོགས་	-41
པར་	-42
ཉི	-43
ནས་	-44
ེན་	-45
ྱུ	-46
ིག་	-47
ཀྱི་	-48
དང་།	-49
གྲ	-50
ལ་བ	-51
ས།	-52
དུ་	-53
ིང་	-54
དུ	-55
ེ་བ	-56
དག་	-57
པོ་	-58
ི་བ	-59
འབ	-60
▁བ	-61
ལྟ	-62
ོར་	-63
ོག་	-64
ས་བ	-65
ནི་	-66
རྟ	-67
སྒ	-68
གསུ	-69
▁ད	-70
རྗ	-71
ོང་	-72
མེད་	-73
ྱེད་	-74
སྤ	-75
ུབ་	-76
མི་	-77
ེ།	-78
ུན་	-79
ཀྱི	-80
ཞེས་	-81
ཡིན་	-82
གྱི་	-83
ན།	-84
དབ	-85
ཡང་	-86
དག	-87
སེ	-88
ོ་བ	-89
ྱང་	-90
ལས་	-91
གྱུ	-92
ུང་	-93
ུས་	-94
ཕྱི	-95
པའ	-96
ཤེས་	-97
▁ག	-98
ི།	-99
ུལ་	-100
རྣམས་	-101
ུགས་	-102
ཉིད་	-103
སྐྱ	-104
ལ།	-105
གི་	-106
སེམས་	-107
གྱི	-108
པས་	-109
ཆོས་	-110
▁དེ་	-111
ུག་	-112
ཉིས་	-113
སུ་	-114
བས་	-115
▁ར	-116
ན་བ	-117
▁ས	-118
མཐ	-119
པར་བ	-120
སྒྲ	-121
འཁ	-122
གཞ	-123
རྣམ་	-124
ལྷ	-125
ཆེན་	-126
མཚ	-127
་བ་	-128
དྲ	-129
རྩ	-130
ལྡ	-131
གཉིས་	-132
གསུམ་	-133
ིགས་	-134
ཏུ་	-135
མཆ	-136
འ་	-137
ཞིན་	-138
འཇ	-139
འདི་	-140
གྱུར་	-141
ར།	-142
ང་བ་	-143
ཕྱ	-144
ནི།	-145
སོགས་	-146
སྔ	-147
སྡ	-148
ུ་བ	-149
ཅད་	-150
ིས་	-151
སྦ	-152
མ་བ	-153
ཁྱ	-154
ད།	-155
ཐམས་	-156
འགྲ	-157
ཅིག་	-158
ོམ་	-159
སྲ	-160
ེར་	-161
པ།	-162
ོངས་	-163
སྙ	-164
ེའི་	-165
གནས་	-166
ོའི་	-167
ཐམས་ཅད་	-168
དཔ	-169
པ་དང་།	-170
སྣ	-171
ལྡན་	-172
དོན་	-173
པ་བ	-174
ཅན་	-175
ོར་བ	-176
ག་བ	-177
ཱ་	-178
རྡ	-179
ད་བ	-180
ཀྱང་	-181
ོབ་	-182
གང་	-183
ཡི	-184
ཕྲ	-185
ེགས་	-186
འོ།	-187
ལྟར་	-188
ཕྱིར་	-189
འབྲ	-190
ུད་	-191
འཛ	-192
གཏ	-193
ོལ་	-194
ོ་རྗ	-195
ཀྱིས་	-196
▁མ	-197
སླ	-198
ཏེ།	-199
རང་	-200
གྱིས་	-201
རྒྱས་	-202
འཁོར་	-203
ོད་པ་	-204
རྫ	-205
བྱ	-206
ཀུན་	-207
དུ་བ	-208
དང་བ	-209
སྤྱ	-210
དབང་	-211
ཁྲ	-212
རྟེན་	-213
ུམ་	-214
སྟེ།	-215
སྨ	-216
སོ།	-217
མཛ	-218
ཧཱ	-219
ལ་བ་	-220
དང	-221
སྦྱ	-222
གཅིག་	-223
མ།	-224
པ་ལ་	-225
དེ་བ	-226
རབ་	-227
ྱས་	-228
ཾ་	-229
ཞིང་	-230
ཟླ	-231
▁།བ	-232
ཞི་	-233
གཟ	-234
འཛིན་	-235
རྡོ་རྗ	-236
ཚོགས་	-237
ཏེ་	-238
དམ	-239
ལྔ	-240
མཁ	-241
སྟན་	-242
མཚན་	-243
ྱ་	-244
ཡེ་	-245
ུར་	-246
ྱུང་	-247
ྱིན་	-248
འི་བ	-249
རྒྱ་	-250
གྲུབ་	-251
གཞན་	-252
སྟོང་	-253
ལམ་	-254
ལྷ་	-255
འག	-256
ཧཱུ	-257
ྱང་ཆ	-258
ཡོད་	-259
མོ་	-260
ཡི་	-261
རྒྱལ་	-262
གིས་	-263
འགྱུར་	-264
ྱང་ཆུབ་	-265
ཞི	-266
ང་བའི་	-267
ངས་རྒྱས་	-268
ལྟ་བ	-269
▁ཨ	-270
ླ་	-271
ཡེ་ཤེས་	-272
ྲ་	-273
ཕྱག་	-274
རླ	-275
དུས་	-276
སྒྲུབ་	-277
ལུས་	-278
ཤད་	-279
00	-280
པའི་བ	-281
མང	-282
མ་ཡིན་	-283
འདས་	-284
དངོས་	-285
རྣམ་པར་	-286
དམ་	-287
པའོ།	-288
རི	-289
པོའི་	-290
▁།དེ་	-291
འཆ	-292
རྒྱུད་	-293
ཧཱུྃ	-294
ཚུལ་	-295
རོ།	-296
གསུངས་	-297
སྐུ་	-298
གན	-299
འཕ	-300
ཅས་	-301
སྤྲ	-302
ེ་བ་	-303
འགྱུ	-304
ུའི་	-305
ཅེས་	-306
རྗེས་	-307
འདོད་	-308
མཆོག་	-309
ལ་སོགས་	-310
་ར	-311
ཅིང་	-312
གཤ	-313
གཡ	-314
ཅི	-315
རྡོ་རྗེ་	-316
ནོ།	-317
འབྱ	-318
ལས།	-319
ཚེ་	-320
ཐུགས་	-321
ཅུ་	-322
དོ།	-323
ཕྱོགས་	-324
ཇི་	-325
རིགས་	-326
དཀ	-327
པ་དང་	-328
བ་བ	-329
འདི	-330
ཞེས་བྱ	-331
འོད་	-332
པར་བྱ	-333
མའི་	-334
ཤིང་	-335
ནས།	-336
འདྲ	-337
སངས་རྒྱས་	-338
སམ་	-339
ཐོབ་	-340
ཆེན་པོ་	-341
ཁ་	-342
སེམས་ད	-343
ནང་	-344
ར་བ་	-345
ས༔	-346
གས།	-347
ག་པ་	-348
སྐྱེད་	-349
རྒྱུ་	-350
དང་པོ་	-351
་བའི་	-352
ཡུལ་	-353
ཞིག་	-354
་་	-355
སྐྱེས་	-356
སྔགས་	-357
པས།	-358
མངོན་	-359
རྫོགས་	-360
ཅོམ་	-361
གད	-362
ཕྱིར།	-363
▁ཞེས་	-364
ོད།	-365
པའི་ཕྱིར་	-366
ེང་	-367
ཀྱི་བ	-368
ཞུགས་	-369
མཛད་	-370
ཡོངས་	-371
སྙིང་	-372
ལྔ་	-373
ལོ་	-374
འཇུག་	-375
པ་ཡིན་	-376
སོ་	-377
ིད་	-378
ེལ་	-379
ལ་བའི་	-380
འཕྲ	-381
ཀྱིལ་	-382
ཙམ་	-383
འཇིག་	-384
རྟོགས་	-385
པ་དེ་	-386
ཚིག་	-387
ཕྱི་	-388
སྤྱོད་	-389
རིག་	-390
ངེས་	-391
མད	-392
▁ཐ	-393
ེད།	-394
ཀ་	-395
འབྱོར་	-396
རང་བ	-397
རྟོག་	-398
པ་ནི།	-399
རྐ	-400
▁ཨོ	-401
▁ལ	-402
སེམས་ཅན་	-403
ཡོན་	-404
པ་ནི་	-405
དྲུག་	-406
འཚ	-407
མེ་	-408
སུ་བ	-409
གཤེགས་	-410
སྟེ་	-411
སྒོམ་	-412
ོ་བོ་	-413
དབྱ	-414
ད་པར་	-415
སེམས་དཔའ	-416
ཡིན།	-417
ུ།	-418
ུང་བ	-419
པ་ཉིད་	-420
ོང་བ	-421
▁།ཞེས་	-422
ཡིད་	-423
ངོ་	-424
ཁམས་	-425
འབྱུ	-426
དེའི་	-427
ནས་བ	-428
ཆགས་	-429
ནམ་	-430
དཀྱིལ་	-431
སྟོན་	-432
ོམས་	-433
ཕྱིན་	-434
དུན་	-435
འ་བ	-436
གཙ	-437
ོ་བ་	-438
ཅོམ་ལྡན་	-439
ཉམས་	-440
རྗོད་	-441
མཉ	-442
དགེ་	-443
སེམས་དཔའ་	-444
དེ་བཞིན་	-445
གསོ	-446
རྒྱད་	-447
མཆོད་	-448
ལས་བ	-449
དགོས་	-450
ཞེ་	-451
སྐད་	-452
ཅི་	-453
འགྲོ་	-454
ཡང་དག་	-455
མཁའ་	-456
མཐའ་	-457
རིམ་	-458
འབྱུང་	-459
མི་བ	-460
ནི་བ	-461
དང་བཅས་	-462
▁དག	-463
འཇིག་རྟེན་	-464
དུད་	-465
རིན་	-466
ཐ་	-467
པ་རྣམས་	-468
གཟུགས་	-469
འབྲས་བ	-470
ུངས་	-471
རྣལ་	-472
སྣང་	-473
▁ཆོས་	-474
ཉི་	-475
ཏུ་བ	-476
▁དེའི་	-477
རང་བཞིན་	-478
ོར་བ་	-479
སློབ་	-480
ལ༔	-481
ཟང་	-482
དམིགས་	-483
ཚད་	-484
པའི་ཕྱིར།	-485
འཁྲ	-486
གསུང་	-487
གླ	-488
ོན་བ	-489
ཧཱུྃ་	-490
མག	-491
ླ་མ་	-492
ེག་	-493
སྐབས་	-494
▁རང་	-495
ཅོམ་ལྡན་འདས་	-496
ོག	-497
རྟག་	-498
སྒོ་	-499
དང་ལྡན་	-500
ཁྱོད་	-501
ཡོངས་སུ་	-502
ངག་	-503
0000	-504
ལག་	-505
ཏེ	-506
ོད་བ	-507
མར་	-508
རེ་	-509
སྨྲ	-510
དཀྱིལ་འཁོར་	-511
▁འདི་	-512
འང་	-513
ཁྱད་པར་	-514
པད	-515
དེ།	-516
པདྨ	-517
སྲིད་	-518
▁གཞ	-519
▁དེ་ནས་	-520
ོང་བ་	-521
ུག་བ	-522
གྱིས་བ	-523
ཆུ་	-524
དཔལ་	-525
ནུས་	-526
ཤེས་རབ་	-527
འདིར་	-528
ངན་	-529
ློ་	-530
པར་བྱེད་	-531
རྟགས་	-532
རྒྱན་	-533
མཐོང་	-534
མིན་	-535
ུར་བ	-536
རྣལ་འབྱོར་	-537
སྒྲ་	-538
དེན་	-539
▁དབ	-540
མཐུན་	-541
རྗེ་	-542
དཔོན་	-543
གསལ་	-544
ཡ་	-545
ཀླ	-546
མེད་པ་	-547
པས་བ	-548
▁ཨོཾ་	-549
ཀྱིས་བ	-550
སྟེང་	-551
ལེན་	-552
རུ་	-553
རྣམ་པ་	-554
ལེགས་	-555
ར་བྱ	-556
སྒྱ	-557
ཀྱ	-558
ེ་བའི་	-559
དཀར་	-560
ལ་བར་	-561
ཆ་	-562
10000	-563
པོ་བ	-564
▁གཉིས་	-565
གཞི་	-566
འདུས་	-567
གི	-568
ཞག་	-569
མཉམ་	-570
སྣ་	-571
འཐ	-572
ལུགས་	-573
དུ།	-574
ངས།	-575
རྩ་	-576
མང་	-577
ཞལ་	-578
པོ་ཆ	-579
སུམ་	-580
འཕགས་	-581
ཐབས་	-582
ཆད་	-583
ཅན།	-584
▁གང་	-585
▁བདག་	-586
ཤིན་	-587
སློང་	-588
སྦྱིན་	-589
ལྟ་	-590
ཏན་	-591
མེད་པར་	-592
་རོལ་	-593
མེད་པའི་	-594
ཞེ་ན།	-595
ེན་བ	-596
ཟེར་	-597
ཁོ་	-598
སྟོ	-599
ཡན་	-600
གྱི་བ	-601
སྔོན་	-602
དེ་དག་	-603
དེས་	-604
རྙ	-605
ུབ་བ	-606
རྨ	-607
ཟུང་	-608
▁དེ་བ	-609
འབྲས་བུ་	-610
ངོ་བོ་	-611
ཞིང་།	-612
ཕ་རོལ་	-613
ྷ་	-614
སྐྱེ་	-615
པོར་	-616
▁མ་	-617
ཛྲ་	-618
ཉོན་	-619
ཁྱབ་	-620
རང་གི་	-621
གཉ	-622
ཞི་བ	-623
100002	-624
འོ་	-625
▁རྡ	-626
▁མི་	-627
བ།	-628
རླུང་	-629
དབང་བ	-630
དད་	-631
སྡུས་	-632
དབྱི	-633
འགྱུར་རོ།	-634
པོས་	-635
མཁྱ	-636
▁སྔ	-637
མཐར་	-638
▁དང་པོ་	-639
ཐོས་	-640
ྱང་ཆུབ་སེམས་དཔའ་	-641
ཏ་	-642
ུང་བ་	-643
ཀའ་	-644
དེ	-645
འགྱུར།	-646
ར་དུ་	-647
མཚན་ཉིད་	-648
ོ༔	-649
ཟད་	-650
ཇི་ལྟར་	-651
ལ་ལ	-652
ལྟར་བ	-653
རྗེས་སུ་	-654
སྤྱི	-655
ཡོན་ཏན་	-656
▁གཞན་	-657
ཞེས་བྱ་བ་	-658
སྤྱན་	-659
ཅིག	-660
ནག་	-661
རྣམས་ཀྱི་	-662
དམར་	-663
ལྷག་	-664
འདུ	-665
ར་བའི་	-666
ེད་བ	-667
ངོས་	-668
ཆོས་ཀྱི་	-669
ཀྱང་།	-670
ེ་བར་	-671
གི་བ	-672
ཤ་	-673
གཏན་	-674
ན༔	-675
ཞིན་དུ་	-676
▁དཔ	-677
་་་་	-678
ུག་བསྔ	-679
ཅིང་།	-680
ཏིང་	-681
འོག་	-682
ཱི་	-683
རབ་ཏུ་	-684
མས།	-685
ྱེན་	-686
▁ཡང་	-687
མོངས་	-688
ཤིན་ཏུ་	-689
ངོ་།	-690
ཕན་	-691
རོ་	-692
ཉོན་མོངས་	-693
རོལ་	-694
དགྲ	-695
མཁྱེན་	-696
▁དེས་	-697
ེབས་	-698
▁རྡོ་རྗ	-699
ལྟ་བུ་	-700
གྲགས་	-701
སྩ	-702
གྲངས་	-703
རྒྱལ་པོ་	-704
དགོངས་	-705
རྦ	-706
ཤི	-707
ྱེད་པ་	-708
ྭ་	-709
རི་	-710
སྙམ་	-711
སྒྲི	-712
▁སླ	-713
དྲི་	-714
ོས།	-715
རྒ	-716
ུལ་བ	-717
གསང་	-718
▁དྲ	-719
ཨཱ	-720
ཡང་བ	-721
ི༔	-722
ལ་སོགས་པ་	-723
དེ་བ་	-724
ཡོད་པ་	-725
པདྨ་	-726
རླབས་	-727
གཏོར་	-728
ཏོ།	-729
ིའི་	-730
སྤྲུལ་	-731
ཕྱག་འཚ	-732
▁ཁ	-733
སྣ་ཚོགས་	-734
▁དེ་ལྟར་	-735
རྫས་	-736
ང་བར་	-737
གཉི	-738
པའི་ཕྱིར་རོ།	-739
མྱ	-740
ད༔	-741
སྣང་བ་	-742
ཡས་	-743
ེའ	-744
མེད།	-745
གདུ	-746
མཚམས་	-747
ཤེས་པ་	-748
འཁོར་བ	-749
ལྕ	-750
མོས་	-751
གོ་	-752
ཕུང་	-753
ཨ་	-754
ཆེན་པོའི་	-755
དཔག་	-756
རྩེ་	-757
དུད་རྩ	-758
དོ་	-759
རྒྱུན་	-760
སྭ	-761
རིན་པོ་ཆ	-762
རུང་	-763
ཀྲ	-764
ཡང་།	-765
ུག་བསྔལ་	-766
པ་སྟེ།	-767
ལན་	-768
སྟོབས་	-769
པ་ལས་	-770
ཉན་	-771
ཡི་ག	-772
ེར་བ	-773
་བར་	-774
ཕྱུ	-775
ཉེས་	-776
ལུང་	-777
དབྱིངས་	-778
སྐྱེ་བ་	-779
ར༔	-780
ཆོ་	-781
སྡེ་	-782
སྟོང་པ་ཉིད་	-783
ཟག་	-784
པར་བྱའོ།	-785
ིམ་	-786
▁རྩ	-787
▁དེ་ལ་	-788
གཅ	-789
ཀུ	-790
ིལ་	-791
དྷ	-792
སོད་	-793
རྒྱ་མཚ	-794
ཆུང་	-795
▁ན	-796
འགྲོ་བ	-797
གོང་	-798
རྣམས་ལ་	-799
ཡང་དག་པར་	-800
ཾ་བ	-801
ལ་ཏེ་	-802
ཙུན་	-803
སོ་ས	-804
ཡུམ་	-805
འབྱུང་བ་	-806
ྱ་བ་	-807
▁ཤ	-808
འབྲེལ་	-809
པར་གྱུར་	-810
གིས་བ	-811
འགྲུབ་	-812
མཁས་	-813
མིང་	-814
ཟབ་	-815
ེས།	-816
འདུག་	-817
▁།གཉིས་	-818
ྲཱ	-819
▁སངས་རྒྱས་	-820
▁རྡོ་རྗེ་	-821
ཏོག་	-822
ངེ་	-823
ཕ་རོལ་ཏུ་	-824
དགེ་སློང་	-825
སྔ་	-826
པོ།	-827
དེ་བཞིན་གཤེགས་	-828
སྤྱི་	-829
སྟེ	-830
འགྲོ་བ་	-831
འཇིགས་	-832
དེ་ཉིད་	-833
འགྱུར་བ་	-834
▁༼	-835
རྐྱེན་	-836
ཁང་	-837
ལོག་	-838
ལྷན་	-839
འཁོར་ལོ་	-840
སྤངས་	-841
དག་བ	-842
ཡིན་ནོ།	-843
གསུམ་གྱི་	-844
ཁྲི	-845
ོགས།	-846
▁ཅེས་	-847
ཏིང་ངེ་	-848
ྲག་	-849
ཟིན་	-850
དག་གི་	-851
ཧཱུྃ༔	-852
དེར་	-853
རྟན་	-854
ཕ་རོལ་ཏུ་ཕྱིན་	-855
འདུན་	-856
ླངས་	-857
དང་བྲ	-858
ལ་བརྟེན་	-859
རྒྱུ	-860
པ་ལ།	-861
སྡོམ་	-862
པའི་དོན་	-863
ེག་པ་	-864
མིག་	-865
▁སྣ	-866
ཐུན་	-867
དབང་བསྐ	-868
སྦྱོར་	-869
སོང་	-870
འོད་ཟེར་	-871
མདོ་	-872
པ་མེད་	-873
▁ས་	-874
མོའི་	-875
བས།	-876
སེམས་བ	-877
གསོལ་	-878
ོག་བ	-879
▁ཚ	-880
ནམ་མཁའ་	-881
ཐོག་	-882
དབུས་	-883
ཐམས་ཅད་ཀྱི་	-884
ཡན་ལག་	-885
དག་གིས་	-886
ངང་	-887
མངོན་པར་	-888
སྨིན་	-889
ཟླས་	-890
གཡས་	-891
▁གཟ	-892
▁སྲ	-893
གཞུང་	-894
པ་འདི་	-895
ཏིང་ངེ་འཛིན་	-896
ཆེ་	-897
དེ་ལ་	-898
སྐལ་	-899
སྡུག་བསྔལ་	-900
རིང་	-901
▁བཅོམ་ལྡན་འདས་	-902
སྒྲིབ་	-903
འ་བ་	-904
་བྷ	-905
འདོད་པ་	-906
དངོས་གྲུབ་	-907
ོང་བའི་	-908
ཕྱག་རྒྱ་	-909
ུལ།	-910
འཁོར་ལ	-911
བས་བ	-912
ཨཱཿ	-913
གོས་	-914
དྲན་	-915
རྣམ་པར་དག་	-916
ཁོ་ན་	-917
▁།།	-918
ཡབ་	-919
སྲུང་	-920
སོད་ན	-921
▁དགེ་	-922
སློབ་དཔོན་	-923
རྡོ་རྗེའི་	-924
དྲག་	-925
▁ལྷ་	-926
དངོས་པོ་	-927
ྱད་	-928
ང་།	-929
▁དངོས་	-930
སོད་ནམས་	-931
ཤོག	-932
▁དོན་	-933
འཁྲུལ་	-934
▁སློབ་	-935
འཇམ་	-936
གེགས་	-937
འགྲེལ་	-938
ཞེས་བ	-939
ཆོས་ཅན།	-940
ཐིག་	-941
ེངས་	-942
ཕཊ	-943
▁དེ་བཞིན་	-944
གར་	-945
ཡིག་	-946
ིན་ལས་	-947
ོད་པའི་	-948
མཚུངས་	-949
གང་ཡིན་	-950
ཧ་	-951
རྦ་	-952
▁ཀུན་	-953
ཏགས་	-954
ཞུ	-955
ྱ།	-956
མགོན་	-957
གུ་	-958
སྐྱབས་	-959
ཡི།	-960
སྙེན་	-961
?-	-962
ར་བྱེད་	-963
སྨྲས་	-964
▁ལུས་	-965
ཐར་	-966
▁སྡ	-967
▁སྦ	-968
འདུ་	-969
སྲོག་	-970
པའི་ཆོས་	-971
དག་ཉིད་	-972
ཚིགས་	-973
སྒྲུབ་བ	-974
སྤྱོད་པ་	-975
ལྡོག་	-976
ཞབས་	-977
ཀྲ་	-978
ལྟ་བ་	-979
གསེར་	-980
གྱི།	-981
མན་	-982
རྒྱས་བ	-983
▁ཕྱི་	-984
སྐྱོན་	-985
གས༔	-986
རྣམས་ཀྱིས་	-987
གྲོ	-988
དག་ལ་	-989
སྐོར་	-990
ལོངས་	-991
▁གསུམ་	-992
ཅོས་	-993
ཟླ་	-994
ུ་མ་	-995
ཞིའི་	-996
▁སྙ	-997
ུས་བ	-998
དམ་ཚིག་	-999
སྤྲོས་	-1000
ྃ་	-1001
འབྲས་	-1002
རྗེ་བ	-1003
པ་ལ་སོགས་	-1004
ནད་	-1005
་་་་་	-1006
ཤིང་།	-1007
ོན།	-1008
གཉེན་	-1009
གསོལ།	-1010
▁།དང་པོ་	-1011
▁དབང་	-1012
ལ་ལོ།	-1013
ཨོ	-1014
སྙོམས་	-1015
རིན་ཆེན་	-1016
མྱེད་	-1017
ཎྜ	-1018
ཁྲིམས་	-1019
ཟློག་	-1020
ཀྱི།	-1021
▁སེམས་ཅན་	-1022
འཕྲུལ་	-1023
པོ	-1024
གཉིས་སུ་	-1025
སྐྱེ་བ	-1026
ཅན་གྱི་	-1027
ཁྲག་	-1028
གཡོན་	-1029
ཐལ།	-1030
▁ཕ	-1031
▁སེམས་	-1032
▁སྨ	-1033
འཆད་	-1034
སེར་	-1035
སྭཱ་	-1036
དགའ་བ	-1037
ཀྱང་བ	-1038
མཚོན་	-1039
སྦྱར་	-1040
སྟོད་	-1041
པ་ཐམས་ཅད་	-1042
སྐད་ཅིག་	-1043
སྟན་པ་	-1044
གོ	-1045
གཉིས།	-1046
ནང་དུ་	-1047
ྱེད་ཀྱི་	-1048
ྱུང་བ་	-1049
ཾ།	-1050
▁རིགས་	-1051
▁༑	-1052
ཏབ་	-1053
ལས་འདས་	-1054
▁ལྷ	-1055
ང༔	-1056
དུ་བྱས་	-1057
ྱ་ངན་	-1058
ཤེས་རབ་ཀྱི་	-1059
གསལ་བ	-1060
མོ།	-1061
ཐ་དད་	-1062
སྒོ་ནས་	-1063
ཕྱུག་	-1064
དགའ་	-1065
ྡྷ	-1066
པ་ཡིན་ནོ།	-1067
པའི་ཚུལ་	-1068
སྩལ་	-1069
ལྟ་བུའི་	-1070
རྩོན་	-1071
ལགས་	-1072
སྙིང་པོ་	-1073
▁རབ་	-1074
▁རྣམ་	-1075
འདིའི་	-1076
ེའུ་	-1077
ནམ་མཁ	-1078
དུ་མ་	-1079
ཟླ་བ་	-1080
གསུངས་སོ།	-1081
ཐུབ་	-1082
ོར།	-1083
ཡིས་	-1084
ྲལ་	-1085
པའི།	-1086
རྩ་བ	-1087
དུག་	-1088
70	-1089
ཀར་	-1090
10000270	-1091
དགྲ་བ	-1092
འགྱུར་བ	-1093
ལ་སོགས་པའི་	-1094
ནས	-1095
ཕྲིན་ལས་	-1096
སྟེང་དུ་	-1097
གཅིག་ཏུ་	-1098
ཐམས་ཅ	-1099
གསུམ།	-1100
ལེ་	-1101
འམ་	-1102
གདམས་	-1103
ཡིས།	-1104
སྭཱ་ཧཱ	-1105
ཡེ་ཤེས་ཀྱི་	-1106
མུ་	-1107
▁།འདི་	-1108
དགུ་	-1109
ཕུང་པོ་	-1110
ཧཱ་	-1111
ལ་གནས་	-1112
▁དེ་ཡང་	-1113
སྡིག་	-1114
▁འདོད་	-1115
ྱིན་གྱིས་བ	-1116
སྲས་	-1117
གསུམ་བ	-1118
▁ལས་	-1119
ཐོགས་	-1120
▁གནས་	-1121
མངོན་སུམ་	-1122
ྲིས་	-1123
མི	-1124
ལ་ཕྱག་འཚ	-1125
ཉིད་ཀྱི་	-1126
མྱི་	-1127
འམ།	-1128
དབྱངས་	-1129
ཉིད།	-1130
ཟས་	-1131
ཞེས་པ་	-1132
ཡི་གེ་	-1133
ཀྱིས།	-1134
སྤྱི་བ	-1135
གྱིས།	-1136
རྟ་	-1137
གནོད་	-1138
སྐུ	-1139
དོན་བ	-1140
སངས་	-1141
པར་བྱ།	-1142
ཅུང་	-1143
སངས་རྒྱས་ཀྱི་	-1144
འཇོག་	-1145
དོག་	-1146
དབང་པོ་	-1147
མ༔	-1148
ལྷན་ཅིག་	-1149
པར།	-1150
པའི་ཚ	-1151
རྣམས།	-1152
མེ་ཏོག་	-1153
གདན་	-1154
གཟིགས་	-1155
▁ཁྱོད་	-1156
པ་ཡང་	-1157
སྒོ	-1158
ཏི་	-1159
ཧྲཱ	-1160
སམ།	-1161
འགའ་	-1162
གྲོལ་	-1163
ཤར་	-1164
ྱུང་བའི་	-1165
གསོལ་བ་	-1166
པ་མ་ཡིན་	-1167
གྱུར།	-1168
དམ་བ	-1169
དེ་ལྟར་	-1170
ལྟོས་	-1171
ཐམས་ཅད་བ	-1172
དང།	-1173
▁༈	-1174
སྒོམས་	-1175
རྙེད་	-1176
མོང་	-1177
ུག	-1178
▁སྐུ་	-1179
▁ཁ་	-1180
▁གཉིས་པ་	-1181
ནོ་	-1182
ཐུག་	-1183
པར་འགྱུར་	-1184
ཤིག	-1185
ཤིས་	-1186
པར་བྱས་	-1187
པ་གཉིས་	-1188
▁།གང་	-1189
ཅེས་བྱ	-1190
ལ་ཡང་	-1191
▁བྱང་ཆུབ་	-1192
ཟེ	-1193
མ་ལུས་	-1194
ྱའི་	-1195
སྦྱོར་བ	-1196
ྱའོ།	-1197
སྐྱེས་བ	-1198
མེད་བ	-1199
རྐང་	-1200
རྒྱལ་བ་	-1201
སམ་གཏན་	-1202
མ་ཐ	-1203
འབྲེ	-1204
▁ཨོཾ་བ	-1205
ྱེ་བ	-1206
་བ་བ	-1207
ཡིན་པས་	-1208
▁བླ་མ་	-1209
ལའང་	-1210
ཕྱོགས་བ	-1211
པར་མི་	-1212
འཛི	-1213
སྦྱོར་བ་	-1214
▁ཐུགས་	-1215
▁མང	-1216
ུང་བའི་	-1217
མྱ་ངན་	-1218
ནི༔	-1219
▁རང་གི་	-1220
ཕྲག་	-1221
པ་ལྟར་	-1222
སྨོན་	-1223
▁དུས་	-1224
སྔར་	-1225
▁གཟུགས་	-1226
▁ཚེ་	-1227
འདི་བ	-1228
ས་བོན་	-1229
མཆིས་	-1230
ྱིན་རླབས་	-1231
ལ་མི་	-1232
རྣམས་བ	-1233
ཉིད་བ	-1234
གནད་	-1235
ཉན་ཐོས་	-1236
སྣོད་	-1237
ྱུང་བ	-1238
ཅག་	-1239
ཉེ་བར་	-1240
མེད་ཀྱི་	-1241
ཚུལ་ཁྲིམས་	-1242
གླིང་	-1243
▁མཁ	-1244
ཡིན་ལ།	-1245
མཆོད་པ་	-1246
ཞེན་	-1247
མཁན་	-1248
ཕྱེད་	-1249
ལྔའི་	-1250
ཀླུ་	-1251
ཅིག་བ	-1252
པ་མི་	-1253
མདུན་	-1254
▁མེ་	-1255
ཆོ་ག་	-1256
པ་ལས།	-1257
འགོག་	-1258
▁དམ་	-1259
ལྗ	-1260
▁ཡེ་ཤེས་	-1261
ཉེར་	-1262
ནོར་བ	-1263
དབང་ཕྱུག་	-1264
སེང་	-1265
འདེབས་	-1266
འདྲ་	-1267
བྱེད་	-1268
འབྱུང་བ	-1269
ཧེ་	-1270
དྲངས་	-1271
%-	-1272
ཆར་	-1273
སྒྲུབ་པའི་	-1274
མཁའ་འགྲོ་	-1275
དར་	-1276
གང་ཟག་	-1277
དུ་གྱུར་	-1278
ཡིན་ཏེ།	-1279
དག་ནི་	-1280
མདོག་	-1281
ལྕགས་	-1282
ཉིན་	-1283
ཏེ་བ	-1284
སེམས་ཀྱི་	-1285
མཐོང་བ་	-1286
མོ་བ	-1287
ཞིན་བ	-1288
རྫོགས་པའི་	-1289
སརྦ་	-1290
འདུ་བ	-1291
འདུ་ཤེས་	-1292
སླབ་	-1293
▁ཀ	-1294
▁སྙིང་	-1295
▁སློབ་དཔོན་	-1296
ཤིག་	-1297
གསུངས།	-1298
ཁྱི	-1299
ལྷུན་	-1300
པ་ཡིན།	-1301
▁པ	-1302
སེམས་བསྐྱེད་	-1303
▁དེ་བཞིན་གཤེགས་	-1304
པར་བཤད་	-1305
ངོ་བ	-1306
འདྲེན་	-1307
གཞག་	-1308
ི་བ་	-1309
▁འཇིག་རྟེན་	-1310
སྨན་	-1311
མ་ལ་	-1312
རྩ་བ་	-1313
▁ད་	-1314
ུབས་	-1315
དབུ་	-1316
མ་བྱས་	-1317
ུ་བ་	-1318
དང་མི་	-1319
▁ཧཱུྃ༔	-1320
མཛོད།	-1321
▁གལ་ཏེ་	-1322
འཐད་	-1323
འོངས་	-1324
ཐེག་	-1325
མན	-1326
སྙད་	-1327
སྦྲ	-1328
དགེ་བ	-1329
▁གཏ	-1330
པར་འགྱུར་རོ།	-1331
ཀའི་	-1332
གཏེར་	-1333
དུད་རྩི་	-1334
ཉི་ཤ	-1335
རྒྱ་མཚོ་	-1336
ཁྱེད་	-1337
དེ་ནི་	-1338
ཀུན་གྱི་	-1339
དྭ	-1340
གུས་	-1341
ཀྲ་ཤིས་	-1342
དགེ་འདུན་	-1343
ཞུས་	-1344
▁།ཅེས་	-1345
ཞིན།	-1346
མྱུ	-1347
གཏོགས་	-1348
ྱམས་	-1349
པ་མ་	-1350
ཨོཾ་	-1351
ཧཱུྃ།	-1352
ལམ་གྱི་	-1353
སྐུར་	-1354
མཆེད་	-1355
ིལ་བ	-1356
སྐྱོང་	-1357
དོན་དུ་	-1358
གཉིས་ཀྱི་	-1359
པ་ན་	-1360
20	-1361
པར་བྱ་	-1362
ལྔ་བ	-1363
རྗེ་བཙུན་	-1364
དབྱེར་	-1365
ཐེག་པ་	-1366
▁རྣམ་པར་	-1367
ནོར་	-1368
དགག་	-1369
▁སྟོང་	-1370
དང་ལྡན་པ་	-1371
རྔ	-1372
ཕྲེ	-1373
འཁོར་བ་	-1374
ལྷའི་	-1375
༽་	-1376
ཆེན་བ	-1377
▁0	-1378
ིཿ	-1379
མང་པོ་	-1380
10000220	-1381
འཕགས་པ་	-1382
▁གས	-1383
▁2	-1384
▁རྫ	-1385
ྱོན་	-1386
སྒྲུབ་པ་	-1387
འཆི་	-1388
ཅིའི་	-1389
དུས་སུ་	-1390
འོད་གསལ་	-1391
ཕུན་	-1392
ཐིམ་	-1393
དང་འདྲ	-1394
སུ།	-1395
ཀུན་བ	-1396
ལི་	-1397
གཙུག་	-1398
རིན་པོ་ཆེ་	-1399
རྟག་ཏུ་	-1400
གསང་སྔགས་	-1401
ཉིད་དུ་	-1402
ཆེར་	-1403
སྟན་བ	-1404
རྡུལ་	-1405
ྱེ་བྲག་	-1406
བྱས་	-1407
▁འདིར་	-1408
ླ་ན་	-1409
ཐམས་ཅད་མཁྱེན་	-1410
ངེས་པར་	-1411
དགེ་བ་	-1412
གྲོས་	-1413
ཛ་	-1414
▁ཡ	-1415
འོང་	-1416
རྟོག་པ་	-1417
ཁྲོད་	-1418
ལ་ཕ	-1419
ཉི་མ་	-1420
ུབ།	-1421
དཔེ་	-1422
མཛེས་	-1423
ཅུང་ཟད་	-1424
རྒྱ་བ	-1425
ཞེད་	-1426
འབྱུང་བའི་	-1427
ཅུད་	-1428
དང་བཅས་པ་	-1429
▁ཇི་	-1430
རྫོབ་	-1431
ལོངས་སྤྱོད་	-1432
ལྟར།	-1433
ནུབ་	-1434
¡¤	-1435
ཆོག་	-1436
ཐོ	-1437
འཆང་	-1438
ཞིག་བ	-1439
ོན་མཆོག་	-1440
ར་ཡང་	-1441
ོ་བའི་	-1442
རྒྱལ་བ	-1443
▁དཔལ་	-1444
རྗོད་པ་	-1445
འོ་ན་	-1446
དང༔	-1447
འཕྲོས་	-1448
▁།ཆོས་	-1449
▁།ག	-1450
▁དང་པོ་ནི།	-1451
གྲུབ་པའི་	-1452
ྀ་	-1453
ཏྲ	-1454
▁རང་བ	-1455
དྲི་མ་	-1456
ཀུན་ཏུ་	-1457
མཇ	-1458
སྭཱ་ཧཱ།	-1459
པའང་	-1460
གྲོང་	-1461
སྙེད་	-1462
ཀའ་སྩལ་	-1463
སི	-1464
ཐུན་མོང་	-1465
སྤྲིན་	-1466
སེམས་དཔའི་	-1467
ོང་བར་	-1468
་བོ་	-1469
ཏང་	-1470
ལ་ནི་	-1471
ཙ་	-1472
▁ཡིད་	-1473
▁སྔགས་	-1474
ནམ་མཁའི་	-1475
གཅོད་	-1476
འབུ	-1477
▁རྒྱུ་	-1478
ླ་མའི་	-1479
ཕྱིར་བ	-1480
གྲིན་	-1481
▁ཞ	-1482
▁དེ་དག་	-1483
▁།དེ་ནས་	-1484
ཱུ་	-1485
ཛཿ	-1486
▁ཨ་	-1487
▁ཆ	-1488
▁ཨོཾ་བཛྲ་	-1489
འི་བུ་	-1490
སམས་	-1491
སོ་སོར་	-1492
ོལ་བ	-1493
ཞིང་བ	-1494
ཁྲི་	-1495
▁¡	-1496
ལྟས་	-1497
ཁྱད་	-1498
འགྲོ་བའི་	-1499
མཐུ་	-1500
པ་བཞིན་	-1501
འགལ་	-1502
མན་ངག་	-1503
སྐུའི་	-1504
པར་བྱ་བ་	-1505
▁།མི་	-1506
འགྱུར་བའི་	-1507
ལ་བརྟེན་ནས་	-1508
ནྡ	-1509
ྱེད།	-1510
ཤེས་བྱ	-1511
འདིས་	-1512
ོཿ	-1513
ཀྵ	-1514
མཛོད་	-1515
འདི་ནི་	-1516
ཁྱེར་	-1517
སྣང་བ	-1518
ཁྲོ་	-1519
ྟ་	-1520
ཐལ་	-1521
དྡྷ	-1522
གཟུང་	-1523
▁དགེ་སློང་	-1524
ཡོད།	-1525
ུམ་པ་	-1526
▁མངོན་	-1527
ལ་བ་དང་།	-1528
གཉིས་ཏེ།	-1529
གསོལ་བ	-1530
རབ་བ	-1531
དུང་	-1532
ཎ་	-1533
རྗེའི་	-1534
སྡང་	-1535
ལས་ཀྱི་	-1536
▁།གསུམ་	-1537
ཕྱིར་རོ།	-1538
ཆེན་པོ་བ	-1539
དཔའ	-1540
གྲི་	-1541
ཀཱ་	-1542
སླད་	-1543
ཆེས་	-1544
དོན་དམ་	-1545
མཐར་ཐུག་	-1546
▁རིག་	-1547
ྱང་ཆུབ་ཀྱི་	-1548
གཙོ་བ	-1549
རིག་པ་	-1550
ཝ་	-1551
འབུམ་	-1552
དགྲ་	-1553
ཉི་ཤུ་	-1554
གནས།	-1555
▁ཡུལ་	-1556
ཟང་པོ་	-1557
མེད་དུ་	-1558
▁།དེ་ལྟར་	-1559
ུའོ།	-1560
པའི་གནས་	-1561
སྙན་	-1562
▁།དེས་	-1563
མཐའ་ཡས་	-1564
ཧེ་རུ་	-1565
གཏོར་མ་	-1566
དྲུང་	-1567
འཕེ	-1568
རས་	-1569
འཛིན་པ་	-1570
ནང་གི་	-1571
འདི་ལ་	-1572
རབ་ཏུ་བ	-1573
ཚངས་	-1574
ཀུ་	-1575
ཉྩ	-1576
▁།གཞན་	-1577
ཧྲཱིཿ	-1578
▁ཕྱག་	-1579
ློ་གྲོས་	-1580
སྟན།	-1581
རྣམ་བ	-1582
རྗོད།	-1583
མཆོག་གི་	-1584
མ་གྲུབ་	-1585
▁དེ་ནི་	-1586
ཅུ་གཉིས་	-1587
རྗོད་བ	-1588
འབྲུ་	-1589
རྟག་པ་	-1590
ཞེས་བྱ་བའི་	-1591
ཞི་པ་	-1592
ར་བྱའོ།	-1593
ཀའ་བ	-1594
གྱིས་མི་	-1595
ྱེས་	-1596
གང་བ	-1597
སྤྱད་	-1598
ཧཱུྃ་ཕཊ	-1599
ཕྲེང་	-1600
མ་ཟ	-1601
ཕོ་	-1602
ཐོད་	-1603
བརྗོད་	-1604
ངོ་བོ་ཉིད་	-1605
ཕྲ་	-1606
སྟན་པའི་	-1607
མཚན་མ་	-1608
ེན།	-1609
མཛད།	-1610
རྒྱལ་བའི་	-1611
དུ་མི་	-1612
ཆེ་བ་	-1613
ཀྱི་བུ་	-1614
སྐྱེས་བུ་	-1615
ཆོས་བ	-1616
ཕྱི་རོལ་	-1617
མ་ཡིན་ནོ།	-1618
དགེ་བའི་	-1619
ིང་བ	-1620
གེ་	-1621
དེ་བཞིན་གཤེགས་པ་	-1622
དཀར་པོ་	-1623
པར་འགྱུར།	-1624
▁ན་	-1625
ཐ་སྙད་	-1626
རྟོགས་པའི་	-1627
ཆེད་	-1628
ལོང་	-1629
སྦྱོང་	-1630
པར་ཐལ།	-1631
གཙང་	-1632
མགོ་	-1633
▁རླ	-1634
▁.	-1635
ཀོད་	-1636
རེག་	-1637
པ་སོགས་	-1638
འདི་སྐད་	-1639
དུར་	-1640
གྲོགས་	-1641
པ་ལ་བ	-1642
ཡིད་བ	-1643
འདྲེས་	-1644
སྤང་བ	-1645
ལོ།	-1646
ྱེད་པའི་	-1647
ཁས་བ	-1648
པའམ།	-1649
ེར་ན་	-1650
▁དེས་ན་	-1651
▁བྱང་	-1652
ཡི་དམ་	-1653
ལ་ཕྱག་འཚལ་ལོ།	-1654
ཱ་ར་	-1655
▁རིན་	-1656
དབྱེ་བ་	-1657
▁།རྡོ་རྗེ་	-1658
ཐམས་ཅད་ལ་	-1659
རྣམས་ནི་	-1660
ཕྱེ་	-1661
དབང་བསྐུར་	-1662
སྒྱུར་	-1663
ཟོད་	-1664
ཅུའི་	-1665
▁།ཡང་	-1666
སྟེན་	-1667
སྨྲ་བ་	-1668
མ་ཡིན།	-1669
ོད༔	-1670
ིག་བ	-1671
ཉེ་	-1672
▁སྔོན་	-1673
རྒྱུད་ཀྱི་	-1674
ཡིན་པའི་ཕྱིར།	-1675
དོར་	-1676
དཔྱ	-1677
ྱ་བ	-1678
རིས་	-1679
▁བདེ་	-1680
འི།	-1681
ཕ་	-1682
ཉམས་སུ་	-1683
ཐིག་ལེ་	-1684
རྩལ་	-1685
སྒྱུ་	-1686
འོན་	-1687
སྦྱངས་	-1688
འི་བར་	-1689
པའི་བར་	-1690
▁།རང་	-1691
སྲེག་	-1692
མཆོག་ཏུ་	-1693
ཅུ་དྲུག་	-1694
ས་མ་	-1695
གཏད་	-1696
ཅིའི་ཕྱིར་	-1697
▁དེ་ནས་བ	-1698
ཻ་	-1699
གནས་པའི་	-1700
ལམ་བ	-1701
པད་	-1702
ལ་བྱ་	-1703
▁དཀྱིལ་	-1704
▁སོ་	-1705
འདོད་ཆགས་	-1706
འདབ་	-1707
མེད་པས་	-1708
ཞེས་བྱའོ།	-1709
གཞོན་	-1710
ུས།	-1711
རྒྱུ་མཚན་	-1712
པ་གང་	-1713
ཉྩ་	-1714
གཉིས་བ	-1715
པོར་བ	-1716
ུར་བ་	-1717
ལྟུང་བ	-1718
སྐྱི	-1719
ཞུགས།	-1720
▁གཡོན་	-1721
ལས་གཞན་	-1722
གས་པ་	-1723
ཁས་	-1724
སྐོར་བ	-1725
ཅིང་བ	-1726
ཆེན་པོས་	-1727
ཁྱིམ་	-1728
ལེགས་པར་	-1729
བ༔	-1730
▁ཇི་ལྟར་	-1731
ནག་པོ་	-1732
ཤཱ	-1733
འགྲོའི་	-1734
▁གཙ	-1735
ཡང་མི་	-1736
ཤེས་པའི་	-1737
སྨོས་	-1738
▁།གཉིས་པ་	-1739
མས༔	-1740
▁རྒྱལ་	-1741
ཞི་བ་	-1742
ཡབ་ཡུམ་	-1743
འབྲིང་	-1744
▁དམ	-1745
གནང་	-1746
ལགས།	-1747
དཔག་ཏུ་	-1748
གསུང་ཐུགས་	-1749
▁ཟ	-1750
ནས༔	-1751
སྐྱེ་བའི་	-1752
ཱ་ག་	-1753
▁ཐ་	-1754
སྐྲ	-1755
སྟན་བཅོས་	-1756
པའི་དབང་	-1757
ཞི།	-1758
སྐབས་སུ་	-1759
▁ཨོཾ་ཨཱཿ	-1760
ྱུང་།	-1761
ལྷ་ཚོགས་	-1762
རྣམས་དང་།	-1763
ཁ་དོག་	-1764
གྱུར་ཅིག	-1765
ཏི	-1766
པ༔	-1767
ོས་བ	-1768
ེ་ཚ	-1769
སོགས།	-1770
པ་བཞི་	-1771
པར་མཛད་	-1772
▁གཞན་ཡང་	-1773
▁ཁྱད་པར་	-1774
ལ་མ་	-1775
དགའ་བ་	-1776
ས་པ་	-1777
སེམས་དཔའ་ཆེན་པོ་	-1778
ཟླ་བའི་	-1779
གཙོ་བོ་	-1780
ཕུན་སུམ་	-1781
ེབ་	-1782
ི་ལམ་	-1783
དཔྱད་	-1784
པས་སོ།	-1785
▁།ཞེས་གསུངས་	-1786
རྟེན་འབྲེལ་	-1787
སྔགས་ཀྱི་	-1788
ོལ།	-1789
ྲང་	-1790
མེད་དོ།	-1791
▁དེར་	-1792
ཡ།	-1793
དམ་པ་	-1794
རྩོན་འགྲ	-1795
ག་ཆགས་	-1796
དོན་གྱི་	-1797
ྷྱ	-1798
གཅིག་བ	-1799
/-	-1800
ྱིན་བ	-1801
པར་བྱ་བའི་	-1802
མ་དང་	-1803
ོལ་བ་	-1804
ལུས་ཀྱི་	-1805
▁བར་	-1806
འཛིན་པའི་	-1807
ལ་འཇུག་	-1808
འདོད་པའི་	-1809
ཆེ།	-1810
▁དེ་བཞིན་དུ་	-1811
ཡོངས་སུ་བ	-1812
▁།དེ་ལ་	-1813
པའི་བྱང་ཆུབ་	-1814
ཀུན་རྫོབ་	-1815
ྱིན་གྱིས་	-1816
ཆུད་	-1817
པ་ཙམ་	-1818
ལག་བ	-1819
ུམ་བ	-1820
གྱི་ཁམས་	-1821
ཤད།	-1822
པའི་ཕྱིར་དང་།	-1823
འཇམ་དཔལ་	-1824
གཉིས་ཀ་	-1825
▁རྩ་	-1826
▁3	-1827
གསང་བ་	-1828
རྣམ་པར་བ	-1829
དབེན་	-1830
དཀོན་མཆོག་	-1831
ཅུ་རྩ་	-1832
འབྱིན་	-1833
ཁོང་	-1834
▁།དང་པོ་ནི།	-1835
ཁོ་ན	-1836
▁༡	-1837
▁གླ	-1838
སྨྲས་པ།	-1839
ཧོཿ	-1840
གླང་	-1841
སོགས་ཀྱི་	-1842
ལས་བྱུང་བའི་	-1843
སྟོན་པ་	-1844
▁རླུང་	-1845
འཇོམས་	-1846
དྷ་	-1847
རྟོགས་པ་	-1848
སྡུག་	-1849
ར་བྱ།	-1850
སོ་སོ་	-1851
▁(	-1852
གཞལ་	-1853
གནས་སུ་	-1854
སྐྱེས་པའི་	-1855
སར་	-1856
སོ་སོའི་	-1857
▁།སངས་རྒྱས་	-1858
ཕུན་སུམ་ཚོགས་	-1859
▁དེ་ཉིད་	-1860
དྲིལ་བ	-1861
རྒྱུད་བ	-1862
སངས་རྒྱས་བ	-1863
▁ཆོས་ཀྱི་	-1864
▁སྦྱ	-1865
འ་བའི་	-1866
ཕ་རོལ་ཏུ་ཕྱིན་པ་	-1867
▁མཆོད་	-1868
སྲིན་	-1869
ཁྲིད་	-1870
གང་ཡིན་པ་དེ་	-1871
ཁས་བླངས་	-1872
▁ལམ་	-1873
ཕྱིས་	-1874
གསལ་བ་	-1875
སྟེགས་	-1876
▁རྐ	-1877
ཤུགས་	-1878
▁།དེ་བཞིན་	-1879
དམན་	-1880
རྨ་	-1881
འགའ་ཞིག་	-1882
སྦྱར་བ	-1883
ཕྱག་བ	-1884
དགྲ་བཅོམ་	-1885
▁ཚོགས་	-1886
གསོལ༔	-1887
ཅུག་	-1888
ཅུ་བ	-1889
མཆོག	-1890
ང་བ་དང་།	-1891
སྐྱེ་མཆེད་	-1892
བཤད་	-1893
ི་ཥ	-1894
སྤང་	-1895
གསུམ་དུ་	-1896
མོད་	-1897
འདོགས་	-1898
ིར་	-1899
གྲུབ་བ	-1900
▁།མ་	-1901
དབུས་སུ་	-1902
སད་	-1903
འབུལ་	-1904
རུས་	-1905
▁དགྲ	-1906
གའི་	-1907
དབང་བསྐུར་བ	-1908
འདོན་	-1909
རྒྱལ་མཚན་	-1910
ྱིན་གྱིས་བརླ	-1911
▁གན	-1912
ལྷ་མོ་	-1913
དུན་བ	-1914
འ།	-1915
རལ་	-1916
འབད་	-1917
རེ་རེ་	-1918
ཞག	-1919
▁དང་	-1920
ཤི་	-1921
པ་དག་	-1922
ལྷག་མ་	-1923
སྤྱིར་	-1924
འཁོར་བའི་	-1925
གདབ་	-1926
ཚུལ་བ	-1927
རིན་པོ་ཆེའི་	-1928
གཞན་གྱི་	-1929
▁རྒྱ་	-1930
▁འདི་ནི་	-1931
པའི་དུས་	-1932
དམར་པོ་	-1933
ྱིན་གྱིས་བརླབས་	-1934
སྒོམ།	-1935
▁སོགས་	-1936
སློབ་མ་	-1937
སྔ་མ་	-1938
མགོན་པོ་	-1939
སྐྱེ་བར་	-1940
ཚུན་	-1941
དྲང་	-1942
ནུས་པ་	-1943
ཡོངས་སུ་དག་	-1944
སྤྲུལ་པའི་	-1945
▁དཀྱིལ་འཁོར་	-1946
སྒྲོལ་	-1947
དང་བཅས་པའི་	-1948
དེ་དང་	-1949
མིན།	-1950
ཚད་མ་	-1951
ང།	-1952
ེས་བ	-1953
རྒྱབ་	-1954
▁དེ	-1955
སྟེ་བ	-1956
དུ་གསོལ།	-1957
ཆོས་ཉིད་	-1958
▁རྣམ་པ་	-1959
་བ།	-1960
ཙན་	-1961
.-	-1962
ནུ་	-1963
ུ་བའི་	-1964
དཀྱིལ་འཁོར་གྱི་	-1965
▁མདོ་	-1966
པོའི་བ	-1967
ལྟ་བུར་	-1968
ེ༔	-1969
མ་བུ་	-1970
མ་ཧཱ་	-1971
མགྲིན་	-1972
སྐྱེ་བོ་	-1973
སྙིང་རྗེ་	-1974
ེ་ཚོམ་	-1975
ཨཱ་	-1976
ལྡན་བ	-1977
ཐང་	-1978
ཕལ་	-1979
རྐྱང་	-1980
ཀློང་	-1981
ཡིན་ན་	-1982
འབྱེད་	-1983
▁རང་བཞིན་	-1984
ིཾ་	-1985
▁།དེའི་	-1986
▁ཞེས་གསུངས་	-1987
ར་བྱས་	-1988
གདོང་	-1989
མཐོང་བ	-1990
ིན་བ	-1991
འཆི་བ	-1992
▁གསུམ་པ་	-1993
མི་བྱེད་	-1994
▁རྣལ་འབྱོར་	-1995
རིམ་པ་	-1996
པྲ་	-1997
དུར་ཁྲོད་	-1998
ྱར་	-1999
སོར་	-2000
ཡན་ལག་བ	-2001
དེ་བར་	-2002
ྲམ་ཟ	-2003
▁ལྟ	-2004
རྩོན་འགྲུས་	-2005
སྐྱ་	-2006
▁ཐམས་ཅད་	-2007
སྡོམ་པ་	-2008
མི་རྟག་	-2009
འོག་ཏུ་	-2010
ཀྱེ་	-2011
ཞེ་སྡང་	-2012
ཡོད་པར་	-2013
སགས་	-2014
རྣམ་ཤེས་	-2015
ུ་འཕྲུལ་	-2016
སྟག་	-2017
ཐུགས་རྗེ་	-2018
སང་	-2019
འོ་ཞེས་	-2020
སྔོན་དུ་	-2021
སྒྲུབས་	-2022
དང་མཐུན་	-2023
ཡོད་པའི་	-2024
ར་བཤད་	-2025
འདྲ་བ་	-2026
ས་ན་	-2027
་བཛྲ་	-2028
འདི།	-2029
▁ཆུ་	-2030
ཞིག	-2031
▁།བདག་	-2032
ཞུ་	-2033
རྐྱ	-2034
སམ་གྱིས་མི་	-2035
▁སྒྲ་	-2036
དབང་གི་	-2037
མཚོ་	-2038
པའི་ལམ་	-2039
ཆེ་བ	-2040
མུག་	-2041
ཤགས་	-2042
སྒྱུར་བ	-2043
▁ཧཱུྃ་	-2044
གསུང་།	-2045
རྡ་	-2046
▁ཁམས་	-2047
ཞིར་	-2048
ཕྱི་མ་	-2049
ུད་མེད་	-2050
མ་ཐག་	-2051
▁འཁོར་	-2052
དགྱེས་	-2053
ཤོག༔	-2054
ཚང་	-2055
སྒྲུབ་ཐབས་	-2056
གཟུངས་	-2057
▁དེ་ལས་	-2058
ཆེན་པོར་	-2059
ཆུ་བ	-2060
འབྱོར་བ	-2061
མི་ནུས་	-2062
་བྷི་ཥ	-2063
མ་ཡིན་ཏེ།	-2064
་བཞིན་	-2065
སྣང་བའི་	-2066
ཐི	-2067
གསུམ་སྟེ།	-2068
སྐྱེ	-2069
འདུལ་	-2070
ཀག་	-2071
▁ཁྲ	-2072
གདོན་	-2073
པ་ན།	-2074
ངས༔	-2075
ཇི་ལྟ་བ	-2076
ོགས༔	-2077
རྫོགས་པར་	-2078
ཱ་ཧ	-2079
སེལ་	-2080
ལྡན།	-2081
དང་ནི་	-2082
མལ་	-2083
སྐྱེད་པའི་	-2084
དམིགས་པ་	-2085
▁ཁྱེད་	-2086
ཟུང་འཇུག་	-2087
ུ༔	-2088
ར་གྱི་	-2089
གྱུར་པའི་	-2090
འབྱུང་བར་	-2091
▁བ་	-2092
ཡངས་	-2093
གཤིན་	-2094
སོགས་བ	-2095
▁༄	-2096
▁ཕྱོགས་	-2097
དུད་རྩིའི་	-2098
ཀི་	-2099
ཀའ་སྩལ་པ།	-2100
པུ་	-2101
སམ་པ་	-2102
དོན་ལ་	-2103
དུས་ཀྱི་	-2104
ར་མ་	-2105
▁ཉོན་མོངས་	-2106
▁ང་	-2107
དེ་བའི་	-2108
▁འབྲས་བུ་	-2109
རྒྱུད་ལ་	-2110
▁ལྕ	-2111
▁མཚན་	-2112
ཤིང་བ	-2113
སྐད་དུ།	-2114
ཅིངས་	-2115
སྡུད་	-2116
མཎྜ	-2117
སྐུལ་	-2118
སྙོམས་པར་	-2119
དེན་པ་	-2120
པའམ་	-2121
ོན་པ་	-2122
གཅིག་ལ་	-2123
གྲུ་	-2124
འདི་དག་	-2125
སྐྱབས་སུ་	-2126
གནས་པ་	-2127
ག་ལ་	-2128
ཞུགས་པའི་	-2129
དབྱེར་མེད་	-2130
ཆོད་	-2131
ལ་བས་	-2132
ོའི་བ	-2133
འཁོར་ལོ་བ	-2134
དངོས་སུ་	-2135
མུན་	-2136
དག་པའི་	-2137
ངོ་མཚ	-2138
▁རབ་འབྱོར་	-2139
དབྱེ་བ	-2140
དཔུང་	-2141
ཤས་	-2142
པ་ཡིན་ཏེ།	-2143
མ་གཏོགས་	-2144
▁དབྱ	-2145
མེད་ན་	-2146
སམ་གྱིས་མི་ཁྱབ་	-2147
པར་འདོད་	-2148
པའི་ངང་	-2149
གཟུགས་བ	-2150
ཆེན་གྱི་	-2151
ནཱ་	-2152
ཕུལ་	-2153
ཉ་	-2154
ས་བྱས་	-2155
གྲུབ་པ་	-2156
ལོ་བ	-2157
ཛྙ	-2158
པཱ་	-2159
གཞན་དུ་	-2160
ེག་བ	-2161
སྙམ་དུ་	-2162
དང་ལྡན་པའི་	-2163
གསུམ་པོ་	-2164
▁དྲི་	-2165
ཟ་	-2166
ུན་བ	-2167
▁ལན་	-2168
ཀོད་པ་	-2169
ཉིད་ལ་	-2170
ཅན་བ	-2171
དམྱ	-2172
ིབ་	-2173
འདུས་ཏེ་	-2174
འབར་བའི་	-2175
སྨད་	-2176
ཞེས་པའི་	-2177
▁འོ་ན་	-2178
ལ་ལ་	-2179
▁གཡས་	-2180
ཡོད་དེ།	-2181
སྤོས་	-2182
ཞེས་བྱ་	-2183
གསང་བའི་	-2184
ཉི་མའི་	-2185
གཏན་ཚིགས་	-2186
པར་འགྱུར་བ་	-2187
སྤྱན་དྲངས་	-2188
མར་བ	-2189
གིས།	-2190
<-	-2191
ཆོས་ཐམས་ཅད་	-2192
▁འཕགས་	-2193
གོམས་	-2194
པདྨའི་	-2195
ཉིད་ཀྱིས་	-2196
ཧཱུཾ་	-2197
ཡི་བ	-2198
འགགས་	-2199
གྱུར་པ་	-2200
མྱོང་	-2201
པའི་ཚེ།	-2202
ཕག་	-2203
་བས་	-2204
ཨ་བྷི་ཥ	-2205
མི་མཐུན་	-2206
དབྱེ་	-2207
རེ།	-2208
༅།	-2209
ཚར་	-2210
ཡོད་ན་	-2211
▁ནང་	-2212
གནས་བ	-2213
རིག་པའི་	-2214
རྨི་ལམ་	-2215
ཞུགས་སོ།	-2216
རྒྱ་མཚོའི་	-2217
ནོ་ཞེས་	-2218
གསུམ་གྱིས་	-2219
རེ་བ	-2220
དེ་ཡང་	-2221
རྣམས་ཀྱང་	-2222
མཐོང་བའི་	-2223
▁རྒྱུད་	-2224
ཡུན་	-2225
གཞིའི་	-2226
▁གད	-2227
ཟེར་བ་	-2228
རང་བཞིན་གྱིས་	-2229
=-	-2230
ྱིན་གྱིས་རླ	-2231
འདུ་བྱེད་	-2232
ཚན་	-2233
ནོར་བུ་	-2234
▁རྗེས་	-2235
པར་བསྟན་	-2236
▁སྐ	-2237
ལྟ་བུ།	-2238
འཁོར་ལོའི་	-2239
མཆོད་བ	-2240
▁དཔེར་ན་	-2241
ོབ་བ	-2242
ཕོ་བ	-2243
དག་མེད་	-2244
ཡིན་ཏེ	-2245
ཅན་དུ་	-2246
དག་པ་	-2247
ུགས།	-2248
དགོངས་པ་	-2249
རུང་བ་	-2250
▁:	-2251
རྣམ་གྲངས་	-2252
ཞེངས་	-2253
ཐེ་ཚོམ་	-2254
▁མཁའ་	-2255
གསལ་བའི་	-2256
ྱུད་	-2257
ཚལ་	-2258
རྙན་	-2259
གོ་བ	-2260
ོད་ཀྱི་	-2261
ཨེ་	-2262
ཐོབ་པའི་	-2263
▁དངོས་པོ་	-2264
སའི་	-2265
ཚེ་བ	-2266
▁བཛྲ་	-2267
མས་བ	-2268
▁མིག་	-2269
གསལ་བར་	-2270
མ་དང་།	-2271
ལུང་བ	-2272
དེ་ལས་	-2273
ཞེས་བྱ་བར་	-2274
འབྱུང་།	-2275
ེབས།	-2276
▁སྲིད་	-2277
ྱེ་	-2278
པ་རྣམས་ཀྱི་	-2279
▁ཐུན་	-2280
▁ཐབས་	-2281
རྟོག་པའི་	-2282
ཚོན་	-2283
ཤེས་བྱ་	-2284
▁།ཞེས་སོ།	-2285
ལྟ་སྟེ།	-2286
ཚེ།	-2287
རིམ་བ	-2288
གང་ཡང་	-2289
ཕྲེང་བ་	-2290
▁།ལྷ་	-2291
ཅས།	-2292
འགྱུར་ཏེ།	-2293
མཐིང་	-2294
པ་ཞིག་	-2295
ཕུར་	-2296
ལྟུང་བ་	-2297
འགག་	-2298
▁།དེས་ན་	-2299
འདི་ལྟར་	-2300
ིཉྩ་	-2301
རྟེན་བ	-2302
འཕང་	-2303
པའོ།།	-2304
མདོར་བ	-2305
ཀུན།	-2306
འཛིན་བ	-2307
་་་	-2308
སྒྲོན་	-2309
ཅང་	-2310
གང་གིས་	-2311
འཕེལ་	-2312
ཇི་སྙེད་	-2313
འགལ་བ་	-2314
ོག༔	-2315
ོལ༔	-2316
▁༢	-2317
རྩམས་	-2318
མྱ་ངན་ལས་འདས་	-2319
མེད་པ་དང་།	-2320
སྐུ་གསུང་ཐུགས་	-2321
མཐོ་	-2322
▁རྨ	-2323
ཁས་ལེན་	-2324
▁དམིགས་	-2325
གལ་	-2326
ལྔ།	-2327
▁གཏོར་	-2328
ྲཱི་	-2329
པ་ཡི།	-2330
ནན་	-2331
▁བླ་	-2332
པའི་ཕྱིར་ཏེ།	-2333
རྣམ་དག་	-2334
ཏུ།	-2335
རྒྱས་པར་	-2336
ྲྀ་	-2337
ེམ་	-2338
ླང་	-2339
ཁཱ་ཧ	-2340
རུང་བ	-2341
ཀུན་ལ་	-2342
ེའི་བ	-2343
འདི་སྐད་ཅེས་	-2344
ཡིན་པར་	-2345
ལྟ་བུའོ།	-2346
སྤོང་	-2347
▁ཤེས་རབ་ཀྱི་	-2348
གཉིས་ལས།	-2349
མཱ་	-2350
པར་བྱེད་པའི་	-2351
སྟོང་པ་	-2352
རྒྱུའི་	-2353
▁སངས་རྒྱས་ཀྱི་	-2354
རི་བ	-2355
མཉེས་	-2356
སྒོམ་པ་	-2357
▁།བྱང་ཆུབ་	-2358
ཙྪ	-2359
རྟུལ་	-2360
སྦྱང་	-2361
▁ཐོག་	-2362
སེ་	-2363
ཉམས་སུ་བ	-2364
སྡུ་	-2365
སྔོ་	-2366
དབང་གིས་	-2367
ོ་བོའི་	-2368
▁ཧ	-2369
ཡིད་ལ་བ	-2370
ཤེས།	-2371
པ་དང་ལྡན་	-2372
▁)	-2373
པ་ཡིན་ལ།	-2374
སྲུང་བ	-2375
▁ཤ་	-2376
ཚོར་བ་	-2377
ལང་	-2378
ཇི་ལྟར་བ	-2379
པར་བྱེད།	-2380
རྣམ་རྟོག་	-2381
དག་པོ་	-2382
འབབ་	-2383
ཇི་བ	-2384
དེ་གཉིས་	-2385
མཛད་པའི་	-2386
སྨོན་ལམ་	-2387
དེ་ཆེན་	-2388
྄་	-2389
▁རྟེན་	-2390
འབའ་	-2391
ཟེར།	-2392
ཐག་	-2393
གང་ཞེ་ན།	-2394
ྱས།	-2395
དགོས།	-2396
སྦྱར་བ་	-2397
དབང་དུ་བྱས་	-2398
གཅིག་ཏུ་བ	-2399
དྭངས་	-2400
པ་དེའི་	-2401
གདུང་	-2402
ར་ཆད་	-2403
སྤྱོད་པའི་	-2404
ལྗང་	-2405
ཛྙཱ་	-2406
ཕན་ཚུན་	-2407
ཡོ་བ	-2408
རྩེགས་	-2409
ཟུར་	-2410
▁།གལ་ཏེ་	-2411
ུའི་བ	-2412
ནྟ	-2413
དཔའ་བོ་	-2414
ཱི	-2415
གཞན་ལ་	-2416
་བ་དང་།	-2417
གཏོང་	-2418
ུར།	-2419
པ་སྟེ་	-2420
ཏ་ཐ	-2421
▁གཉིས་པ་ནི།	-2422
ཡར་	-2423
པ་དང་བ	-2424
མཆོད།	-2425
ཡོངས་སུ་རྫོགས་	-2426
ཕྲག་བ	-2427
ྱུག་	-2428
▁བཞི་	-2429
འོས་	-2430
གོ།	-2431
མའི་བ	-2432
ལེའུ་	-2433
ཀུན་ནས་	-2434
གསོལ་བ་བ	-2435
གཞུག་	-2436
དཔལ་ལྡན་	-2437
གཅིག	-2438
མཐའ་དག་	-2439
ོད་བྱེད་	-2440
སྡེ་བ	-2441
འདིར་བ	-2442
ཁ་ཅིག་	-2443
ོན་པོ་	-2444
གྲོང་ཁྱེར་	-2445
ཚ་	-2446
ལ་བསྟ	-2447
▁ལོ་	-2448
གཙོ་	-2449
ྱང་སེམས་	-2450
མངའ་	-2451
གནོད་པ་	-2452
རྨོངས་	-2453
ཕྱིན་ཅི་	-2454
▁ཅི་	-2455
ཁ་བ	-2456
ལྔ་པ་	-2457
ཅོ་	-2458
ཚོགས་བ	-2459
ཕྱོགས་ཀྱི་	-2460
དོགས་	-2461
གནས་སྐབས་	-2462
འོན་ཀྱང་	-2463
▁དམ་ཚིག་	-2464
གསུམ་ལ་	-2465
གྱིད་	-2466
སྐུ་མདོག་	-2467
སིདྡྷ	-2468
ྱས་ནས་	-2469
པའི་ཚེ་	-2470
¡¤¡¤	-2471
▁ཞེས་བ	-2472
ཟབ་མོ་	-2473
▁སྣང་	-2474
སྒྱུ་མ་	-2475
དྲིན་	-2476
འབྲས་བུའི་	-2477
གཅིག་གི་	-2478
དམྱི	-2479
སྒྲུབ་བྱེད་	-2480
ཧེ་རུ་ཀ་	-2481
ལངས་	-2482
དེ་ཁོ་ན་	-2483
▁གཅིག་	-2484
ཆུང་ང	-2485
མྦ	-2486
སྐུར་བ	-2487
གཞལ་ཡས་	-2488
གདབ	-2489
▁དེ་ལྟར་ན་	-2490
མཐར་ཕྱིན་	-2491
མ་ཡིན་པའི་	-2492
མྱུར་དུ་	-2493
གང་རུང་	-2494
མི་འཐད་	-2495
གསེར་གྱི་	-2496
བྲལ་	-2497
ཉམ་	-2498
ཕོ་བྲང་	-2499
ཽ་	-2500
མ་མཆིས་	-2501
རྫུན་	-2502
ཏ་ཐཱ་ག་	-2503
འཁྲུགས་	-2504
ལ་བ།	-2505
དཀའ་	-2506
རབས་	-2507
ོལ་བའི་	-2508
ྣ་	-2509
རྒྱལ་པོའི་	-2510
▁ཞལ་	-2511
ངག་གི་	-2512
པ་དེ་དག་	-2513
▁པ་	-2514
▁ཤེས་རབ་	-2515
▁རྟགས་	-2516
ཛྲ	-2517
ལྷུན་གྲུབ་	-2518
འབར་བ	-2519
སྔགས་བ	-2520
ཡ༔	-2521
ཨ་བྷི་ཥིཉྩ་	-2522
གྷ	-2523
འབྱམས་	-2524
ཕྱིར་མི་	-2525
གཉིས་པ་	-2526
ཉེས་པ་	-2527
པར་བྱེད་དོ།	-2528
▁ང	-2529
▁བུ་	-2530
ཅིའི་ཕྱིར་ཞེ་ན།	-2531
ཕྱོགས་སུ་	-2532
▁འོད་	-2533
མཉམ་པར་	-2534
ཐོབ་པར་	-2535
ཞི་བའི་	-2536
ང་རྒྱལ་	-2537
དུ་བཤད་	-2538
ཟིལ་	-2539
ཡོད་དོ།	-2540
▁རྒྱལ་པོ་	-2541
སྟོན་པའི་	-2542
སྒྲིབ་པ་	-2543
▁དང་པོ་ལ་	-2544
དང་བྲལ་བ་	-2545
པ་ལ་སོགས་པ་	-2546
ཏིང་འཛིན་	-2547
དེ་བཞིན་དུ་	-2548
འཛིན།	-2549
གཅིག་གིས་	-2550
སྤེ	-2551
ྱ་བའི་	-2552
དག་ཏུ་	-2553
ཙི	-2554
རྗིད་	-2555
ཙམ་དུ་	-2556
▁།དེ་ནི་	-2557
གུ་རུ་	-2558
སྐྱེད་བ	-2559
སེང་ག	-2560
གཉིས་ཀྱིས་	-2561
▁ནམ་མཁའ་	-2562
▁ནི་	-2563
ཅེ་	-2564
རྡོར་	-2565
མདའ་	-2566
ལོགས་	-2567
དྲིལ་བུ་	-2568
ང་བས་	-2569
ཁྱོད་ཀྱིས་	-2570
པོ་ཆེ་	-2571
འབར་	-2572
ཐམས་ཅད་དུ་	-2573
དུ་བྱེད་	-2574
ཞག་པ་	-2575
དྭགས་	-2576
ན་ཡང་	-2577
ིབས་	-2578
རྩ་བའི་	-2579
དགོས་པ་	-2580
ུལ་བ་	-2581
▁སརྦ་	-2582
ཚོད་	-2583
རྒྱུས་	-2584
གནོན་	-2585
▁ཏ	-2586
ཁྱབ་བ	-2587
སྔོན་པོ་	-2588
དབུ་མ་	-2589
▁པདྨ་	-2590
▁ཡང་ན་	-2591
སྲོང་	-2592
བས༔	-2593
ླ་ན་མེད་པ་	-2594
རྡོ་རྗེ་འཆང་	-2595
སུ་བཅད་	-2596
ཾ༔	-2597
མྱི	-2598
ལྡན་གྱི་	-2599
ུམ་པའི་	-2600
ཙམ་གྱིས་	-2601
མི་དམིགས་	-2602
འགྱ	-2603
ཐིག་ལ	-2604
ཐོབ།	-2605
མཛད་པ།	-2606
ཕྲན་	-2607
སྐལ་པ་	-2608
▁།དུས་	-2609
དྲུག་གི་	-2610
རང་བྱུང་	-2611
ྱས་པའི་	-2612
ལ་དམིགས་	-2613
འབར་བ་	-2614
ཀྱ་	-2615
▁།དེ་དག་	-2616
ལྷོ་	-2617
འཇུག་པའི་	-2618
སྒོ་བ	-2619
ེགས།	-2620
▁ལ་	-2621
ེའོ།	-2622
▁ཤེས་	-2623
གཟི	-2624
ངེས་པ་	-2625
ྱང་ཆུབ་ཀྱི་སེམས་	-2626
རྣམས་སུ་	-2627
▁གོང་	-2628
▁།བྱ	-2629
སྐུ་བ	-2630
རིག་བ	-2631
ངྒ	-2632
གང་གི་	-2633
ཞེས་གསུངས་	-2634
འདི་ཉིད་	-2635
མེ་ལོང་	-2636
▁།ཡེ་ཤེས་	-2637
ང་བ།	-2638
ཞེས།	-2639
སྔར་བ	-2640
རིགས་ཀྱི་	-2641
▁ཚིག་	-2642
▁རྫོགས་	-2643
ཟུང་བ	-2644
པར་བསམ་	-2645
འདུས་བྱས་	-2646
སྐུ།	-2647
ྲམ་ཟེ་	-2648
ྱིན་གྱིས་བརླབ་	-2649
ཌཱ་	-2650
འཆར་	-2651
▁གྲ	-2652
འཇུག་པ་	-2653
▁རྗེ་	-2654
སྒྲུབ་བྱ་	-2655
པ་རྣམས་ཀྱིས་	-2656
▁།སེམས་ཅན་	-2657
▁ལུང་	-2658
ཚུར་	-2659
འཁྱི	-2660
སྟོང་ཉིད་	-2661
ཁུ་	-2662
མེད་པ།	-2663
ཁར་	-2664
མང་དུ་	-2665
རྣལ་འབྱོར་བ	-2666
ལ་ར	-2667
▁༄༅།	-2668
ཀྱང་མི་	-2669
གྲགས་པ་	-2670
▁།ཀུན་	-2671
འབའ་ཞིག་	-2672
▁དེའི་ཚེ་	-2673
མནན་	-2674
གསན་	-2675
▁དབང་བ	-2676
▁ཡང་དག་	-2677
▁0-	-2678
འདུལ་བ་	-2679
མ་སྐྱེས་	-2680
དག་ཅག་	-2681
ཉོན་མོངས་པ་	-2682
▁།དེ་ཡང་	-2683
ཡིད་བཞིན་	-2684
▁།འཇིག་རྟེན་	-2685
▁ས་མ་	-2686
▁མད	-2687
མཛད་པ་	-2688
ཐོབ་པ་	-2689
གདོད་	-2690
འུ་	-2691
▁དགྲ་བ	-2692
མི་དགོས་	-2693
▁ཉན་ཐོས་	-2694
ངོ་མཚར་	-2695
▁ནུབ་	-2696
སྐྱེད།	-2697
གཏུམ་	-2698
▁སྦྱིན་	-2699
ཇི་བཞིན་	-2700
རིག་འཛིན་	-2701
ཕེབས་	-2702
སྐོར་བ་	-2703
གུར་	-2704
ཕན་ཡོན་	-2705
ལས༔	-2706
ཆོས་ཅན་	-2707
ཆས་	-2708
ས་མ་ཡ་	-2709
རྫུ་འཕྲུལ་	-2710
པོས་བ	-2711
ལུ་	-2712
ཚིག་བ	-2713
ངོར་	-2714
གང་།	-2715
ཅི་བ	-2716
ཞེས་བྱ་བ་ནི་	-2717
▁/	-2718
▁དེ་ལྟར་བ	-2719
པར་གྱུར།	-2720
ར་དུ་བ	-2721
ྱེད་བ	-2722
རྒྱུར་	-2723
འོང་བ་	-2724
▁༼༡	-2725
ྱེ་བ་	-2726
ོམ་བ	-2727
པ།་	-2728
ཉེ་བ	-2729
▁¡·	-2730
དབུགས་	-2731
གང་དུ་	-2732
དང་༔	-2733
▁སྲོག་	-2734
ཡིད་ཀྱི་	-2735
▁འདི་ལ་	-2736
ལྷ་བ	-2737
▁རིགས་ཀྱི་བུ་	-2738
པ་ཆེན་པོ་	-2739
ཡང་དག་པར་རྫོགས་	-2740
▁རྗེ་བཙུན་	-2741
ཕམ་	-2742
ཞེས་བརྗོད་	-2743
▁དེའང་	-2744
ངོ་བོར་	-2745
འབུལ།	-2746
དམ་པའི་	-2747
དབང་དུ་	-2748
▁བསམ་	-2749
ཙམ་བ	-2750
རིགས་བ	-2751
སོང་བ་	-2752
སྤུ་	-2753
འདུས་པའི་	-2754
མཚན་བ	-2755
ང་བ་བ	-2756
གཡོ་	-2757
རང་ཉིད་	-2758
ྱིན་གྱིས་རློ	-2759
▁འཕགས་པ་	-2760
▁བཙུན་	-2761
ཟློས་	-2762
ཡིན་པས།	-2763
པས་ན་	-2764
ཤེས་གཉེན་	-2765
མོད།	-2766
འབྱུང་གནས་	-2767
རྒྱའི་	-2768
སྨྲ་	-2769
མེད་དེ།	-2770
སུ་གསོལ།	-2771
རླུང་གི་	-2772
ལམ་དུ་	-2773
པ་རྣམས་ལ་	-2774
པས༔	-2775
ོ་བར་	-2776
ཆང་	-2777
རཱ་	-2778
དུ༔	-2779
ཙིཏ	-2780
སྤྱན་རས་	-2781
▁།ས་	-2782
མི་སྲིད་	-2783
ལྟ་བའི་	-2784
འོ༔	-2785
ཏཱ་	-2786
སྲི	-2787
▁བསམ་གཏན་	-2788
མི་ཤེས་	-2789
▁མཛ	-2790
སྐྱོད་	-2791
▁འདི་ལྟར་	-2792
གཏམ་	-2793
རྣམ་པར་ཤེས་པ་	-2794
དབབ་	-2795
ཙཱ	-2796
མཆི	-2797
དམག་	-2798
གཏི་	-2799
ེད༔	-2800
དཔག་མེད་	-2801
གདམས་ངག་	-2802
▁སངས་	-2803
ཐུགས་ཀར་	-2804
▁།གཉིས་པ་ནི།	-2805
སྦྲུལ་	-2806
ལུས་ལ་	-2807
ཆགས་པ་	-2808
ཡོ་བྱད་	-2809
ཤད་པའི་	-2810
མཐའ་བ	-2811
ཁྱད་པར་ཅན་	-2812
▁དུ	-2813
ཱུ	-2814
▁ཨེ་	-2815
མཇུག་	-2816
▁ཤིང་	-2817
གཟི་བ	-2818
ཟོད་པ་	-2819
དཔལ་བ	-2820
▁སྣ་	-2821
གསུངས་པ་	-2822
▁ཤིན་ཏུ་	-2823
སྟན་ཏོ།	-2824
དང་བྲལ་བའི་	-2825
ཱཾ་	-2826
སྐྲ་	-2827
གམ་	-2828
▁།གསུམ་པ་	-2829
▁ནད་	-2830
▁རི་	-2831
ཡུལ་དུ་	-2832
ར་བྱ་	-2833
▁སྡུག་བསྔལ་	-2834
རྒྱུ་བ	-2835
▁དཀ	-2836
ཐ་མ་	-2837
▁།སེམས་	-2838
དོན།	-2839
སིདྡྷི་	-2840
སྐལ་ལྡན་	-2841
▁ཏིང་ངེ་འཛིན་	-2842
སྒྲོ་	-2843
ཁྱོད་ཀྱི་	-2844
ཎྜི་	-2845
སྤྱི་བོར་	-2846
ཉམས་ལེན་	-2847
དག་དང་	-2848
གནས་ལུགས་	-2849
▁བདེན་	-2850
ཅུ་གཅིག་	-2851
ཎི་	-2852
ངན་སོང་	-2853
▁ཚད་	-2854
40	-2855
རྩོམ་	-2856
སྐྱོབ་	-2857
སྤོང་བ་	-2858
པ་བྱས་	-2859
མཐོང་།	-2860
འཕྱ	-2861
ཞིབ་	-2862
ཚོགས་ཀྱི་	-2863
▁མཐར་	-2864
ནམ།	-2865
ཏྲི་	-2866
པར་བྱ་སྟེ།	-2867
▁འོག་	-2868
100003	-2869
▁།དོན་	-2870
ཏྲ་	-2871
ཅེས་བྱ་བ་	-2872
ོ་བརྒྱད་	-2873
▁ཡོན་ཏན་	-2874
འབེབས་	-2875
གཙོ་བོར་	-2876
མ་ཡིན་པ་	-2877
གོ་འཕང་	-2878
གཉེར་	-2879
དཀྱིལ་འཁོར་བ	-2880
གང་ལ་	-2881
དམ་བཅ	-2882
དུ་ཕྱིན་	-2883
གསུམ་པ་	-2884
ཕྱིའི་	-2885
ཉེར་བ	-2886
དྲིས་	-2887
མདོ་སྡེ་	-2888
འཆི་མེད་	-2889
དབྱིབས་	-2890
▁སྤྱི་	-2891
▁གཞུང་	-2892
དོ་ཞེས་	-2893
▁སྤྱིར་	-2894
དེ་བཞིན་ཉིད་	-2895
སྟངས་	-2896
རྒྱད་བ	-2897
་རི་	-2898
མཚོན་བ	-2899
ཤྲཱི་	-2900
10000240	-2901
ཞུ་བ་	-2902
ྱེད་དོ།	-2903
▁མཚན་ཉིད་	-2904
གཏི་མུག་	-2905
གཞི་བ	-2906
སོ་ཞེས་	-2907
སེང་གེ་	-2908
འཐུང་	-2909
▁རིན་ཆེན་	-2910
▁དབུས་	-2911
སླད་དུ་	-2912
རྒྱན།	-2913
ཀྱིས་བཀའ་སྩལ་པ།	-2914
▁ཡུམ་	-2915
རྡོ་རྗེ་བ	-2916
མོར་	-2917
ལས་མི་	-2918
ཡོད་པས་	-2919
ཀཱི་	-2920
ཞིང་ཁམས་	-2921
▁མུ་	-2922
པར་མི་བ	-2923
ལ་མཁས་	-2924
་ལ	-2925
དང་པོའི་	-2926
སེམས་ཅན་ཐམས་ཅད་	-2927
ཧྲ	-2928
ཚིགས་སུ་བཅད་	-2929
རིམ་གྱིས་	-2930
མདངས་	-2931
མངའ་བ	-2932
འདྲ།	-2933
ཧཱུྃ་བ	-2934
དང་མཉམ་	-2935
གཉེན་པོ་	-2936
ུདྡྷ	-2937
སྤྱིའི་	-2938
དྲན་པ་	-2939
སྤེལ་	-2940
གསོལ་བ་བཏབ་	-2941
སྟོབས་ཀྱིས་	-2942
སྐར་	-2943
པ་བཞིན་ནོ།	-2944
ཟངས་	-2945
དེ་དག་གི་	-2946
རྣམ་པ་བ	-2947
སེམས།	-2948
གཟུགས་བརྙན་	-2949
རང་ལ་	-2950
ཞི་པོ་	-2951
ར་ད	-2952
▁བཅོམ་ལྡན་	-2953
ཨ་མ	-2954
དམྱིགས་	-2955
འཇའ་	-2956
▁མེ་ཏོག་	-2957
བསྟན་	-2958
འཕགས་པའི་	-2959
ཆེད་དུ་	-2960
བཅད་	-2961
▁གཞི་	-2962
ཞེས་སོགས་	-2963
ཆག་	-2964
མཆོད་པའི་	-2965
10000300	-2966
▁ཐེག་པ་	-2967
དེང་	-2968
མཆོག་བ	-2969
ལས་བྱུང་བ་	-2970
▁གང་གི་	-2971
ཧཱུྂ	-2972
པའི་སེམས་	-2973
ཟུང་བ་	-2974
སྐྱིལ་	-2975
དྲག་པོ་	-2976
ཐུགས་དམ་བ	-2977
ུངས།	-2978
▁མག	-2979
ུཏ	-2980
འཁོར་འདས་	-2981
གཟུགས་ཀྱི་	-2982
ྱིས་	-2983
མདུན་དུ་	-2984
▁སྔ་	-2985
འཁོར་བཅས་	-2986
ཐུང་	-2987
ཐིམ།	-2988
▁ལུས་ཀྱི་	-2989
ཐོག་མར་	-2990
པ་ཉིད་དུ་	-2991
རྟུལ་ཞུགས་	-2992
ཀྲོ་	-2993
མཆོད་རྟེན་	-2994
རྒྱ༔	-2995
སལ་	-2996
▁།ཞེས་དང་།	-2997
མོས་པ་	-2998
གྲོལ་བ་	-2999
▁བདེ་བ་	-3000
ཡུལ་གྱི་	-3001
རྒྱས་པར་བཤད་	-3002
ཐུགས་ཀྱི་	-3003
▁ཀྱེ་	-3004
གང་ཞིག་	-3005
སྲུང་བ་	-3006
གསོལ་བ་འདེབས་	-3007
གསོ་	-3008
ཕྱི་ནང་	-3009
འགོད་	-3010
འཕྲོ་	-3011
ཏན་བ	-3012
རྒྱུ་འབྲས་	-3013
ཕྲད་	-3014
མེའི་	-3015
རཀ	-3016
པ་དེ་ནི་	-3017
འཚང་	-3018
གནས་ཀྱི་	-3019
▁།ཇི་ལྟར་	-3020
སྙིང་པོའི་	-3021
ལ་ལྟོས་	-3022
མཚན།	-3023
▁ནི།	-3024
ལྷན་སྐྱེས་	-3025
གོང་མ་	-3026
མེད་ཅིང་	-3027
སྔོན་གྱི་	-3028
▁མདུན་	-3029
ཤད་པ་	-3030
དེ་གཤེགས་	-3031
དགྲ་བགེགས་	-3032
ནྡྷ	-3033
སྟབས་	-3034
ུཥ	-3035
རྣམས་དང་	-3036
སྐྱེད་རིམ་	-3037
དག་ཀྱང་	-3038
▁ཁྱི	-3039
ཉམས་སུ་ལེན་	-3040
རེས་	-3041
ཤཱཀྱ་	-3042
སྐྱེས་པ་	-3043
▁གསང་	-3044
▁དགེ་འདུན་	-3045
སྦྱོར་བའི་	-3046
གྲུབ།	-3047
▁གསུང་	-3048
པར་མ་	-3049
▁གང་ཟག་	-3050
གཙུག་ལག་	-3051
འདུག	-3052
ངེས་པའི་	-3053
་བྷཱ་	-3054
མཐོང་ངོ་།	-3055
མངོན་སུམ་དུ་	-3056
འདྲའི་	-3057
▁¡¶	-3058
▁གཡ	-3059
ཤེས་པར་བྱའོ།	-3060
ལགས་སོ།	-3061
ཆོས་ཀྱི་དབྱིངས་	-3062
ལས་ནི་	-3063
ཤོག་	-3064
འདོད།	-3065
སྡུག་བསྔ	-3066
པའི་བློ་	-3067
རློམ་	-3068
གཉིས་ལ་	-3069
ལུགས་ཀྱི་	-3070
འཆི་བ་	-3071
▁སྨྲ	-3072
དྲིལ་	-3073
པའི་རྐྱེན་	-3074
རྣམས་ཀྱིས་བ	-3075
དགོན་	-3076
▁།རྣམ་	-3077
ཡི་གེ་བ	-3078
ནང་ནས་	-3079
ལའོ།	-3080
མངོན་པར་བ	-3081
དཀྲ	-3082
ཞག་བ	-3083
▁ཞེས་དང་།	-3084
ོའོ།	-3085
▁དབང་པོ་	-3086
དངོས་གྲུབ་སྩ	-3087
འབྲེལ་བ་	-3088
རྩི་	-3089
▁ཁ་ཅིག་	-3090
པ་བཞིན་དུ་	-3091
ས་སྐྱ་	-3092
པར་གྱུར་ཅིག	-3093
འཛིན་པ།	-3094
▁ཐེག་	-3095
▁དང་།	-3096
▁དྲུག་	-3097
་བཞིན་དུ་	-3098
རྙིང་	-3099
▁སྐྱེ་	-3100
▁མ་བ	-3101
▁ཕྱོགས་བ	-3102
རྣམས༔	-3103
དཔྱོད་	-3104
མ་ཡིན་པར་	-3105
ཏྣ་	-3106
ནའང་	-3107
སྒོམ་པའི་	-3108
རྩེ་མོ་	-3109
པའོ་	-3110
གྱི་དོན་	-3111
ེམས་	-3112
ཞེས་བྱ་བ	-3113
དང་མཚུངས་	-3114
པ་ཡིན་ཏེ	-3115
▁བུམ་	-3116
སྭཱ་ཧཱ༔	-3117
▁ས་བ	-3118
▁༣	-3119
ལས་ཀྱང་	-3120
ངོ་སྤྲ	-3121
གནོད་སྦྱིན་	-3122
སརྦ་ཏ་ཐཱ་ག་	-3123
མ་འོངས་	-3124
རང་གིས་	-3125
ཆོས་རྣམས་	-3126
ཀུ་རུ་	-3127
▁བློ་	-3128
གྱུར་པ།	-3129
ནཱི་	-3130
སོ།།	-3131
རྡོ་	-3132
ལྟུང་	-3133
རྩོད་པ་	-3134
▁རིམ་	-3135
འཐོབ་	-3136
པའི་ཚུལ་གྱིས་	-3137
གྲང་	-3138
ཐམས་ཅད་ཀྱང་	-3139
▁དཔའ	-3140
མཁའ་འགྲོའི་	-3141
གསར་	-3142
དངོས་གཞི་	-3143
▁།ཨོཾ་	-3144
▁ངག་	-3145
གྱེན་	-3146
▁རྡོ་རྗེའི་	-3147
▁ལེགས་	-3148
ཚོགས།	-3149
སྲེད་	-3150
སྒོམ་བ	-3151
ཆེ་བའི་	-3152
པར་བྱེད་པ་	-3153
༤༽	-3154
ནི་མི་	-3155
༢༽	-3156
▁བདག་གི་	-3157
རྒོད་	-3158
གཞི	-3159
▁ཤར་	-3160
གསུངས་པའི་	-3161
▁།འོ་ན་	-3162
མཛོད༔	-3163
སྦྱོང་བ	-3164
▁སངས་རྒྱས་བ	-3165
དེ་བས་	-3166
ཀྵ་	-3167
▁དཀར་	-3168
▁།ལུས་	-3169
▁སྒྲུབ་	-3170
སླར་	-3171
▁གྲུབ་	-3172
ར་བྱེད།	-3173
ལས་མ་	-3174
▁དོན་དམ་	-3175
མྱི་བ	-3176
ཁམས་གསུམ་	-3177
ོས་པ་	-3178
དགྲ་བཅོམ་པ་	-3179
དྲེགས་	-3180
སྟོད་པ་	-3181
རབ་འབྱམས་	-3182
ཟློག༔	-3183
པའི་ཡེ་ཤེས་	-3184
ཡུན་རིང་	-3185
▁གདུ	-3186
མིའི་	-3187
ངག་ཡིད་	-3188
▁སྟོང་པའི་ངང་	-3189
ར་བྱ་བ་	-3190
སྟན་པའོ།	-3191
སྤྱོད་ཡུལ་	-3192
སྒྱུར་བ་	-3193
ལན་གསུམ་	-3194
ཁྱབ་པ་	-3195
འདུས་མ་བྱས་	-3196
▁དགེ་བ	-3197
▁ལྷོ་	-3198
གྱིའོ།	-3199
ཊ་	-3200
སྡུ་བ་	-3201
ོབས་	-3202
ལ་སོགས་པ་བ	-3203
▁།བླ་མ་	-3204
ཚུལ།	-3205
ཉེས་བྱས་	-3206
ཕྱིར་དང་།	-3207
སོང་བ	-3208
རྣམ་གཞག་	-3209
གསུམ་ལས།	-3210
སྡུ་བ	-3211
དྲོད་	-3212
▁།འདིར་	-3213
▁གནོད་	-3214
རུ།	-3215
ེའུ་བ	-3216
སུན་	-3217
ཡིས༔	-3218
ལོན་	-3219
ལྷུན་གྱིས་	-3220
མྱེད་པ་	-3221
▁ལྷག་	-3222
▁སྒྱ	-3223
ལེགས་པར་བ	-3224
མྱོང་བ་	-3225
ལ་སོགས་པས་	-3226
གཟུང་བ	-3227
▁རྣ	-3228
འཕེན་	-3229
ཕར་	-3230
▁མངོན་པར་	-3231
▁སྐབས་	-3232
▁བདག་ཉིད་	-3233
ཉེན་	-3234
སྤྱན་རས་གཟིགས་	-3235
སྭཱ	-3236
རྩོད་	-3237
ྱིངས་	-3238
ལྕེ་	-3239
▁ཨཱ	-3240
འབྱུང་ངོ་།	-3241
ཀུན་དགའ་	-3242
རང་རིག་	-3243
▁བྷ	-3244
ཀུན་དགའ་བ	-3245
གཞན་ཡང་	-3246
ོས་པའི་	-3247
འདའ་བ	-3248
ཚུགས་	-3249
▁དབུ་	-3250
སྟ་	-3251
ྱིན།	-3252
གང་དག་	-3253
▁རང་ཉིད་	-3254
འཇམ་དབྱངས་	-3255
ཥྛ	-3256
▁།དེ་ཡི་	-3257
ཆོས་སྐུ་	-3258
▁དྲག་	-3259
རྙེས་	-3260
▁ལག་	-3261
▁།དང་པོ་ལ་	-3262
་བཞི་	-3263
ནགས་	-3264
▁མ་ཧཱ་	-3265
▁འདོད་ཆགས་	-3266
དྲུང་དུ་	-3267
ཡིས་བ	-3268
མ་བདག་	-3269
▁དེའི་ཕྱིར་	-3270
དབང་།	-3271
འོད་ཀྱི་	-3272
སྤྲུལ་པ་	-3273
▁མཉམ་	-3274
▁སུ་	-3275
ཡན་ཆད་	-3276
མཐར།	-3277
ཡོངས་རྫོགས་	-3278
འགྲོ།	-3279
▁སླར་ཡང་	-3280
ཀུར་	-3281
ཐོབ་བ	-3282
ཡུ	-3283
གནང་བ་	-3284
རྗེས་སུ་བ	-3285
པའི་ལས་	-3286
སྟན་པ་དང་།	-3287
ཆོས་ལ་	-3288
ཀུན་ཏུ་བ	-3289
▁རྐང་	-3290
▁ཚུལ་ཁྲིམས་	-3291
སྦས་	-3292
འདེབས།	-3293
ཕྱག་རྒྱ་ཆེན་པོ་	-3294
ཁྱོད་ལ་	-3295
ཕྱག་གཉིས་	-3296
ྲཱུ	-3297
སྲུང་བའི་	-3298
ཐད་	-3299
པོའོ།	-3300
..	-3301
ཁུང་	-3302
ཤད་དོ།	-3303
ཚི	-3304
▁ཚངས་	-3305
འཛིན་གྱི་	-3306
ཐར་པའི་	-3307
ེར།	-3308
གདུལ་བྱ་	-3309
སོགས་ཀྱིས་	-3310
དཔག་ཏུ་མེད་པ་	-3311
རིགས་ཀྱི་བུ་	-3312
▁དེ་དག་གི་	-3313
ཉེ་བའི་	-3314
འགྱུར་རོ་	-3315
གཉིས་པོ་	-3316
▁གསང་སྔགས་	-3317
༡༽	-3318
▁<	-3319
ར་བྱེད་པ་	-3320
སྤྲོ་	-3321
གཤེད་	-3322
དམ།	-3323
ཐུགས་ཀ་	-3324
▁བྱང་ཆུབ་ཀྱི་	-3325
▁ཇི་སྐད་དུ།	-3326
▁ཙ	-3327
གཉན་	-3328
ར་བར་	-3329
ཅོ་བརྒྱད་	-3330
ཤེས་པས་	-3331
▁འཇམ་དཔལ་	-3332
▁འགྲོ་	-3333
ཉུང་	-3334
▁་་་་	-3335
གཉིས་མེད་	-3336
ཕུག་	-3337
རྒྱད།	-3338
ཧཱ།	-3339
ཆུའི་	-3340
དབང་བསྐུར་བ་	-3341
སྲེགས་	-3342
ུ་གུ་	-3343
▁ཞེས་པ་	-3344
ལས་བྱུང་བ	-3345
དེ་ནས་	-3346
གྲོལ་བ	-3347
མེད་པར་བ	-3348
ས་ལ་	-3349
ཱ་ཡ་	-3350
ཱ་རི	-3351
ིངས་	-3352
དང་མ་	-3353
ཉི་ཤུ་རྩ་	-3354
ཉེ་བར་བ	-3355
གཞོན་ནུ་	-3356
ཚུལ་གྱིས་	-3357
པ་མེད་པར་	-3358
ཟང་པོའི་	-3359
▁སྟོང་པ་ཉིད་	-3360
པ་ཡིས།	-3361
གལ་ཏེ་	-3362
▁མཚམས་	-3363
ཧཱུྃ་ཕཊ།	-3364
ཕྱག་འཚལ་	-3365
གྲགས་པའི་	-3366
ླུགས་	-3367
གཞོན་ན	-3368
▁;	-3369
▁རྒ	-3370
ཕལ་ཆེར་	-3371
པཱུ་	-3372
▁རྟོག་	-3373
རྒྷ	-3374
འདྲེ་	-3375
▁ཀླུ་	-3376
▁བསྙེན་	-3377
ཟླུམ་	-3378
▁དྲན་	-3379
ལྔ་པོ་	-3380
སུམ་ཅུ་	-3381
ར་བྱ་བའི་	-3382
འཁྱུད་	-3383
ྱས་པས་	-3384
མཿ	-3385
སུམ་ཅུ་རྩ་	-3386
མཐོང་བར་	-3387
དྷི་	-3388
▁འོན་ཀྱང་	-3389
པ་ཅན་	-3390
▁བྱམས་	-3391
ལ་དུ་	-3392
ཁྲོ་བོ་	-3393
འཁོར་གྱི་	-3394
ཕྱག་འཚལ་ལོ།	-3395
སྡུས་པའི་	-3396
མུ་སྟེགས་	-3397
ོར་བའི་	-3398
ཐོད་པ་	-3399
པོ་དང་།	-3400
དེན་པར་	-3401
གོང་དུ་	-3402
ཅས་བ	-3403
ལུས་བ	-3404
དང་པོར་	-3405
པ་ཉིད་ཀྱི་	-3406
གསོལ་པ།	-3407
ཐུགས་དམ་བསྐ	-3408
༣༽	-3409
ལ་གྱི་	-3410
སྲིད་པ་	-3411
༩༽	-3412
ག༔	-3413
སྲོལ་	-3414
▁སྡིག་	-3415
ནས་ཀྱང་	-3416
ལོ་ཙཱ	-3417
ློ་བ	-3418
▁བཤད་	-3419
ལས་འོད་ཟེར་	-3420
འཕྲོས།	-3421
སྣམས་	-3422
དག་གིས་བ	-3423
ཞུགས་པ་	-3424
རུ་བ	-3425
▁སྒོ་	-3426
འཕྲོག་	-3427
ཆ་བ	-3428
ཛྙཱ་ན་	-3429
▁བོད་	-3430
གྱ	-3431
འགལ་བའི་	-3432
སྦྱངས།	-3433
ོར༔	-3434
ཟའ་	-3435
གནམ་	-3436
ཅེ་ན།	-3437
སྐོར།	-3438
དེའི་ཚེ་	-3439
དུའང་	-3440
དེ་རྣམས་	-3441
མ་རིག་	-3442
གསུང་རབ་	-3443
▁ལོངས་	-3444
ོས༔	-3445
ལོག་པར་	-3446
▁བཞི་པ་	-3447
▁བསོད་ནམས་	-3448
དེ་བར་གཤེགས་	-3449
▁སྡོམ་	-3450
དང་ལྷན་ཅིག་	-3451
ཅེས་བ	-3452
▁མཐའ་	-3453
▁རོ་	-3454
འང་བ	-3455
ཨུ་	-3456
▁མགྲིན་	-3457
▁མར་	-3458
▁དེ་ཡི་	-3459
དྲུག	-3460
▁ཕྱི་རོལ་	-3461
ཟླའི་	-3462
སྤང་བྱ་	-3463
སྒྲུབ་ཀྱི་	-3464
།་	-3465
མངོན་དུ་	-3466
▁སྐྱེ་བ་	-3467
ཙྪ་	-3468
སྒོ་ནས་བ	-3469
ྱས་པ་	-3470
ཞིན་ནོ།	-3471
ཕཊ་	-3472
ཆེན་པོ།	-3473
རུང་།	-3474
ཏང་སྙོམས་	-3475
པའི་ལྷ་	-3476
ྱུང་ན་	-3477
སོ་སོར་བ	-3478
ཐོན་	-3479
པས་ཀྱང་	-3480
ཾ་ལས་	-3481
▁ཀ་	-3482
ཁྱད་པར་དུ་	-3483
▁ཚེ་དང་ལྡན་པ་	-3484
འཁྱ	-3485
ྲན་	-3486
རྻ	-3487
༼༡	-3488
ཚེས་	-3489
གཤིན་རྗེ་	-3490
གུང་	-3491
▁བདུད་	-3492
པ་འདི་ལ་	-3493
དབང་པོའི་	-3494
ཇི་སྲིད་	-3495
སྲུངས་	-3496
གསུམ་དང་།	-3497
པ་ཡིན་པས་	-3498
དེ་ཡི་	-3499
༥༽	-3500
ུ་བཞི་	-3501
GE	-3502
ཀྱི་བར་	-3503
▁།དམ་	-3504
ཙམ་གྱི་	-3505
དགའ་བའི་	-3506
དང་ཆོས་	-3507
ཁྲུས་	-3508
ཞེས་བྱ་བ་བ	-3509
ལན་བ	-3510
འདས་བ	-3511
ལག་པ་	-3512
ཤིན་ཏུ་བ	-3513
▁གུ་	-3514
ཐམས་ཅད་ཀྱིས་	-3515
པས་ནི་	-3516
ཟེར་རོ།	-3517
▁།ཚེ་	-3518
ཤེས་བ	-3519
དགག་པ་	-3520
གཞལ་ཡས་ཁང་	-3521
▁འདིའི་	-3522
དྲུག་བ	-3523
ཕྱིན་ཅི་ལོག་	-3524
ོངས།	-3525
མྱེད་དོ།	-3526
སྤོང་བ	-3527
▁བྱ་	-3528
▁།གནས་	-3529
ཤེལ་	-3530
གདུགས་	-3531
▁ཡན་ལག་	-3532
ཡིད་ཆེས་	-3533
▁སྣང་བ་	-3534
▁=	-3535
ཡིན་པའི་ཕྱིར་རོ།	-3536
སྐད་བ	-3537
ཞུ།	-3538
པར་བཞག་	-3539
སྤྲོས་པ་	-3540
གོང་བ	-3541
སྙམ་ན།	-3542
ཉི་ཟླ་	-3543
▁།ཞེས་གསུངས་སོ།	-3544
འདུད།	-3545
ཚད་མས་	-3546
༦༽	-3547
པའི་རྒྱུ་	-3548
གཡང་	-3549
རྒྱད་ཀྱི་	-3550
ཆེན་མོ་	-3551
▁ལས་ཀྱི་	-3552
ཤམས་	-3553
པྲ	-3554
ཙིཏྟ་	-3555
རང་རང་གི་	-3556
ཟག་མེད་	-3557
༧༽	-3558
ཚུལ་དུ་	-3559
སིལ་	-3560
ཀྱི་བར་དུ་	-3561
▁།རྣལ་འབྱོར་	-3562
▁ཀླ	-3563
པཎ་	-3564
སྙེན་བ	-3565
ཡུག་	-3566
ཁོ་ནར་	-3567
ལ་ཐིམ་	-3568
ཱ།	-3569
ཅི་ཡང་	-3570
དྲི་མེད་	-3571
མར་མེ་	-3572
ྱུགས་	-3573
ལྷུང་བ	-3574
▁སྨན་	-3575
ཀྱུ་	-3576
ྱེད་དུ་	-3577
གསུམ་དང་	-3578
ཁང་བ	-3579
༨༽	-3580
པའི་བདེན་	-3581
༠༽	-3582
ན་རེ།	-3583
ལྟེ་བར་	-3584
ཤོས་	-3585
ཀྲུང་	-3586
▁ཉམས་	-3587
དུས་བ	-3588
རྣམ་པར་དག་པ་	-3589
▁ཞེས་བརྗོད་	-3590
▁མཆོག་	-3591
ཕྱག་ན་	-3592
གླུ་	-3593
དུན་པ་	-3594
སྨྲ་བའི་	-3595
ཧྲཱི༔	-3596
གཞན་གྱིས་	-3597
འགྱུར་ཏེ	-3598
དབྱིངས་སུ་	-3599
གངས་	-3600
ཡི༔	-3601
ོ་བུར་	-3602
ཞེ་ན་	-3603
ལམ།	-3604
ཡོན་ཏན་བ	-3605
ཅོད་	-3606
སྒྲོག་	-3607
པ་ལ་སོགས་པའི་	-3608
རྩོལ་	-3609
སུམ་བ	-3610
འབུལ༔	-3611
▁མིང་	-3612
སུ་གསོལ༔	-3613
ཤམ་	-3614
ག་བཅས་	-3615
▁།ཞེས་སོགས་	-3616
▁བཀའ་	-3617
རྣམ་པར་རྟོག་	-3618
སྐད་དུ་	-3619
ཞལ་གཅིག་	-3620
ཞི་བར་	-3621
ཞལ་བ	-3622
གཅོད་པ་	-3623
དབུ་མའི་	-3624
དྲག་པོའི་	-3625
ུལ་བའི་	-3626
ོ་རྒྱན་	-3627
ཅི་རིགས་	-3628
ཡིན་ན།	-3629
མཐོང་ལམ་	-3630
ོད་བཅུད་	-3631
ཡིན་པ་	-3632
རྡོ་རྗེ།	-3633
རྩིས་	-3634
▁སྔར་	-3635
མ་བསྟན་	-3636
སྟོབས་བ	-3637
ཆད་བ	-3638
རྡོ་རྗེས་	-3639
ནང་དུ་བ	-3640
▁.%-	-3641
གདགས་	-3642
པ་དེ་ལ་	-3643
ཐ་མལ་	-3644
པར་བསམ།	-3645
གཟི་བརྗིད་	-3646
ཧི་	-3647
▁།ད་	-3648
པ་བྱེད་	-3649
པས་མི་	-3650
འབྲི་	-3651
▁མི་བ	-3652
རྟག་པར་	-3653
ལུང་བསྟན་	-3654
སྔོ་བ་	-3655
སུ	-3656
ལྡོག་པ་	-3657
དན་	-3658
ཟུང་།	-3659
སོར་བ	-3660
ཟག་པ་	-3661
སྦྱིན་སྲེག་	-3662
རྣམ་པར་སྨིན་	-3663
▁ལྔ་	-3664
དྲི་བ	-3665
3-	-3666
▁ཞབས་	-3667
སེར་པོ་	-3668
ཅུ་གསུམ་	-3669
ཆོ་འཕྲུལ་	-3670
དེ་ལྟར་བ	-3671
▁སྤ	-3672
ཞགས་	-3673
གྲི་ག	-3674
ཀླུང་	-3675
ལ་ཕན་	-3676
ཅུ	-3677
ན་བཞུགས་	-3678
ལ་བ་བ	-3679
འདྲ་བའི་	-3680
དམིགས་པའི་	-3681
མེད་པ་ལ་	-3682
ན་ནི་	-3683
ངམ་	-3684
▁གསེར་	-3685
▁ཚུལ་	-3686
དགུའི་	-3687
དང་ནི།	-3688
▁མདོར་	-3689
ཁམས་ཀྱི་	-3690
▁ཟླ་བ་	-3691
རྣམས་ལ་བ	-3692
སྐུ་གསུམ་	-3693
རྗེས་སུ་འབྲ	-3694
རང་བཞིན་གྱི་	-3695
▁རབ་ཏུ་	-3696
ལྟེ་བ་	-3697
རྒྱུ་བ་	-3698
སྤྱི་བོ་	-3699
ོ་བོས་	-3700
ཀརྨ་	-3701
ཀུན་བཟང་	-3702
▁10000220	-3703
▁བསྟན་	-3704
དངོས་གྲུབ་བ	-3705
མཁས་པ་	-3706
རྣམ་སྨིན་	-3707
ཅུར་	-3708
▁།འདི་ནི་	-3709
སླར་ཡང་	-3710
▁འདས་	-3711
ཤར་བ་	-3712
▁ངེས་	-3713
པོ་ཆེའི་	-3714
རྣམ་པར་ཤེས་	-3715
རྔ་	-3716
▁ལྷའི་	-3717
འགྲེ	-3718
ཕྱུང་	-3719
▁རེག་	-3720
སོ༔	-3721
གཟུགས་ཅན་	-3722
▁ཨོཾ་ཨཱཿཧཱུྃ་	-3723
པ་དེ་ཉིད་	-3724
སྤྲོས་བྲལ་	-3725
▁ཡིད་ཀྱི་	-3726
▁་	-3727
ལའི་	-3728
སྐྱིད་	-3729
ཏེ༔	-3730
ཕྲིན་	-3731
▁འགྲོ་བ་	-3732
རུང་བའི་	-3733
འབྲེལ་བའི་	-3734
དབང་ཐོབ་	-3735
རལ་གྲི་	-3736
ཕྱིར༔	-3737
གྲོད་	-3738
▁སྟོང་པའི་ངང་ལས་	-3739
ཆུང་ངུ་	-3740
མཉན་	-3741
མཐོང་ནས་	-3742
ཟོས་	-3743
གཡོ་བ་	-3744
གདབ།	-3745
པ་བརྗོད་	-3746
ྡྷ་	-3747
གྲགས།	-3748
སྐལ་བ་	-3749
ྱས་ན་	-3750
དགེ་བའི་བ	-3751
ཡོང་	-3752
ཐོག་མ་	-3753
སྣང་བར་	-3754
འདི་ལྟ་སྟེ།	-3755
ི་ཤ	-3756
གཞན་བ	-3757
▁ཆོས་ཐམས་ཅད་	-3758
ལྔས་	-3759
ལྷག་པར་	-3760
ཡིད་ལ་	-3761
ློས་	-3762
ླང་བ	-3763
ེས༔	-3764
▁སྒོམ་	-3765
གཟའ་	-3766
འབུལ་བ་	-3767
མཐའི་	-3768
▁བདག་གིས་	-3769
ཁོང་དུ་	-3770
རམ་	-3771
འབྲུག་	-3772
རྒྱུན་མི་	-3773
མགྲ	-3774
དྲང་སྲོང་	-3775
▁མཁའ་འགྲོ་	-3776
ཟད་བ	-3777
སྦྱར།	-3778
མཐུན་པའི་	-3779
འགྱུར་བས་	-3780
ཞུ་བ	-3781
ཡེངས་	-3782
འཕྲིན་ལས་	-3783
རྒྷཾ་	-3784
དཀའ་བ་	-3785
ུད	-3786
ཡོ་	-3787
སྤྱན་འདྲེན་	-3788
ཏོར་	-3789
རེ་ར	-3790
མཎྜལ་	-3791
འཁོར་དང་བཅས་	-3792
སྟོང་པ་ཉིད་ཀྱི་	-3793
འགྱུར་བར་	-3794
གདངས་	-3795
མྱང་	-3796
▁ངོ་བོ་	-3797
མཐིལ་	-3798
མོད་ཀྱི།	-3799
པ་ལ་ནི་	-3800
གྲོལ་བའི་	-3801
ཕུར་བ	-3802
▁དཀོན་མཆོག་	-3803
ཐལ་མོ་	-3804
སྐྱེད་པ་	-3805
▁ཞི་	-3806
ཞིས་	-3807
སེང་གེའི་	-3808
སམ་བ	-3809
དགོད་	-3810
འདུལ་བའི་	-3811
མཱ་ར་	-3812
སྦྱིན་བ	-3813
པའི་སྐབས་	-3814
པཎྜི་	-3815
སྒྲ་བ	-3816
ཤེས་ཀྱི་	-3817
ཡིན་པའི་ཕྱིར་	-3818
▁།དེ་ཉིད་	-3819
རྒན་	-3820
ཆོས་དབྱིངས་	-3821
▁ཧ་	-3822
གྲྭ་	-3823
ྱ་སྟེ།	-3824
ཟེད་	-3825
ཡེ་ཤེས་བ	-3826
ུཏྤ	-3827
ཀ་བ	-3828
སྲིད་པའི་	-3829
▁དེང་	-3830
གསུང་གི་	-3831
ཡིག་བ	-3832
གཙུག་ལག་ཁང་	-3833
རྗེས་གནང་	-3834
མུ་ཁ	-3835
ཐར་པ་	-3836
འགྲུབ་པར་	-3837
རྩི	-3838
ག་གི་	-3839
མ་ཡིན་ཏེ	-3840
མེད་པའི་ཕྱིར།	-3841
▁གསང་བ་	-3842
ཐབས་བ	-3843
▁ཀུན་རྫོབ་	-3844
རྗེས་དཔག་	-3845
ར་དྭ་	-3846
ལྷ་དང་	-3847
སྟ་ག	-3848
▁བདག་ཅག་	-3849
ན༽	-3850
་རུ་	-3851
དྷཱ་	-3852
▁དངོས་གྲུབ་	-3853
▁འཇིགས་	-3854
▁སྐྱབས་	-3855
རྒྱད་པ་	-3856
ླ་མེད་	-3857
▁རྒྱལ་བ་	-3858
གཏོར་བ	-3859
མྱོང་བ	-3860
རགས་	-3861
ཧོ༔	-3862
ཟའ་བ	-3863
▁དེ་གཉིས་	-3864
རྣམས་ཀྱི་བ	-3865
ཆོས་སྐྱོང་	-3866
ཟོ་	-3867
མ་བཞག་	-3868
▁སྨོན་	-3869
ལྔར་	-3870
ཟུག་	-3871
གྱིས༔	-3872
▁།ལས་	-3873
ཚིམ་	-3874
ྲི་	-3875
ཏིཥྛ	-3876
འབྱུང་པོ་	-3877
ཚེ་དང་ལྡན་པ་	-3878
པ་བསྟན་	-3879
ཚོ་	-3880
ན་གནས་	-3881
དངོས་པོར་	-3882
སྦྱར་བའི་	-3883
▁།རིགས་	-3884
གཅིག་པུ་	-3885
▁པར་	-3886
ཟབ་མོའི་	-3887
▁ཡོངས་སུ་	-3888
སྲེས་	-3889
ཟེར་བ	-3890
▁་་་་་	-3891
སྟེང་དུ་བ	-3892
མ་འདྲེས་	-3893
ཡོད་དེ	-3894
མི་རྟོག་	-3895
གསང་བ	-3896
༵་	-3897
དེ་ཁོ་ན་ཉིད་	-3898
དོན་བྱེད་	-3899
གཏན་ལ་	-3900
དང་བྲལ་	-3901
ཆ་ཤས་	-3902
▁དུག་	-3903
པ་བཞིན།	-3904
ཞིན་དུ་བ	-3905
▁མྱ་ངན་	-3906
དགེ་བའི་རྩ་བ་	-3907
དངུལ་	-3908
ཚང་བ་	-3909
ཕྱི་མའི་	-3910
ཌཱ་ཀི་	-3911
འདུས་པ་	-3912
▁རྒྱས་	-3913
གནོད་བྱེད་	-3914
ཏིག་	-3915
རྒྱ་གར་	-3916
མེད་ཀྱང་	-3917
རྒྱས།	-3918
ཨི་	-3919
འོ།།	-3920
འོད་དུ་	-3921
ཟླ་བ	-3922
སེམས་སུ་	-3923
སྭཱཧཱ།	-3924
ངོས་བ	-3925
▁ཉིན་	-3926
རི་རབ་	-3927
རྗེས་བ	-3928
སྦོམ་	-3929
▁?	-3930
▁ཐུན་མོང་	-3931
མཛུབ་	-3932
དུ་གནས་	-3933
སྟེ༔	-3934
དེའང་	-3935
ཐེག་ཆེན་	-3936
སྤྱོད།	-3937
ལྷར་	-3938
ནས་བཟུང་	-3939
གསུངས་ཏེ།	-3940
སླབ་པ་	-3941
▁གང་ཞིག་	-3942
▁ཡང་དག་པར་	-3943
ལྟའི་	-3944
འཕོ་བ་	-3945
རང་མཚན་	-3946
ལན་གསུམ་བ	-3947
སྣང་།	-3948
འགྲོ་བར་	-3949
▁ཐིག་	-3950
ཛཿཧཱུྃ་བ	-3951
དེའི་བ	-3952
ཅན༔	-3953
སྐུ་དང་	-3954
ྱེད་པ།	-3955
རྒྱང་	-3956
པ་ལྟར་རོ།	-3957
▁ཞེས་སོགས་	-3958
རི་ཝ	-3959
▁ཡི་གེ་	-3960
སྟི་	-3961
ལྟར་ན་	-3962
ཕྱག་མཚན་	-3963
གཡོགས་	-3964
▁དེ་ལྟ་བུའི་	-3965
▁ཆགས་	-3966
ཐབས་ཀྱི་	-3967
སྣ་བ	-3968
ར་དྭ་ཏི	-3969
ི་བའི་	-3970
ཐུགས་དམ་	-3971
ཀོད་པའི་	-3972
▁ན་མོ་	-3973
པ་ལ་སྤྱོད་	-3974
རྟག་ཏུ་བ	-3975
ལྟ་ན་	-3976
འཕྲོས་པས་	-3977
སྟོན།	-3978
གི་དོན་	-3979
ཡིན་ནོ་	-3980
རྒྱུན་བ	-3981
ཆུང་བ	-3982
ཐུགས་ཀའི་	-3983
དྲངས།	-3984
▁སྐད་ཅིག་	-3985
ད་པ་	-3986
དུད་བ	-3987
▁འདུ་ཤེས་	-3988
ྲི	-3989
སྤྲོ་བ	-3990
སྒྲོ་འདོགས་	-3991
ཅིར་	-3992
དཔེར་ན་	-3993
▁འཁོར་བ་	-3994
སྦྱིན་པ་	-3995
ྈྈ	-3996
སྟེ།་	-3997
མཁན་པོ་	-3998
ཕུལ།	-3999
མདོར་	-4000
འཁོར་བར་	-4001
རྣལ་འབྱོར་མ་	-4002
གྱུར་ཏོ།	-4003
ལྐ	-4004
་བྷ་	-4005
འགུགས་	-4006
སྒོར་	-4007
ཕ་རོལ་དུ་ཕྱིན་	-4008
ཀྐ	-4009
པའི་སྒོ་ནས་	-4010
▁དྷ	-4011
སྣང་མཛད་	-4012
མྱུར་	-4013
དགས་	-4014
སེམས་ཀྱིས་	-4015
ཆུས་	-4016
ཐུར་	-4017
སྐམ་	-4018
▁།རྒྱུ་	-4019
དུས་ལ་བ	-4020
གསོལ་ཏོ།	-4021
མེས་	-4022
སྐྱེ།	-4023
དུས་གསུམ་	-4024
སཏ	-4025
ལི	-4026
ཱ་ཡ།	-4027
སྒོམས་པས་	-4028
སྤྲུལ་སྐུ་	-4029
མྦྷ་	-4030
ུདྡྷ་	-4031
ཅོམ་ལྡན་འདས་ལ་	-4032
རྟོགས་པར་	-4033
ྱ་བ་བ	-4034
ལ་བར་བ	-4035
▁ཕྱི་ནང་	-4036
སྤྱི་བོར་བ	-4037
▁༤	-4038
གྲོ་	-4039
སརྦ་ཏ་ཐཱ་ག་ཏ་	-4040
གྱི་བ་	-4041
རཏྣ་	-4042
ཏོ་	-4043
དཀའ་བ	-4044
ཐུགས་རྗེའི་	-4045
གཞིར་	-4046
སྐྱེས།	-4047
རྟོག་བ	-4048
▁ཁྱོད་ཀྱི་	-4049
དེས་བ	-4050
གསལ།	-4051
▁རྫས་	-4052
ཤེས་བྱའི་	-4053
སྟེང་གི་	-4054
པར་བསམས་	-4055
▁།ཐམས་ཅད་	-4056
དེ་སྟོང་	-4057
འདིའི་རྗེས་	-4058
སྤྱིར་བ	-4059
ཞི་སྟེ།	-4060
ཡོད་མེད་	-4061
▁འཁོར་ལོ་	-4062
བ༽	-4063
ཅན་གྱིས་	-4064
▁ཧཱུྃ།	-4065
▁ལོག་	-4066
▁ི	-4067
འཕོ་	-4068
ལྷ་རྣམས་	-4069
▁།གཞན་ཡང་	-4070
སྙིང་གར་	-4071
རྣམ་ཐར་	-4072
ལྷ་ཡི་	-4073
▁ལས་བ	-4074
དཀྱིལ་འཁོར་དུ་	-4075
རྒྱལ།	-4076
▁དག་	-4077
▁དགེ་བའི་	-4078
ཞེས་སོ།	-4079
▁།རང་གི་	-4080
པར་གྱུར་ཏོ།	-4081
པའི༔	-4082
▁རྒྱུན་	-4083
ཐུགས་ཀ་ནས་	-4084
ཆོས།	-4085
མི་རིགས་	-4086
པ་ལ་གཉིས་ཏེ།	-4087
སྔོ་བ	-4088
དྲུག་ཅུ་	-4089
ཙུགས་	-4090
ཟོར་	-4091
མ་བྱེད་	-4092
རྒྱུད།	-4093
▁༼༢	-4094
▁སླར་	-4095
སེམས་ཅན་གྱི་	-4096
སརྦ	-4097
ལ་བྱེད་	-4098
▁སྤྱོད་	-4099
ཚིགས་བཅད་	-4100
རིག་བྱེད་	-4101
▁དར་	-4102
དེར་བ	-4103
▁ཞིང་	-4104
འཁྲུངས་	-4105
དུན་བསྐྱེད་	-4106
འགྲེལ་པ་	-4107
ེར་བ་	-4108
པས་ན།	-4109
▁ཕྱག་རྒྱ་	-4110
ནས་ནི།	-4111
▁ཨོྃ་	-4112
འཚང་རྒྱ	-4113
གྲུབ་མཐའ་	-4114
ཞེས་པ་ནི་	-4115
རྒྱ་བྱིན་	-4116
ལ་བྱའི་	-4117
རྗོད་བྱ་	-4118
པ་བསྐྱེད་	-4119
▁།འགྲོ་	-4120
་ར་	-4121
ུས༔	-4122
ས་པ།	-4123
▁ཇ	-4124
མོས་གུས་	-4125
ན་མི་	-4126
གྲོལ་བར་	-4127
མཁྱེན་བ	-4128
ཕྱེ་བ་	-4129
▁དེ་ལ་བ	-4130
མཆོད་པ་བ	-4131
ཁྱུང་	-4132
སྡིག་སྒྲིབ་	-4133
སྐུ་ལ་	-4134
ྲལ་བ་	-4135
རྫས་བ	-4136
ཅིས་	-4137
སྣང་གི་	-4138
འདབ་བ	-4139
འཁོད་	-4140
▁རྟ་	-4141
ཟླས་བ	-4142
སེམས་ལ་	-4143
དང་ཡང་	-4144
མི་འགྱུར་	-4145
▁།དེ་བ	-4146
▁ཕུང་པོ་	-4147
འཇུག	-4148
ར་བྱེད་དོ།	-4149
▁ཐོག་མར་	-4150
ཆོས་དང་	-4151
▁=-	-4152
སོ་བ	-4153
ཧེ་རུ་ཀ	-4154
ཞུས་པས།	-4155
གཟུང་འཛིན་	-4156
སྡིག་པ་	-4157
▁མཁན་	-4158
སྒྲོལ་མ་	-4159
སྒྱུར་བའི་	-4160
ཕུད་	-4161
འཆི	-4162
གྲི་གུག་	-4163
ཐོ་	-4164
ལས་སྐྱེས་	-4165
རྒྱུད་པའི་	-4166
དོང་	-4167
ཐལ་བ་	-4168
དང་ལྡན་པས་	-4169
ཡིན་གྱི།	-4170
ཚུལ་ནི།	-4171
འདས།	-4172
ཟིན་ཏོ།	-4173
ཞུགས་ནས་	-4174
ཤིས་བ	-4175
བཅས་	-4176
ཚུལ་གྱི་	-4177
དེ་ལྟ་བུ་	-4178
རུང་སྟེ།	-4179
གཅིག་པ	-4180
ོན༔	-4181
སྒྲའི་	-4182
མེད་པའི་ཕྱིར་རོ།	-4183
འབྲལ་	-4184
ུཾ་	-4185
གྱུར༔	-4186
རང་གི་བ	-4187
ལྡན་པའི་	-4188
▁་་	-4189
སྡོད་	-4190
ཚོགས་རྣམས་	-4191
འཆི་བའི་	-4192
མི་འགྱུར།	-4193
སྐོང་	-4194
མན་ཆད་	-4195
▁སྣ་ཚོགས་	-4196
པར་མི་ནུས་	-4197
དེ་ལ་བ	-4198
ཀུན་གྱིས་	-4199
པ་ཙམ་གྱིས་	-4200
གསུམ་གྱི་བ	-4201
འགྲོས་	-4202
སི་	-4203
▁བྱེ་བྲག་	-4204
དང་ལྡན་པ།	-4205
ཊཱི་	-4206
ཁའི་	-4207
ནྡྷ་	-4208
▁རེ་	-4209
རྒྱན་པ།	-4210
སྨྲས་སོ།	-4211
སྲས་བ	-4212
ྱིན་གྱིས་རློབས།	-4213
ཡོན་བ	-4214
འགྲུབ།	-4215
མེ་བ	-4216
ཏཱི	-4217
རྒྱུ།	-4218
▁གོས་	-4219
མ་ངེས་	-4220
▁དམར་	-4221
དངོས་པོའི་	-4222
ལེན་བ	-4223
མ་བུའི་	-4224
གྲངས་མེད་	-4225
ྱས་ལ།	-4226
▁སྤྱན་	-4227
དང་བཅས་པས་	-4228
ཁྱབ།	-4229
སྒྱུ་མའི་	-4230
རིའི་	-4231
འཕོས་	-4232
པར་འགྱུར་ཏེ།	-4233
¡¤¡¤¡¤¡¤	-4234
ཁྲོ་བོའི་	-4235
▁གསུམ་པ་ནི།	-4236
གདམས་པ་	-4237
▁གཏོར་མ་	-4238
▁སྐུ་གསུང་ཐུགས་	-4239
ཞུགས༔	-4240
པའི་བྱང་ཆུབ་ཏུ་	-4241
མི་ཟ	-4242
རངས་	-4243
▁ས་མ་ཡ༔	-4244
ཚོགས༔	-4245
ཀྱིས༔	-4246
རྣམས་སོ།	-4247
རྩེ་བ	-4248
▁ཛ	-4249
▁།དཔལ་	-4250
ཆེ་ཆུང་	-4251
ཡིན་ཏེ་	-4252
ཁོང་དུ་ཆུད་	-4253
ྲལ་བར་	-4254
དང།་	-4255
ནང་ན་	-4256
གཟུང་བ་	-4257
▁ཞེས་པས་	-4258
ལྔ་དང་	-4259
དེ་དག་གིས་	-4260
ཆོས་སྟོན་	-4261
སྡེ་སྣོད་	-4262
དགག་བ	-4263
ཐུགས་བ	-4264
རྟ་བ	-4265
སྡུས་པ་	-4266
ཕྱག་རྒྱ་བ	-4267
རེད།	-4268
སོང་།	-4269
གཅིག་དང་	-4270
ཨོཾ་བ	-4271
ལྷ།	-4272
འི་བླ་མ་	-4273
ཡུལ་ཅན་	-4274
▁།འདོད་	-4275
པར་ཡང་	-4276
▁ཕྱིས་	-4277
སྐབས་ཀྱི་	-4278
▁སློབ་མ་	-4279
▁དེས་བ	-4280
▁དཔེ་	-4281
པ་འདི་ནི་	-4282
རྒྱས་པའི་	-4283
སྟོང་ཕྲག་	-4284
གནས་སོ།	-4285
སྲེག་བ	-4286
ཤུལ་	-4287
ཉལ་	-4288
ཕག་མོ་	-4289
▁ལྕགས་	-4290
རེག་པ་	-4291
པན་	-4292
གྱིས་ཤིག	-4293
ེགས་བ	-4294
ཕཊ།	-4295
འཁྲུག་	-4296
▁དེ་རྣམས་	-4297
▁རྗེས་སུ་	-4298
པ་རྣམས་ནི་	-4299
མྱི་དམྱིགས་	-4300
འོ་སྙམ་	-4301
འཇིགས་པ་	-4302
འབུམ་ཕྲག་	-4303
རྩེ་གཅིག་	-4304
ཅིག༔	-4305
▁།དེ་བཞིན་དུ་	-4306
ཀོད།	-4307
ཥྚ	-4308
གཉིད་	-4309
▁གང་གིས་	-4310
སྒྲོགས་	-4311
དམྱལ་བ་	-4312
ྱས་ཏེ་	-4313
ྃ་ལས་	-4314
ལིང་	-4315
▁སྐྱེས་བུ་	-4316
དེས།	-4317
སྲི་	-4318
རག་	-4319
དགུ་བ	-4320
ཞི་དང་།	-4321
སྐུད་	-4322
ཕྲག་དོག་	-4323
▁ད་ནི་	-4324
གཡས་གཡོན་	-4325
འགྲུབ་བ	-4326
རྭ་	-4327
གྲིབ་	-4328
དཔེ་བ	-4329
▁ནམ་མཁའི་	-4330
ཏོན་	-4331
▁-	-4332
མངོན་རྟོགས་	-4333
ུ་མོ་	-4334
རྒྱན་གྱི་	-4335
འཁོར་ལོས་	-4336
སྙིགས་	-4337
མེད༔	-4338
སླབ་བ	-4339
གསོལ་བ་འདེབས།	-4340
གཞན་དོན་	-4341
ལམ་ལ་	-4342
ཅས་པའི་	-4343
སྡེའི་	-4344
ལུས་དང་	-4345
སུ་བྱར་	-4346
ནམ་མཁར་	-4347
དུད་ཀྱི་	-4348
ལ་བདག་	-4349
ྲི།	-4350
རྫོགས་པ་	-4351
གཡོག་	-4352
པ་བརྒྱད་	-4353
ལྔ་བརྒྱ་	-4354
ཐབ་	-4355
ཞོན་	-4356
རྣམ་པར་དག་པ་དང་།	-4357
ལ༴	-4358
རྒྱུད་ལས།	-4359
གང་ཡིན་པ་དེ་ནི་	-4360
ཟིལ་གྱིས་	-4361
ུམས་	-4362
ཕུལ་བ	-4363
▁འག	-4364
མཚན་ཉིད།	-4365
ྱ་བར་	-4366
སྟོང་པ་ཉིད་དང་།	-4367
པའི་ཚིག་	-4368
ྱ༔	-4369
ཡེ་ནས་	-4370
ལས་ཀྱང་།	-4371
ཀོ་	-4372
ཏབ།	-4373
ན་བ་	-4374
▁བླ	-4375
པའི་རིགས་	-4376
ཅན་དང་།	-4377
ཕོ་ཉ་	-4378
ག་བསམ་	-4379
རྒྱ་ཆེར་	-4380
▁མ་འོངས་	-4381
མཐོང་བས་	-4382
འཕངས་	-4383
▁0:	-4384
གཡོས་	-4385
ཤེར་	-4386
ཚོགས་ལ་	-4387
རྒོལ་	-4388
ུཥྤ	-4389
ཞི་དང་	-4390
རྩ་གསུམ་	-4391
ནོར་བུའི་	-4392
སྟན་པ་ནི།	-4393
▁མཁས་	-4394
ཚད་མེད་	-4395
ཡུལ་ལ་	-4396
མ་ནི་	-4397
ཡང་དག་པར་བ	-4398
རྒྱ་རྩ་བ	-4399
▁2-	-4400
འགྱུར་ལ།	-4401
ཡོད་པའི་ཕྱིར།	-4402
པར་གསུངས་	-4403
▁།ཞེས་པ་	-4404
▁།ཆུ་	-4405
་བྷྱ	-4406
ཀའ་དྲིན་	-4407
▁ཡེ་ཤེས་ཀྱི་	-4408
▁ཟས་	-4409
ྲྀ	-4410
ཁོངས་	-4411
ཏ།	-4412
ཤེས་པར་	-4413
ཅུང་ཟད་བ	-4414
▁རོལ་	-4415
▁མཚན་མ་	-4416
▁ཐལ་	-4417
▁སྟོན་	-4418
སྟུན་	-4419
▁བླ་མའི་	-4420
ཧོ་	-4421
མཛད་དོ།	-4422
རྒྱས་པ་	-4423
▁སེམས་ཀྱི་	-4424
བསམ་	-4425
དགེ་བ་བ	-4426
སྙོམས་པར་འཇུག་	-4427
ཁབ་	-4428
ར་བ།	-4429
ས་པ་རི་ཝ	-4430
▁ཕྱིར་	-4431
འི་བར་དུ་	-4432
གྱི་བར་	-4433
▁ལུ	-4434
གྷ་	-4435
▁།རྒྱལ་	-4436
ྨ་	-4437
གཉིས་དང་།	-4438
ནམ་ཡང་	-4439
འཇུག་བ	-4440
གློ་བུར་	-4441
▁ཞེ་སྡང་	-4442
སྟོང་བ	-4443
པར་མོས་	-4444
ཙམ་ཞིག་	-4445
མ་ལུས་པ་	-4446
དྲུག་པ་	-4447
པ་ལ་ཡང་	-4448
▁།ཆོས་ཀྱི་	-4449
ཞི་ལ་	-4450
ྱུང་བར་	-4451
▁རིག་པ་	-4452
▁།ཞེས་བྱ་བ་	-4453
▁ཅེས་བ	-4454
▁།རིན་ཆེན་	-4455
▁།བཅོམ་ལྡན་འདས་	-4456
མི་བྱའོ།	-4457
སྟྭ	-4458
དེ་མཆོག་	-4459
ེར་ན།	-4460
ལྔ་དང་།	-4461
▁མཆ	-4462
ཱ་རིའི་བུ་	-4463
རིང་བ	-4464
ཅན་ལ་	-4465
ཅི་ཞིག་	-4466
སྨྲ་བ	-4467
ྲི་བ	-4468
ཧཱུྂ་	-4469
PA	-4470
ཆོས་གོས་	-4471
གཏོང་བ་	-4472
རྩེའི་	-4473
མྱ་ངན་འདས་	-4474
ཡིན་ནོ་ཞེས་	-4475
ད་ལྟ་	-4476
ཨ་མྲྀ་	-4477
ུན།	-4478
ཆེར་བ	-4479
▁ཨཱ་	-4480
ཐོད་ཕྲེང་	-4481
འབྱུང་བས་	-4482
ཏུས་	-4483
སམ༔	-4484
ལས་བྱུང་	-4485
▁ཀྱ	-4486
རྗེད་	-4487
ཅེས་བྱ་བར་	-4488
དུ་བཅུག་	-4489
▁འདོད་ན།	-4490
པར་བྱ་བའི་ཕྱིར་	-4491
མཁར་	-4492
དུ་ཡང་	-4493
▁འཇུག་	-4494
▁།ཤེས་རབ་	-4495
སེམས་ཉིད་	-4496
དུ་བ་	-4497
ཞིམ་	-4498
ཕྱིར་མི་ལྡོག་	-4499
འདི༔	-4500
▁འཁྲུལ་	-4501
སྐྲག་	-4502
▁རྔ	-4503
ུ་ལ་	-4504
▁ཁྱབ་	-4505
▁པའི་	-4506
ཐལ་བའི་	-4507
ཐུབ་པ་	-4508
PAGE	-4509
མ་དག་	-4510
ཅིག་ཅ	-4511
སྟོད༔	-4512
ངང་དུ་	-4513
དབུལ་	-4514
▁མདོར་ན་	-4515
གནས་པར་	-4516
དལ་	-4517
དབྱར་	-4518
དང་བཅས་པ།	-4519
མེད་པའི་བ	-4520
དུན་གྱི་	-4521
སེམས་དང་	-4522
པའི་དོན་དུ་	-4523
ལ་བསྟོད།	-4524
ལ་གནས་པའི་	-4525
སྐུལ་བ	-4526
▁དེ་དག་གིས་	-4527
▁།ཉོན་མོངས་	-4528
ཀུག་	-4529
སྲང་	-4530
▁སྙིང་རྗེ་	-4531
གཡེ	-4532
དཔལ།	-4533
ཆེན་པོ་དང་།	-4534
ཚེའི་	-4535
སྒྲུབ་པ་ལ་	-4536
ཏིང་ངེ་འཛིན་ལ་	-4537
གཏན་བ	-4538
རྒྱུད་སྡེ་	-4539
▁སྭ	-4540
སེམས་དཔའ་བ	-4541
བྱ་	-4542
དུ་གསོལ༔	-4543
པའི་རྟགས་	-4544
▁བཀྲ་ཤིས་	-4545
ཀུར་བ	-4546
རེག་བ	-4547
ཉི་ཤུ་རྩ་བ	-4548
ཉམས་སུ་བླངས་	-4549
སྒྲུབ་བྱའི་	-4550
འདི་བཞེས་	-4551
དུས་ན་	-4552
▁གཟུང་	-4553
སྐྱོང་བ	-4554
▁ནས་	-4555
ལས་འདས་པའི་	-4556
▁ཁམས་གསུམ་	-4557
གདུག་	-4558
སྟ་གོན་	-4559
▁གཏི་	-4560
▁ཁོང་	-4561
མཚོན་ཆ་	-4562
མཐིང་ནག་	-4563
ཾ་ཧོཿ	-4564
▁སྟོབས་	-4565
▁སྒ	-4566
ཱའི་	-4567
པ་མེད་པའི་	-4568
ཁྲུས་བ	-4569
མིན་ཏེ།	-4570
ཤལ་	-4571
སོགས་ལ་	-4572
གླིང་བ	-4573
▁དཔལ་ལྡན་	-4574
▁དུས་གསུམ་	-4575
འབྲེལ་བ	-4576
▁བཙུན་པ་	-4577
མ་ཐོབ་	-4578
ཅེས་པ་	-4579
གཏིང་	-4580
ྲལ་བའི་	-4581
ཉན་ཐོས་ཀྱི་	-4582
༡༽་	-4583
གུས་པས་	-4584
ཁྱི་	-4585
▁ཀྱི་	-4586
གཉིས་ལས་	-4587
མ་ཐག་ཏུ་	-4588
སྟོད།	-4589
ཆོ་ག་བ	-4590
▁།སྙིང་	-4591
མའོ།	-4592
རིག་པར་བྱའོ།	-4593
▁བཅུ་	-4594
རྫོང་	-4595
འདྲ་བ	-4596
ཟླས་པ་	-4597
ཨརྒྷཾ་	-4598
རྒྱལ་མཚན།	-4599
རྐང་པ་	-4600
ཟླ།	-4601
སྙེན་པར་	-4602
སྟོང་པའི་	-4603
▁ཆོས་ཉིད་	-4604
▁ཡ་	-4605
ཁྱེའུ་	-4606
སྡོང་	-4607
པས་དེ་	-4608
ངར་	-4609
▁གོ་	-4610
འཇམ་པའི་	-4611
▁ཕྲིན་ལས་	-4612
པོ་ལ་	-4613
འབྲང་	-4614
ཆེན།	-4615
▁ཟབ་	-4616
ལ་བརྩོན་	-4617
པ་རྣམས་དང་།	-4618
▁ར་	-4619
དགུག་	-4620
རྩུབ་	-4621
དུ་བསྟན་	-4622
ལྡན་པ་	-4623
▁།བཞི་	-4624
སྭ་བྷཱ་	-4625
ླ་མ་བ	-4626
མི་བྱ།	-4627
པའི་རྒྱུ་མཚན་	-4628
▁རྩེ་	-4629
ཇི་ལྟ་བ་བཞིན་	-4630
▁+	-4631
གནས་ནས་	-4632
དཀར་པོའི་	-4633
ཡིད་ཀྱིས་	-4634
ཊྭ	-4635
རྟེན་གྱི་	-4636
ཡི་གེའི་	-4637
དགོས་ཏེ།	-4638
ལུས་ངག་ཡིད་	-4639
མདུད་	-4640
སྐྱེད་རྫོགས་	-4641
ཀ་ར	-4642
▁འོ་	-4643
རྣམས་ལས་	-4644
ཀཱི་ལ་	-4645
ཞིན་དུ།	-4646
རྐྱེན་བ	-4647
མིག་གི་	-4648
སྐུ༔	-4649
མོར་བ	-4650
རོ༔	-4651
▁།ཡང་ན་	-4652
▁ཁྲག་	-4653
▁།བློ་	-4654
▁མྱ	-4655
ཡང་དག་པའི་	-4656
རྻ་	-4657
ཕོག་	-4658
སྦྱིན།	-4659
ར་བྱེད་པའི་	-4660
ཡོད་ཀྱང་	-4661
ས་མཱ་	-4662
ལྕགས་ཀྱུ་	-4663
ལ་བརྟེན་པའི་	-4664
གཉུག་	-4665
༢༽་	-4666
▁འདོད་པ་	-4667
▁བརྩོན་འགྲུས་	-4668
གླེང་	-4669
ཏཱིཙྪ་	-4670
ཀུན༔	-4671
▁ཉི་མ་	-4672
དཔོན་བ	-4673
དེ་དག་ལ་	-4674
མ་ནས་	-4675
སོགས་དང་།	-4676
▁།ཅི་	-4677
ཐམས་ཅད་དང་།	-4678
གཞི།	-4679
རབ་འབྱོར་	-4680
▁།ཡོན་ཏན་	-4681
གནང་།	-4682
སྒྱུར།	-4683
གདུག་པ་	-4684
མཱ	-4685
དང་ཐུན་མོང་	-4686
རྒྱུད་པ་	-4687
ལྤ	-4688
ཡི་དྭགས་	-4689
རྗོད་པའི་	-4690
པ་མེད་དོ།	-4691
དུའོ།	-4692
སྲོག་ཆགས་	-4693
སོའི་	-4694
སྒྲུབ།	-4695
ས་བཅུ་	-4696
སྤོང་བའི་	-4697
ཕྱོགས་ལ་	-4698
ོ་བ་དང་།	-4699
འོད་ཀྱིས་	-4700
▁གཤ	-4701
མང་དུ་བ	-4702
▁རྐྱེན་	-4703
ལྟ་བུ་དང་།	-4704
▁གནོད་སྦྱིན་	-4705
ཇི་ལྟ་བ་བཞིན་དུ་	-4706
ཁྲོས་	-4707
ཚེས་བ	-4708
འཐབ་	-4709
ཞབས་ལ་	-4710
དང་འདྲ་བ་	-4711
མདུན་གྱི་	-4712
ོལ་བར་	-4713
འབྲས་བུ་བ	-4714
▁ཐུགས་རྗེ་	-4715
འགྱུར་བ་དང་།	-4716
▁དེ་ཕྱིར་	-4717
གསལ་བྱེད་	-4718
ཡོད་པ་མ་ཡིན་	-4719
དོར་བ	-4720
པར་བགྱི།	-4721
འོང་བའི་	-4722
པ་མེད་པ་	-4723
ཆའི་	-4724
དོན་ནི་	-4725
▁བདུད་རྩི་	-4726
པར་ཤོག	-4727
སྤང་བ་	-4728
▁མཐོང་	-4729
གང་བ་	-4730
དག་དང་།	-4731
ཤིང་གི་	-4732
ཕྲ་བ་	-4733
ཧ་ཅང་	-4734
ངག་བ	-4735
སློབ་མའི་	-4736
དངོས་སུ་བ	-4737
ཅོ་ལྔ་	-4738
▁རྒྱན་	-4739
གསོད་	-4740
▁དེ་དང་	-4741
▁འང་	-4742
ཕ་རོལ་ཕྱིན་	-4743
གར་བ	-4744
ཁུངས་	-4745
▁དད་	-4746
ཕྱོགས་བཅུའི་	-4747
མཁའ་སྤྱོད་	-4748
▁སྦྱོར་བ་	-4749
ཕུན་ཚོགས་	-4750
རྫོགས་རིམ་	-4751
སྙོམས་འཇུག་	-4752
▁དུར་ཁྲོད་	-4753
དད་པ་	-4754
▁གཏི་མུག་	-4755
དང་བཅས་པ་བ	-4756
▁གཟུངས་	-4757
མགྲོན་	-4758
▁འཛ	-4759
ནམ་མཁའ་ལ་	-4760
ཆུང་བ་	-4761
ཅོད་པན་	-4762
རོལ་མོ་	-4763
འགྲིབ་	-4764
▁གཤིན་	-4765
ེ་ཤ་	-4766
ལིཾ་	-4767
རིན་ཆེན་བ	-4768
ཕབ་	-4769
ངག་དབང་	-4770
ཡལ་	-4771
ཤེས་སོ།	-4772
གསོལ་འདེབས་	-4773
དངོས་གྲུབ་སྩོལ༔	-4774
ཡུལ་བ	-4775
ྱུས་	-4776
དུ་འཇུག་	-4777
རིལ་བ	-4778
རྫོབ་བ	-4779
གེགས་བ	-4780
ཤད་པའོ།	-4781
▁སྐྱེས་	-4782
ཨུཏྤ	-4783
དུན།	-4784
གཙུག་ཏོར་	-4785
དྲི	-4786
སྤངས་པའི་	-4787
ོ་བ།	-4788
ཐབས།	-4789
མདོར་བསྡུས་	-4790
གཞུག	-4791
སྡུག་བསྔལ་གྱི་	-4792
ཀླུ་སྒྲུབ་	-4793
▁དགེ་བ་	-4794
ཆོས་ཀྱི་བ	-4795
རྒྱ།	-4796
རྒྱུ་དང་	-4797
ུབ༔	-4798
▁མདོ་སྡེ་	-4799
ཚབ་	-4800
དངོས་མེད་	-4801
▁ཕ་	-4802
མཁའ་འགྲོ་མ་	-4803
སེམས་བྱུང་	-4804
▁གཞན་གྱི་	-4805
རྒྱར་	-4806
ན་མ་	-4807
ཀུན་དུ་	-4808
ཤེས་པ་དང་།	-4809
སྔ་མ་བ	-4810
མིང་གི་	-4811
རེ་ཞིག་	-4812
དམ་པའི་ཆོས་	-4813
▁ཁྱོད་ཀྱིས་	-4814
ར་ལ་	-4815
▁འོད་ཟེར་	-4816
▁འདུ་བྱེད་	-4817
ས་གཞི་	-4818
དེ་ལེགས་	-4819
ལས་དང་	-4820
རྗོད་དུ་	-4821
མཐོ་རིས་	-4822
རིགས་པས་	-4823
སྦྱར་རོ།	-4824
ཏིང་ངེ་འཛིན་གྱི་	-4825
ྱིད་	-4826
གམ།	-4827
སྟི	-4828
▁ཚོར་བ་	-4829
ཧཱུྃ་ཕཊ་	-4830
གྲུབ་པར་	-4831
པར་བཞེད་	-4832
མཉམ་གཞག་	-4833
དྷརྨ	-4834
པ་ཉིད་ཀྱིས་	-4835
▁།སྔགས་	-4836
འཆར་བ་	-4837
དགོས་སོ།	-4838
རོལ་པའི་	-4839
སྣོད་བཅུད་	-4840
▁རྟག་ཏུ་	-4841
ཡིད་དུ་	-4842
དྲྭ	-4843
གཏན་ལ་ཕ	-4844
སོང་ནས་	-4845
ཁོ་བོ་	-4846
ོ྅	-4847
▁སོ་སོ་	-4848
དུས།	-4849
གྲོལ།	-4850
འགྲོགས་	-4851
རྣམས་ལ།	-4852
སྟོང་ཕྲག་བ	-4853
ཞེས་པས་	-4854
དང་ཤེས་རབ་	-4855
ཆ་ལུགས་	-4856
▁གང་ལ་	-4857
▁བདེ་གཤེགས་	-4858
▁རྟག་	-4859
ཚོང་	-4860
སྣུན་	-4861
འདིར།	-4862
སོང་བའི་	-4863
ཞེས་པ་ནས།	-4864
མ་བཅོས་	-4865
ལུག་	-4866
ལྐོག་	-4867
▁།སྣ་ཚོགས་	-4868
སོད་སྙོམས་	-4869
འོག་མ་	-4870
སློབ་དཔོན་གྱི་	-4871
ངམ།	-4872
འགྲམ་	-4873
ལ་ཏེ་བ	-4874
ཚུལ་ལ་	-4875
ཁུག་	-4876
▁བུམ་པ་	-4877
འབྲེལ་པ་	-4878
ཆེ་གེ་	-4879
མ་རྟོགས་	-4880
ཡོངས་སུ་གྱུར་	-4881
མི་ཟད་	-4882
ས༴	-4883
ཕྲ་མོ་	-4884
▁དབུ་མ་	-4885
ོམ་བུ་	-4886
ལ་བསྟོད༔	-4887
དགའ་བོ་	-4888
ཏུ་གསོལ།	-4889
རྫས་ཀྱི་	-4890
གསུམ་མོ།	-4891
ཤང་	-4892
▁།གཟུགས་	-4893
དགེ་སློང་གི་	-4894
སྒྲས་	-4895
▁ཡབ་	-4896
▁སྔགས་ཀྱི་	-4897
ཡིན་ལ་	-4898
ཥ་	-4899
གཞུང་བ	-4900
ུད།	-4901
ཕྲིན་ལས་བ	-4902
པའི་བསམ་	-4903
ཁཱ་ཧི༔	-4904
▁ཕྱི་མ་	-4905
འོང་།	-4906
ཞི་པའི་	-4907
དགེ་སྦྱོང་	-4908
པཱུ་ཛ་	-4909
གྱུར་ན།	-4910
དགེ་ལེགས་	-4911
གཅེས་	-4912
དྲ་	-4913
མགུལ་	-4914
སྨིན་བ	-4915
འདོད་ཡོན་	-4916
པའི་ཡོན་ཏན་	-4917
▁༼༣	-4918
འཚལ།	-4919
སྒྲིབས་	-4920
རྐྱེན་གྱིས་	-4921
ཕུན་སུམ་ཚོགས་པ་	-4922
ྱིན་བརླབས་	-4923
▁མངོན་སུམ་	-4924
སྟོང་པར་	-4925
གཤིན་རྗེའི་	-4926
ཀང་	-4927
ལྡིང་	-4928
▁འདི་ལྟ་སྟེ།	-4929
གཉིས་སུ་མྱེད་	-4930
ཆབ་	-4931
ལག་ལེན་	-4932
གཤེགས།	-4933
ཟུང་ནས་	-4934
▁རྒྱ་གར་	-4935
▁ཁྱེད་རང་	-4936
▁ཡང་།	-4937
སྐབས་སུ་བ	-4938
▁འགྲེལ་	-4939
ལྟར་ན།	-4940
ཐེག་པ་ཆེན་པོ་	-4941
▁གཏན་	-4942
ཟོད་པའི་	-4943
▁གཉིས་པ་ལ་	-4944
▁ཡང་བ	-4945
ཞེན་པ་	-4946
▁།རྣམ་པར་	-4947
ནག་པོའི་	-4948
མོ	-4949
ལུགས་ལ་	-4950
ཐ་དད་དུ་	-4951
ཅོལ་	-4952
དུ་གྱུར་པའི་	-4953
ཐལ་བར་	-4954
དགེ་འདུན་གྱི་	-4955
ཚད་བ	-4956
དེ་གཉིས་སུ་བྱར་	-4957
གཞག་པ་	-4958
▁ལྟ་བ་	-4959
ློའི་	-4960
དབྱིངས་ཀྱི་	-4961
དགུང་	-4962
▁1	-4963
ན་དེ་	-4964
ཁྲོ་བ	-4965
འཚལ་	-4966
ངའི་	-4967
དད་དོ།	-4968
▁འདིས་	-4969
པཉྩ་	-4970
ཙནྡ	-4971
མེད་པའི་ཕྱིར་	-4972
ཚུལ་དང་།	-4973
སྟེང་དུ།	-4974
འབྲེལ་བར་	-4975
ཞལ་དུ་	-4976
▁དེའི་སྟེང་དུ་	-4977
གོ་རིམ་	-4978
▁མཐར་ཐུག་	-4979
ཝཱ་	-4980
▁ལག་པ་	-4981
མི་རྟག་པ་	-4982
སེལ་བ	-4983
སྐད་ཅིག་གིས་	-4984
ཅས༔	-4985
ཨོཾ་ཨཱཿ	-4986
ཉིང་	-4987
▁རྡུལ་	-4988
▁G	-4989
ནི་དེ་	-4990
སྡིགས་	-4991
རྡུང་	-4992
པ་ཡི་	-4993
ཀྱི༔	-4994
སྐལ་པ་བ	-4995
ལ་ཆགས་	-4996
མྱང་འདས་	-4997
དྱ་	-4998
སྦྱིན་པའི་	-4999
སྙོམས་པར་ཞུགས་	-5000
མཐེ་བ	-5001
ཞེས་བྱ་སྟེ།	-5002
འདེ	-5003
རྟེན།	-5004
ལས་འདས་པ་	-5005
ཛྭ་	-5006
▁རྟོགས་	-5007
▁ཁྲོ་	-5008
▁།དབང་	-5009
གཅད་	-5010
ཇི་ལྟ་བུ་	-5011
གློག་	-5012
མདོ་ལས།	-5013
སྤྱོད་བ	-5014
▁ཧྲཱིཿ	-5015
གསུངས་པས།	-5016
▁དགྲ་	-5017
ཡིན༔	-5018
རྟེན་ཅིང་	-5019
ནའོ།	-5020
ཏོག་བ	-5021
ྱུང་ནས་	-5022
ལྟེ་བའི་	-5023
ཐུན་མ	-5024
སུས་	-5025
ྱིན་རླ	-5026
ྲལ་བ	-5027
དམ་བཅའ་	-5028
དུད་རྩི	-5029
དོན་ཡོད་	-5030
སངས་རྒྱས་ཐམས་ཅད་	-5031
པ་མ་ཡིན་ཏེ།	-5032
ཞལ་ནས་	-5033
ཚིག་གི་	-5034
▁ལོངས་སྤྱོད་	-5035
མ་ཡིན་ཐ་	-5036
▁ཤེས་པ་	-5037
དང་ཡེ་ཤེས་	-5038
▁།འདི་ལ་	-5039
ཁེགས་	-5040
▁ཐར་	-5041
ཤྲཱ	-5042
མི་བསྐྱོད་	-5043
▁།རང་བཞིན་	-5044
▁ནོར་	-5045
སྟན་པ་ལ་	-5046
སྐྱུ	-5047
དཀོན་	-5048
▁།གསུམ་པ་ནི།	-5049
པར་འགྱུར་བའི་	-5050
སྦྲང་	-5051
མཚམས་སུ་	-5052
ལ་སེམས་	-5053
▁།ཡང་དག་	-5054
▁དགོངས་	-5055
▁འཁོར་འདས་	-5056
ཀེ་	-5057
ར་གྱུར་	-5058
རྣམ་རྒྱལ་	-5059
་རོ་	-5060
སྐྱིལ་ཀྲུང་	-5061
འི	-5062
སྐད་ཅིག་མ་	-5063
གདོད་ནས་	-5064
ཟན་	-5065
ཕན་བ	-5066
ཞུགས་པ།	-5067
ཆོ་གའི་	-5068
སྐྱེ་མེད་	-5069
▁བུད་མེད་	-5070
འདའ་	-5071
ཤར་བ	-5072
སྔོན་བ	-5073
གཉིས་ནི་	-5074
ལྷུང་བཟེད་	-5075
སྣང་ངོ་།	-5076
འཇིགས་བྱེད་	-5077
སོད་ནམས་ཀྱི་	-5078
ྱེད་པ་པོ་	-5079
ལ་ལོངས་	-5080
འོང་བ	-5081
ནཱ	-5082
ཤད་བ	-5083
མྱོང་བར་	-5084
ྱས་ནས།	-5085
▁གྲངས་	-5086
▁།དཀྱིལ་འཁོར་	-5087
དགེ་བསྙེན་	-5088
རྣམ་པར་དག་པས།	-5089
སྔར་གྱི་	-5090
གཉིས་ཀའི་	-5091
▁ཛཿཧཱུྃ་བ	-5092
ན་བཟའ་	-5093
རྟ་མགྲིན་	-5094
འཚོ་	-5095
▁འཇིག་	-5096
རིགས་པ་	-5097
ནི	-5098
དུ་བཞག་	-5099
སཱ་	-5100
་རེ་	-5101
▁བདག་དང་	-5102
ནེ་	-5103
པ་ལྟར།	-5104
▁གཙུག་	-5105
ཟླས་པའི་	-5106
པྲ་ཏཱིཙྪ་	-5107
ལོ་རྒྱུས་	-5108
མེད་དེ་	-5109
རྩིག་	-5110
དང་རང་	-5111
▁སྟེང་	-5112
ལྕམ་	-5113
འཛུམ་	-5114
པའི་རྐྱེན་ཀྱིས་	-5115
དཔལ་གྱི་	-5116
▁།ང་	-5117
དང་འདྲ།	-5118
ནྟ་	-5119
ཁྱེད་རང་	-5120
ཁྱད་པར་བ	-5121
མཆོད་བསྟོད་	-5122
ཞལ་ནས།	-5123
ཤུདྡྷ	-5124
ྱ་བ་དང་།	-5125
▁གཏེར་	-5126
སྲིང་	-5127
ངས་བ	-5128
ཤད་པ།	-5129
྄།	-5130
ྱེད་པ་དང་།	-5131
གནས་དང་	-5132
སྤྱན་སྔར་	-5133
འཁོར།	-5134
དཀར་པོ།	-5135
ལྟ་སྟེ་	-5136
▁མྱི་	-5137
ཆེན་པོའི་བ	-5138
འགྱུར་ཞིང་།	-5139
དཀར་མོ་	-5140
མངོན་བ	-5141
འདབ་མ་བ	-5142
ཞེས་དང་།	-5143
ཆུ་བོ་	-5144
དང་གཟུགས་	-5145
རིགས་ལྔ་	-5146
ཞེས་བྱ་བ།	-5147
▁༥	-5148
སྒྲིབ་བ	-5149
▁སུ	-5150
གཟིགས།	-5151
དཀར་དམར་	-5152
▁ནམ་	-5153
གོང་མའི་	-5154
ལེའུ་བ	-5155
རྒྱུན་ཆད་	-5156
ཞིའོ།	-5157
ཟོད་པར་	-5158
སྐུར་བ་	-5159
▁ཉ	-5160
ཕྱེ་བ	-5161
རྗོད་དོ།	-5162
▁རྨི་ལམ་	-5163
▁>	-5164
ཤིག༔	-5165
ཁོ་ནས་	-5166
ཟླ་བ་བ	-5167
དབང་དུ་བ	-5168
ཞིག་གིས་	-5169
དཔག་ཚད་	-5170
ིན།	-5171
ཏང་།	-5172
སྦྱོར་གྱི་	-5173
ྱས་ཏེ།	-5174
▁།ཐབས་	-5175
▁སྐྱོན་	-5176
▁།དེ་ནས་བ	-5177
གསུམ་ལས་	-5178
དེན་པའི་	-5179
ཆོས་འབྱུང་	-5180
རླུང་བ	-5181
དཔའ་	-5182
པའི་བླ་མ་	-5183
▁།རྟག་ཏུ་	-5184
དགེ་སློང་གིས་	-5185
དེན་བ	-5186
གཉེན་པོར་	-5187
རྣམ་པ་སྣ་ཚོགས་	-5188
▁10000270	-5189
▁དང་པོ་ནི་	-5190
དང་བྲལ་བ	-5191
ཐོགས་མེད་	-5192
ོན	-5193
ཕྱག་རྒྱའི་	-5194
ངེད་	-5195
སྦྱར་ནས་	-5196
ཤན་	-5197
སྙམ་པའི་	-5198
▁དབྱིངས་	-5199
▁ཉེས་	-5200
དྱ	-5201
ན་མ་ཐ	-5202
རང་བཞིན་དུ་	-5203
སོ་སོ་མ་ཡིན་ཐ་	-5204
དེ་ཉིད་ཀྱི་	-5205
མུན་པ་	-5206
གཉིས་དང་	-5207
དག་བསྐྱེད་	-5208
སྡམས་	-5209
ཙམ་ལ་	-5210
འཛིན༔	-5211
▁།དམ་ཚིག་	-5212
༼༢	-5213
▁དུ་	-5214
02	-5215
ཀས་	-5216
ྷྲཱུ	-5217
ཅས་པ་	-5218
▁རྩ་བའི་	-5219
མ་བྱུང་	-5220
དབྱེ་བས་	-5221
གོ་བ་	-5222
ཁྲི་བ	-5223
▁ཞེས་གསུངས་སོ།	-5224
ཕྱེ་བའི་	-5225
ནན་ཏན་	-5226
ོག་པ་	-5227
00000000	-5228
གཞན་དག་	-5229
སྔོན་འགྲོ་	-5230
ཏུད་	-5231
གྱོན་	-5232
འཛིན་པས་	-5233
ཡོད་པ།	-5234
ར་བྱོན་	-5235
ཆེད་དུ་བ	-5236
ུ་དང་	-5237
ོབ།	-5238
ཅོམ་ལྡན་འདས་ཀྱི་	-5239
ྷ་ག་	-5240
སལ་བ་	-5241
མྱུ་གུ་	-5242
གང་དང་	-5243
དེ་སྐད་	-5244
ས་པ་རི་ཝཱ་ར་	-5245
དང་བཅས།	-5246
འཛིན་པ་དང་།	-5247
▁འབྱུང་བ་	-5248
ཤཱཀྱ	-5249
སྐྱོད་པ་	-5250
རྣམས་ཐམས་ཅད་	-5251
ཕྱུགས་	-5252
ཟག་བཅས་	-5253
ཉོན་མོངས་པའི་	-5254
པར་བྱས་ནས་	-5255
ཙམ་ཡང་	-5256
མི་གནས་	-5257
ཐོས་པ་	-5258
ྱིས་པ་	-5259
མི་རུང་	-5260
▁ཡི་དམ་	-5261
ཉིད་ཀྱང་	-5262
ཞད་	-5263
ཀ་ར་	-5264
ྱང་ཆུབ་སེམས་	-5265
དྷརྨ་	-5266
སྟོང་གི་	-5267
ལོགས་སུ་	-5268
▁།དེ་ཕྱིར་	-5269
▁ཇི་ལྟར་བ	-5270
སྟན་པ།	-5271
རྩེར་	-5272
ྱོགས་	-5273
འཆད་པར་	-5274
ལ་བསླབ་	-5275
ལྗོངས་	-5276
55	-5277
འཁྲུལ་པ་	-5278
གསུང་བ	-5279
ཁོ་ནའི་	-5280
ལྡང་	-5281
ཞེས་པའོ།	-5282
གཉིས་སུ་མེད་པའི་	-5283
▁།སྐུ་	-5284
▁འབྲིང་	-5285
▁གཞན་དུ་	-5286
པའི་བདག་ཉིད་	-5287
པ་རྣམས་བ	-5288
ཕར་ཕྱིན་	-5289
འཁྱིལ་	-5290
སྤྱན་དྲངས།	-5291
ཐོབ་ནས་	-5292
▁།མཚན་	-5293
ཙམ་ཡིན་	-5294
རྟགས་ཀྱི་	-5295
ཟང་།	-5296
སྐྱེས་ནས་	-5297
སྥ	-5298
▁རིག་འཛིན་	-5299
རྫོགས།	-5300
ཐེག་པའི་	-5301
ཉིད་དོ།	-5302
▁དེ་བས་	-5303
▁དགྲ་བཅོམ་	-5304
རམ།	-5305
▁པད་	-5306
ྞ་	-5307
ཁྲུ་	-5308
སྤོབས་	-5309
སྒྲགས་	-5310
ལོ་ཙཱ་བ་	-5311
དང་བྲལ་བར་	-5312
ཡང་དག་བ	-5313
▁།ཅེས་སོ།	-5314
ཤིགས་	-5315
▁།བཞི་པ་	-5316
▁མཆོད་པ་	-5317
འཇིག་རྟེན་གྱི་	-5318
དེ་བ་ཆེན་པོའི་	-5319
རིགས།	-5320
▁ཁྱིམ་	-5321
ནི་འདི་	-5322
ཙཀྲ་	-5323
མངོན་དུ་བ	-5324
ཡུངས་	-5325
▁།མཁས་	-5326
▁སྒྲུབ་པ་	-5327
མཆི།	-5328
ཧཱུཾ།	-5329
གཉིས་སོ།	-5330
▁ཕོ་	-5331
རྩེ་བ་	-5332
མང་པོ་བ	-5333
སྙིང་པོ་བ	-5334
ལྷན་ཅིག་སྐྱེས་	-5335
སྐུལ་བ་	-5336
སྲུང་མ་	-5337
མཉམ་པར་བཞག་	-5338
རབ་གནས་	-5339
ལྟ་བས་	-5340
▁དང་པོ་ལ།	-5341
གང་ཞིག	-5342
ླ་ན་མེད་པའི་	-5343
པི་	-5344
རྟན་པ་	-5345
མངོན་ཤེས་	-5346
མིན་གྱི་	-5347
▁སྨྲས་པ།	-5348
ཧཱུྃ་ཕཊ༔	-5349
སྐང་	-5350
སངས་རྒྱས་དང་བ	-5351
འི་བདག་ཉིད་	-5352
དོ༔	-5353
ྒ་ལ	-5354
པ་ཡིན་པའི་ཕྱིར།	-5355
པ་ནས་	-5356
འབངས་	-5357
▁ཁ་དོག་	-5358
རིག་སྔགས་	-5359
གཅོད་པའི་	-5360
རྨི་	-5361
ཧཾ་	-5362
མ་ལགས་	-5363
པ་ལ་གནས་	-5364
▁རང་བྱུང་	-5365
▁ཉི་	-5366
པཎྜི་ཏ་	-5367
▁།ཕྱི་	-5368
▁འོན་	-5369
མི་འདོད་	-5370
▁ནོར་བ	-5371
ྱང་ཆུབ་བ	-5372
ལས་ལ་	-5373
འདབ་མ་	-5374
གྲུ་གསུམ་	-5375
▁།ཡུལ་	-5376
དེ་དག་ནི་	-5377
རྣམས་ཀྱིས།	-5378
▁འབྲ	-5379
སྲིད་བ	-5380
ཟིང་	-5381
པ་ཡིན་པས།	-5382
འགྱུར་གྱི་	-5383
པས་མ་	-5384
ལྟུང་བྱེད་	-5385
▁།མཆོད་	-5386
སྣང་བས་	-5387
ཐིག་ལེའི་	-5388
▁ཞེས་བྱ་བ་	-5389
སྐོར་བའི་	-5390
ྱ་ཞིང་།	-5391
▁།ལམ་	-5392
ལོར་	-5393
པ་དང་མི་	-5394
གསུང་ངོ་།	-5395
རྒྱུན་དུ་	-5396
▁དགའ་བ	-5397
▁ཀུ་	-5398
▁དགའ་	-5399
མེད་པ་བ	-5400
ཏི།	-5401
སྐབས་བ	-5402
▁ཤཱ	-5403
▁ཐུབ་	-5404
▁།འགྲོ་བ་	-5405
གླེགས་བ	-5406
མོས་པ་མཛོད།	-5407
ཨོཾ་བཛྲ་	-5408
རྐུན་	-5409
སྐྲད་	-5410
སྣང་སྲིད་	-5411
པར་འདོད་པ་	-5412
ིགས།	-5413
▁རྫུ་འཕྲུལ་	-5414
ལྔ་བཅུ་	-5415
མེད་པའོ།	-5416
▁སོ་སོའི་	-5417
གཡས་བ	-5418
ད་ལྟར་	-5419
▁།དེ་ལྟར་བ	-5420
000002	-5421
པ་ནི་བ	-5422
འཕེལ་བ་	-5423
00000255	-5424
མཐུན་པར་	-5425
ཞལ་སྔ་	-5426
▁ཤེས་བྱ་	-5427
བྡ	-5428
ཕྲེང་བ	-5429
ཤར་དུ་	-5430
རླག་	-5431
འཕེལ།	-5432
ཁཱ་ཧི།	-5433
སྦྱང་།	-5434
པའི་སྟོབས་	-5435
པ་མ་ཡིན་ནོ།	-5436
དོན་དུ་བ	-5437
རྣམ་པར་སྣང་མཛད་	-5438
མཚམས་ཀྱི་	-5439
▁8	-5440
▁སེམས་ཅན་ཐམས་ཅད་	-5441
སྙིང་གའི་	-5442
▁གླང་	-5443
ཏཱ	-5444
མ་ར	-5445
པའི་ས་	-5446
སྡུས་ནས་	-5447
ཧཱུྃ་ལས་	-5448
ཀུན་མཁྱེན་	-5449
ལྟ་བར་	-5450
གཏོར་མ་བ	-5451
མྱི་དད་དོ།	-5452
▁དེ་ལྟ་	-5453
ཟ་བ་	-5454
▁ལྷ་མོ་	-5455
ཨོ་རྒྱན་	-5456
མེ་ཏོག་གི་	-5457
རྟག་པའི་	-5458
མི་ལེན་	-5459
▁བྲམ་ཟེ་	-5460
སྨོས་ཏེ།	-5461
མུ	-5462
སམ་གཏན་གྱི་	-5463
▁བགེགས་	-5464
▁།འབྲས་བུ་	-5465
ཉིད་དང་།	-5466
སྭ་བྷཱ་ཝ་	-5467
▁སྔོན་གྱི་	-5468
ཤ་ཁྲག་	-5469
པ་བསྒོམ་	-5470
སྒྲུབ་པ་དང་།	-5471
མེ།	-5472
ནང་བ	-5473
ཚྭ་	-5474
རྗེ།	-5475
རང་གྲོལ་	-5476
ཆད་པར་	-5477
འགྱུར་མེད་	-5478
ལྗོན་	-5479
ཀྱང་མ་	-5480
▁མྱི	-5481
▁གཉེན་	-5482
▁བརྒྱད་	-5483
ཁམས་བ	-5484
▁།མེ་	-5485
སྣང་ལ་	-5486
དགྲ་ལ་	-5487
ྱད་བ	-5488
པའི་སེམས་ཅན་	-5489
ཤྭ	-5490
▁བདུན་	-5491
ནུས།	-5492
ཡིན་ཞིང་།	-5493
▁བྱ་བ་	-5494
▁བྱེད་	-5495
▁ནང་གི་	-5496
▁སོ་སོར་	-5497
50	-5498
▁ཐ་སྙད་	-5499
▁དགེ་སློང་དག་	-5500
དབྱུག་	-5501
ལ་ལོ༔	-5502
རིན་པོ་ཆེ།	-5503
མངོན་དུ་གྱུར་	-5504
▁མཁྱ	-5505
▁ལྔ་པ་	-5506
ལྡན་དུ་	-5507
་ལ་	-5508
གཅན་	-5509
▁དགོས་	-5510
དེའི་ཕྱིར་	-5511
པའི་དབང་དུ་བྱས་	-5512
ཆེ༔	-5513
ཡང་དག་པ་	-5514
པོ་དང་	-5515
སེམས་ནི་	-5516
▁དཔའ་བོ་	-5517
▁ཞེས་སོ།	-5518
ཞེས་བྱ་བའི་དོན་	-5519
རྩམ་	-5520
གསུམ་ནི་	-5521
ལ་བཞག་	-5522
▁མདོར་བ	-5523
རའི་	-5524
ཐུབ་པའི་	-5525
པར་བྱ་སྟེ	-5526
▁ཕྱག་གཡས་	-5527
ལ་བཟང་	-5528
རིགས་སུ་	-5529
མེད་ལ།	-5530
ཆེ་བར་	-5531
རྒ་	-5532
པ་བཤད་	-5533
རོ་གཅིག་	-5534
དཔོན་སློབ་	-5535
ཞེ	-5536
ཤིང་རྟ་	-5537
འོག་གི་	-5538
པའི་དབང་གིས་	-5539
དགག་པའོ།	-5540
ལྟ།	-5541
▁དཀྱིལ་འཁོར་གྱི་	-5542
▁དྲང་	-5543
་བསྐྱེད་	-5544
ཡིན་གྱི་	-5545
སྦྱར་ཏེ་	-5546
རིམ་པས་	-5547
ཧཾ།	-5548
ཅུ་བཞི་	-5549
▁མཎྜ	-5550
ཁ་ཊྭ	-5551
▁རིན་པོ་ཆེ་	-5552
ཡོངས་སུ་སྨིན་	-5553
ལྟའོ།	-5554
དམར་པོ།	-5555
3?-	-5556
མང་པོའི་	-5557
འབྱུང་སྟེ།	-5558
▁རེག་པ་	-5559
ཁྱིམ་བདག་	-5560
▁།དེའི་ཕྱིར་	-5561
འདི་ལ་བ	-5562
ཆོས་རྗེ་	-5563
▁ཨུ་	-5564
འགོག་པ་	-5565
ང་བ་དང་	-5566
སྒྲིགས་	-5567
སེལ་བ་	-5568
སྙམ་དུ་སེམས་	-5569
ཙམ།	-5570
ཇེ་	-5571
རྣམ་པར་ཤེས་པའི་	-5572
་བི་	-5573
དགེ་སློང་མ་	-5574
ཡིད་ལ་བྱེད་	-5575
ཁེངས་	-5576
སློང་བ	-5577
གསལ་བཏབ་	-5578
རྗེས་སུ་དྲན་	-5579
ཟུང་བའི་	-5580
གཡུལ་	-5581
མི་བཟད་	-5582
པོས།	-5583
ཀྱི་ཆོས་	-5584
ཆོས་ཀྱི་སྐུ་	-5585
རྒྱ་སྟོང་	-5586
ངུ་	-5587
▁བདེ་ཆེན་	-5588
ཙི་	-5589
མོ་དང་།	-5590
ལྷ་མོ་བ	-5591
▁མན་	-5592
ཐོས་བསམ་	-5593
ཚང་བའི་	-5594
ཡབ་སྲས་	-5595
སྐབས་འདིར་	-5596
སུན་འབྱིན་	-5597
དག་གི་བ	-5598
ཚིག	-5599
སླུ་བ་	-5600
ཟང་པོ།	-5601
འགྲེལ་ལས།	-5602
ཀག་པ་	-5603
ལྷག་པ་	-5604
▁ད་ལྟ་	-5605
རིགས་ཀྱི་བ	-5606
མ་བུའི་གླིང་	-5607
▁མགྲིན་པར་	-5608
གསུམ་གྱིས་བ	-5609
འཐུན་	-5610
ཁུར་	-5611
ལ་བཤད་	-5612
ཞབས་བ	-5613
▁གསང་བའི་	-5614
མེད་ལ་	-5615
འདོད་པས་	-5616
སྔགས་ཕྲེང་	-5617
དབང་དང་	-5618
▁རྒྱལ་བ	-5619
ཤེས་པར་བྱ།	-5620
ཟློག	-5621
ོམ།	-5622
གང་བར་	-5623
ྱང་གི་	-5624
པུཥྤ	-5625
བརྒྱད་	-5626
▁།རྒྱལ་བ་	-5627
ཕྱིན་ཅི་མ་	-5628
རྩིབས་	-5629
ྭ་བ	-5630
མ་ཤེས་	-5631
རི་བོ་	-5632
སྟན་ཏེ།	-5633
ར་བསམ་	-5634
▁ཀྱང་	-5635
ཀུན་འདུས་	-5636
ཚར་བ	-5637
▁།ཤིན་ཏུ་	-5638
སྩོལ།	-5639
ཆོས་སྐུའི་	-5640
ནཱ་རོ་	-5641
ཐིམ་པས་	-5642
ལ་འདི་སྐད་ཅེས་	-5643
དེ་བཞིན་ནོ།	-5644
འབྱུང་བ་དང་།	-5645
གསོག་	-5646
ན་རྡོ་རྗེ་	-5647
་༼	-5648
རྣམ་གྲོལ་	-5649
▁དབང་གི་	-5650
གཙོ་བོར་བ	-5651
ཾ་བྷ་	-5652
སྤུངས་	-5653
ཐོག་ཏུ་	-5654
འདི་ལྟ་བུ་	-5655
མིང་བ	-5656
ུ་བོ་	-5657
ལྷ༔	-5658
ཡུམ་གྱི་	-5659
▁ཉེ་	-5660
བ་བོ།	-5661
འདོད་ན་	-5662
དང་བཅས་ཏེ་	-5663
གཟུགས་སུ་	-5664
དོན་དམ་པར་	-5665
ེག	-5666
ར་བ་དང་།	-5667
རྒོལ་བ་	-5668
གསོལ་བ་གདབ་	-5669
ལྤགས་	-5670
▁འཆ	-5671
འབུལ་བ	-5672
▁།ལེགས་	-5673
མཛད་ཅིང་།	-5674
སླད་དུ།	-5675
ཏགས་པའི་	-5676
འདི་ཡང་	-5677
▁ཆོས་དབྱིངས་	-5678
ཐུན་མོང་གི་	-5679
▁ཐུགས་ཀར་	-5680
སྤྱི་བོའི་	-5681
དབང་བསྐུར་བས༔	-5682
སངས་རྒྱས་ཀྱི་བ	-5683
གྱི་བུ་	-5684
་བཛྲ	-5685
▁བློ་གྲོས་	-5686
པར་བྱེད་པ་དང་།	-5687
ཅིག་ཅེས་	-5688
དེ་ལྟ་བུའི་	-5689
▁།དངོས་	-5690
དྲུག་པོ་	-5691
གཙོ་བོའི་	-5692
སྐྱོ་	-5693
▁སུམ་	-5694
་བྱེད་	-5695
ཧུ་	-5696
པར་འགྱུར་རོ་	-5697
མྱོས་	-5698
མགྱོགས་	-5699
རང་གི་ངོ་བོ་	-5700
ཚེ་ཡི་	-5701
▁རྩ་བ་	-5702
ླང་དོར་	-5703
▁སྐལ་ལྡན་	-5704
སྐྱོན་བ	-5705
མངོན་གྱུར་	-5706
ཅུ།	-5707
▁།སློབ་དཔོན་	-5708
▁སེམས་བསྐྱེད་	-5709
ཅད།	-5710
གཡོན་བ	-5711
རིལ་	-5712
ལ་སོགས་པར་	-5713
པ་ཡིན་གྱི།	-5714
གདན་ལ་	-5715
ལ་གཉིས་ཏེ།	-5716
ལྷ་ལ་	-5717
ང་ལ་	-5718
སྐྱོང་བ་	-5719
ཁྱབ་པར་	-5720
ྱེ་མ་	-5721
▁།ཕྱོགས་	-5722
ཤི་ཀ་	-5723
གསུངས་པ།	-5724
10000250	-5725
སྡེ་བརྒྱད་	-5726
སྒྱུ་འཕྲུལ་	-5727
ལྔ་ཡི་	-5728
རིམས་	-5729
གཡས་སུ་	-5730
སྔོན་དུ་འགྲོ་བ	-5731
དུ་མར་	-5732
▁།སྲིད་	-5733
ཀུན་གཞི་	-5734
ཡཾ་	-5735
▁ལན་གསུམ།	-5736
ཆིངས་	-5737
▁མོས་	-5738
▁སྣང་སྲིད་	-5739
▁འོད་གསལ་	-5740
སགས་པའི་	-5741
མཛོད་ཅིག	-5742
མེར་	-5743
ཞེས་བྱ།	-5744
གདུལ་བྱའི་	-5745
སྒོམ་ལམ་	-5746
འགྱུར་ཏེ་	-5747
▁རྒྱལ་བའི་	-5748
ཞེས་བཤད་	-5749
རླུང་གིས་	-5750
འདི་དང་	-5751
གཞན་ལས་	-5752
ཤོ་	-5753
▁འ	-5754
▁ཉན་	-5755
ལྟ་བུ་བ	-5756
དུ་བྱོན་	-5757
འགྲོར་	-5758
▁དགྲ་བགེགས་	-5759
ླུན་	-5760
རྒྱ་ཆེན་པོ་	-5761
འགྱུར༔	-5762
▁ཐིག་ལེ་	-5763
ཕྲ་རབ་	-5764
པའི་དུས་སུ་	-5765
ཁཾ་	-5766
ཛ༔	-5767
དབང་ཕྱུ	-5768
པ་དེ་ཡང་	-5769
▁རལ་	-5770
ཐ་མི་	-5771
དུད་རྩིས་	-5772
གཞོམ་	-5773
▁།དང་པོ་ལ།	-5774
དཔལ་འབྱོར་	-5775
སྔགས་དང་	-5776
ཾ།།	-5777
▁རུས་	-5778
▁བདག་ནི་	-5779
འགྲན་	-5780
འདོད་དོ།	-5781
▁སྟག་	-5782
དགག	-5783
ལྷག་མཐོང་	-5784
ལ་ནས་	-5785
སྐོམ་	-5786
ཉིས་བ	-5787
ཞུ་བའི་	-5788
དྷཱུ་	-5789
དང་པོ་བ	-5790
པར་བྱ་བ་དང་།	-5791
▁བི་	-5792
ཐུགས་རྗེས་	-5793
ཁྱད་པར་གྱི་	-5794
རཀྟ་	-5795
▁པྲ་	-5796
གཞུང་ལུགས་	-5797
རྒྱལ་པོ་བ	-5798
▁རྣམ་ཤེས་	-5799
ཡོད་པ་དང་།	-5800
ཡིན་ན	-5801
རྨད་	-5802
དབང་བཞི་	-5803
རྣལ་འབྱོར་གྱི་	-5804
▁སྤྲ	-5805
ྱང་ཆུབ་སེམས་ད	-5806
སྐྱེ་བོའི་	-5807
▁L	-5808
མཐོང་ན་	-5809
གོ་ཆ་	-5810
ངོ་བོ་ཉིད་ཀྱིས་	-5811
མཆིས།	-5812
སྙིང་པོར་	-5813
སོས་	-5814
ཚེགས་	-5815
▁གཞོན་	-5816
ུལ༔	-5817
▁ལྡན་	-5818
▁དབང་བསྐུར་	-5819
དགའ་བར་	-5820
རང་བཞིན་བ	-5821
▁ཆོས་རྗེ་	-5822
དག༔	-5823
སྔགས།	-5824
▁PAGE	-5825
གྱེན་དུ་	-5826
མཉམ་བཞག་	-5827
སྡུག་བསྔལ་བ	-5828
རྣམ་པར་དག་པའི་	-5829
ཐོས་ནས་	-5830
ཕྱག་ལེན་	-5831
ཟའ་བ་	-5832
▁།སྐྱེ་	-5833
ལ་ཐིམ།	-5834
ཟད་པར་	-5835
ལྔ་སྟེ།	-5836
▁བྲ	-5837
མངོན་པར་ཞེན་	-5838
པའི་བར་དུ་	-5839
ལྷུང་	-5840
ཉིན་ཞག་	-5841
ྲམ་ཟེའི་	-5842
ཅོག་	-5843
སོག་	-5844
རྩིབས་བ	-5845
ལ་སོགས་པ།	-5846
སྐྱངས་	-5847
ཀྱིས་ཀྱང་	-5848
དམར་པོའི་	-5849
པ་གཅིག་	-5850
སླངས་	-5851
ཉེར་ལེན་	-5852
མཐུ་སྟོབས་	-5853
མི་འཐད་དེ།	-5854
ལྷག་པའི་	-5855
མོ༔	-5856
▁།དུས་གསུམ་	-5857
▁།ཡིད་	-5858
མ་བཤད་	-5859
མཚུངས་པར་	-5860
ཡོད་ལ།	-5861
ཟག་མེད་ཀྱི་	-5862
ལེན།	-5863
ཀློག་	-5864
འགྲུབ་པའི་	-5865
ཁུ་བ་	-5866
སྒོས་	-5867
ཟང་བ	-5868
རྒྱལ་པོས་	-5869
སྙམ་དུ་བ	-5870
ཚད་མར་	-5871
ལ་དགོངས་	-5872
ནས་བརྩམས་	-5873
▁བཅོམ་ལྡན་འདས་བ	-5874
▁།བསོད་ནམས་	-5875
ཀུན་ནས་བ	-5876
དྲུག་ཏུ་	-5877
དགྲ་བོ་	-5878
ཆོས་སུ་	-5879
པའི་མཐའ་	-5880
ཚོར་བ	-5881
མེད་པས།	-5882
པའི་ཕྱོགས་	-5883
གཤེགས་སུ་གསོལ༔	-5884
▁དངོས་གཞི་	-5885
པར་འགྱུར་ཏེ	-5886
▁མྱུ	-5887
ཆ་ནས་	-5888
སྣམས༔	-5889
འབར།	-5890
ྷྱཿ	-5891
དང་འདྲ་བར་	-5892
དེ་བཞིན་དུ།	-5893
འགལ་བར་	-5894
ཆེན་པོར་བ	-5895
ཏགས་པ་	-5896
ཡིན་ཞེས་	-5897
▁འཁོར་བའི་	-5898
ཏུང་	-5899
ཞགས་པ་	-5900
ཡོན་ཏན་གྱི་	-5901
པའི་མེ་	-5902
དོན་དང་	-5903
སྡུ་བའི་	-5904
སྟོན་བ	-5905
གྱུར་ནས་	-5906
ཡེ་ཤེས་པ་	-5907
འཁྲུལ་པའི་	-5908
ཅན་དང་	-5909
དག་གི	-5910
▁ནས།	-5911
གཡོ་བ	-5912
དགོས་པའི་	-5913
པའོ༔	-5914
▁བྱས་	-5915
ཀྲོ་དྷ་	-5916
འདུ་བ་	-5917
ཁོ་ན་ལ་	-5918
རང་དབང་	-5919
▁༼༤	-5920
་རཱི་	-5921
འགག་པ་	-5922
▁འཛིན་	-5923
དོན་དང་།	-5924
པདྨ་དང་	-5925
ཝཾ་	-5926
ཁམས་དང་	-5927
འདིའི་རྗེས་ཟློས་	-5928
▁།གང་གི་	-5929
%?-	-5930
དྲོ་	-5931
པར་ནུས་	-5932
འཐད་པར་	-5933
སྐྱེ་བ་བ	-5934
ར་དྭ་ཏིའི་བུ་	-5935
རྦད་	-5936
སྔ་ཕྱི་	-5937
ཟིན་པའི་	-5938
གཞལ་བྱ་	-5939
དཔའ་བ	-5940
ིནྡ	-5941
ུགས༔	-5942
ལྷར་བ	-5943
ཁྲག་འཐུང་	-5944
མ་ཡིན་པས་	-5945
སྒོ་གསུམ་	-5946
ལ་སྤྱོད་	-5947
འཆང་།	-5948
ཐུགས་རྗེ་ཆེན་པོ་	-5949
ཡིན་བ	-5950
ྱམས་པ་	-5951
མེད་པ་དང་	-5952
འཛག་	-5953
ལྡན་བླ་མ་	-5954
གཏང་	-5955
ལ་དེ་	-5956
མུ་ཁྱུད་	-5957
ལེའ	-5958
དང་མཐུན་པར་	-5959
ཏུ	-5960
ཉམས་མྱོང་	-5961
གསལ་བར་བ	-5962
ལ་བཞུགས་	-5963
ཚོར་	-5964
རྒྱ་རྒྱ༔	-5965
ླངས་ནས་	-5966
སྒྲོ་བ	-5967
ཐེག་པ་ཆེན་པོའི་	-5968
འཚོ་བ་	-5969
དང་བརྟེན་	-5970
འོད་འཕྲོས་	-5971
▁རིན་པོ་ཆེའི་	-5972
སྤངས་ནས་	-5973
ལྟ་བ་དང་།	-5974
དུ་བཞུགས་	-5975
རིགས་ལྔའི་	-5976
སྙིང་རྗེའི་	-5977
ཤེས་ནས་	-5978
སྒྲོན་མ་	-5979
ཕུ་	-5980
སྐོར༔	-5981
ཉམས་པ་	-5982
པ་བ་	-5983
མོའི་བ	-5984
རང་རྒྱུད་	-5985
དུ་མས་	-5986
ཞོ་	-5987
▁།དཔལ་ལྡན་	-5988
ཞུགས་སོ།།	-5989
བྱ།	-5990
ནོན་	-5991
▁༄།	-5992
གྲུབ་བོ།	-5993
གད་	-5994
འདི་རྣམས་	-5995
སྒོམ་པ་ལ་	-5996
དམ་ཅན་	-5997
རྣམ་པར་རྟོག་པ་	-5998
▁འི་	-5999
ཕྱི་རོལ་གྱི་	-6000
དག་ལ་བ	-6001
▁བསྟན་བཅོས་	-6002
ྱུང་བས་	-6003
མ་ཟད་	-6004
འཐོར་	-6005
▁ལྷག་མ་	-6006
མགོ་བ	-6007
རྒྱ་ཕྲག་	-6008
ཕོ་ཉ	-6009
པ་པོ་	-6010
སྒྲུ	-6011
མཛད་ནས་	-6012
སྟེང་ན་	-6013
▁རྣམ་པར་ཤེས་པ་	-6014
▁།སྒྲ་	-6015
༼༣	-6016
▁ས་བོན་	-6017
སོགས་སོ།	-6018
རྩད་	-6019
དོན་ནི།	-6020
སྦྱོང་བ་	-6021
▁གཙོ་བོ་	-6022
སྩལ་དུ་གསོལ།	-6023
པའི་སྐུ་	-6024
་བ་ལིཾ་	-6025
▁ཞི་བ་	-6026
ཕྱོགས་བཅུར་	-6027
ཁ་ན་མ་ཐ	-6028
གཞུང་གི་	-6029
མེད་དོ་	-6030
ལ་ཆོས་	-6031
སྐྲུན་	-6032
གསར་དུ་	-6033
མཁས་པའི་	-6034
ཆགས་པའི་	-6035
སེལ་བའི་	-6036
ྱུང་གི་	-6037
པ་མ་མཆིས་	-6038
རྟོགས་པས་	-6039
ོམས།	-6040
▁གསལ་	-6041
ཁོ་ན་བ	-6042
▁སྲིན་	-6043
གང་ཡིན་པ་དེ་ནི།	-6044
ཅའ་	-6045
▁མུ་སྟེགས་	-6046
ཡེ།	-6047
▁ངས་	-6048
མཉམ་པ་ཉིད་	-6049
▁།ཁྱོད་	-6050
ུམ་པ་བ	-6051
▁དང་པོར་	-6052
མ་དམིགས་	-6053
ཀའ་སྩལ་ཏོ།	-6054
▁བྱིན་རླབས་	-6055
གནང་བ	-6056
ངན་པ་	-6057
ཊཱི་ཀ་	-6058
ཁ་ཁ་	-6059
▁།སྡུག་བསྔལ་	-6060
གྱི༔	-6061
ཀྱུ	-6062
▁བརྟན་	-6063
འཁྲུལ་འཁོར་	-6064
ལྔ་ལྡན་	-6065
རྟའི་	-6066
ཚུལ་བཞིན་	-6067
པར་མི་བྱའོ།	-6068
ཐམས་ཅད་མཁྱེན་པ་	-6069
་བི	-6070
ྱོན།	-6071
ྱས་པས།	-6072
མྱ་ངན་ལས་	-6073
▁མཐ	-6074
རྫོགས་སོ།།	-6075
མྱོང་བའི་	-6076
▁སོགས།	-6077
་རྐ	-6078
སོགས༔	-6079
རྟོགས།	-6080
▁གང་དག་	-6081
ཐེག་ཆེན་གྱི་	-6082
ཆོ་ག	-6083
ཁཱ་ཧི་	-6084
▁10000300	-6085
ལླ	-6086
མཐུན་ཕྱོགས་	-6087
ཡུམ་བ	-6088
▁ཐེག་ཆེན་	-6089
གཏུགས་	-6090
▁སྨིན་	-6091
ཱ་ན་	-6092
འདུས་ཏེ་རེག་	-6093
གས་པའི་	-6094
གཉིས་པའི་	-6095
ཚང་བ	-6096
▁ཀཽ་	-6097
སྲིད་དུ་	-6098
ཞེས་བྱ་བ་དང་།	-6099
དགག་བྱ་	-6100
ཕྱིན་ཆད་	-6101
གཏོང་བ	-6102
རྒྱ་མཚོར་	-6103
ཧ་ན་	-6104
▁འདུས་བྱས་	-6105
ལྔ་ལ་	-6106
སྔོ།	-6107
གྲུ་བཞི་	-6108
རྣམ་པར་དག་པ།	-6109
རྫས་སུ་	-6110
དེ་ཉིད་བ	-6111
▁སེར་	-6112
སྟོད་བ	-6113
▁རྣམ་རྟོག་	-6114
▁ཞེས་པའི་	-6115
དང་བསྟུན་	-6116
དབང་བསྐུར་བའི་	-6117
ུད་བ	-6118
དག་ལས་	-6119
སྔོས་	-6120
ཁྱོད་བ	-6121
སྲོག་གི་	-6122
དུད་འགྲོ་	-6123
▁།དངོས་གྲུབ་	-6124
▁དོན་བ	-6125
སྭ་	-6126
ཐེབས་	-6127
གྱུར་ཏེ།	-6128
▁སྟོང་ཉིད་	-6129
ཅེས་བྱའོ།	-6130
ཚངས་པའི་	-6131
དབུ་བ	-6132
རི་ཁྲོད་	-6133
གཏན་ལ་ཕབ་	-6134
མྱེད་པའི་	-6135
རྒྱ་གྲ	-6136
གསུངས་པས་	-6137
སྤྲུལ་པའི་སྐུ་	-6138
མ་པ་	-6139
▁རང་རིག་	-6140
▁ལྗ	-6141
དམ་བཅས་	-6142
དེ་ན་	-6143
ས་མཱ་ཛཿ	-6144
▁ལུགས་	-6145
འཆད་དོ།	-6146
འོད་སྲུང་	-6147
སྩོལ་	-6148
ངེས་པར་བ	-6149
རྡོ་རྗེའི་བ	-6150
པའི་ཕྱིར་རོ་	-6151
སྡོམས་	-6152
ཕུང་པོའི་	-6153
▁དེ་དག་ནི་	-6154
འཁོར་དང་བཅས་པ་	-6155
དབུལ།	-6156
ནི་ས་	-6157
རེ་བ་	-6158
ལག་ཏུ་	-6159
དཀྲིས་	-6160
དད་པར་	-6161
▁མང་	-6162
སམ་མི་	-6163
ཉི་ཟླའི་	-6164
ས་བདག་	-6165
▁སྤྱོད་པ་	-6166
ཚོམ་བུ་	-6167
འཕྲད་	-6168
ཁོག་	-6169
རྒྱུ་བའི་	-6170
ེ་ཤ་ཡ་	-6171
ཟང་ཟིང་	-6172
ཤེར་ཕྱིན་	-6173
▁།ཚོགས་	-6174
གིས་མཚན་	-6175
གཅིག་པ་	-6176
མཚོན་བྱ་	-6177
གོལ་	-6178
དང་ལྷ་	-6179
རྨ་བ	-6180
སྟེར་	-6181
འདྲ་བར་	-6182
▁ནུབ་ཏུ་	-6183
དོན་དུ་གཉ	-6184
▁།བདག་གི་	-6185
▁གཟུགས་ཀྱི་	-6186
ཞག་བདུན་	-6187
གསུམ་པའི་	-6188
ཁ་ཟས་	-6189
ྃ༔	-6190
ཞི་གནས་	-6191
རྗེས་སུ་མི་	-6192
པ་ལ་མི་	-6193
ཡིག་འབྲུ་	-6194
ཇོ་	-6195
....	-6196
ཤགས།	-6197
▁ས་མ་ཡ་	-6198
འདི་ནི་བ	-6199
▁།ནམ་མཁའ་	-6200
ྷྱོ་	-6201
རང་གི་མཚན་ཉིད་	-6202
ཏིལ་	-6203
ལྟ་བུར་བ	-6204
རྡོ་རྗེ་དང་	-6205
▁3-	-6206
▁།དེར་	-6207
གྲུབ་ན་	-6208
སྣན་	-6209
▁།བསྟན་	-6210
ྴ་	-6211
ཐམས་ཅད་ནི་	-6212
སྦྱོར།	-6213
གཤིས་	-6214
▁བྱང་དུ་	-6215
▁སྦྲ	-6216
▁དེ་ཁོ་ན་	-6217
▁སྒྱུ་	-6218
དེ་དག་བ	-6219
ཀྱིས་ནི་	-6220
▁མ་རིག་	-6221
པའི་ཡུལ་	-6222
མི་འདྲ་བ་	-6223
པདྨ་འབྱུང་གནས་	-6224
ཟུང་དུ་	-6225
ྱིན་བརླ	-6226
མ་པོ་	-6227
▁མེ་ལོང་	-6228
དཔེའི་	-6229
ལེགས་བ	-6230
▁སྤོས་	-6231
▁མཇ	-6232
ལྗགས་	-6233
དབུལ་བ	-6234
རེག་བྱ་	-6235
པའི་མཚན་ཉིད་	-6236
ངོ་ཞེས་	-6237
མེད་ཅིང་།	-6238
གསུངས་པ་དང་།	-6239
ཆོག	-6240
ཞི་ལས།	-6241
རྣམ་སྣང་	-6242
གྱི་བར་དུ་	-6243
▁རྒྱ་རྒྱ་རྒྱ༔	-6244
སེམས་ཙམ་	-6245
▁།གང་ཞིག་	-6246
ཉིན་མཚན་	-6247
པ་ཡིན་ན་	-6248
སྙད་བ	-6249
ཏྨ་	-6250
ཉེར་སྤྱོད་	-6251
ཤོར་	-6252
སོན་	-6253
▁ཀྱང་།	-6254
ཀུན་རྫོབ་བ	-6255
མི་རྟག་པར་	-6256
གླུད་	-6257
▁ཐོད་	-6258
སྔ་མའི་	-6259
སྡུས་ཏེ་	-6260
ཤེ་	-6261
གཡོན་དུ་	-6262
མིན་པར་	-6263
▁བྱང་སེམས་	-6264
ཤམ།	-6265
དུ་མའི་	-6266
ཙུན་བ	-6267
ཅི།	-6268
རྗེས་ཐོབ་	-6269
སྡུས།	-6270
སྔར་བཤད་	-6271
ྱང་ཆུབ་ཏུ་	-6272
མཁྲ	-6273
ངས་པ་	-6274
ནོངས་	-6275
▁ཚིགས་	-6276
དོད་	-6277
སྒོམ༔	-6278
མང་པོས་	-6279
མང་བ	-6280
གཙིགས་	-6281
རཾ་	-6282
རྣལ་འབྱོར་པ་	-6283
▁ལྕེ་	-6284
མདོར་ན་	-6285
དུད་རྩི་བ	-6286
འགྱོད་	-6287
ཕན་འདོགས་	-6288
ཉེ་བ་	-6289
རྣམ་བཤད་	-6290
ཁ་ར	-6291
ས་དང་	-6292
མངའ་བདག་	-6293
འཁྲུལ་བ་	-6294
སྨོན་ལམ་བ	-6295
ཟང་ངན་	-6296
གོང་གི་	-6297
▁།རབ་	-6298
དབུ་མར་	-6299
པུ	-6300
སུ༔	-6301
ཆུ་དང་	-6302
སྒེག་	-6303
སྟོན་ཏོ།	-6304
▁དེ་ཡང་བ	-6305
གྲུབ་ཐོབ་	-6306
▁འདོད་པའི་	-6307
འོག་མིན་	-6308
ྱུང་ངོ་།	-6309
ཏྲཱ	-6310
རྒྱས་པར་བ	-6311
▁རྙ	-6312
རྟགས་སུ་	-6313
པའོ་ཞེས་	-6314
▁ནང་དུ་	-6315
སཾ་	-6316
སྐྱེད༔	-6317
སྤང་བའི་	-6318
མགོ་བོ་	-6319
མཁའ་ལ་	-6320
པའི་གཞི་	-6321
མཆེ་བ་	-6322
ཉེ་བར་ལེན་	-6323
འཕེལ་བར་	-6324
ལས་རྣམ་པར་	-6325
སྦྱང་བ	-6326
དེ་བ་ཆེན་པོ་	-6327
འཕྲེ	-6328
▁འབྲུ་	-6329
གཤེགས་སུ་གསོལ།	-6330
འཕེལ་བ	-6331
ཚུལ་ལོ།	-6332
▁འཆི་མེད་	-6333
པར་མི་བྱེད་	-6334
གཅིག་པའི་	-6335
མ་སྤངས་	-6336
▁།བུ་	-6337
ཡོད་མ་ཡིན།	-6338
ྃ།	-6339
རོ་བ	-6340
གཟུགས།	-6341
མི་རྟོག་པའི་	-6342
ཀཱ་ལ་	-6343
དམྱལ་བར་	-6344
པའི་རྒྱན་	-6345
▁དེར་ཐལ།	-6346
གན་	-6347
མཱ་ར་ཡ་	-6348
མཚན་ཉིད་བ	-6349
མེད་ཅེས་	-6350
▁རླུང་གི་	-6351
▁།སངས་རྒྱས་བ	-6352
གཞན་ཡང་བ	-6353
ཕྱི་རོལ་དུ་	-6354
ློན་	-6355
ང་བ་ནི།	-6356
ངོ་བོའི་	-6357
རིམ་བཞིན་	-6358
སྡོམ་པའི་	-6359
འདི་ན་	-6360
པ་དེ་ལྟར་	-6361
ཤར།	-6362
མདུང་	-6363
▁ན་མཿ	-6364
སྦྱོར་བས་	-6365
▁འདིར་ནི་	-6366
འདའ་བར་	-6367
ལུང་དང་	-6368
ང།་	-6369
འདོར་	-6370
སྐྱེམས་	-6371
2-	-6372
སེན་	-6373
གྱུར་ནས།	-6374
རྣ་བ་	-6375
▁སྤྲོས་	-6376
ཨ་མྲྀ་ཏ་	-6377
ལས་བཟློག་	-6378
པར་མཛད།	-6379
གཏན་ལ་དབབ་	-6380
ཀན་	-6381
ལྟོ་	-6382
ར་བས་	-6383
▁གལ་ཏེ་བ	-6384
པ་ཞེས་	-6385
གང་བའི་	-6386
དོན་གཅིག་	-6387
ཟིལ་གནོན་	-6388
དགོས་པའི་ཕྱིར།	-6389
ལུགས་བ	-6390
རྣམ་པ་བཞི་	-6391
པ་མེད་པ་དང་།	-6392
▁མོ་	-6393
ཁང་གི་	-6394
ཁོར་	-6395
སྙིང་བ	-6396
ངོ་བོས་	-6397
རློམ་སེམས་སུ་	-6398
དབུས་སུ་བ	-6399
དངོས།	-6400
ལོའི་	-6401
▁ཆོ་ག་	-6402
རྗེས་སུ་ཡི་	-6403
ལེ	-6404
གསལ༔	-6405
▁སེམས་ཅན་གྱི་	-6406
མིན་པའི་	-6407
སྐོར་གྱི་	-6408
▁ཆོས་ཀྱི་དབྱིངས་	-6409
སྐད་ཅེས་	-6410
གསང་སྔགས་ཀྱི་	-6411
ཆེ་བས་	-6412
མི་བྱེད།	-6413
ངོས་འཛིན་	-6414
ཇི་ཙམ་	-6415
ཐུགས་སུ་	-6416
▁ཀུན་ཏུ་	-6417
ཎྜ་	-6418
སྤྲོ་བ་	-6419
▁ཐ་མ་	-6420
▁འགོག་	-6421
ཅིར་ཡང་	-6422
དང་གཞན་	-6423
▁དེ་བས་ན་	-6424
ཀླུའི་	-6425
འདིའི་བ	-6426
གང་ཡིན་པ་དང་།	-6427
▁སྤྲུལ་	-6428
པ་དེས་	-6429
སྡད་	-6430
མྱི་དམྱིགས་སོ།	-6431
གསོ་སྦྱོང་	-6432
▁།ཚིག་	-6433
རྣམས་ནི།	-6434
ཡན་ལག་བརྒྱད་	-6435
རྣམ་པར་དག་པ་སྟེ།	-6436
སྤྱོད་ལམ་	-6437
འདོད་ན།	-6438
ཁྱེད་ཀྱིས་	-6439
ཡུལ་དང་	-6440
ཨ་བྷི་ཥིཉྩ་ཧཱུྃ༔	-6441
ནིང་	-6442
རལ་གྲ	-6443
རྡེག་	-6444
ན་མཿ	-6445
ལས་བྱེད་	-6446
ལྕགས་ཀྱི་	-6447
ཞིར་བ	-6448
རྒྱན་བ	-6449
སྙེན་བཀུར་བ	-6450
ཞག་ལ།	-6451
གཏད།	-6452
་རིགས་	-6453
གཡོ་བའི་	-6454
▁ངན་	-6455
ཚད་མའི་	-6456
ཙ་ན་	-6457
སླབས་	-6458
ྱས་ལ་	-6459
ེ་བྲག་	-6460
▁ལམ་གྱི་	-6461
ཆེ་བ།	-6462
དངོས་བསྟན་	-6463
དགའི་	-6464
མི་འགྲུབ་	-6465
ེར་བུ་	-6466
མི་འགྱུར་རོ།	-6467
ྱང་བ	-6468
རྒྱུད་དུ་	-6469
ཅུ་བདུན་	-6470
▁སྡེ་	-6471
མི་མཐུན་ཕྱོགས་	-6472
ཆ་མཐུན་	-6473
▁མཁྱེན་	-6474
པའི་ཚུལ་ཁྲིམས་	-6475
▁ཞེས་པས་བ	-6476
▁ཉན་ཐོས་ཀྱི་	-6477
གསོས་	-6478
མེད་དེ	-6479
▁།འགྲོ་བའི་	-6480
▁གཉིས་སུ་	-6481
▁སྙིང་པོ་	-6482
▁།དགེ་སློང་	-6483
སྐྱེའོ།	-6484
དགོས་པར་	-6485
ླ་བ	-6486
▁འབྲས་	-6487
▁གཉིས་ཀ་	-6488
ྷྱོཿ	-6489
པའི་ཐབས་	-6490
པ་ཉིད་དོ།	-6491
སྣམ་	-6492
རིམ་པར་	-6493
▁¿	-6494
དྭངས་མ་	-6495
འདི་ནི།	-6496
མཚན་གཞི་	-6497
▁རྟེན་འབྲེལ་	-6498
ཀྱི་བདག་	-6499
▁ཆོས་སྐུ་	-6500
▁ཁྱད་པར་དུ་	-6501
ཐུབ་བ	-6502
ཉེས་དམིགས་	-6503
རྣམ་གསུམ་	-6504
ཞིང་དུ་	-6505
ནས་ཀྱང་།	-6506
རེ་རེ་བ	-6507
ཅུ་པོ་	-6508
སྙན་བ	-6509
སྡུ་ན་	-6510
▁སྐུ་མདོག་	-6511
པར་མི་འགྱུར་རོ།	-6512
▁པོ་	-6513
དུ་མ་བ	-6514
▁།བསམ་	-6515
▁སློབ་དཔོན་གྱིས་	-6516
▁ཚུར་	-6517
དང་མ་བ	-6518
▁སྔ་མ་	-6519
སྙིང་ག་	-6520
ཞབས།	-6521
ྀཧ	-6522
ུར༔	-6523
རོག་	-6524
▁བདག་ལ་	-6525
▁མགོན་པོ་	-6526
པར་གནས་	-6527
▁དབང་ཕྱུག་	-6528
མཆིའོ།	-6529
དབུ་རྒྱན་	-6530
▁&	-6531
རྙེད་པ་	-6532
ནུས་པའི་	-6533
འམ་བ	-6534
▁།རྣམ་པ་	-6535
ལས་གྲུབ་པའི་	-6536
▁འབྱུང་	-6537
ཛི་	-6538
རྒྱུག་	-6539
རྩ་བ་བ	-6540
ོག་བྱེད་	-6541
་བཞིན་ནོ།	-6542
▁དགའ་བ་	-6543
ག་ཏུ་	-6544
ཡེ་ཤེས།	-6545
གནོད་བ	-6546
རྫོགས༔	-6547
ར་བགྱི།	-6548
▁རྣ་བའི་	-6549
ལ་ཞུགས་	-6550
ག་ལ་བ་	-6551
དམ་ཚིག་གི་	-6552
དབང་པོ་བ	-6553
ཞབས་ཀྱི་	-6554
ཤར་བའི་	-6555
གྱུར་པས་	-6556
དོན་གྲུབ་	-6557
▁ཀུན་ནས་	-6558
མཛད་དུ་གསོལ།	-6559
པ་ལ་གཉིས།	-6560
དང་ལྡན།	-6561
དབང་ཤེས་	-6562
རྗེས་ལ་	-6563
རྒྱལ་སྲིད་	-6564
▁རྒྱུ་མཚན་	-6565
ཌ་	-6566
▁།ནད་	-6567
སྙེན་པ་	-6568
རུ༔	-6569
སྒོའི་	-6570
▁ཟླ་	-6571
▁ལྕེའི་	-6572
མདུན་བསྐྱེད་	-6573
▁གཤེགས་	-6574
ཀྲ་ཤིས་བ	-6575
ཙལ་	-6576
སྤྱོད་པ་དང་།	-6577
ྷྱོ༔	-6578
རིང་དུ་	-6579
གི་བར་དུ་	-6580
▁བར་དུ་	-6581
སྨན་གྱི་	-6582
དྱ་ཐ	-6583
▁དགུང་	-6584
མཆི་	-6585
▁སྣའི་	-6586
སོང་སྟེ་	-6587
སློབ་དཔོན་གྱིས་	-6588
▁དུང་	-6589
▁སའི་	-6590
ུབ་བྱང་	-6591
རྒྱས་བཏབ་	-6592
ཏང་བ་	-6593
དམ་ཆོས་	-6594
ཙུན་མོ་	-6595
རིང་པོ་	-6596
དཀའ་བའི་	-6597
སྐོར་དུ་	-6598
འདི་ལྟར་བ	-6599
▁ལྷན་ཅིག་	-6600
ཝི་	-6601
ཨཱ༔	-6602
ུ་དང་།	-6603
ཟང་པོས་	-6604
▁གྲོགས་	-6605
རིགས་པའི་	-6606
པར་མཛད་དུ་གསོལ།	-6607
▁དྲི་མ་	-6608
སྤྱི་བོ་ནས་	-6609
ལྔའོ།	-6610
▁བདག་མེད་	-6611
མ་མོ་	-6612
ཕོངས་	-6613
སྐུ་ཡི་	-6614
ལུང་གི་	-6615
ལ་ལན་	-6616
པུཥྤེ་	-6617
རྟེན་ལ་	-6618
པ་མེད་པས་	-6619
ཉིད་དུ་བ	-6620
བཞི་	-6621
ཅན་ནོ།	-6622
དེ་དག་ཀྱང་	-6623
ལྟོས།	-6624
རླུང་སེམས་	-6625
མི་ཕྱེད་	-6626
▁སྐྱེ་མཆེད་	-6627
དུམ་བ	-6628
གྱུར་ཅིག༔	-6629
འདས་པའི་	-6630
སྒྲུབ་པར་	-6631
ུ་ག	-6632
འདུན་པ་	-6633
ཅི་ཞིག་བ	-6634
▁མདུན་གྱི་	-6635
དགོས་ལ།	-6636
རྫོགས་པར་བ	-6637
ཚ་བ་	-6638
འི༔	-6639
མཉམ་པ་	-6640
གསན།	-6641
འདིར་ནི་	-6642
▁།ཞེས་པའི་	-6643
ཐམས་ཅད་ཀྱིས་བ	-6644
ཌཱ	-6645
འཕྲལ་	-6646
འཇའ་ཚོན་	-6647
ཏིཥྛ་	-6648
འཕོ་བའི་	-6649
ས་སྐྱ	-6650
དེན་པ་དང་།	-6651
ངེས།	-6652
དྲེགས་པ་	-6653
དེ་ཉིད་ལ་	-6654
▁བཀའ་བ	-6655
▁།ཞེས་བ	-6656
▁སྙིང་གར་	-6657
སྟེང་ནས་	-6658
འགྱུར་བ།	-6659
ཤྭ་	-6660
ཕྱྭ་	-6661
འཁོར་ལོར་	-6662
སླུ་བ	-6663
ཕྱིར་ན་	-6664
▁མདུན་དུ་	-6665
ངོ་སྤྲོད་	-6666
གཉིས་སུ་མེད་པར་	-6667
ཟའི་	-6668
ི་བཛྲ་	-6669
▁འགྲོ་བའི་	-6670
རྩེ་གཅིག་ཏུ་	-6671
▁ཉོན་མོངས་པ་	-6672
▁སློབ་དཔོན་གྱི་	-6673
མཇལ་	-6674
དེད་	-6675
འབྲས་བུར་	-6676
▁སྦྱོར་	-6677
འདམ་	-6678
མ་ཎི་	-6679
▁ཧྲཱི༔	-6680
རོལ་པ་	-6681
▁ཁྱིམ་བདག་	-6682
ཡོད་དེ་	-6683
ངེས་ཤེས་	-6684
རྒྱལ་སྲས་	-6685
▁ཨེ་མ་	-6686
པའི་འབྲས་བུ་	-6687
ཉེར་གཅིག་	-6688
གཉིས་སུ་བ	-6689
▁ཧོཿ	-6690
ླ་མས་	-6691
ནྱ་	-6692
སྐུམ་	-6693
▁ཁོ་བོ་	-6694
སྔོན་དུ་བ	-6695
ཁོངས་སུ་	-6696
▁ནཱ་	-6697
ཁྱབ་བདག་	-6698
▁།གསང་སྔགས་	-6699
▁འཆི་	-6700
ཤེས་རབ་བ	-6701
ཡིན་པར་ཐལ།	-6702
ཚུད་	-6703
ཡ་མ་	-6704
གདབ་བ	-6705
ིཾ་ཀུ་རུ་	-6706
དཔང་	-6707
དཀྱུས་	-6708
གཏུམ་མོ་	-6709
པའི་སྒྲ་	-6710
ཇི་ལྟ་བ་	-6711
པ་རྣམས་ཀྱང་	-6712
▁ག་	-6713
ཆེན་པོས་བ	-6714
ཁུ་ཚུར་	-6715
ལྟར་སྣང་	-6716
ཉམས་སུ་བླ	-6717
རུང་བར་	-6718
ཡན་ལག་གི་	-6719
་རྦ	-6720
གཟེར་	-6721
ཀར་བ	-6722
ཚངས་པར་	-6723
མངོན་དུ་བྱས་	-6724
མཐུས་	-6725
ཡངས་ཤིང་	-6726
▁དྲན་པ་	-6727
▁དབྱངས་	-6728
ཤིག་ཅེས་	-6729
གནས་བརྟན་	-6730
ཉག་	-6731
གཡུང་	-6732
སྦུབས་	-6733
▁བདེ་བར་གཤེགས་	-6734
▁ཐོས་	-6735
▁ཕྱོགས་བཅུའི་	-6736
རི་མོ་	-6737
པ་ལྟ་བུ་	-6738
▁༔	-6739
མཁས་པས་	-6740
འགྲོ་བ་དང་།	-6741
ངང་ལ་	-6742
ཐལ་འགྱུར་	-6743
བྱེད་ཀྱི་	-6744
སོགས་སུ་	-6745
ོང༔	-6746
ྱུག་པ་	-6747
ཆགས་སྡང་	-6748
པའི་བྱ་བ་	-6749
པར་གྱུར་ན་	-6750
ཁ་ཊྭཱཾ་	-6751
▁།སྟོང་	-6752
▁གཉིས་པ་བ	-6753
དང་བཅས་པ་དང་།	-6754
▁།ཨ་	-6755
▁དཔའ་	-6756
སྟེར་བ	-6757
རི་དྭགས་	-6758
སྒོམ་མོ།	-6759
མགོན་པོའི་	-6760
རོང་	-6761
▁།ཞེས་པ་དང་།	-6762
▁།དེ་ལས་	-6763
རྱ་	-6764
མ་མཐོང་	-6765
ངོ་བོ་བ	-6766
ཡི་གེ་བརྒྱ་	-6767
མ་ཆད་	-6768
མངོན་དུ་བྱེད་	-6769
སྣའི་	-6770
▁།དེའང་	-6771
▁བླ་མ་དང་	-6772
སླབ་བྱ་	-6773
གནས་གསུམ་	-6774
▁།ཞེས་བཤད་	-6775
གཞིར་བ	-6776
ལྟུང་བར་	-6777
པའི་བཀའ་	-6778
སྙིང་གི་	-6779
▁བསྟན་པ་	-6780
པའི་གང་ཟག་	-6781
པཎ་ཆེན་	-6782
རྒྱན་པ་	-6783
ཡན་ལག་བདུན་	-6784
དབྱུང་	-6785
▁བཟླས་	-6786
ལ་གནོད་	-6787
▁སྟོན་པ་	-6788
ྲེ་	-6789
ལ་སོགས་པའོ།	-6790
ཤུགས་ཀྱིས་	-6791
▁།དངོས་པོ་	-6792
▁།བདག་ཉིད་	-6793
ཐ་མི་དད་	-6794
ལྟ་བུའི་བ	-6795
▁ཞག་	-6796
ཆེའི་	-6797
གནས་སུ་བ	-6798
ལམ་གྱིས་	-6799
དེས་ན་	-6800
ོངས༔	-6801
ཆེ	-6802
▁དགུ་	-6803
འཆིང་	-6804
་རཱ་	-6805
འདི་ཡིས་	-6806
འཚོ་བ	-6807
པེ་	-6808
▁གདམས་	-6809
▁བར་ཆད་	-6810
ཐིམ༔	-6811
གཞན་ཞིག་	-6812
ཧཱུྃ་བཛྲ་	-6813
འདུད་	-6814
རེ་རེ་ལ་	-6815
▁ལེའུ་	-6816
ྱིན་གྱིས་རློབ་	-6817
ཞུས།	-6818
▁བརྗོད་	-6819
▁།ཕྱག་	-6820
སྤྲས་	-6821
སྐྱེ་བ་དང་།	-6822
མིན་པ་	-6823
▁དེ་ན་	-6824
ནས་བཤད་	-6825
རྡོ་རྗེ་རྩེ་	-6826
ཀུན་འབྱུང་	-6827
འོག་ནས་	-6828
ཨཱཿཧཱུྃ།	-6829
▁རབ་ཏུ་བ	-6830
སཏྭ	-6831
འདིས་བ	-6832
▁སྲིད་པ་	-6833
ངལ་	-6834
ཆུང་མ་	-6835
པའི་བདག་	-6836
ཀླད་	-6837
ལྟ་བས་ན་	-6838
སྔགས་ཀྱིས་	-6839
་་་་བ	-6840
ཚོགས་པ་	-6841
མིག་གིས་	-6842
པའི་རྣམ་	-6843
རྟེན་ནས་	-6844
གས༴	-6845
ཧོར་	-6846
▁།མདོ་	-6847
གནས་པ།	-6848
▁གུ་རུ་	-6849
པ་དང།	-6850
པ་དང་༔	-6851
ལ་ཕོག་	-6852
▁ཡབ་ཡུམ་	-6853
མ་ཡིན་ཏེ་	-6854
སྐབས།	-6855
ཉིད་ནི་	-6856
ན་བྱེད་	-6857
དེ་ཆོས་ཅན།	-6858
▁མགོ་	-6859
ཏའི་	-6860
▁སྒྱུ་མ་	-6861
གཡུ་	-6862
དོན་དམ་བ	-6863
ཐོར་	-6864
ཐུན་བ	-6865
་་་་་བ	-6866
▁་་་	-6867
འབོད་	-6868
▁།རྒྱུད་	-6869
མེད་པ་ནི་	-6870
གསུངས་ཤིང་།	-6871
སེངྒ	-6872
ཤེས་བྱེད་	-6873
རྒྱན༔	-6874
པ་དང་ནི་	-6875
དགོས་པས་	-6876
གདོན་མི་ཟ	-6877
རྡུལ་ཕྲན་	-6878
▁ཀཽ་ཤི་ཀ་	-6879
དཔལ་ཆེན་	-6880
▁སེམས་དཔའ་	-6881
པ་མེད།	-6882
རྭ	-6883
དུམ་བུ་	-6884
གནས་པ་དང་།	-6885
ཆེ་གེ་མོ་	-6886
སར་བ	-6887
མཚུངས།	-6888
▁ཡི་	-6889
དམར་ནག་	-6890
ལས་སོ།	-6891
མི་འཇུག་	-6892
ལའང་།	-6893
སྡོམ་པ་བ	-6894
སྔགས་ཀྱིས་བ	-6895
ལེགས་བཤད་	-6896
ཤཱཀྱའི་	-6897
སྨྲ་བར་	-6898
▁ངོ་བོ་ཉིད་	-6899
▁གཅ	-6900
ོལ་བས་	-6901
སྒོམ་པ་དང་།	-6902
དགའ།	-6903
ོན༽་	-6904
སླེབ་	-6905
▁།དགེ་	-6906
སྒྲལ་	-6907
▁ཀུན་དགའ་བོ་	-6908
འཇམ་པའི་དབྱངས་	-6909
སྦྱིན་སྲེག་བ	-6910
རྣ་	-6911
▁ཆ་	-6912
ལྟ་ཅི་	-6913
གྱུར་ན་	-6914
གནས་ཏེ།	-6915
མ་ཉམས་	-6916
ཟུང་འཇུག་གི་	-6917
▁།རབ་ཏུ་	-6918
▁ཉེས་བྱས་	-6919
ཨཾ་	-6920
སྟན་ལ་	-6921
ལྷའི་བུ་	-6922
▁ཆེན་པོ་	-6923
གྲུབ་པས་	-6924
པའི་རང་བཞིན་	-6925
གཏོར་མའི་	-6926
དགོངས་ནས་	-6927
འདིས།	-6928
▁།གང་གིས་	-6929
ིམས་	-6930
མདོའི་	-6931
མཆུ་	-6932
▁རི་བ	-6933
ྲིས་པ་	-6934
ར༴	-6935
མཛད་པར་	-6936
ཐུགས་དམ་བསྐང་	-6937
ཀཱ་ཡ་	-6938
ཕྱག་རྒྱས་	-6939
ཉྫ	-6940
འབྱོན་	-6941
དམར་མོ་	-6942
གཞན།	-6943
▁།མཆོག་	-6944
▁ཕྱིའི་	-6945
ལ་ཕྱག་འཚལ་བསྟོད༔	-6946
ཐར་བ	-6947
པའི་གནས་སུ་	-6948
སེམས་ཅན་རྣམས་	-6949
འཇིག་རྟེན་པའི་	-6950
གཞུ་	-6951
མ་གླིང་	-6952
ཧཱུྃ་ཧཱུྃ་	-6953
▁༦	-6954
ཁྱེད་ཀྱི་	-6955
སྣ་ཚོགས་སུ་	-6956
ཊཱི	-6957
▁རྣལ་འབྱོར་བ	-6958
གཟུང་བའི་	-6959
ཤར་གྱི་	-6960
▁ལ་ལ་	-6961
པ་བཅུ་	-6962
དབང་ཆེན་	-6963
▁ཨོ་རྒྱན་	-6964
ལུད་	-6965
ཐ་སྙད་བ	-6966
འབྱུང་ལ།	-6967
▁།རྡོ་རྗེའི་	-6968
▁།གཡོན་	-6969
ཡིན་པ་དང་།	-6970
▁།འོན་ཀྱང་	-6971
▁དེའི་བ	-6972
▁ངེས་པར་	-6973
པའི་ཚུལ།	-6974
▁བའི་	-6975
ཱན་	-6976
འགྲོ	-6977
ི་བར་	-6978
རླུང་དང་	-6979
འབྱུང་བ་བ	-6980
འཁོན་	-6981
༼༤	-6982
ོད	-6983
པོ༔	-6984
ཕྱི་ནང་གི་	-6985
སྣ་ཚོགས་ཀྱི་	-6986
ཞེ་ན	-6987
▁དབྱེ་	-6988
▁།འཁོར་	-6989
སྔགས་འཆང་	-6990
འཇིགས་པའི་	-6991
ླ་ན་མེད་	-6992
▁,	-6993
དོན་གྱིས་	-6994
དངོས་གྲུབ་སྩོལ།	-6995
མཉམ་པར་བ	-6996
རབ་བྱུང་	-6997
▁སརྦ	-6998
གི་བར་	-6999
ཕ་མ་	-7000
རྩྭ་	-7001
ཤཱནྟ	-7002
འཚམས་	-7003
དང་ལྡན་པར་	-7004
ྲལ།	-7005
▁རུ་	-7006
འཕོ་བ	-7007
མཐེ་བོང་	-7008
▁ཕན་	-7009
▁དྲིལ་བ	-7010
རྒྱ་ཆེ་བ་	-7011
ཐག་བ	-7012
གྲགས་པས་	-7013
དོན་རྟོགས་	-7014
པར་འགྱུར་བ་དང་།	-7015
▁ངེད་	-7016
ཀུན་ལས་	-7017
ལོངས་སྐུ་	-7018
པར་བྱེད་པའོ།	-7019
ལཱ་	-7020
▁དབུགས་	-7021
ཀུན་གྱི་བ	-7022
སྐུལ་བའི་	-7023
ཆར་བ	-7024
▁གཙང་	-7025
རྒྱད་ཅུ་	-7026
ལས་དང་པོ་	-7027
▁དེ་དག་ལ་	-7028
▁བསམ་གཏན་གྱི་	-7029
ུའམ་	-7030
ཐལ་ལོ།	-7031
སྟོངས་	-7032
འོད་དཔག་	-7033
ཆུ།	-7034
ཕྱོགས་བཅུ་	-7035
ཡེ་སྭཱ་ཧཱ།	-7036
རྒྱལ་བའི་བ	-7037
འདོད་པ་དང་།	-7038
ཕྱིན།	-7039
ཁམས་སུ་	-7040
སྐྱབས་འགྲོ་	-7041
ཧྱ་	-7042
ེགས༔	-7043
▁སྙན་	-7044
ཀྱང༔	-7045
དུས་མཉམ་	-7046
▁ཁྲོ་བོ་	-7047
ཏྣ	-7048
སྡེབས་	-7049
ཌཱ་ཀི་ནཱི་	-7050
རྒྱལ་བའི་སྲས་	-7051
རྒྱལ་གྱི་	-7052
ྱང་ཆུབ་སེམས་ཀྱི་	-7053
ཟས་བ	-7054
འགྱི	-7055
ཅེས།	-7056
སྤངས་པ་	-7057
པ་དང་པོ་	-7058
▁རྒྱབ་	-7059
ལྟ་བུས་	-7060
ས་ནི་	-7061
ཕྱག་རྒྱ	-7062
རྟེན་པ་	-7063
དམ་ཚིག་བ	-7064
སྣོད་དུ་	-7065
▁སྐྱེ་བོ་	-7066
པར་བྱའོ་ཞེས་	-7067
▁ཛཿཧཱུྃ་བཾ་ཧོཿ	-7068
ཁྱད་པར་དུ་འཕགས་	-7069
སྙེན་པར་རྫོགས་	-7070
▁ཨོཾ་ཨཱཿཧཱུྃ༔	-7071
ལས་བཏུས་	-7072
ཅུག	-7073
ཾ་བྷ	-7074
དཔེར་ན།	-7075
སྐུལ།	-7076
པ་བདུན་	-7077
▁གསོལ་པ།	-7078
འཁྲི	-7079
དེ་ལྟ་	-7080
འགའ་ཡང་	-7081
དཔྱོད་པ་	-7082
ནན༔	-7083
ུལ་བར་	-7084
ལམ་དུ་བ	-7085
པུས་	-7086
▁ཕ་རོལ་	-7087
སྟོབས་བཅུ་	-7088
▁།དེ་བཞིན་གཤེགས་	-7089
རྨད་བ	-7090
ལས་སུ་	-7091
གྱི་ལྷ་	-7092
ཀུན་སློང་	-7093
ཡོད་པས།	-7094
རྒྱས་བསྡུས་	-7095
རེ་རེའི་	-7096
སྦྱིན་གྱི་	-7097
▁མགོན་	-7098
བཞིན་	-7099
▁།པདྨ་	-7100
མིན་པར་ཐལ།	-7101
▁ཅེས་བརྗོད་	-7102
རྗོད་པས་	-7103
སངས་རྒྱས།	-7104
ལ་གཉིས།	-7105
སྨིན་གྲོལ་	-7106
▁རྒྱལ་པོའི་	-7107
སྦྱར་ཏེ།	-7108
▁ལྷ་མ་ཡིན་	-7109
ཀ་ལ་	-7110
པར་བསམ་མོ།	-7111
ཇ་	-7112
མངྒ་ལ	-7113
གདའ།	-7114
▁ཨི་	-7115
གཞལ་མེད་	-7116
རཀྵ	-7117
པ་ལ་གསུམ་སྟེ།	-7118
▁དགེ་བའི་རྩ་བ་	-7119
▁༧	-7120
ལས་བྱང་	-7121
སྟེགས་བ	-7122
གླེགས་བམ་	-7123
མངལ་	-7124
དང་མི་ལྡན་	-7125
ཁར་བ	-7126
ལའང་བ	-7127
ལྔ་ནི་	-7128
འདི་ལས་	-7129
ྱ་བ།	-7130
ར་བྱ་སྟེ།	-7131
ྱ་བ་ནི།	-7132
སྤྱི་གཙུག་	-7133
རྒྱད་པོ་	-7134
དཀྱིལ་འཁོར་ལ་	-7135
པ་ཡིན་ནོ་ཞེས་	-7136
ཕྱག་ན་རྡོ་རྗེ་	-7137
ཉིད་དང་	-7138
འུར་	-7139
མཐོལ་	-7140
ྱིན་རླབས་བ	-7141
ཀོ྅	-7142
སོང་བས་	-7143
རྗོད་བྱེད་	-7144
མ་ཡིན་པར་ཐལ།	-7145
གསུང་བ་	-7146
སྤྱད་པ་	-7147
ལུང་མ་བསྟན་	-7148
དུར་ཁྲ	-7149
ལས་གྲུབ་	-7150
ཀྲེས་	-7151
རང་སར་	-7152
ཚིག་གིས་	-7153
མཐུན་རྐྱེན་	-7154
ྱིང་	-7155
▁/?-	-7156
པའི་ལུགས་	-7157
པ་ཐམས་ཅད་ཀྱི་	-7158
པཾ་	-7159
གསུམ་དུ་བ	-7160
འཁྱམས་	-7161
འགལ་ལོ།	-7162
གདན་གྱི་	-7163
དགུ་པ་	-7164
རྒྱུད་ལས་	-7165
དགོངས་སུ་གསོལ།	-7166
འདུག་པ་	-7167
ཡེ་ཤེས་ཀྱི་བ	-7168
▁ཟག་པ་	-7169
▁མདུན་བསྐྱེད་	-7170
པའི་དོན་ནོ།	-7171
▁ཤཱ་རིའི་བུ་	-7172
འཛོམ་	-7173
▁ཨོཾ་ཨ	-7174
▁བསྒོམ་	-7175
མཛད་པས་	-7176
གནང་བའི་	-7177
པར་འགྱུར་ལ།	-7178
▁དེ་རྣམས་ཀྱི་	-7179
པའི་སྐྱོན་	-7180
ལྔས་བ	-7181
རུའི་	-7182
སྐལ་བཟང་	-7183
དང་ཁྱད་པར་	-7184
པའི་བདེ་བ་	-7185
སྐྱོད་པའི་	-7186
འབྱོར།	-7187
དགོས་ཏེ	-7188
▁།ཟབ་	-7189
འགྲོ་དོན་	-7190
རྒྱན་པའི་	-7191
▁འདུས་མ་བྱས་	-7192
ཡུད་	-7193
ཤའི་	-7194
རྒྱ་ཆེན་	-7195
ཧཱུྃ་བྷྱ	-7196
དང་འབྲེལ་	-7197
དབུས་ཀྱི་	-7198
མངོན་སུམ་གྱིས་	-7199
པར་བསམས་ལ།	-7200
▁།ཇི་	-7201
ཞིག་གི་	-7202
ཁས་མི་ལེན་	-7203
སྒྲོན་མེ་	-7204
ལས་གཞན་པའི་	-7205
ུང༔	-7206
དམར།	-7207
ལྷས་	-7208
ཕུར་བུ་	-7209
པར་བགྱིའོ།	-7210
▁སྐུ་གསུམ་	-7211
▁སྐྱ	-7212
ཡི་ནི་	-7213
སངས་རྒྱས་ཀྱིས་	-7214
▁ཨོྃ	-7215
▁།རྩ་	-7216
ངོ་ཤེས་	-7217
ཡིན་ཡང་	-7218
ཕུང་ཁམས་	-7219
མཐོང་བ་དང་།	-7220
སྤུན་	-7221
པར་མཛོད།	-7222
དབང་བསྐུར།	-7223
▁མེད་	-7224
སྣང་སྟོང་	-7225
རྣམ་མཁྱེན་	-7226
▁འདིར་བ	-7227
ཕྱིར་ཏེ།	-7228
དྲུག་དང་།	-7229
པ་ཡིན་པར་	-7230
ཁ་ནས་	-7231
▁འཇམ་	-7232
ལྷགས་	-7233
ཙིཏྟ	-7234
ལྡན༔	-7235
ལམ་དང་	-7236
ཅན་གྱི་བ	-7237
ཀྱཻ་	-7238
ཏུབ་	-7239
པར་བྱ༔	-7240
འདའ་བ་	-7241
སྙམ་ནས་	-7242
སྙེན་སྒྲུབ་	-7243
▁ལྷོར་	-7244
▁སྙོམས་	-7245
ཁྲ་	-7246
སེལ།	-7247
དཀར།	-7248
ཀྱི་དོན་	-7249
སྟོན་པས་	-7250
ཚོགས་ཀྱིས་	-7251
སྤངས།	-7252
དཔེར་བ	-7253
ལས་བྱས་	-7254
ངེས་དོན་	-7255
དེ་བཞིན་དུ་བ	-7256
འདུལ་བ	-7257
ལ་སོགས།	-7258
ངོ་སྤྲད་	-7259
སྲུང་བར་	-7260
འགྱེད་	-7261
རྒྱ་དང་	-7262
རཀྟ	-7263
ཨོཾ།	-7264
ཅེས་བྱ་	-7265
ཕྱག་འཚལ།	-7266
གསུངས་ལ།	-7267
ལ་སོགས་བ	-7268
འཁྲུལ་བའི་	-7269
་ར་ཎ་	-7270
ཁྱད་ཆོས་	-7271
▁ཡོད་	-7272
བྱ་བ་	-7273
རེད་	-7274
ཤེས་རབ་ཀྱིས་	-7275
ནས་མི་	-7276
▁ལྷའི་བུ་	-7277
བྡ་	-7278
རང་སེམས་	-7279
ཕོ་མོ་	-7280
ྱང་སེམས་ཀྱི་	-7281
གནྡྷ	-7282
ལོག་པའི་	-7283
ཙས་	-7284
གཅིག་ཀྱང་	-7285
ཀྟ	-7286
ཚུལ་གསུམ་	-7287
▁དབུས་སུ་	-7288
གུལ་	-7289
ཞང་	-7290
▁༼༥	-7291
མཚན་ཉིད་ནི།	-7292
པའི་གནས་སྐབས་	-7293
རྩའི་	-7294
གཏེར་བ	-7295
སྲིན་བ	-7296
དེ་ནི་བ	-7297
ནི་གང་	-7298
དཔྲལ་བར་	-7299
འཆིང་བ་	-7300
ལྟ་སྟངས་	-7301
ཞེས་ཀྱང་བ	-7302
སྨུག་	-7303
ཟློས།	-7304
ཡང་ཡང་	-7305
▁ཇི་སྲིད་	-7306
དྲ་བ་	-7307
པ་ནི༔	-7308
མཚན་མོ་	-7309
▁གང་དུ་	-7310
སཏྭ་	-7311
མོད་ཀྱི་	-7312
ཡཱ་	-7313
▁0<-	-7314
ནུས་བ	-7315
ཡིད་འོང་	-7316
ཚེ་རབས་	-7317
ཤད་པ་དང་།	-7318
རྨད་དུ་བ	-7319
གསོན་	-7320
ཡིན་པའི་	-7321
ཡུ་	-7322
ལས་ཀྱིས་	-7323
སྤྱན་གསུམ་	-7324
ལ་ཕྱག་འཚལ་ལོ༔	-7325
ནག་མོ་	-7326
ཞིང༔	-7327
ན་ནི།	-7328
ཁ་སྦྱོར་	-7329
▁འབྲས་བུའི་	-7330
▁རྡོ་རྗེ་འཆང་	-7331
▁།ལོ་	-7332
ངས་ནས་	-7333
དད་པས་	-7334
པར་བྱས།	-7335
སྟི།	-7336
གང་ཟག་གི་བ	-7337
དེའི་ཕྱིར།	-7338
▁འཇམ་དབྱངས་	-7339
▁གནམ་	-7340
སྨྱ	-7341
▁དབེན་	-7342
▁གཟུང་འཛིན་	-7343
ན་ཅིར་	-7344
▁།ཐུགས་	-7345
ཞེད།	-7346
ོང་བུ་	-7347
སྐད།	-7348
རྒྱུད་བླ་མ་	-7349
▁རྫོགས་པའི་	-7350
▁སྒྲུབ་པའི་	-7351
དམིགས་བ	-7352
འབྱུང་གི་	-7353
▁དོན་གྱི་	-7354
▁གནས་སྐབས་	-7355
ལྷན་ཅིག་ཏུ་	-7356
མོས་བ	-7357
དེ་ཉིད་ཀྱིས་	-7358
ུད་ཤིང་	-7359
མིང་འདི་	-7360
ཤེས་པ་ལ་	-7361
ངོ་བོ་ཉིད་ཀྱི་	-7362
▁ང་ནི་	-7363
▁སྣོད་	-7364
རྡུལ་ཚོན་	-7365
▁བསམ་པ་	-7366
རྟེན་དུ་	-7367
▁མི་རྟག་	-7368
ཆོས་ཐམས་ཅད་ཀྱི་	-7369
༄༅།	-7370
་རགས་	-7371
▁གུར་	-7372
དང་དེ་	-7373
གྱུར་ཅིང་།	-7374
དེང་སང་	-7375
དྲག་པོས་	-7376
འདུས།	-7377
ུ་རུ་	-7378
▁དགག་	-7379
▁ཀུན་བ	-7380
▁སྒྲིབ་	-7381
རྒྱུད་པ་ནི།	-7382
འཆོས་	-7383
▁།དྲི་	-7384
གཟི་	-7385
ཞེས་པ་ནི།	-7386
མགུར་	-7387
ཙནྡན་	-7388
དྲག་ཏུ་བ	-7389
▁དམ་པའི་ཆོས་	-7390
གོང་ནས་	-7391
▁སྔར་གྱི་	-7392
སྦྲེལ་	-7393
ཆིག་	-7394
འབྱོར་པ་	-7395
ཀཱ་ལི་	-7396
ཤད་པ་ནི།	-7397
ཞེས་པ་དང་།	-7398
▁པདྨ	-7399
ཐ་སྙད་དུ་	-7400
ན༴	-7401
ཡང་དེ་	-7402
ངང་གིས་	-7403
དང་བ་	-7404
▁སྟེ།	-7405
ནི་མ་	-7406
▁རྩ་བ	-7407
འཁྲིག་	-7408
ཀཱི་ལ་ཡ་	-7409
ཕུང་པོ་བ	-7410
འཚེ་བ་	-7411
སྦྱོར་ལམ་	-7412
གཞན་སེལ་	-7413
འཛམ་བུའི་གླིང་	-7414
སླུ་	-7415
ཚངས་པ་	-7416
པ་ཡིན་ནོ་	-7417
ངན་བ	-7418
སྤྱང་	-7419
ཏྨ་ཀོ྅	-7420
པོ་ཆེ།	-7421
དངོས་དང་།	-7422
▁བརྡ་	-7423
སྒྲལ་བའི་	-7424
▁i	-7425
སྦལ་	-7426
དང་མཐུན་པའི་	-7427
རྐྱང་བ	-7428
▁།མིག་	-7429
▁ཚད་མ་	-7430
ལྷན་ཅིག་བ	-7431
ཆེན་པོ་ལ་	-7432
ཕྱག་དྲུག་	-7433
རྒྱད་ལ་	-7434
ཁམས་དང་།	-7435
དཀའ།	-7436
▁གདོད་	-7437
སོ	-7438
སྤྲིན་གྱི་	-7439
སོ་ཐར་	-7440
ཁྱེར་བ	-7441
རྡུངས་	-7442
དང་འདྲ་	-7443
འབར༔	-7444
སམས་ལ།	-7445
ཐིག་ལེ་བ	-7446
▁།ཤ	-7447
སྐོས་	-7448
▁རྟོག་པ་	-7449
རྩ་བའི་བླ་མ་	-7450
མཐེབ་	-7451
ཡིན་ནམ་	-7452
▁ཁྱབ་པ་	-7453
ལ་ཕུལ་	-7454
ཌཱུ	-7455
གདོན་བ	-7456
སྦྱོང་བའི་	-7457
ཤགས༔	-7458
ཞིང་གི་	-7459
་བེ་ཤ་ཡ་	-7460
ཡེ་ཤེས་སུ་	-7461
རྟེན་དང་བརྟེན་	-7462
སྟོང་པ་ཉིད་དུ་	-7463
▁ཐུགས་ཀྱི་	-7464
ཞུས་པའི་	-7465
▁།འདོད་ཆགས་	-7466
མྱ་ངན་ལས་འདས་པ་	-7467
ལྡན་པ།	-7468
▁ལྷུན་	-7469
འཇུག་གི་	-7470
ུའམ།	-7471
རྒྱུ་རྐྱེན་	-7472
▁གཉིས་མེད་	-7473
རྫ་	-7474
ཆེ་ཞིང་	-7475
▁དྲུག་པ་	-7476
དགའ་སྟོན་	-7477
མཆོད་པ་དང་།	-7478
མཉམ་ཉིད་	-7479
འཕེལ་བའི་	-7480
སྦྱོར་བ་བ	-7481
ར་དྭ་ཏིའི་བ	-7482
ནུབ་ཏུ་	-7483
སྒྲོ་བཏགས་	-7484
▁ཆུའི་	-7485
འདིས་ནི་	-7486
རྒྱན་ལས།	-7487
སྐོར་བ་བ	-7488
འབྱེད་པའི་	-7489
▁མདའ་	-7490
རྩེ་བའི་	-7491
ཞག༔	-7492
ླངས་ཏེ་	-7493
ཐོབ་པས་	-7494
ལ་རག་	-7495
མ་བཞི་	-7496
ེབ།	-7497
འདུས་ཏེ་རེག་པ་	-7498
གྷྣ	-7499
དུས་སུ་བ	-7500
རང་དང་	-7501
ཆུས་བ	-7502
འགྲོའོ།	-7503
དོན་གཞན་	-7504
མཁྱེན་པ་	-7505
▁རང་བཞིན་གྱིས་	-7506
▁བསྐྱེད་རིམ་	-7507
ཐུན་མོང་མ་ཡིན་	-7508
ཞིས་བ	-7509
མ་པའི་	-7510
▁ཏདྱ་ཐ	-7511
ཞི་བཅུ་	-7512
▁།དེ་ལྟར་ན་	-7513
ཀུན་ནས་ཉོན་མོངས་	-7514
ཙམ་ལས་	-7515
ཀྱང་དེ་	-7516
རྫོགས་པར་འཚང་རྒྱ	-7517
མདོས་	-7518
སུ་ཞིག་	-7519
རྡུལ་ཕྲ་རབ་	-7520
ཞེས་པ་ལྟ་བུ།	-7521
དེ་ཉིད་དུ་	-7522
འོད་ཟེར་གྱི་	-7523
ཀྲུས་	-7524
ཡང་མ་	-7525
སྨྲོས་	-7526
ཡོད་ཀྱང་།	-7527
ལ་བློ་	-7528
▁རྡོ་རྗེ་བ	-7529
པ་བཞི་དང་།	-7530
རྩོལ་བ་	-7531
གཏོར།	-7532
ཞིག་ཏུ་	-7533
སྣོད་ཀྱི་	-7534
▁ཧཱུྃ་ཧཱུྃ་	-7535
གཟན་	-7536
▁གཏུམ་	-7537
སྲས་བཅས་	-7538
▁།ལྔ་	-7539
གྲངས་བ	-7540
▁བྱིན་	-7541
མཆོག་ལ་	-7542
▁འདི་དག་	-7543
▁དཔལ་ཆེན་	-7544
འོད་ཟེར་གྱིས་	-7545
དེར།	-7546
▁རྩ་གསུམ་	-7547
འདུ་བྱེད་ཀྱི་	-7548
▁མཛོད་	-7549
▁།བདུད་	-7550
ཕེབས།	-7551
ར་དོ་	-7552
ཁོར་ཡུག་	-7553
རང་ལུགས་	-7554
ཡོད་ཅེས་	-7555
ཨཱཿཧཱུྃ་	-7556
གཞོན་ནུའི་	-7557
ྷྱོ་བ	-7558
▁སྲུང་	-7559
▁།སྔོན་	-7560
ླ་མ་དང་	-7561
རི་བོང་	-7562
སྦྲེ	-7563
▁ཅེས་དང་།	-7564
པར་གྱུར་པ་	-7565
པའི་སྙིང་པོ་	-7566
▁དགེ་བསྙེན་	-7567
ཕུལ་བ་	-7568
འཇིག་པ་	-7569
མདུན་དུ་བ	-7570
ཚུན་ཆད་	-7571
མཉྫ	-7572
▁བག་	-7573
སྲིད།	-7574
ཞུགས་ཏེ་	-7575
▁ལྟེ་བར་	-7576
▁དོན་དམ་པར་	-7577
▁28	-7578
▁དེ་ཆོས་ཅན།	-7579
¡¤¡¤¡¤¡¤¡¤¡¤¡¤¡¤	-7580
ཀཱི་ལི་	-7581
ནི་བདག་	-7582
ློན་པོ་	-7583
བདག་	-7584
སྙིང་ལ་	-7585
རྣམ་འཕྲུལ་	-7586
ལ་སོགས་པ་ལ་	-7587
▁།བཅོམ་ལྡན་	-7588
མ་མ་	-7589
རྣལ་འབྱོར་མའི་	-7590
དཔག་བསམ་	-7591
གཞག	-7592
རི།	-7593
ལེགས་སོ།	-7594
ྱུང་བ་དང་།	-7595
གྱེས་	-7596
པཱ་ལ་	-7597
མངའ་བ་	-7598
སྟོན་པ།	-7599
གཅིག་དང་།	-7600
པ་རྣམས་སོ།	-7601
གནོད་པའི་	-7602
རང་སྣང་	-7603
ྱེད་ཅིང་།	-7604
ལེགས།	-7605
དཔྱིད་	-7606
ྱུང་སྟེ།	-7607
སྔར་བཞིན་	-7608
ཅིའི་སླད་དུ་	-7609
སྒོ་བ་	-7610
རྡོ་རྗེ་འཛིན་	-7611
▁།ཁྱད་པར་	-7612
རྣམ་པ་གསུམ་	-7613
གཉི་	-7614
▁གང་བ	-7615
ཉིད་ནས་	-7616
སྐྱེད་པའི་རིམ་	-7617
འདི་དག་ནི་	-7618
ཤར་ཕྱོགས་	-7619
སྒྲུབ་པའོ།	-7620
མང་བ་	-7621
ཡོད་དོ་	-7622
སྐྱེད་པ་དང་།	-7623
ཞེས་ནས་	-7624
དྲི་མ་མེད་པའི་	-7625
དྲག་ཏུ་	-7626
སམ་གཏན་བ	-7627
སོ་ཞེ་ན།	-7628
སྟན་པས་	-7629
པའི་རྣལ་འབྱོར་	-7630
སྟོང་།	-7631
ཐབས་ཤེས་	-7632
ལྟ་བུ་སྟེ།	-7633
▁གང་གི་ཚེ་	-7634
སྟིམ་	-7635
▁གཟའ་	-7636
གདེངས་	-7637
གྲངས་ངེས་	-7638
ུད་མེད་ཀྱི་	-7639
ཚིགས་སུ་བཅད་པ་	-7640
གུད་	-7641
▁ཐམས་ཅད་མཁྱེན་	-7642
▁གནས་བ	-7643
དང་འདྲའོ།	-7644
▁གཉིས་པ་ལ།	-7645
ལ་ལོངས་སྤྱོད་	-7646
▁།གསོལ་བ་འདེབས་	-7647
▁སྡོམ་པ་	-7648
ཅུང་ཟད་ཀྱང་	-7649
རིབ་	-7650
▁ཏུ་	-7651
ཞེད་དོ།	-7652
ཅི་ཞེ་ན།	-7653
འདི་བཞེས་ལ༔	-7654
ཡིན་པའི་ཕྱིར་ཏེ།	-7655
འབྲོག་	-7656
▁10000250	-7657
འཛུགས་	-7658
ལྷ་མོའི་	-7659
▁།དེ་བས་	-7660
འབུམ།	-7661
གང་ལས་	-7662
རྒྱ་གྲམ་	-7663
▁།བདག་གིས་	-7664
ན་མོ་	-7665
གྱ་	-7666
▁འདོད་ཡོན་	-7667
གྱུར་པ་དང་།	-7668
དངོས་པོ་བ	-7669
ཆོས་མ་འདྲེས་	-7670
ཏེ།་	-7671
ཟད་དོ།	-7672
ནི་བྱང་ཆུབ་	-7673
མ་ཡིན་པ་དང་།	-7674
ཚུལ་དུ་བ	-7675
▁གདན་	-7676
ྱས་ཀྱང་	-7677
ཨུཏྤལ་	-7678
རྟག	-7679
▁།སྐད་ཅིག་	-7680
ངྒ་	-7681
ཟློག་པའི་	-7682
▁ཚོགས་ཀྱི་	-7683
གྲྀཧ	-7684
གང་ཡིན་པ།	-7685
མཾ་	-7686
འཁོར་ལོ།	-7687
ཡ་བ	-7688
འདོམས་	-7689
དངོས་གཞིའི་	-7690
ན་འདུག་	-7691
ས་བྲིས་	-7692
ཞེས་པའི་བར་	-7693
རྟགས་ཡང་དག་	-7694
▁གྲོང་	-7695
རྒྱལ་བས་	-7696
▁སྨོན་ལམ་	-7697
ཐོབ་པ་དང་།	-7698
མ་ཡིན་ན་	-7699
གཉུག་མའི་	-7700
རིན་པོ་ཆེ་བ	-7701
འབར་བས་	-7702
པར་བརྗོད་	-7703
མཆོད་ཡོན་	-7704
༼མང	-7705
འཕྲོད་	-7706
སྤྱོད་པ་བ	-7707
ཱའི་ཀླུང་	-7708
སྙིང་རྗེ་ཆེན་པོ་	-7709
མངོན་པར་རྟོགས་	-7710
གནམ་ལྕགས་	-7711
སྡུ།	-7712
▁ཆོས་རྣམས་	-7713
▁དྲང་སྲོང་	-7714
▁སོར་	-7715
སྤྲོ་ན་	-7716
དང་སེམས་	-7717
སྐུས་	-7718
པའི་དོན་ལ་	-7719
ཟིན་བ	-7720
ཤུ་	-7721
རྒལ་	-7722
སླེབས་	-7723
▁ཧཱུཾ་	-7724
གནས་དང་།	-7725
ཨ་མྲྀ	-7726
ྱེ་མ་སྙེད་	-7727
པ་བཅ	-7728
རྣོན་	-7729
པའི་བག་ཆགས་	-7730
ཤེས་ན་	-7731
དཀའ་ཐུབ་	-7732
མི་བྱ་	-7733
དེ་སྡུག་	-7734
རྗེ་བཙུན་བ	-7735
ལྟམས་	-7736
▁དབྱི	-7737
▁དམ་བ	-7738
དམར་སེར་	-7739
▁འདུལ་བ་	-7740
པའི་ཚོགས་	-7741
ཐུ	-7742
གནས་ལ་	-7743
▁།ཚུལ་	-7744
ཕྱོགས་མཚམས་	-7745
ལ་བབ་	-7746
འི་བློ་	-7747
དང་བྲལ་བས་	-7748
གཟུགས་སོགས་	-7749
རཱ་ཛ་	-7750
ཐམས་ཅད་ལས་	-7751
▁བྱང་ཆུབ་སེམས་	-7752
▁གཞན་ཡང་བ	-7753
སྐྱོང་བའི་	-7754
རེངས་	-7755
ྲལ་གྱི་	-7756
ཀྱི་སྒོ་	-7757
འགྱུར་བས།	-7758
གདན་ས་	-7759
འཁྲུལ་བ	-7760
▁ང་རྒྱལ་	-7761
▁།དེ་ཚེ་	-7762
ཟླས།	-7763
ཅིག་ཅར་	-7764
ཕ་ལ་	-7765
ཚུར་བ	-7766
མྱུར་དུ་བ	-7767
ཆད་པ་	-7768
རྒྱ་ཆེ་བའི་	-7769
རྟག་བ	-7770
འབུམ་ཕྲག་བ	-7771
▁གཉིས་པ་ནི་	-7772
སྒང་	-7773
ཕྱེད་དང་	-7774
ཐོབ་པར་འགྱུར།	-7775
རྣམ་བཞི་	-7776
ལས་སྐྱེས་པའི་	-7777
ཏུང་བ་	-7778
ཞི་བ་དང་།	-7779
མཐུས།	-7780
▁།བདེ་བ་	-7781
པ་གཉིས་ཀྱི་	-7782
མཛེས།	-7783
ཚུལ་ཁྲིམས་ཀྱི་	-7784
འདོད་བ	-7785
དངོས་ཀྱི་	-7786
ཆོམ་	-7787
པ་བརྟན་	-7788
ཞྭ་	-7789
ཕུབ་	-7790
འདུ་བའི་	-7791
ལུགས།	-7792
སྒྲ་དང་	-7793
ཀྱིས་མི་	-7794
དགྱེས་པའི་	-7795
ཟང་པོ་བ	-7796
གཞོན་ནུར་	-7797
གུས་བ	-7798
ཁྱབ་བྱེད་	-7799
▁དང་པོ་བ	-7800
ལ་ཕྱག་འཚལ་བསྟོད།	-7801
ལགས་ཏེ།	-7802
མཉམ་པའི་	-7803
སྐྱེས་བུའི་	-7804
ཡོངས་སུ་དག་པས།	-7805
རྩལ༔	-7806
▁མཇུག་	-7807
ཞུན་	-7808
ཙན་དན་	-7809
▁ཐ་མལ་	-7810
྄ཿ	-7811
ླ་མའི་བ	-7812
སྐྱབས་སུ་མཆིའོ།	-7813
ཞེས་བྱ་བས་	-7814
འདི་གསུངས་སོ།	-7815
གས་བ	-7816
ངོ་བོ།	-7817
པོ་དེ་	-7818
▁གདུལ་བྱ་	-7819
དང་རྗེས་སུ་	-7820
ཞལ་གསུམ་	-7821
ཧེ་རུ་ཀའི་	-7822
རིམ་པ་བཞིན་	-7823
▁།མཁའ་	-7824
རྒྱལ་པོ་ཆེན་པོ་	-7825
རེའི་	-7826
༼མངོན༽་	-7827
གསུངས་ནས་	-7828
ངག	-7829
འདྲའོ།	-7830
ྱེད་ན་	-7831
▁ཨཱོ	-7832
དྷུ་	-7833
▁ཁྱོད་ལ་	-7834
▁གཏན་ཚིགས་	-7835
▁དྭ	-7836
▁ལྟེ་བ་	-7837
རྣམ་པ་ཐམས་ཅད་	-7838
▁5	-7839
སྒྲིག་	-7840
▁པདྨའི་	-7841
ཡོད་པ་དེ་	-7842
▁ལྟུང་བ་	-7843
ཧ་རི་	-7844
སམ་ཡས་	-7845
རྒྱས་གདབ་	-7846
དྲི་བ་	-7847
མ་རྙེད་	-7848
ཐོད་པའི་	-7849
པའི་ཕྱིར་ཞེས་	-7850
ཟླས་པས་	-7851
སྟན་ནས་	-7852
▁ཨོཾ་སརྦ་	-7853
འོད།	-7854
▁བསྡུས་	-7855
▁ངག་གི་	-7856
ས་ཕྱོགས་	-7857
མྱི་བྱེད།	-7858
རུང་ངོ་།	-7859
དཔེར་	-7860
མ་འགགས་	-7861
མི་དགོས།	-7862
ལས་གཞན་དུ་	-7863
ཞི༔	-7864
ལྷུག་	-7865
▁སྐལ་	-7866
གཤིན་རྗེ་གཤེད་	-7867
▁བསྐལ་པ་	-7868
སྒོམ་པས་	-7869
སྒོམ་པའོ།	-7870
པ་དེའི་ཚེ་	-7871
རང་བྱུང་གི་	-7872
གསལ་བ།	-7873
ེཾ་	-7874
ཁུ་བ	-7875
སྡུ་བའོ།	-7876
སངས་རྒྱས་ལ་	-7877
མཐུན་པ་	-7878
འོ་མ་	-7879
ལ་སོགས་པ་དང་།	-7880
མཆོག་ཏུ་བ	-7881
▁དེའི་འོག་ཏུ་	-7882
ཐུགས་དམ་བསྐང་༔	-7883
གནད་བ	-7884
སྐོར་བ།	-7885
དོན་མེད་	-7886
▁།སྐུ་གསུང་ཐུགས་	-7887
ཟག་བ	-7888
ེ་བ།	-7889
སྲོག་བ	-7890
སྤྱོད་དོ།	-7891
འཆར།	-7892
མ་ཡིན་པའི་ཕྱིར།	-7893
རྣ་བའི་	-7894
ལ་དབང་	-7895
་བ་ལིཾ་ཏ་	-7896
▁ལེན་	-7897
▁།ཁྱེད་	-7898
མཚན་ཉིད་ཀྱི་	-7899
མི།	-7900
ན་གནས་པའི་	-7901
▁།ཁ་	-7902
རྒྱུད་དང་	-7903
ཆོས་ནི་	-7904
དེས་ཀྱང་	-7905
དགོན་པ་	-7906
དམིགས་སུ་	-7907
ྱང་ཕྱོགས་	-7908
གྲངས་མེད་པ་	-7909
སྨོད་	-7910
སྣམས་པ།	-7911
དེ་དག་ཐམས་ཅད་	-7912
ལྟོས་ནས་	-7913
སྤྱོད་ཀྱི་	-7914
་བའོ།	-7915
▁།དང་པོ་ནི་	-7916
སྡོགས་	-7917
པར་བགྱིད་	-7918
རྗེའི་བ	-7919
▁གཡོན་དུ་	-7920
▁གི་	-7921
ད་ལྟར་བ	-7922
▁བདེ་བའི་	-7923
▁།སྡིག་	-7924
འདྲེན་བ	-7925
▁སེམས་ཉིད་	-7926
ཨཿ	-7927
ངོ་ཚ་	-7928
▁རེས་	-7929
པ་བཀག་	-7930
ཡུམ།	-7931
པའི་ཚུལ་བ	-7932
དབྱེ་ན་	-7933
▁།བཀྲ་ཤིས་	-7934
ཞལ་ཟས་	-7935
ངུར་	-7936
▁།ཉམས་	-7937
ར་བགྱིའོ།	-7938
དང་འདྲ་བའི་	-7939
སྣམས།	-7940
སྔགས་པ་	-7941
སྨན་བ	-7942
▁།བྱམས་	-7943
མཚོན་བྱེད་	-7944
ར་སྣང་	-7945
སྟོན་པ་ནི།	-7946
དཀར་བ	-7947
རྗེས།	-7948
མཚན་མར་	-7949
གཞན་གྱིས་བ	-7950
▁ཀུན་མཁྱེན་	-7951
སྲས།	-7952
འགོད་པ་	-7953
ཁྱབ་པའི་	-7954
གཙོ་འཁོར་	-7955
གྲགས་པ།	-7956
ལྕགས་ཀྱུ	-7957
ཀྲ་ཤིས་ཤོག	-7958
པ་བཅོམ་ལྡན་འདས་	-7959
འཕྲེང་	-7960
དགའ་བ་དང་།	-7961
▁སྦྲུལ་	-7962
པའི་བསྟན་བཅོས་	-7963
▁ནག་པོ་	-7964
སྤོང་བར་	-7965
ཐུགས་དམ་བསྐང་།	-7966
ལྟག་	-7967
སྥ་ར་ཎ་	-7968
དང་པོ་ལ་	-7969
འཆར་བའི་	-7970
ཕྱག་བཞི་	-7971
མཆན་	-7972
ཚེ་དཔག་	-7973
ྱིན་གྱིས་བརླབས།	-7974
ཕྲན་བ	-7975
གནས་པས་	-7976
ལྗང་གུ་	-7977
གང་ཡང་རུང་བ་	-7978
▁།མ་བ	-7979
ཚར་བཅད་	-7980
▁།བླ་མའི་	-7981
འཁྲིད་	-7982
▁སྭ་བྷཱ་	-7983
▁།ལས་ཀྱི་	-7984
རྗོད་བྱའི་	-7985
ལྷུན་གྱིས་གྲུབ་	-7986
ླ་མ་ལ་	-7987
ཨཱཿཧཱུྃ༔	-7988
སྡུ་བ་ནི།	-7989
སུམ་བརྒྱ་	-7990
རིང་བ་	-7991
འབྱེད་པ་	-7992
འོག་ཏུ་བ	-7993
▁།རྟོག་	-7994
ནམ་མཁའ་བ	-7995
▁གྲོང་ཁྱེར་	-7996
སྟུག་	-7997
ལ་བཞི་སྟེ།	-7998
ལ་བརྟེན་ནས།	-7999
ལྟུང་བ་བ	-8000
པར་བཞུགས་	-8001
སློབ་བ	-8002
སྦྱོང་བྱེད་	-8003
དཱ་	-8004
ཤིག་བ	-8005
ལེན་པ་	-8006
འཕྲིན་	-8007
མཛོད་ཀྱི་	-8008
ཁྱུ་	-8009
འོད་དཔག་མེད་	-8010
སླུ་བའི་	-8011
པ་ལ་འཇུག་	-8012
▁།རླུང་	-8013
པ་མི་སྲིད་	-8014
ཕུར་པ་	-8015
ལག་ན་	-8016
▁།བདེན་	-8017
མི་དགེ་བ་	-8018
▁མཚོ་	-8019
ཡོད་དམ་	-8020
▁ཐེ་ཚོམ་	-8021
རིན་པོ་ཆེས་	-8022
མོས།	-8023
ྱིན་གྱིས་རློབས༔	-8024
▁།ཕྱག་རྒྱ་	-8025
ཌཱཀྐ	-8026
འཁྱུ	-8027
ལྡེ་	-8028
སལ་བའི་	-8029
ཁ་ཁ་ཁཱ་ཧི་	-8030
རང་བཞིན་མེད་པར་	-8031
ྈྈྈྈ	-8032
ཁྲོའི་	-8033
▁མིག་གི་	-8034
སྒྲུབ་པ་པོ་	-8035
ལུས་ངག་ཡིད་གསུམ་	-8036
▁དཔེར་ན།	-8037
▁ཕན་ཚུན་	-8038
རྩོལ་བ	-8039
▁ངན་སོང་	-8040
ཡོད་པ་ལས།	-8041
▁རས་	-8042
ཡིད་བཞིན་ནོར་བུ་	-8043
ནང་གས	-8044
སྒོམ་པར་བྱ།	-8045
▁M	-8046
▁ཨཱཿ	-8047
དད་པའི་	-8048
སྒྲུབ་པར་བྱེད་	-8049
ཕོབ་	-8050
ལ་བཏགས་	-8051
▁ཆོས་སྐྱོང་	-8052
སྒྲས་བ	-8053
སོར་མོ་	-8054
▁ད་ལྟར་	-8055
རིལ་བུ་	-8056
▁།འཁོར་བ་	-8057
ཧོ།	-8058
ཐབས་སུ་	-8059
ནྲྀ་	-8060
པད་མ་	-8061
སྒོ་བཞི་	-8062
རྒྱ་ཆེར་བ	-8063
▁ཐེག་ཆེན་གྱི་	-8064
ཐ་དད་པ་	-8065
མུ་ཏིག་	-8066
དུ་གྱུར་པ་	-8067
ཚོམ་བ	-8068
ས་སོ།	-8069
སྙམ་ན	-8070
▁གཙོ་	-8071
མཆེད་བ	-8072
སྣང་བ་བ	-8073
རྣམ་འགྱུར་	-8074
▁རྒྱལ་པོ་ཆེན་པོ་	-8075
▁།ཐུབ་	-8076
▁།དཔེར་ན་	-8077
རེ་ལ་	-8078
སློབ་དཔོན་བ	-8079
▁།འཕགས་	-8080
ཞུ་ནས་	-8081
▁ཞེས་པ་དང་།	-8082
▁དམྱ	-8083
ཐུགས་ལ་	-8084
▁ཤར་དུ་	-8085
ལ་ཕྱག་འཚལ་	-8086
ཕྱེས་	-8087
ནི་མ་ཡིན་ནོ།	-8088
ངྐ	-8089
འདག་	-8090
འཕྲོ་བ་	-8091
ས་ཏ	-8092
ཟླས་པ་བ	-8093
གཅིག་གིས་བ	-8094
▁ལྷ་བ	-8095
ཆེའོ།	-8096
སྤེལ།	-8097
འཕྲོ་བ	-8098
མེ་དཔུང་	-8099
▁བལ་	-8100
དི་	-8101
འཆང་བ	-8102
ལས་མ་འདས་	-8103
ཡབ་ཡུམ་གྱི་	-8104
ཏང་བ	-8105
ན་རེ་	-8106
འཐོབ་བ	-8107
དང་པོར་བ	-8108
▁དང	-8109
རྩེ་མོར་	-8110
མི་འབྱུང་	-8111
ནུས་པས་	-8112
འབྲས་ཀྱི་	-8113
ཡོད་ཅིང་།	-8114
རྫས་རྣམས་	-8115
ུག༔	-8116
འཆགས་	-8117
པའི་བདེན་པ་	-8118
▁ཙ་	-8119
མནར་	-8120
གྲོད་པ་	-8121
▁ཕར་	-8122
འི་བདེ་བ་	-8123
རྗེན་	-8124
▁།རིག་	-8125
པ།།	-8126
ཟད།	-8127
▁ཕལ་	-8128
སྙེན་བཀུར་	-8129
མཛད་དེ།	-8130
ཇི་སྐད་བ	-8131
ཡང་དག་པར་རིག་	-8132
ལ་ལྟོས་ནས་	-8133
▁བླ་ན་མེད་པ་	-8134
ཉམས་བ	-8135
▁བསླབ་	-8136
ཆོས་ལ་བ	-8137
▁ཕྱོགས་བཅུ་	-8138
▁དེ་ཚེ་	-8139
དུག་སྤོས་	-8140
འགྱུར་བའོ།	-8141
སྦྱོར་བ་དང་།	-8142
ཀ་དག་	-8143
ངང་ནས་	-8144
ཁོ་བོས་	-8145
མཛེས་པའི་	-8146
ལེགས་སོ་	-8147
འདི་ནས་	-8148
ཆེ་མཆོག་	-8149
▁སྤྱི་བོར་	-8150
ཟིལ་གྱིས་གནོན་	-8151
མཛད་བ	-8152
ན་ཡང་།	-8153
སྐྱབས་སུ་མཆི།	-8154
▁བདེན་པ་	-8155
▁འགའ་ཞིག་	-8156
ས་སྐྱ་པ་	-8157
ཡོད་ན།	-8158
མེད་པས་བ	-8159
རྒྱུན་གྱི་	-8160
གདན་བ	-8161
ཁྲིག་	-8162
▁ཕུར་	-8163
ལྷ་ཁང་	-8164
ཚོགས་ཀྱིས་བ	-8165
ཙུན་པ་	-8166
སྐབས་སུ།	-8167
དུར་ཁྲོད་བ	-8168
ྱིན་རླབས་ཀྱི་	-8169
▁2:	-8170
ཞིག་ལ་	-8171
རྒྱུད་ནས་	-8172
གཏན་ལ་འབེབས་	-8173
▁མན་ངག་	-8174
ཡོད་མིན་	-8175
དོན་གཉེར་	-8176
ནང་དུ།	-8177
རིམ་པ་བ	-8178
དྲི་ཞིམ་	-8179
▁།ཤ་	-8180
དགོད།	-8181
པ་མ་ཡིན།	-8182
ཅན་རྣམས་	-8183
ས་བོན་གྱི་	-8184
མཆོད་སྤྲིན་	-8185
ཡིན་པས་སོ།	-8186
ལ་གསུམ་སྟེ།	-8187
ཀྱི་བདག་ཉིད་	-8188
དབྱེར་མེད་དུ་	-8189
ནང་ཚན་	-8190
དུས་སུ།	-8191
▁མ་གྲུབ་	-8192
སྒྲ།	-8193
དག་པས་	-8194
མེ་ཏོག་བ	-8195
ག་ལ་བ་དེར་	-8196
▁སྐབས་འདིར་	-8197
དེ་བླ	-8198
པའི་བྱེ་བྲག་	-8199
རྡོ་རྗེ་འཛིན་པ་	-8200
ཐབས་ཀྱིས་	-8201
འཆད་པ་	-8202
▁དགྱེས་	-8203
▁ཛ་	-8204
ལ་ལོག་	-8205
རོལ།	-8206
▁སྲེད་	-8207
མ་ཡིན་ལ།	-8208
▁དེ་ལྟ་བུ་	-8209
▁བྲག་	-8210
དྲི་རོ་	-8211
ཐ་མའི་	-8212
སྡོམ་བ	-8213
མིག་བ	-8214
རྗོད་ཅིང་	-8215
དྲུག་དང་	-8216
ཀུན་རྫོབ་ཏུ་	-8217
ཏ་ར	-8218
རྙས་	-8219
ཚོགས་བསགས་	-8220
མ་ཟིན་	-8221
གཅིག་ལས་	-8222
▁གཞལ་	-8223
ཀློང་དུ་	-8224
▁བླ་མེད་	-8225
གཞན་དབང་	-8226
ཐིགས་	-8227
མངོན་སུམ་གྱི་	-8228
ཁྱམས་	-8229
ཚིག་རྐང་	-8230
ཅས་ཀྱི་	-8231
ཕྱོགས་ཆོས་	-8232
པ་བྱིན་	-8233
སྡིགས་མཛུབ་	-8234
མི་བསྐྱོད་པ་	-8235
ཡེ་སྭཱ་ཧཱ༔	-8236
སྐྱེད་བྱེད་	-8237
ཐོབ་པར་འགྱུར་རོ།	-8238
རྟགས།	-8239
དམྱལ་བའི་	-8240
ཀྱི་བྱ་བ་	-8241
མ་ཧཱ	-8242
▁དུས་ཀྱི་	-8243
གྲལ་	-8244
ཁྲོ་རྒྱལ་	-8245
དྷ་ར་	-8246
རྩིགས་	-8247
དྲུག་ལ་	-8248
འཆི་བར་	-8249
རོལ་མོའི་	-8250
སྟོབས་ཀྱི་	-8251
དགོས་པས།	-8252
མཚན་པ།	-8253
▁ཕྱིན་	-8254
རྒྱུད་ལ་བ	-8255
རྗེས་ཀྱི་	-8256
ླངས།	-8257
དེ་མི་	-8258
སྤེལ་བ	-8259
མེད་པར་ཐལ།	-8260
སྙིང་རྗེ་བ	-8261
ཟེར་བའི་	-8262
སྣང་བ་དང་།	-8263
གསེབ་	-8264
འཆི་བདག་	-8265
▁།དཔའ་བོ་	-8266
ཐུགས་སུ་ཆུད་	-8267
་རིན་	-8268
གསར་བ	-8269
▁གཞན་ལ་	-8270
▁ཨོཾ་ཨ་	-8271
ཧཱུྃ་ཡིག་	-8272
ལན་གསུམ།	-8273
སྩལ་དུ་གསོལ༔	-8274
▁ཆོས་ཅན་	-8275
དབྱིག་	-8276
དྲྭ་བ་	-8277
▁བུམ་པའི་	-8278
▁སློབ་མའི་	-8279
གླེ	-8280
ཞི་ཁྲོ་	-8281
▁ཡང་དག་པའི་	-8282
ན་བདག་	-8283
ཤ་སྟག་	-8284
འདྲེན་པ་	-8285
རྒྱུད་ཀྱི་བ	-8286
མཆོད་པས་	-8287
ིག	-8288
ཏང་ནས་	-8289
དུས་གཅིག་	-8290
མཐོང་སྤང་	-8291
▁ཨོཾ་མ་ཧཱ་	-8292
▁རྫོགས་རིམ་	-8293
སྙེམས་	-8294
▁བཞིན་	-8295
འགྲོ་ཀུན་	-8296
རྣམ་པས་	-8297
▁ཐ་དད་	-8298
དང་བྲལ།	-8299
▁རང་སངས་རྒྱས་	-8300
▁།འཁོར་ལོ་	-8301
ཡུལ།	-8302
ཡོད་བ	-8303
ལྷོར་	-8304
ཡན་ལག་ཏུ་	-8305
▁མཎྜལ་	-8306
ཕྱོགས་ནས་	-8307
སོགས་ཀྱིས་བ	-8308
▁མཚ	-8309
ཅན་དུ་བ	-8310
དུན་གྱིས་	-8311
འོ	-8312
▁།མ་ལུས་	-8313
▁གཤིན་རྗེ་	-8314
ལ་བྱ	-8315
ཐབས་ལ་མཁས་	-8316
▁ཅིའི་ཕྱིར་	-8317
ཉམས་སུ་མྱོང་བ་	-8318
མེ་དང་	-8319
རྟགས་སུ་བ	-8320
▁།དབང་པོ་	-8321
་བར་བ	-8322
▁དང་པོའི་	-8323
འདི་ལྟ་སྟེ་	-8324
ཆགས་བྲལ་	-8325
སྐྱབ་	-8326
ླ་མར་	-8327
སྙམ་ན་	-8328
ྲིས་པའི་	-8329
▁ཧེ་རུ་ཀ་	-8330
འདུན་བ	-8331
▁བདག་བ	-8332
རྙེད་པར་	-8333
རྒྱས་པར་བཤད་པའོ།	-8334
་རིག་	-8335
པ་ཉིད་དང་།	-8336
སྦྱང་གཞི་	-8337
འགལ་ལོ་	-8338
རིས་བ	-8339
རབ་ཏུ་བྱུང་བ་	-8340
སླ་	-8341
སྟོན་ཏེ།	-8342
▁།ཞིང་	-8343
སྨིན་བྱེད་	-8344
ོད་དུ་	-8345
ལཾ་	-8346
▁།རྫོགས་	-8347
ཞོག	-8348
གཞན་རྣམས་	-8349
ཡང་ན་	-8350
སྦྱར་བས་	-8351
མམ།	-8352
དབྱེ་བའི་	-8353
གྱུར་པས།	-8354
ཛཱ་	-8355
ལོག་རྟོག་	-8356
མཐར་ཐུག་གི་	-8357
རྣམ་པར་ཐར་	-8358
▁<%-	-8359
ཕྱོགས་གཅིག་	-8360
ཏཱི་	-8361
ཐུན་མོང་བ་	-8362
འགལ་བ	-8363
སེར་སྣ་	-8364
སྤྱོད་པས་	-8365
ཁ་ན་མ་ཐོ་བ་	-8366
སྟེན།	-8367
ལས་བྱུང་།	-8368
གཉིས་ཀྱིས་བ	-8369
▁དམིགས་པ་	-8370
▁སྲིད་པའི་	-8371
▁ལུས་ངག་ཡིད་	-8372
སྟོན་པ་དང་།	-8373
མམ་	-8374
ལང་ཚོ་	-8375
པར་བཤད།	-8376
རྒྱ་མཚོ།	-8377
འདི་ཉིད་ལ་	-8378
སང་།	-8379
ནི་ཆོས་	-8380
འདིའི་རྗེས་ཟློས།	-8381
ཁམ་	-8382
གཡབ་	-8383
ཚོས་	-8384
རྵ	-8385
▁ཕག་	-8386
▁།དུག་	-8387
འབྱོངས་	-8388
གནད་ཀྱི་	-8389
ྱེ་བྲ	-8390
▁གནད་	-8391
སེམས་དང་།	-8392
དེ་བཞིན་ཏེ།	-8393
▁ཡེ་	-8394
▁སོ།	-8395
འདྲིས་	-8396
▁ཡོངས་	-8397
མཆོག་གིས་	-8398
དང་མཉམ་པའི་	-8399
དང་འཇིག་རྟེན་	-8400
▁ཏ་	-8401
དབུས༔	-8402
▁ཡར་	-8403
▁སྔར་བ	-8404
སློབ་པའི་	-8405
ཆད།	-8406
ཚེར་	-8407
སྤང་།	-8408
▁།ཨེ་	-8409
རིགས་སོ།	-8410
ོབ༔	-8411
ིས་བ	-8412
སྣོལ་	-8413
ན་བཛྲ་	-8414
ཐོབ་བོ།	-8415
སྐྱེ་སྟེ།	-8416
མཐོང་སྟེ།	-8417
འབྲི་གུང་	-8418
གདོད་མ་ནས་	-8419
སྒོམས་པའི་	-8420
▁གསེར་གྱི་	-8421
▁བཅོམ་	-8422
ཚར་གཅོད་	-8423
པ་ལ་ཕྱག་འཚལ་ལོ།	-8424
ཚང་བར་	-8425
ཟེར་ནས་	-8426
ངོའི་	-8427
ཚད་ནི་	-8428
མ་ཚང་བ་	-8429
ཇོ་བོ་	-8430
འགོག་པའི་	-8431
སྟེང་།	-8432
རྣམ་གཉིས་	-8433
▁ཏེ་	-8434
▁བཞུགས་	-8435
རྒྱན་གྱིས་	-8436
▁བཞི་པ་ནི།	-8437
དབང་ཐོབ་ཤོག༔	-8438
སྨྲ།	-8439
ཞག་ནས་	-8440
▁གསུང་གི་	-8441
ད་ཀན་	-8442
ཊི་	-8443
ཕོར་	-8444
ཙམ་ན་	-8445
▁:.	-8446
སངས།	-8447
དང་དེའི་	-8448
ལ་རེག་	-8449
རྟོག་པས་	-8450
གྲུ་བ	-8451
མ་གོས་	-8452
འི་བྱ་བ་	-8453
ཕོད་	-8454
མིན་བ	-8455
སྲུང་།	-8456
ལི།	-8457
ལ་མ་བ	-8458
▁འདི་བ	-8459
རྗེས་འབྲང་	-8460
ཅེས་བྱ་བའི་	-8461
ུད་པ་	-8462
ཡིན་གསུང་།	-8463
པའི	-8464
ི་བྷ་	-8465
ཀུན་གཞིའི་	-8466
སྒོམ་པར་བྱའོ།	-8467
ར་བྱ་བའི་ཕྱིར་	-8468
ལ་ལར་	-8469
▁འཕ	-8470
▁ཏདྱ་ཐཱ།	-8471
རྟ་མཆོག་	-8472
▁ཐེག་པ་ཆེན་པོ་	-8473
དུམ་	-8474
པའང་བ	-8475
པའི་ཁྱད་པར་	-8476
རྒྱ་རྩ་བརྒྱད་	-8477
སྤྲད་	-8478
▁གངས་	-8479
དང་འབྲས་བུ་	-8480
དབོན་	-8481
འཛིན་པར་	-8482
▁།རྒྱལ་བའི་	-8483
ཱི།	-8484
དོ་ཤལ་	-8485
▁སྐྲ་	-8486
རང་གི་སེམས་	-8487
དགུར་	-8488
འདོམ་	-8489
འདེབས་བ	-8490
▁སྐུའི་	-8491
▁།གཉིས་མེད་	-8492
ཁ་བསྐ	-8493
ཆོད་པ་	-8494
གསལ་སྟོང་	-8495
▁སྡུག་བསྔ	-8496
པར་མཛད་དོ།	-8497
གལ་ཏེ་བ	-8498
ས་ཀྱང་	-8499
▁།ལུང་	-8500
ཀུན་ཀྱང་	-8501
འདུག་པས་	-8502
གྱུར་བ	-8503
རབ།	-8504
▁རྡོར་	-8505
འབུར་	-8506
ཡི་གེར་བ	-8507
དང་བཅས་པར་	-8508
པར་བགྱི	-8509
གསུང་དང་	-8510
▁།མེ་ཏོག་	-8511
ཕཊ༔	-8512
སྙིང་པོས་	-8513
▁ཉེས་པ་	-8514
ཆོས་ཀྱིས་	-8515
ཏགས།	-8516
སྤངས་པས་	-8517
ཤམ་ཐབས་	-8518
ྱུང་བ།	-8519
ཉམས།	-8520
ཅའ་བ་	-8521
▁།སྣང་བ་	-8522
▁།ཅེས་གསུངས་	-8523
ཡབ་ཀྱི་	-8524
▁འོན་ཏེ་	-8525
ཨཱཏྨ་ཀོ྅	-8526
ནའི་	-8527
ཟ་བའི་	-8528
▁བཏགས་	-8529
▁བསྐལ་	-8530
འཕྲུལ་བ	-8531
▁ཁོ་	-8532
གྱི་རྐང་	-8533
ྱེ་བ་ཁྲག་	-8534
ླཽ་	-8535
ཅི་དགོས།	-8536
སྐྱེད་པར་བྱེད་	-8537
ནཱ་ག་	-8538
དགོད་པ་	-8539
མ་ཡིན་ནོ་	-8540
▁བསྒྲུབ་བྱ་	-8541
དྷེ་	-8542
དགྲ་བོའི་	-8543
▁བྱེ་བྲག་ཏུ་	-8544
ཆུར་	-8545
▁མཚོན་	-8546
འཇིག་རྟེན་ན་	-8547
▁ལུས་ལ་	-8548
གཉིས་ཀ་ལ་	-8549
མར།	-8550
སྦར་	-8551
མེད་པར།	-8552
གདོད་མའི་	-8553
ཆུ་ལ་	-8554
མེད་དུ་བ	-8555
གནག་	-8556
སྲེལ་	-8557
ུངས༔	-8558
དཀྲུགས་	-8559
▁།ལྔ་པ་	-8560
▁ནོར་བུ་	-8561
▁ཞལ་གཅིག་	-8562
ཁ་སྐོང་	-8563
པ་མ་ཡིན་ཏེ	-8564
སྟོང་པ་ཉིད་ལ་	-8565
ནག	-8566
ོ་དྷི་	-8567
ག་ལ་ཡོད།	-8568
དབྱེ་བ་དང་།	-8569
ེད	-8570
▁༼༡༽	-8571
འཁྲུངས།	-8572
རྒྱུ་ནི་	-8573
ཁྱིམ་དུ་	-8574
ཐོབ༔	-8575
དགུན་	-8576
▁ཕྲ་	-8577
ནག་གི་	-8578
འི་བདག་པོ་	-8579
མ་ཡིན་གྱི་	-8580
རིགས་ཅན་	-8581
▁གསོལ་	-8582
འི་བདག་	-8583
སྣ་བུག་	-8584
སྣང་ཡང་	-8585
ཐལ་བ་དང་།	-8586
སྐྱེད་དོ།	-8587
▁བདེ་མཆོག་	-8588
སུམ་ཅུ་རྩ་བ	-8589
དགུང་ལོ་	-8590
གནས་འདིར་	-8591
▁།བསམ་གཏན་	-8592
ལ་དང་།	-8593
ས་བོན་བ	-8594
སྟན་འཛིན་	-8595
ྲོ་	-8596
སྐུལ༔	-8597
དུ་ནི་	-8598
▁ཕྱི་མའི་	-8599
རྡོ་རྗེ་དང་།	-8600
▁།དཀོན་མཆོག་	-8601
▁ཅད་	-8602
▁ཟླ་བའི་	-8603
གཉེན་པོའི་	-8604
ཕྱིར་བཅོས་	-8605
ལྷན་སྐྱེས་ཀྱི་	-8606
ུའི་བུ་	-8607
རྒྱས་བཤད་	-8608
▁ཚུལ་ཁྲིམས་ཀྱི་	-8609
རུ་ལུ་	-8610
▁དེ་རིང་	-8611
▁སངས་རྒྱས་དང་བ	-8612
▁ཐོབ་	-8613
གསལ་སྣང་	-8614
རྟགས་ཀྱིས་	-8615
ཟུང་ནས།	-8616
ཕྲིན་ལས་མཛོད༔	-8617
▁།གཉིས་པ་ལ།	-8618
ཚོལ་	-8619
མོ་དང་	-8620
ཚུལ་ནི་	-8621
ེར་བའི་	-8622
མེད་པ་སྟེ།	-8623
▁ཚེ་དང་ལྡན་པ་ཤ་	-8624
སྔ་རོལ་	-8625
སྒྱུ་ལུས་	-8626
ཆོས་ཀྱི་འཁོར་ལོ་	-8627
ནང་མཆོད་	-8628
▁སྣོད་བཅུད་	-8629
ཱཿ	-8630
འབེ	-8631
དང་བཅས༔	-8632
ལྟ་ཞིང་	-8633
▁འཆི་བ་	-8634
▁།ཕྱི་ནང་	-8635
ཟླས་བརྗོད་བ	-8636
མང་པོར་	-8637
དེ་སྐྱིད་	-8638
▁།མདོར་ན་	-8639
རྒྱུད་དང་།	-8640
▁གིས་	-8641
▁།བཀའ་	-8642
དགག་པ་དང་།	-8643
ཚོགས་གཉིས་	-8644
དབང་དུ་བྱས་ནས་	-8645
ས་ལ་བ	-8646
འདེབས༔	-8647
སྟན་པ་བ	-8648
ཱ་རིའི་བ	-8649
ཐོབ་པར་ཤོག	-8650
མངར་	-8651
སྲུང་འཁོར་	-8652
ང་རྒྱལ་བ	-8653
▁སངས་རྒྱས་ཀྱི་བ	-8654
ས་བརྒྱད་	-8655
ཕྱོགས་སུ་བ	-8656
དངོས་གྲུབ་ཀྱི་	-8657
ཅུད་བ	-8658
གཏོང་བའི་	-8659
དྲུག་གིས་	-8660
ལྟས་ངན་	-8661
མཚན་གྱི་	-8662
རྣམ་དབྱེ་	-8663
▁སྦྱིན་པའི་	-8664
ཞུམ་	-8665
འདུག་པས།	-8666
ཞེས་བགྱི་བ་	-8667
ལམ་ནས་	-8668
ཞོག་	-8669
ུག་པ་	-8670
ནམ་མཁར་བ	-8671
ལྟོས་པར་	-8672
ཽད་	-8673
▁ཐོགས་	-8674
དམ་རྫས་	-8675
གསུམ་གྱི་སྟོང་	-8676
ནར་	-8677
མཛད་པའི།	-8678
▁ཀུན་བཟང་	-8679
དགག་པ་ནི།	-8680
ཕྱིན་ཅི་མ་ལོག་	-8681
སྒྲོལ་མའི་	-8682
ལྕམ་དྲ	-8683
▁འདི་ཉིད་	-8684
▁གྱི་	-8685
ར་བྱེད་པ་དང་།	-8686
གཡེང་	-8687
གོ་བར་	-8688
མཁྱེན།	-8689
རང་རང་	-8690
འབྲེལ་པར་	-8691
ཤེས་པ་ནི་	-8692
སྣ་ཚོགས་བ	-8693
▁དེ་དག་ཀྱང་	-8694
གསུངས་ཏེ	-8695
རན་	-8696
▁དགོས་པ་	-8697
▁།བྱང་ཆུབ་སེམས་	-8698
སིབ་	-8699
དྷཱ་ཀི་	-8700
འོང་བར་	-8701
རིགས་ཀྱི་བུ་མོ་	-8702
ྱ་ཞིང་	-8703
སེམས་ཅན་རྣམས་ལ་	-8704
འདི་ཡི་	-8705
མ་ཡིན་ནོ་ཞེས་	-8706
ཁྱད་པར་དུ་བྱས་	-8707
MA	-8708
རང་ངོ་	-8709
▁འདུས་	-8710
▁ཅི་སྟེ་	-8711
▁འཕགས་པའི་	-8712
མཁྱེན་བརྩེའི་	-8713
RMA	-8714
ཉེར་བསྡོགས་	-8715
དང་བསོད་ནམས་	-8716
ཆེན་པོ	-8717
ཁམས་ནི་	-8718
ER	-8719
ཤཾ་	-8720
མཚམས་བ	-8721
ཙོག་	-8722
གང་ཡིན་པ་	-8723
ཞལ་སྔ་ནས།	-8724
ཞུགས་པས་	-8725
སྒྲུབ་པ།	-8726
▁བྷ་	-8727
▁།ཁ་ཅིག་	-8728
པར་བྱས་ལ།	-8729
མཆོད་བསྟོད་བ	-8730
ལྔ་པའི་	-8731
ཅིག་ཤོས་	-8732
མན་ངག་གི་	-8733
ལ་སོགས་པས་བ	-8734
པ་བྱུང་	-8735
▁དེས་ནི་	-8736
སྒྲུབ་ཐབས་བ	-8737
▁ཧོ༔	-8738
གཞིག་	-8739
རགས་པ་	-8740
▁དབྱེ་བ་	-8741
ར་བྱས།	-8742
ཀབ་	-8743
ར་བསམ།	-8744
དང་པོ་ནི།	-8745
སྐྱེད་ནས་	-8746
འོད་གསལ་གྱི་	-8747
གུ་རུ་པདྨ་	-8748
མི་སྙན་	-8749
ཤཱཀྱ་ཐུབ་	-8750
སྐྱིལ་མོ་	-8751
གཏོད་	-8752
▁།མཐའ་	-8753
དགའ་བ་བ	-8754
་༢༽་	-8755
ཀ་བ་	-8756
▁མཐུ་	-8757
▁སྭ་བྷཱ་ཝ	-8758
མཁྱེན་པའི་	-8759
▁ཞེས་པ་ནས།	-8760
ཞིན༔	-8761
ལ་དབ	-8762
མཚན་ཉིད་དང་།	-8763
དངས་	-8764
དགེ་ཚུལ་	-8765
སྐྱེད་མོས་	-8766
རྒྱལ་མཚན་དཔལ་བ	-8767
ལུས།	-8768
མདོ་ལས་	-8769
མཐའ་ཡས་པ་	-8770
གང་ན་	-8771
ཡོངས་བ	-8772
གྱེན་དུ་བ	-8773
སེམས་ཅན་གྱི་དོན་	-8774
མ་ཤ	-8775
▁དེ་ལྟ་ན་	-8776
རྣམ་པར་བཞག་	-8777
མིང་གི་རྣམ་གྲངས་	-8778
རྒྱལ་པོར་	-8779
ཕྱིན་ཅི་ལོག་ཏུ་	-8780
རྟགས་བ	-8781
▁དྲེགས་	-8782
སྨྲས་པ་དང་།	-8783
གསལ་ཞིང་	-8784
ལ་རབ་ཏུ་	-8785
ཛྭ་ལ་	-8786
འཐུངས་	-8787
▁དང་པོ་ལ་གཉིས།	-8788
སྡེར་	-8789
ལན་གསུམ་གྱིས་	-8790
དབྱེ་ན།	-8791
མིན་ནོ།	-8792
ཟད་པ་	-8793
▁པ།	-8794
དམིགས།	-8795
པ་གཉིས་ལས།	-8796
ལས་བཤད་	-8797
▁།བདག་ཅག་	-8798
▁།གཞི་	-8799
མཆོག་ནི་	-8800
མ་རིག་པ་	-8801
གྲ་	-8802
ཆུབ་	-8803
འཛམ་གླིང་	-8804
པ་འདི་ཉིད་	-8805
ས༑	-8806
ཀོང་	-8807
རོའི་	-8808
ྱས་པ།	-8809
མཐུན་གྱི་	-8810
▁།ནམ་མཁའི་	-8811
▁འཇ	-8812
ཀླག་	-8813
སགས་པ་	-8814
རྒྱ་རྩ་	-8815
པར་བྱའོ་	-8816
ERGE	-8817
▁MERGE	-8818
▁དགེ་སྦྱོང་	-8819
གཟུགས་དང་	-8820
པ་མ་གཏོགས་	-8821
གུ་རུ་བ	-8822
ཚེ་ན་	-8823
ཞེས་པ།	-8824
ཅུས་	-8825
འགོ་	-8826
ྲིས།	-8827
གྲུབ་སྟེ།	-8828
ཱའི་ཀླུང་གི་བ	-8829
ིང	-8830
ལ་བྱིན་	-8831
གཞལ་མེད་ཁང་	-8832
▁དམྱི	-8833
གཟུགས་ཀྱིས་	-8834
ལས་རྣམས་	-8835
ཡོངས་ཀྱི་	-8836
▁གཞན་དོན་	-8837
▁སྒྲུབ་ཐབས་	-8838
▁སྤྲུལ་པའི་	-8839
ཁོ་ནའོ།	-8840
▁།གསང་	-8841
འགྱུར་ཞིང་	-8842
པདྨེ་	-8843
ཚིག་དོན་	-8844
▁།ཅེས་དང་།	-8845
▁གནོད་བྱེད་	-8846
པའི་ཕྱིར་ཞེ་ན།	-8847
འཁོད་པ་	-8848
ཐབས་མཁས་	-8849
ད་ལྟ	-8850
པ་མེད་དེ།	-8851
▁འདི་ནི་བ	-8852
ཝཱ་ཀ་	-8853
ལགས་སམ།	-8854
ཞེས་བརྗོད་པ་	-8855
▁།ཁམས་གསུམ་	-8856
གསོལ་བ་འདེབས་པ་	-8857
ཟེར་ན།	-8858
དྲན་པས་	-8859
མ་ལུས་པ།	-8860
འཇིག་རྟེན་དུ་	-8861
▁བྱ	-8862
ས་ར་	-8863
▁མེས་	-8864
མཐོན་	-8865
ལྟེ་བ	-8866
ཟློག་བ	-8867
རྒྱགས་	-8868
དེ་ཡིས་	-8869
ཡིད་ལ་བྱེད་པ་	-8870
མིན་ཏེ	-8871
འཕྲོས༔	-8872
▁ཅུང་ཟད་	-8873
པ་འདི་དག་	-8874
▁གཙུག་ལག་	-8875
ཐོག་མ་མེད་པ་	-8876
མངོན་བྱང་	-8877
སརྦ་སིདྡྷི་	-8878
གནས་སྐབས་སུ་	-8879
གཡོན་པའི་	-8880
གྲུབ་ཆེན་	-8881
འབྱུང་བ་ལྟར་	-8882
▁ཐུགས་ཀའི་	-8883
ཡིད་དུ་འོང་བ་	-8884
ལྟུང་བྱེད་དོ།	-8885
སྔོན་པོ།	-8886
སངས་རྒྱས་སུ་	-8887
གཟུགས་ལ་	-8888
ལ་གནས་པ་	-8889
▁དགེ་བའི་བ	-8890
གཙང་བ་	-8891
གནད་དུ་བ	-8892
འཛིན་སྟངས་	-8893
▁གང་ཡང་	-8894
མི་སྡུག་	-8895
དགེ་སྦྱོར་	-8896
མོ་ལ་	-8897
▁བཟློག་	-8898
▁།འཁོར་བའི་	-8899
མཁྲིས་	-8900
ལ་བསྟོད་	-8901
འདི་ཉིད་ཀྱི་	-8902
ཅད་བ	-8903
རྫུས་	-8904
འདེགས་	-8905
▁བསྟོད་པ་	-8906
དཾ	-8907
▁།གཡས་	-8908
▁ཡུམ་གྱི་	-8909
ཡེ་ཤེས་ཀྱིས་	-8910
རྗེས་སུ་མྱི་	-8911
▁བཟང་	-8912
སུ་ཁ་	-8913
གཉེན་བ	-8914
འགྲུབ་བོ།	-8915
མཁན་གྱི་	-8916
སྲིན་པོ་	-8917
གི།	-8918
ནོམ་	-8919
དམ་པ་བ	-8920
ལོ་ཀེ་	-8921
▁།མགོན་པོ་	-8922
གིས༔	-8923
ནད་གདོན་	-8924
▁ཉི་མའི་	-8925
▁དེ་ནི་བ	-8926
ག་ཆགས་ཀྱི་	-8927
གོམ་	-8928
འཆར་བ	-8929
པ་བརྗོད་པ་	-8930
དོར་བ་	-8931
ཧཱུྃ་གི་	-8932
རྣམ་པར་གཞག་	-8933
ན་བཞུགས་པའི་	-8934
རྗོད་པར་བྱའོ།	-8935
ྲི༔	-8936
སྤང་བའོ།	-8937
ཐ་དད་པར་	-8938
འཁོར་ལོས་བ	-8939
དབང་ཕྱུག་གི་	-8940
ཟུང་སྟེ།	-8941
མིང་སྟེ།་	-8942
པའི་བུ་	-8943
ཕྱིར་མི་འོང་	-8944
▁།བདེ་གཤེགས་	-8945
གར་གྱི་	-8946
དུས་གསུམ་གྱི་	-8947
འོད་བ	-8948
ལ་བུ་	-8949
▁།དེ་ལྟ་	-8950
གླེང་གཞི་	-8951
མེན་	-8952
གོང་དུ་བ	-8953
▁མྱིག་གི་	-8954
ཝང་	-8955
ྱེད་པར་	-8956
འབྱུང་བ།	-8957
སྙིང་པོ།	-8958
▁རྒྱུད་སྡེ་	-8959
ཞུགས་པར་	-8960
▁རྒྱ་མཚོ་	-8961
སྲོག་གཅོད་	-8962
ཏིང་ངེ་འཛིན་བ	-8963
གདུང་བ་	-8964
ཟུར་བ	-8965
དང་ཆུ་	-8966
གནང་བར་	-8967
ཐོགས་པ་	-8968
གཅིག་ནས་	-8969
སྒྲུབ་པ་ནི།	-8970
གཟུང་།	-8971
དང་འབྲེལ་བའི་	-8972
ལྷ་དང་།	-8973
གངྒ	-8974
འགྱུར་བའི་ཕྱིར།	-8975
སྲན་	-8976
▁ཅེས་གསུངས་	-8977
གུམ་	-8978
སྐྱར་	-8979
ཞེས་པ་སྟེ།	-8980
འབྱུང་པོའི་	-8981
ནགས་ཚལ་	-8982
རྣམས་ཀྱི།	-8983
མདོར་བསྟན་	-8984
པར་བྱེད་དེ།	-8985
ཤཱ་རིའི་བུ་	-8986
▁།ངེས་	-8987
སྐྱེ་བས་	-8988
ཅིང༔	-8989
པུར་	-8990
▁མཆོག་ཏུ་	-8991
▁དྲག་པོའི་	-8992
▁རབ་བ	-8993
གནས་ཚུལ་	-8994
▁།ཚུལ་ཁྲིམས་	-8995
སངས་རྒྱས་ཐོབ་	-8996
གིང་	-8997
དེ་ནི།	-8998
སྒྲུབས།	-8999
འགྱོད་པ་	-9000
▁ཕྱག་ན་	-9001
ཚེ༔	-9002
▁།ཡན་ལག་	-9003
ཞན་	-9004
▁ད་ལྟར་བ	-9005
▁བསྟོད་	-9006
ཆོས་རྒྱལ་	-9007
རྣམ་པ་ཅན་	-9008
ྱེ་བྲག་ཏུ་	-9009
ཅུད་ཀྱི་	-9010
▁ལུས་དང་	-9011
ཐམས་ཅད་ལ།	-9012
ཏོག	-9013
▁དོན་ལ་	-9014
ཐམས་ཅད་དུ།	-9015
དང་བཅས་པ་ལ་	-9016
▁ཉིད་	-9017
པ་ཡིན་ན།	-9018
དུད་རྩིར་	-9019
▁།འདི་ལྟར་	-9020
ཆ་བྱད་	-9021
སྨྲའོ།	-9022
སྐྱེ་འགག་	-9023
པ་རྣམས་ཀྱིས་བ	-9024
་རེངས་	-9025
▁རྣམ་བ	-9026
གསོལ་བ་གདབ།	-9027
ཁྱོན་	-9028
པའི་བརྡ	-9029
ལས་ལྡོག་	-9030
▁།ད་ནི་	-9031
ོལ་བ་དང་།	-9032
ཆུན་	-9033
ཐག་པ་	-9034
རྟིང་	-9035
ཨོ་	-9036
ཡོ་ག་	-9037
གདུང་བ	-9038
འབར་བ།	-9039
▁ཕྱག་བ	-9040
ཕྱུང་བ་	-9041
མ་བྱིན་	-9042
འདོར་བ	-9043
མཆོད༔	-9044
▁།སྐྱེ་བ་	-9045
ཆོས་ཉིད་ཀྱི་	-9046
ཀྐ་	-9047
རྩ་བར་	-9048
དགེ་བས་	-9049
▁།ཞེས་པས་	-9050
པའི་བསམ་པ་	-9051
ཻ།	-9052
པ྄་	-9053
བཛྲ་	-9054
ན་བྱ་	-9055
▁མཁན་ཆེན་	-9056
▁བླ་མ་ཡི་དམ་	-9057
▁།གསེར་	-9058
▁སྤྱིར་བ	-9059
ཆུ་རྒྱུན་	-9060
རྣམ་པ་གཉིས་	-9061
▁རང་གི་བ	-9062
རྣོ་	-9063
ཐམས་ཅད།	-9064
ལ་འཇུག་པའི་	-9065
▁དེ་ཉིད་ཀྱི་	-9066
ཆགས།	-9067
རླན་	-9068
ལ་རང་	-9069
ཅུའི་བ	-9070
འགྲེལ་པར།	-9071
ཏེག་	-9072
▁རང་གིས་	-9073
▁།དད་	-9074
རྒྱད་པའི་	-9075
▁མིའི་	-9076
མེད་ན།	-9077
འདུག་གོ།	-9078
ཆོས་ཀྱི་རྒྱལ་པོ་	-9079
ཅང་མི་	-9080
▁སྔོན་འགྲོ་	-9081
▁།ཀྱེ་	-9082
ལ་གསུམ།	-9083
ཟའ་བཏུང་	-9084
པདྨ་འདབ་བ	-9085
▁ཤ་ར་དྭ་ཏིའི་བུ་	-9086
ཐ་མར་	-9087
འབེབ་	-9088
▁གཙོ་བ	-9089
▁གཞོན་ནུ་	-9090
ལ་བསྟན་	-9091
▁མཐོང་བ་	-9092
རྙེད།	-9093
ལུས་ཅན་	-9094
▁=?-	-9095
ལེན་པའི་	-9096
ི་བ་དང་།	-9097
སྔགས་སོ།	-9098
ལྷོད་	-9099
▁ཆང་	-9100
ྲལ་བས་	-9101
ཁྲི་བཞི་	-9102
▁རྒྱུའི་	-9103
པ་བདག་	-9104
དང་ལྡན་པ་དང་།	-9105
▁མགྲིན་པར་ཨཱཿ	-9106
མཐུན།	-9107
ལང་གི་	-9108
ྱུང་བས།	-9109
དགྱེས་པ་	-9110
ཨ་ལས་	-9111
སྟོང་དུ་	-9112
མཚོན་པའི་	-9113
མེད་ཀྱང་།	-9114
པ་མེད་ཅིང་	-9115
▁ཁང་	-9116
མཆོད་གཏོར་	-9117
གཞོང་	-9118
ལོ་ཀ་	-9119
གཉིས་ཀ	-9120
རབ་ཀྱི་	-9121
ཆེན་མོའི་	-9122
▁རང་རང་གི་	-9123
པ་རི་	-9124
▁ཉེ་བར་	-9125
▁༨	-9126
▁ཉེར་	-9127
ཀྲུང་བ	-9128
ི་མ་	-9129
རྒྱུར་བ	-9130
ེའུ་ཆུང་	-9131
དང་བཅས་པའོ།	-9132
རློན་	-9133
ློས་བ	-9134
ཡངས་པའི་	-9135
ནོ༔	-9136
ཐོང་	-9137
ཉན་རང་	-9138
པ་ཡང་མ་ཡིན།	-9139
་བྷཱ	-9140
མངོན་པ་	-9141
ཡོད་པའི་ཕྱིར་རོ།	-9142
ཕུལ་ནས་	-9143
པའི་བློ་གྲོས་	-9144
མངོན་པར་འདུ་བ	-9145
ཅོལ་བའི་	-9146
དབང་པོས་	-9147
▁ཞི་བའི་	-9148
སྤྲིན་ཕུང་	-9149
་རྒ	-9150
ཞལ་གྱི་	-9151
སྐུ་ནི་	-9152
ཆ།	-9153
ཕྱེ་ནས་	-9154
▁དེས་ན་བ	-9155
འཁྲུལ་སྣང་	-9156
ེའུའི་	-9157
ཡོལ་	-9158
འཆང་བ་	-9159
འདིའང་	-9160
▁རྩོད་	-9161
སྙིང་གར་བ	-9162
ཞལ་གྱིས་བ	-9163
གྱུར་ཀྱང་།	-9164
འི་བར་དུ་བ	-9165
མ་ཤིང་	-9166
ཡུལ་དུ་བ	-9167
པ་ཡིན་ཏེ་	-9168
▁ཞེས་བཤད་	-9169
ཀུན་དགའ་བོ་	-9170
གཟར་	-9171
▁ཙནྡ	-9172
ཻ་རོ་	-9173
ཁེབས་	-9174
▁སྤང་བྱ་	-9175
ལེ།	-9176
འདར་	-9177
▁ལོ་བ	-9178
གིས་ནི་	-9179
དྲི་བཟང་	-9180
པ་གང་ཞེ་ན།	-9181
▁/-	-9182
ཧུཾ་	-9183
སུའང་	-9184
▁ཡིན་	-9185
སོགས་ནས་	-9186
སྨྲ་བ་དང་།	-9187
▁གཉ	-9188
གསད་	-9189
ཕྲ་བའི་	-9190
ཁྱོད་ཀྱིས་བ	-9191
སྣང་བ་ཐམས་ཅད་	-9192
མ་ཁྱབ་	-9193
དྲན་པའི་	-9194
▁།གཉིས་པ་ལ་	-9195
ཆུག་	-9196
ངས་པའི་	-9197
ཙམ་དང་།	-9198
▁གོང་དུ་	-9199
ར་བྱས་ནས་	-9200
ལྷང་	-9201
པར་གྱུར་པའི་	-9202
▁སྔགས་བ	-9203
ཆར་འབེབས་	-9204
▁ལྟེ་བའི་	-9205
འཇུག་པ་དང་།	-9206
གནས་མཆོག་	-9207
ནི་རྡོ་རྗེ་	-9208
ཀྱི་བྱིན་རླབས་	-9209
▁བྱད་	-9210
▁སྦས་	-9211
▁ཨོཾ༔	-9212
▁མཆོག་གི་	-9213
▁བཟོད་པའི་	-9214
རྟོགས་ནས་	-9215
ཞེས་པའི་དོན་	-9216
▁དགེ་འདུན་གྱི་	-9217
མ་ཐག་པ་	-9218
མ་བླངས་	-9219
གྱི་བྱ་བ་	-9220
▁བོད་ཀྱི་	-9221
▁འཚ	-9222
ལྟར་བྱ།	-9223
དེ་བ་བ	-9224
འབྱུང་བའི་ཕྱིར།	-9225
དེ༔	-9226
དང་དུས་	-9227
རྟོག་མེད་	-9228
སངས་རྒྱ	-9229
སྐུའི་བ	-9230
མངའ་གསོལ་	-9231
▁།རྗེ་བཙུན་	-9232
་བྱ་	-9233
ད་བྱེད་	-9234
ཆུང་ངུའི་	-9235
སྩོལ༔	-9236
འདོད་ཀྱི་	-9237
ཞེས་བྱ་སྟེ	-9238
▁།ཉེས་	-9239
▁ཏིང་འཛིན་	-9240
▁སོགས་ཀྱིས་	-9241
▁འཇིག་རྟེན་གྱི་	-9242
ཧ།	-9243
▁བཟོད་	-9244
ཐོབ་ཤོག	-9245
པ་ལ་སོགས་པས་	-9246
རྣམས་ཀྱིས་ཀྱང་	-9247
ཆགས་བ	-9248
སྐྱོན་མེད་	-9249
སྲུང་བ་དང་།	-9250
སེམས་ཅན་དམྱལ་བ་	-9251
གནས༔	-9252
ུམ།	-9253
ཕྱིས་བ	-9254
འཁྲིགས་	-9255
རྒྱད་དང་།	-9256
▁ངའི་	-9257
དབེན་པར་	-9258
རྣམ་རིག་	-9259
▁།འདིའི་	-9260
▁བརྒྱུད་	-9261
མཚོ་རྒྱལ་	-9262
སྲ་བ	-9263
དབུར་བ	-9264
▁ལྷ་དང་	-9265
གསོལ་བ་བཏབ་པས།	-9266
མནྟ	-9267
ལྔ༔	-9268
▁།རོ་	-9269
འཇོམས།	-9270
སྐུར་བའི་	-9271
དུ་བྱས་ནས་	-9272
པདྨ་བ	-9273
སྨོས།	-9274
འགྲིག་	-9275
སྐྱེ་གནས་	-9276
ཡང་ཡང་བ	-9277
འདི་སྙམ་དུ་སེམས་	-9278
▁གྲགས་	-9279
▁ཞེས་པའི་བར་	-9280
དབྱེ་བ་བ	-9281
ིང་བ་	-9282
དང་ཡང་དུ་	-9283
ཡོད་པ་དང་	-9284
རློམ་སེམས་	-9285
ཆོས་སྐུར་	-9286
འགལ་རྐྱེན་	-9287
ལྷ་རྣམས་ཀྱི་	-9288
▁ཨོཾ་བཛྲ	-9289
རྔམ་	-9290
ཁྲོལ་	-9291
མཆོག༔	-9292
རྫས།	-9293
ནྡྷུ་	-9294
དེན་གྲུབ་	-9295
ཝ།	-9296
གཅོད།	-9297
▁རྙེད་	-9298
དུས་ལ་བབ༔	-9299
ཅི་ནུས་	-9300
མ་ཡེངས་	-9301
སྐོལ་	-9302
དང་ཡིད་	-9303
ཡིན་ཞེ་ན།	-9304
ལུས་སེམས་	-9305
▁གཡོན་པས་	-9306
རཀ་	-9307
པགས་	-9308
དག་པར་	-9309
ྱུང་ཡང་	-9310
▁གང་ཕྱིར་	-9311
▁དེ་རྗེས་	-9312
སེར།	-9313
ི་བྷ	-9314
ཐོབ་པ།	-9315
▁དམྱིགས་	-9316
▁།བདེ་ཆེན་	-9317
གསོལ་པ་དང་།	-9318
ལ་བལྟས་	-9319
རྟན་བཞུགས་	-9320
ཨཱ་ལི་	-9321
ཨ་མྲྀཏ་	-9322
མགོན།	-9323
དང་དོན་	-9324
སམས་ནས་	-9325
ནམ་ཞེ་ན།	-9326
རྒྱལ་པོ།	-9327
ཀྱི་ཁྱད་པར་	-9328
ར་མི་	-9329
▁དབུ་སྐྲ་	-9330
▁རྒྱས་པར་	-9331
པར་བྱ་བའི་ཕྱིར།	-9332
ཀྲོ་དྷ	-9333
རྣམ་པར་སྨིན་པ་	-9334
གྱིས་ནི་	-9335
འཇིག་རྟེན་བ	-9336
▁རྩོད་པ་	-9337
ཐོད་ཁྲག་	-9338
▁སྤྱིའི་	-9339
▁རྣ་བ་	-9340
རང་གཞན་	-9341
ལུས་ངག་	-9342
གོ་རིམ་བ	-9343
མཐུན་བ	-9344
འདས་པ་	-9345
▁ཐུགས་དམ་	-9346
པ་དེ་དག་གི་	-9347
སྡེབ་	-9348
ལེའུ་སྟེ་	-9349
▁མཁས་པ་	-9350
འཁོར་དུ་	-9351
མཁས་གྲུབ་	-9352
▁ཆོས་གོས་	-9353
གབ་	-9354
བསྐྱེད་	-9355
ཡིད་བཞིན་གྱི་	-9356
ློ་ལ་	-9357
▁སྨོན་པ་	-9358
རྗེས་འགྲོ་	-9359
▁རྔ་	-9360
ལྟ་བུ	-9361
སྦྱོར་བ།	-9362
རྣམ་འབྱེད་	-9363
འགྱུར་རོ་ཞེས་	-9364
▁།དེ་ལྟ་བུའི་	-9365
ཀྱི་དཀྱིལ་འཁོར་	-9366
ཙཱ་	-9367
ལོང་བ	-9368
དེ་བ་དང་།	-9369
ཡེ་ཤེས་དང་།	-9370
གསལ་བས་	-9371
པའི་ཚུལ་དང་།	-9372
ཐུགས།	-9373
རང་གསལ་	-9374
འཛིན་ཅིང་	-9375
མཚུངས་ལྡན་	-9376
སྟོད་པའི་	-9377
ཝཱ	-9378
ཚེ་དབང་	-9379
གྲགས་སོ།	-9380
ཉིད༔	-9381
ློ་བཟང་	-9382
▁ཀླུའི་	-9383
▁།དེ་བས་ན་	-9384
པ་དེ་དག་ནི་	-9385
མཇུག་བ	-9386
ཡུལ་ནི་	-9387
▁པ་དང་།	-9388
ཡང་ནི་	-9389
▁དཀྱིལ་འཁོར་བ	-9390
▁འང་།	-9391
སྡེ་ཚན་	-9392
▁ཐལ་མོ་	-9393
ཁ་ཅིག	-9394
ལ་སོགས་པ་ནི་	-9395
འདྲི་	-9396
▁ཆོས་བ	-9397
ལྟ་བུ་ལ་	-9398
▁།ཀླུ་	-9399
དབུས་ན་	-9400
ལྗོན་ཤིང་	-9401
སྐུར་བཞེངས་	-9402
▁བྱང་ཆུབ་སེམས་ད	-9403
གང་ག	-9404
ཞིའི་བ	-9405
▁སི	-9406
ས་ཆེན་	-9407
རྫས་དང་	-9408
པ་ཞེས་བྱ་བ་	-9409
▁།ནོར་	-9410
གཅིག་ཉིད་	-9411
▁ཀཱ་	-9412
སྤྲོད་	-9413
ཐར་པའི་སྒོ་	-9414
ཉམས་སུ་བླང་བ	-9415
▁ཤེར་	-9416
རྒྱུ་དང་།	-9417
ཨིནྡ	-9418
སྤངས་ཏེ་	-9419
པ་ཉིད་ཀྱང་	-9420
རབ་ཏུ་མཁྱེན་	-9421
▁སཾ་	-9422
སྨིག་	-9423
▁བུ་མོ་	-9424
ཡིན་པས་བ	-9425
འགལ།	-9426
འཆིང་བ	-9427
མངོན་པར་བྱང་ཆུབ་	-9428
▁0?-	-9429
དོན་གཉིས་	-9430
▁གར་	-9431
▁དོ་	-9432
▁རིང་	-9433
སྤེལ་བ་	-9434
གཙོ།	-9435
▁།སྒྲུབ་	-9436
▁སེམས་ཙམ་	-9437
▁ཟུང་འཇུག་	-9438
▁འཆད་	-9439
རྟ་བབས་	-9440
▁།ཟླ་བ་	-9441
རབ་བྱུང་བ	-9442
▁བདེ་སྟོང་	-9443
དུད་འགྲོའི་	-9444
ཁོལ་	-9445
▁བྱིས་	-9446
▁།ཡི་གེ་	-9447
▁མདོ་ལས།	-9448
གསུམ་ལྡན་	-9449
▁ཞེས་གསུངས་ཏེ།	-9450
▁ཞག་བ	-9451
ཉི་ཁྲི་	-9452
སྟན་ནོ།	-9453
དཔལ་ལྡན་བླ་མ་	-9454
མན་ངག་བ	-9455
གང་ཟག་གི་	-9456
ལ་བསྟོད་པ་	-9457
▁འབྲེལ་	-9458
རྒྱ་མཚོས་	-9459
▁%	-9460
ཤར༔	-9461
ཏིའི་	-9462
▁ཀཱ་ཡ་	-9463
དར་བ	-9464
གནད་དུ་	-9465
དྲུག་སྟེ།	-9466
མགྲིན་པར་	-9467
ཅ་	-9468
ཁྲོ་བ་	-9469
ལ་བཞི།	-9470
མ་ཡིན་གྱི།	-9471
ཀྲྀ	-9472
དབུས།	-9473
མ་གྱུར་	-9474
▁གང་དང་	-9475
▁ཉི་ཟླ་	-9476
གང་ནས་	-9477
ཆེ་བ་དང་།	-9478
▁དུ་བ་	-9479
གཞན་དང་	-9480
དེ་འདྲ་	-9481
པ་ཉིད་ལ་	-9482
རྒྱལ་ཚབ་	-9483
མཛད་པ་དང་།	-9484
པའི་བྱིན་རླབས་	-9485
གནྡྷེ་	-9486
▁སྤྲིན་	-9487
ནོར་བ་	-9488
མེད་དོ་ཞེས་	-9489
རྟེན་འབྲེལ་གྱི་	-9490
སྐྱབས་སུ་འགྲོ་བ་	-9491
དབང་ཕྱུག	-9492
ཞེས་བཤད་དོ།	-9493
རྒྱན་དང་	-9494
དེ་རྣམས་ཀྱི་	-9495
ངོར།	-9496
ལཱ	-9497
ཆ་ལ་	-9498
རླུང་།	-9499
ཡག་	-9500
གྲག་	-9501
པདྨོ་	-9502
ངང་ལས་	-9503
རྨུགས་	-9504
ངན་ལེན་	-9505
ཤིས་བརྗོད་	-9506
▁ཁྱེད་ཀྱི་	-9507
ྃ་ཡིག་	-9508
དེ་བཞིན་བ	-9509
འབྱུང་ཞིང་།	-9510
▁ཀྱིས་	-9511
ཡོད་པ་མ་ཡིན་ནོ།	-9512
ངོམས་	-9513
▁།བར་	-9514
▁དཔོན་	-9515
སྲོག་ལ་	-9516
དཀར་པོ་བ	-9517
སྒོམ་པ་ནི།	-9518
ནས་བཤད་པའི་	-9519
རྣམ་སྨིན་གྱི་	-9520
དྷཱ	-9521
ར་དོའི་	-9522
ྱ་བྱེད་	-9523
▁རྣམ་པར་ཤེས་པའི་	-9524
རྨད་བྱུང་	-9525
སྒོ་ནས།	-9526
ལྟ་སྒོམ་	-9527
རྗོད་པ་དང་།	-9528
ལ་དམིགས་ནས་	-9529
▁མུན་	-9530
ངོ་བོར་བ	-9531
འདིར་ཡང་	-9532
སྔགས་དང་།	-9533
▁རྣམ་སྨིན་	-9534
འདུས་བ	-9535
མི་ཤིགས་	-9536
ཚད་མེད་པ་	-9537
འབྱུང་བས།	-9538
སྟན་ལ།	-9539
གང་གིས་བ	-9540
དགེ་འདུན་ལ་	-9541
ངོ་བོ་ཉིད།	-9542
སྨྱོན་	-9543
▁གཉིད་	-9544
▁ཡུལ་གྱི་	-9545
གདབ་བོ།	-9546
ྱེད་པས་	-9547
▁སྙིང་གའི་	-9548
▁དེ་བཞིན་དུ་བ	-9549
པར་མྱི་	-9550
མཐོ་དམན་	-9551
དཀར་ལ་	-9552
▁གདུགས་	-9553
ྱིན་གྱི་	-9554
▁བདུན་པ་	-9555
བཀའ་སྩལ་ཏོ།	-9556
▁ཕ་རོལ་ཏུ་ཕྱིན་	-9557
གཤོག་	-9558
▁ནུབ་བྱང་	-9559
ཀུན་རྫོབ་ཀྱི་	-9560
འཆད།	-9561
གཞག་བ	-9562
པའམ་བ	-9563
▁མེའི་	-9564
ཤེས་པ་བ	-9565
རང་བཞིན།	-9566
མ་ཎི་པདྨེ་	-9567
འོང་བའི་འབྲས་བུ་	-9568
འི༴	-9569
▁ཆད་	-9570
ཀུར་སྟི་	-9571
དུ་གསོལ་	-9572
འབད་རྩོལ་	-9573
▁ཧཱུྃ་ཧྲཱི༔	-9574
ཀཱ	-9575
ཅུ་པ་	-9576
མྱེད་པ་དང་།	-9577
ཉམས་སུ་མྱོང་བ	-9578
▁རྣམས་	-9579
དང་བྲལ་བ།	-9580
དུབ་	-9581
ལས་ནི།	-9582
▁དབྱར་	-9583
ལུས་ལ་བ	-9584
▁གུས་	-9585
▁།མཉམ་	-9586
▁དབུ་མའི་	-9587
ལྷའི་བ	-9588
ཀྲྀ་	-9589
མཧཱ་	-9590
▁།སྨན་	-9591
དུན་པོ་	-9592
ལ་མེ་	-9593
▁ལྡོག་	-9594
ཀྱང་རུང་།	-9595
▁ཕྱག་རྒྱ་ཆེན་པོ་	-9596
▁ལྡ	-9597
ཕུང་བ	-9598
སྨོས་ཀྱང་	-9599
▁ཀུན་ཏུ་བ	-9600
དང་མཚུངས་པར་	-9601
ཡོང་བ་	-9602
མ་རུངས་	-9603
སྙིང་ཁར་	-9604
▁།སྐྱབས་	-9605
ཀྴ་	-9606
▁ཁྲུས་	-9607
གླང་ཆེན་	-9608
དོན་དམ་པའི་	-9609
པར་འགྱུར་ཏེ་	-9610
པར་ནི་	-9611
དེའོ།	-9612
རྟན་བ	-9613
སོང་ནས།	-9614
▁།སེམས་ཀྱི་	-9615
མིང་།	-9616
ཻ་ཌཱུ	-9617
རིས་ཀྱི་	-9618
འདུ་འབྲལ་	-9619
ཀྱི་བདག་པོ་	-9620
ིར	-9621
ཁྱེད་ལ་	-9622
ཡི་དམ་གྱི་	-9623
རྩེགས་པའི་	-9624
ེར༔	-9625
ལྷོ་ཕྱོགས་	-9626
སྤྲོས་པའི་	-9627
ལྟུང་བྱེད་དུ་	-9628
▁སྒྲ	-9629
དཔོག་	-9630
ལགས་ན།	-9631
རྣམས་ལ་ཡང་	-9632
དྲུག་ཅུ་རྩ་བ	-9633
དུཥྚ	-9634
ལྟུང་བའི་	-9635
ཐེར་	-9636
ཟླུམ་པོ་	-9637
པའི་བསྟན་པ་	-9638
▁གདོན་	-9639
▁དཔེར་	-9640
རྒྱལ་བར་	-9641
ཁྲོས་པའི་	-9642
གདུག་པའི་	-9643
ཏེགས་	-9644
པ་ཏི་	-9645
ངས་པར་	-9646
ཏཱ་རེ་	-9647
འཐད་དེ།	-9648
▁ལེགས་པར་	-9649
ཞུད་	-9650
ལ་སོགས་པ་རྣམས་	-9651
དེ་ལ།	-9652
ཅས་སོ།	-9653
སྤྱི་དང་	-9654
ཤེས་པ་དང་	-9655
སྐྱེ་བ་དང་	-9656
ཁྲག་གི་	-9657
▁དངོས་སུ་	-9658
རྨི་ལམ་གྱི་	-9659
དོགས་པ་	-9660
པས་ཁྱབ་	-9661
▁།ཕྲིན་ལས་	-9662
པ༴	-9663
སྙེ་	-9664
སྒྱུར༔	-9665
▁།དགེ་བ་	-9666
ཁམས།	-9667
▁རྡོ་	-9668
ཚད།	-9669
ག་ན་	-9670
བརྟན་	-9671
ཁྱད་པར།	-9672
སྒྲུབ་བྱེད་ཀྱི་	-9673
ནད་བ	-9674
▁།འོད་	-9675
གདན་ལ་བ	-9676
ལེགས་པ་	-9677
ཏུ་གསོལ༔	-9678
རཏྣ	-9679
དལ་འབྱོར་	-9680
རྐང་པ་གཉིས་	-9681
ཏུང་བ	-9682
འཕྲོས་པས།	-9683
ཇི་ལྟ་བུ་ཞེ་ན།	-9684
▁ཁྲི་	-9685
ཚོར་བའི་	-9686
སྐུར།	-9687
ཅི་ཡོད་	-9688
ཤག་	-9689
▁ཡུངས་	-9690
དགག་སྒྲུབ་	-9691
ཙོན་	-9692
འདོར་བ་	-9693
སྤྱད།	-9694
དོ་ཞེ་ན།	-9695
མཐོང་ནས།	-9696
པར་མོས་ཤིག	-9697
སྟོབས་ལྡན་	-9698
▁དེས་སྨྲས་པ།	-9699
▁གྷ	-9700
རྟན།	-9701
ངོར་བ	-9702
ཉི་མ་བ	-9703
▁དེ་སྐད་	-9704
འབུལ་བའི་	-9705
པར་བྱེད་པས་	-9706
▁དེ་ཉིད་ལས།	-9707
▁ཚུལ་བ	-9708
ངེས་པའོ།	-9709
རྩ་ལྟུང་	-9710
མདོ་སྔགས་	-9711
▁བླ་མ་བ	-9712
ཅུད་ལེན་	-9713
སྤྱོད་ན་	-9714
▁ཁྲོ་བོའི་	-9715
།།	-9716
པྟ	-9717
མེ་ཡི་	-9718
པའི་དུས་ན་	-9719
▁བརྟག་	-9720
དགེ་སློང་བ	-9721
མི་འགྱུར་བ	-9722
ཨོཾ༔	-9723
མགོན་བ	-9724
མ་རྫོགས་	-9725
མཁན་ཆེན་	-9726
མགོ་བོས་	-9727
ཆུ་ཚོད་	-9728
འཇོག་པ་	-9729
དང་ཡེ་ཤེས་ཀྱི་	-9730
▁མར་མེ་	-9731
ཟག་མེད་བ	-9732
▁མྱ་ངན་ལས་འདས་	-9733
གཤམ་	-9734
སྣེ་	-9735
▁ཤི་	-9736
ཤེ་ན།	-9737
ཌཱཀྐི་	-9738
▁མྱུར་དུ་	-9739
པའི་དུས་སུ།	-9740
གསུམ་ནི།	-9741
རིམ་གྱིས་བ	-9742
ནོད་	-9743
▁ནགས་	-9744
འབྲུ་བ	-9745
དེ་མ་ཐག་	-9746
▁རྒྱལ་པོས་	-9747
ཀྱི་སྒོ་ནས་	-9748
ཀུ་ཤ་	-9749
ནན་ཏན་བ	-9750
རྣམ་བཞག་	-9751
པར་བྱེད་པ།	-9752
པ་ཆེན་པོའི་	-9753
འཐེན་	-9754
ླང་།	-9755
དུ་གཞུག་	-9756
དེ་བ་དང་	-9757
མ་ལུས་པར་	-9758
རྟགས་ན་	-9759
དགའ་ཞིང་	-9760
སོང་ངོ་།	-9761
གྲོགས་སུ་	-9762
འབྲིང་པོ་	-9763
▁དེ་ཉིད་བ	-9764
འཆལ་	-9765
ཚད་མེད་བ	-9766
སརྦ་དྷརྨ	-9767
སྦྱར་བའོ།	-9768
▁།ཞེས་པའོ།	-9769
ཚགས་	-9770
མ་ཟད།	-9771
ཟང་ཐལ་	-9772
གཟི་བྱིན་	-9773
མཇེད་	-9774
གསང་བ་བ	-9775
རྒྱལ་མོ་	-9776
ཉིས་བརྒྱ་	-9777
སྣ་ཚོགས་ཀྱིས་	-9778
ཟུངས་	-9779
སྨྲས་པ་	-9780
རླ་	-9781
དཔེས་	-9782
གླང་པོ་	-9783
དར་གྱི་	-9784
▁ཐོད་པ་	-9785
¡¶	-9786
▁ལ།	-9787
ཧཱུྂ།	-9788
དྲི་མས་	-9789
རྒྱུན་མི་འཆད་	-9790
རྐང་བ	-9791
ཐུབ་བསྟན་	-9792
པ་ཡིན་གྱི་	-9793
རང་གིས་བ	-9794
རྒྱན་གྱིས་བ	-9795
ཕྱེ་མ་	-9796
ཕྱེད་བ	-9797
གསོལ་བ།	-9798
དགའ་བས་	-9799
▁།དམིགས་	-9800
སེམས་ཅན་ལ་	-9801
ཡ་རྦ	-9802
▁ནུས་	-9803
▁དྲོད་	-9804
མཛད་དེ་	-9805
མུཿ	-9806
ྱཱ་	-9807
དཔུང་བ	-9808
ས་དང་།	-9809
ཡོད་དུ་	-9810
བྱའོ།	-9811
གཏང་།	-9812
གཅེར་བུ་	-9813
གཏེར་གྱི་	-9814
སྒོམས་པས།	-9815
བར་	-9816
▁ཚོང་	-9817
གཉིས་ཏེ་	-9818
▁།ནང་	-9819
སྦྱོར་བ་ཡིས།	-9820
ཅེ་ན	-9821
རྐུས་	-9822
ཡ་མཚན་	-9823
▁རིག་བ	-9824
འགྲོ་ལ་	-9825
མགྲིན་པ་	-9826
མེ་རླུང་	-9827
པར་མི་འགྱུར་	-9828
ཁྱེད་ཅག་	-9829
སྙམ།	-9830
ལ་བ་དང་	-9831
མིག་ཤེས་	-9832
སྒྲ་གཅན་	-9833
སེམས་བསྐྱེད་དོ།	-9834
འཐོབ།	-9835
ཅད་ནས་	-9836
▁།བདེ་	-9837
▁དངུལ་	-9838
ཆུ་ཀླུང་	-9839
ཐམས་ཅད་ཀྱི།	-9840
དཀྱིལ་འཁོར།	-9841
རྣམ་པར་བཤད་	-9842
འོད་ཟེར་འཕྲོས།	-9843
སྟོང་པ་ཉིད་ཀྱང་	-9844
མཁན།	-9845
ཚན་བ	-9846
རྩེད་	-9847
▁སྡུག་	-9848
▁ཅེས་པ་	-9849
ལ་བར་དུ་	-9850
▁ཞེས་པས་བསྟན།	-9851
སྐྱང་	-9852
གོང་བཞིན་	-9853
▁།སྲིད་པའི་	-9854
མྦྷ	-9855
ཁོ་བོ་ཅག་	-9856
སྦྲང་རྩི་	-9857
ྱེ་བྲག་ཏུ་བ	-9858
▁།སྟོང་ཉིད་	-9859
དམར་བ	-9860
ལ་ནི།	-9861
ཤེས་པ།	-9862
གོང་དུ་བཤད་	-9863
གནད།	-9864
ལ་ཐིམ་པས་	-9865
གཡས་པའི་	-9866
▁རྟེན་ཅིང་	-9867
ལོ	-9868
དང་བཞི་	-9869
ནུབ་ཀྱི་	-9870
གནས་གྱུར་	-9871
རྔུབ་	-9872
པར་གྱིས།	-9873
རིང་པོར་	-9874
དེད་དཔོན་	-9875
ནས་བརྩམས་ཏེ་	-9876
ཱ༔	-9877
ཆོས་འདི་	-9878
པའི་རྐྱེན་གྱིས་	-9879
སྨོན་ལམ་གྱི་	-9880
▁།སླར་ཡང་	-9881
ལུས་དཀྱིལ་	-9882
གོ་འཕང་ཐོབ་	-9883
པའི་དོན་ནི།	-9884
▁པཎྜི་	-9885
སིང་	-9886
▁སྦྱོར་བ	-9887
▁འཁོར་ལོ་བ	-9888
ཅན་རྣམས་ཀྱི་	-9889
ཨོཾ་ཨཱཿཧཱུྃ་	-9890
▁ཨོཾ་ཨཱཿཧཱུྃ།	-9891
རིགས་ཏེ།	-9892
སྲེག	-9893
དབུས་སུ།	-9894
མགོན་མེད་	-9895
པང་	-9896
རླངས་	-9897
ཁང་དུ་	-9898
སྔགས་བཟླས་	-9899
ནག་པོ།	-9900
ཐོ་རངས་	-9901
སེར་པོ།	-9902
འགྱུར་བར་ཐལ།	-9903
ཞེས༔	-9904
▁ཨོཾ་སྭ	-9905
མཆོད་རྫས་	-9906
སྡེ།	-9907
གོས་བ	-9908
སམ་པས་	-9909
སྒྲུབ་ཐབས།	-9910
དོའི་	-9911
ཞེངས༔	-9912
རྟགས་པའི་	-9913
ཤི་བ་	-9914
▁རེ་ཞིག་	-9915
གཞི་མཐུན་	-9916
▁།རྒྱལ་པོ་	-9917
▁།ཐུགས་རྗེ་	-9918
ཀཾ་	-9919
ལྟར་བྱ	-9920
སྐར་མ་	-9921
དཔྱད་ན་	-9922
▁།འཕགས་པ་	-9923
▁ཨོྃ་བཛྲ་	-9924
▁ཞེས་བརྗོད།	-9925
ལ་གསོལ་བ་འདེབས།	-9926
ིས།	-9927
ཤླཽ་	-9928
▁པཎ་	-9929
རབས་བ	-9930
▁དྲག་པོ་	-9931
རྗེས་ཟློས་	-9932
རིན་ཆེན་འབྱུང་	-9933
འདོན།	-9934
ལྔའི་བ	-9935
ཤི་འཕོས་	-9936
ཞི་ཁྲོའི་	-9937
དགར་	-9938
མཇུག་ཏུ་	-9939
ཕྲེང་བའི་	-9940
ཡིད་བྱེད་	-9941
མཆོད་པ་ནི།	-9942
ཀུན་ལས་བཏུས་	-9943
ནས་བཟུང་སྟེ་	-9944
ལྷམ་	-9945
▁ཀརྨ་	-9946
གེགས་ཀྱི་	-9947
▁ཟ་	-9948
མ་ཚང་	-9949
རྩོན་འགྲུས་བ	-9950
དང་མཚན་	-9951
གྲྭ	-9952
▁འདུག་	-9953
ཅི་ནུས་བ	-9954
ྱམས་པའི་	-9955
▁།ལྷ་ཡི་	-9956
▁།བྱང་	-9957
ལ་རག་ལས་	-9958
རྟོགས་ན་	-9959
ཕུང་པོ་ལྔ་	-9960
▁4	-9961
▁ཡུན་	-9962
ལ་དབང་བ	-9963
▁།གཞུང་	-9964
▁གོང་གི་	-9965
ལྕགས་སྒྲོག་	-9966
སྔོན་འགྲོའི་	-9967
ཞིང་རྒྱས་	-9968
▁༼༦	-9969
ཧ་ར་	-9970
སྡུས་པ།	-9971
འདྲེན་པའི་	-9972
▁།རང་བྱུང་	-9973
ཅུ་གཉིས་ཀྱི་	-9974
འཕར་	-9975
ཤོད་	-9976
མ་རུ་	-9977
▁དམན་	-9978
སྤུའི་	-9979
པར་བཤད་དོ།	-9980
རིན་པོ་ཆེའི་བ	-9981
མནན།	-9982
ལ་བསྟི	-9983
སྤེལ་བའི་	-9984
ཐལ་བའི་ཕྱིར་རོ།	-9985
དཔག་ཏུ་མེད་པའི་	-9986
ཡས་བ	-9987
སལ་བ	-9988
ཞི་ཞིང་	-9989
ཀུན་ཁྱབ་	-9990
ཁང་པ་	-9991
གླིང་དུ་	-9992
རྫས་གཞན་	-9993
▁མཆོད་པའི་	-9994
གོང་ནས་གོང་དུ་	-9995
མངོན་པར་ཤེས་པ་	-9996
ཿ།	-9997
ལྕེའི་	-9998
མིང་ཅན་	-9999
ངོས་བཟུང་	-10000
ྱོན་ནས་	-10001
མཐར་བྱེད་	-10002
པ་རྣམས་ཀྱི་བ	-10003
ལྟར༔	-10004
ཤཱི་	-10005
ཡིན་ཀྱང་	-10006
རྐྱེན་གྱི་	-10007
སྟོང་གསུམ་	-10008
ཀླས་	-10009
▁།དེ་ལ་བ	-10010
སྤྲུལ་སྐུའི་	-10011
གསུམ༔	-10012
▁གསོ་	-10013
ཁྲིག་བ	-10014
སྦྱང་བ་	-10015
ལ་དམིགས་པའི་	-10016
ཟླའོ།	-10017
ཙམ་དུ་བ	-10018
▁གསུམ་པ་བ	-10019
▁ལང་	-10020
ག་མེད་	-10021
▁རིག་པའི་	-10022
སྦྱིན་བདག་	-10023
རྣམས་ཀྱིས་ནི་	-10024
མུས་	-10025
སམས་པ།	-10026
ཁྱོད་ནི་	-10027
ཟླས་བརྗོད་	-10028
དང་ལྡན་ཞིང་	-10029
མཐར་བ	-10030
▁ལམ་བ	-10031
རྩེ་བས་	-10032
པ་མེད་པའི་ཕྱིར།	-10033
དཔངས་	-10034
མི་ཐུབ་	-10035
▁མཆོད་རྟེན་	-10036
ཞི་ལས་	-10037
ཅི་ལྟར་	-10038
གྲོ་བ	-10039
ཅིག་ཕྱིར་	-10040
▁གླེང་	-10041
▁དག་པ་	-10042
▁མ་མོ་	-10043
མངྒ་ལཾ།།	-10044
སྔར་ལྟར་	-10045
གདན་དྲངས་	-10046
▁རང་བཞིན་གྱི་	-10047
སྙོམས་པར་འཇུག་པ་	-10048
ལ་མི་བ	-10049
མདོག་ཅན་	-10050
ལ་བརྟེན་ཏེ་	-10051
▁ཚེ་བ	-10052
གྱི་བློ་	-10053
མོད་ཀྱང་།	-10054
མ་ཎ	-10055
ཨཱརྻ་	-10056
▁།རྗེ་	-10057
ཀའ་བསྩལ་	-10058
▁གཙོ་བོའི་	-10059
ཞུགས་པ་དང་།	-10060
ཞག་གོ	-10061
པར་བསྒོམ།	-10062
དྲི་མ་མེད་པ་	-10063
ཞེང་	-10064
འཐོན་	-10065
གཙང་མ་	-10066
▁དེང་སང་	-10067
▁དཀོན་མཆོག་གསུམ་	-10068
▁.-	-10069
པར་བསམ༔	-10070
མཛེས་པ་	-10071
ཡི་གེར་	-10072
དཀར་གྱི་	-10073
▁ལྟོ་	-10074
གང་ལགས་	-10075
▁།སྲོག་	-10076
ེའམ།	-10077
ཤུལ་བ	-10078
▁།ལན་	-10079
▁།བདག་ནི་	-10080
ཕྱོགས་བཞིར་	-10081
སྐྱེད་མོས་ཚལ་	-10082
ོགས་འདོན་	-10083
ནི་རྣམ་པར་	-10084
པ་ལྟ་བུའོ།	-10085
དང་བྱེ་བྲག་	-10086
ལོ་ཀི་	-10087
ོ་བྱད་	-10088
ཀུན་རྫོབ་ཀྱི་བ	-10089
ཡལ་ག་	-10090
▁ལེའུ་བ	-10091
མཐོལ་ལོ་བ	-10092
ཁྱད་པར་ནི།	-10093
འདོད་པའི་ཡོན་ཏན་	-10094
▁མཐུན་	-10095
དོན་ཀུན་	-10096
དབྱངས་ཅན་	-10097
འབྱུང་བ་ནི་	-10098
▁།ལོངས་སྤྱོད་	-10099
ལེབ་	-10100
▁།མཁའ་འགྲོ་	-10101
ཆ་དང་།	-10102
མང་།	-10103
རྡོ་རྗེར་	-10104
དགེ་བར་	-10105
ཕྲེང་བ་བ	-10106
འགག་མེད་	-10107
རྟགས་ནས་	-10108
སྤུ་གྲི་	-10109
དྲུག་པའི་	-10110
▁ཀུན་གཞི་	-10111
གཅིག་ཏུ་འདྲེས་	-10112
ཕན་ཆད་	-10113
ཽད་གལ་	-10114
མགུ་བ	-10115
▁།ཉི་མ་	-10116
ཀྲོལ་	-10117
མཛད་པས།	-10118
གོ་སྐབས་	-10119
▁པས་	-10120
ཡི་རང་	-10121
▁།གཉིས་པ་བ	-10122
མི་འགྱུར་བ་	-10123
▁ཁྱི་	-10124
▁ཞི་བ	-10125
ལ་ལུང་	-10126
▁གཞལ་ཡས་	-10127
གཟུགས་མེད་	-10128
མཛའ་བ	-10129
ཆོས་ཀུན་	-10130
ནན།	-10131
སྣང་བ།	-10132
རྣམ་པའི་	-10133
སྲུང་མའི་	-10134
གླང་པོ་ཆེ་	-10135
སྙམ་དུ་སེམས།	-10136
ཆོད།	-10137
▁གཡས་སུ་	-10138
གཉིས་ཀྱང་	-10139
པར་གྱུར་ནས་	-10140
རྨི་ལམ་དུ་	-10141
དབང་བསྐུར་རོ༔	-10142
སྦྲ་	-10143
ཞེངས།	-10144
སརྦ་བ	-10145
གསུམ་ཀ་	-10146
▁གཤིན་རྗེའི་	-10147
སྲབ་	-10148
སྣམ་བུ་	-10149
ཇི་ལྟར་ན་	-10150
དགོས་འདོད་	-10151
མ་ཡིན་པ་ལ་	-10152
ལྟ་བ་བ	-10153
ཧྲཱིཾ་	-10154
ཕུལ་བའི་	-10155
འི་བར་ཆད་	-10156
པར་བྱས་ཏེ་	-10157
ཀུན་ཏུ་བཟང་པོ་	-10158
འགྲོ་བས་	-10159
▁མཛེས་	-10160
གསལ་གདབ་	-10161
མཁའ་ཁྱབ་	-10162
▁།དེ་བཞིན་བ	-10163
▁།གཉིས་པ་ནི་	-10164
▁སྐད་	-10165
སོགས་ནས།	-10166
▁གཞན་ཡང་།	-10167
རྗེས་སུ་གནང་བ་	-10168
འགོང་	-10169
ལས་ལངས་	-10170
གནས་པའོ།	-10171
ཐོག་མར་བ	-10172
ཞུགས་ཏེ།	-10173
སྐོར་ནས་	-10174
ཕྱག་རྒྱའོ།	-10175
སྔོན་པོའི་	-10176
མཚན་ཉིད་དོ།	-10177
ལ་བཀོད་	-10178
འབུལ་བ་ནི།	-10179
ཀྱི་བྱེ་བྲག་	-10180
དེར་ཐལ།	-10181
སྤྱན་སྔ	-10182
མྱེད་པར་	-10183
▁བོད་སྐད་དུ།	-10184
རྒྱུ་ལ་	-10185
ལུས་ཀྱིས་	-10186
འཇིགས་མེད་	-10187
▁རྒྱལ་སྲས་	-10188
འགྲེལ་ཆེན་	-10189
རྡོ་རྗེ་མ་	-10190
ལ་སོགས་པའི་བ	-10191
▁སྦྱིན་སྲེག་	-10192
ནི་རང་	-10193
ལྷག་བསམ་	-10194
▁།རིམ་	-10195
སུམ་ཅུ་རྩ་གཉིས་	-10196
ཤུན་	-10197
དཔག་ཚད་བ	-10198
གསལ་བར་བྱེད་	-10199
ལྔར་བ	-10200
གཡེངས་	-10201
ཁྱུད་	-10202
གཟུང་བར་	-10203
དབྱིངས།	-10204
▁།གསང་བ་	-10205
གནད་དུ་བསྣུན་	-10206
ཁུང་བ	-10207
▁བཙན་	-10208
དང་འདྲེས་	-10209
དང་ཡོན་ཏན་	-10210
གྲུབ་པ་དང་།	-10211
▁རྒྱུ་འབྲས་	-10212
ྱིན་གྱིས་བརླབ།	-10213
ཐད་དུ་	-10214
ཟིན་པ་	-10215
སུ་ཡང་	-10216
ཽ་རཱི་	-10217
ཟད་པའི་	-10218
ཐ་མལ་གྱི་	-10219
གདའ་	-10220
▁ཨ་མ	-10221
ལྔ་ལས་	-10222
དང་དཔེ་བ	-10223
ཡིན་པ་ལ་	-10224
ཕྱི་བ	-10225
▁པའོ།	-10226
སོང་ན་	-10227
▁གཟུགས་བ	-10228
སྟོང་ངོ་།	-10229
ཕྲིན་ལས་ཀྱི་	-10230
ལོ༔	-10231
▁00000255	-10232
ཀྲ་ཤིས་ཤོག༔	-10233
དགེས་	-10234
དང་བདག་	-10235
དབང་ཕྱུག་བ	-10236
ེ༴	-10237
▁ཤེལ་	-10238
ཁྲོ་བོ་བ	-10239
པའི་ཚུལ་ནི།	-10240
ན་ཅིར་འགྱུར།	-10241
མདོག	-10242
བས་པ་	-10243
ར་བྱུང་	-10244
སྒྲུབ་པར་བྱའོ།	-10245
འཁྱུད་པ།	-10246
▁།སྣང་	-10247
དགའ་བ།	-10248
ལམ་དང་།	-10249
གཟིགས་པ་	-10250
ཅིས་ཀྱང་	-10251
དབང་ཐོབ།	-10252
རྩེ་མོའི་	-10253
དལ་བ	-10254
གཡས་པ་	-10255
མེད་དང་	-10256
ཆོམ་རྐུན་	-10257
ཀྱིས་བསྡུས་	-10258
ཟིན་པས་	-10259
སོགས་ཀྱང་	-10260
སྒོམ་སྤང་	-10261
ཟང་བ་	-10262
ཞི་ནི་	-10263
ཞབས་ཀྱིས་	-10264
▁གཉེན་པོ་	-10265
ལོ་མ་	-10266
རྟོག་པ་དང་།	-10267
གཅིག་སྟེ།	-10268
སྐུ་མཆེད་	-10269
སྟོན་པ་ནི་	-10270
▁སྤྲུལ་སྐུ་	-10271
▁།བ་	-10272
ཞབས་ཏོག་	-10273
ཡོད་པ་ལ་	-10274
སྐྱེད་ལ།	-10275
▁འདོད་ན་	-10276
པ་ལ་གསུམ།	-10277
▁ཁྱོད་ནི་	-10278
མཉམ།	-10279
▁།གང་དག་	-10280
རྫས་གཅིག་	-10281
རིགས་དྲུག་	-10282
ཡེ་ཤེས་སེམས་དཔའ་	-10283
རྟོག	-10284
ཐོགས་ལ།	-10285
གླིང་གི་	-10286
འབུལ་ལོ།	-10287
དགོས་ཤིང་།	-10288
▁།མཚན་ཉིད་	-10289
དམ་ཚིག་ཉམས་	-10290
▁རྨོངས་	-10291
དག་གིས་ཀྱང་	-10292
ཤམས།	-10293
དཀོར་	-10294
རྒྱབ་ཏུ་	-10295
གཅིག་པུར་	-10296
པར་བྱས་ནས།	-10297
▁སྲས་	-10298
རིགས་ལ་	-10299
སྒོམས་ལ།	-10300
གཏོགས་པའི་	-10301
ཾཿ	-10302
གདབ༔	-10303
རྡའི་	-10304
ཅན་ནི་	-10305
ལྔ་ལས།	-10306
སྐྱེལ་	-10307
ཐེག་དམན་	-10308
▁འོག་མིན་	-10309
རྒྱད་ཀྱིས་	-10310
▁ཨོ་	-10311
ལས་དང་།	-10312
ལུས་སུ་	-10313
▁།རྣམ་རྟོག་	-10314
པ་བྱ་བ་	-10315
དུས་ལ་བབ་	-10316
རྣལ་འབྱོར།	-10317
▁སྒྲུབ་བྱེད་	-10318
ཆོག་བ	-10319
▁།སྟོན་	-10320
ཞུགས་སོ༔	-10321
ཀླུ་བ	-10322
ནག་བ	-10323
ལུ་གུ་	-10324
▁དེ་ནས།	-10325
ཉེ་བར་གཞག་པ་	-10326
འགྲུབ་པར་འགྱུར།	-10327
ཅངས་	-10328
སྦྱོར་བར་	-10329
རྣལ་འབྱོར་པ།	-10330
འཛོམས་	-10331
ཡུམ་ལ་	-10332
རུས་པའི་	-10333
▁དབང་པོའི་	-10334
ཽ་ཏ་	-10335
ཏ་བ	-10336
རལ་པ་	-10337
དབྱེ་བ།	-10338
དཔྱོད་པའི་	-10339
གསུམ་པ།	-10340
པས་ཆོག་	-10341
སྨྲ་བས་	-10342
སྭཱ་ཧཱ་	-10343
མགོན་པོ་བ	-10344
གཡུང་དྲུང་	-10345
རྒྱས་འདེབས་	-10346
▁།བླ་	-10347
▁གློ་བུར་	-10348
▁གང་གི་ཕྱིར་	-10349
ཕྱོགས་གཅིག་ཏུ་	-10350
པའི་ལུང་	-10351
▁།ངོ་བོ་	-10352
ལས་ཐམས་ཅད་	-10353
ཁ་བ་	-10354
དུ་བྱ་བ་	-10355
ང་བུ་	-10356
དབྱུག་པ་	-10357
རྩ་རླུང་	-10358
▁བསྐྱེད་	-10359
པས་བདག་	-10360
▁།བདག་ལ་	-10361
ཡོངས་སུ་རྫོགས་པ་	-10362
▁ལོ་ཙཱ	-10363
ཞག་པའི་	-10364
དེ་ཉིད་ལས།	-10365
མ་གཏོགས་པ་	-10366
གསེར་བ	-10367
ལྡང་བ་	-10368
རྒྱན་དུ་	-10369
▁ལྡན་འདས་	-10370
མྱི་བྱེད་དོ།	-10371
ཁྱིམ་བ	-10372
ལྕི་བ་	-10373
དེ་ལྟར་ན་	-10374
▁ཕྱི་ནང་གི་	-10375
་རཀྵ་	-10376
ལྷོ་བ	-10377
▁ཕོ་བ	-10378
▁ཉེས་བྱས་སོ།	-10379
ལས་བྱུང་བའི་བ	-10380
༼༥	-10381
ཀྲག་	-10382
མི་ནུས།	-10383
འབྱོར་བ་	-10384
སུ་གསོལ་	-10385
ལྷུན་གྲུབ།	-10386
▁འོད་སྲུང་	-10387
སོ་སོའི་སྐྱེ་བོ་	-10388
▁ས་སྐྱ་	-10389
▁།དོན་དམ་	-10390
▁འབ	-10391
ཆར་དུ་	-10392
དབྱུང་བ	-10393
རུང་བས་	-10394
སྤུའི་བུ་	-10395
▁།ཨོཾ་བཛྲ་	-10396
▁རིགས་ཀྱི་	-10397
ཚེ་རིང་	-10398
རྣམས་ནི་བ	-10399
རྟོགས་པ་དང་།	-10400
གདུངས་	-10401
ཉམས་སུ་བླང་	-10402
ཚེ་དཔག་མེད་	-10403
འགྱུར་རོ་ཞེ་ན།	-10404
རྣམ་པར་མི་རྟོག་	-10405
▁།ལག་	-10406
མུ་དྲ་	-10407
ཧུ་ལུ་	-10408
▁དགག་བ	-10409
པ་བཞིའི་	-10410
མཚན་མའི་	-10411
ཚེ་འདིར་	-10412
▁དེ་ནས་ཡང་	-10413
ལ་དང་	-10414
སྐྱོ་བ་	-10415
ངང་།	-10416
▁།མིང་	-10417
ལམ་ཤེས་	-10418
རྣམ་པར་བཞག་པ་	-10419
གསོ་བ	-10420
སྙམ་མོ།	-10421
མི་འཐད་དེ	-10422
སྔགས་བརྗོད་	-10423
ཆུང་།	-10424
ཆོ་གས་	-10425
ཞིག་ན་	-10426
སྡུས་བ	-10427
▁མ་ལུས་	-10428
▁རྐང་པ་	-10429
གཟུགས་སྐུ་	-10430
ཕག་མོ་གྲུ་	-10431
▁དེའི་དོན་	-10432
རྔམས་	-10433
སླུས་	-10434
ལུང་སྟོན་	-10435
པའི་བདག་པོ་	-10436
པོའམ་	-10437
མ་དང་ཐ་མ་	-10438
གཉིས་མེད་ཀྱི་	-10439
ཕན་པ་	-10440
ཻ་ཝི་	-10441
▁དགུང་ལོ་	-10442
▁ཡིག་བ	-10443
ཟློག་པ་	-10444
རྗེས་འབྲ	-10445
སྲེག་རྫས་	-10446
འི་བར་གྱིས་	-10447
སྙན་བརྒྱུད་	-10448
ྱིན་གྱིས་རློབས་	-10449
▁གསང་བ	-10450
ཁྱབ་འཇུག་	-10451
▁།ཁྱོད་ཀྱི་	-10452
ཡིས་ནི་	-10453
ཤེས་བཞིན་	-10454
སྲིད་གསུམ་	-10455
པ་ཐམས་ཅད་ཀྱིས་	-10456
ེན༔	-10457
ྱ་སྟེ	-10458
མ་ནུས་	-10459
དགའ་ལྡན་	-10460
མི་ཤེས་པ་	-10461
▁མ་སྐྱེས་	-10462
▁མ་མ་	-10463
ཐར་བར་	-10464
གཡག་	-10465
རོལ་བ	-10466
ལོག་འདྲེན་	-10467
▁བཏང་སྙོམས་	-10468
▁དེ་བཞིན་དུ།	-10469
རྩལ།	-10470
རྙན་བ	-10471
ཡན་ལག་བཞི་	-10472
ཡུན་རིང་དུ་	-10473
ཁྲག་བ	-10474
མི་དགེ་	-10475
རྒྱ་མཚོ་བ	-10476
▁དངོས་པོའི་	-10477
རྒྱ་ཆེ་	-10478
སྨོན་པ་	-10479
སྣ་ཚོགས་དང་།	-10480
ར་དྭ་ཏིའི་བུ།	-10481
▁ཟངས་	-10482
རྡོ་རྗེ་དྲིལ་བུ་	-10483
་རྔ	-10484
ཟུག་རྔ	-10485
ཡོན་དུ་	-10486
▁༩	-10487
ཐུལ་	-10488
ཏང་བའི་	-10489
མ་བྱེད་ཅིག	-10490
རྒྱུན་ཆགས་	-10491
ཟ་བ	-10492
དམ་བཅའ་བ	-10493
▁བློན་པོ་	-10494
▁།ཆོས་རྣམས་	-10495
ཐེམ་	-10496
གོས་ཀྱི་	-10497
ཟག་པ་མེད་པའི་	-10498
ཏུ༔	-10499
▁ཟུར་	-10500
གང་གི་ཚེ་	-10501
སྡིག་པའི་	-10502
ཞེས་བྱ་བའོ།	-10503
ངོས་ནས་	-10504
དྲེགས་པའི་	-10505
▁དེ་ལས་གཞན་	-10506
ནེའུ་	-10507
གང་འདུལ་	-10508
སོགས་ལས་	-10509
སྒྲ་དོན་	-10510
གང་རུང་གི་	-10511
སྒྲུབ་པའི་ཐབས་	-10512
གྱིས་པ་	-10513
དང་ཕྲད་	-10514
ཐམས་ཅད་ཡོངས་སུ་	-10515
དཀར་ནག་	-10516
དང་པོས་	-10517
རྒྱུ་ལས་	-10518
འགྲོ་བའི་དོན་	-10519
▁སྔོན་བ	-10520
འགྱུར་ན་	-10521
▁བྱེད་པ་	-10522
རྒྱུ་སྐར་	-10523
ཐེ་ཚོམ་མེད།	-10524
དོར།	-10525
▁དེར་བ	-10526
མར་གྱི་	-10527
རྟག་ཆད་	-10528
མའམ་	-10529
▁དགེ་སློང་མ་	-10530
▁།ཆགས་	-10531
སུ་བཤད་	-10532
སྒྱུར་བ།	-10533
ཞུགས་ཀྱི་	-10534
▁ཉོན་	-10535
སྒྲ་ནི་	-10536
དམར་གྱི་	-10537
ེའམ་	-10538
▁མ་ཧཱ	-10539
ླ་མེད་ཀྱི་	-10540
▁ཐུགས་རྗེའི་	-10541
ཀྲི་	-10542
ཝ་ར་	-10543
མཚོན།	-10544
གཉེར་བ	-10545
འི་བཀའ་	-10546
དགེ་བཤེས་	-10547
ཐུན་མོང་དུ་	-10548
འདི་བཞེས་ལ།	-10549
མེད་བྱང་ཆུབ་	-10550
འབྲེལ།	-10551
ྱ་བའོ།	-10552
▁།གང་ལ་	-10553
རྗེས་སུ།	-10554
ཏམ།	-10555
▁༡༠	-10556
དོན་དུ།	-10557
ཐོས་པའི་	-10558
འདུག་སྟེ།	-10559
▁དྲིལ་བུ་	-10560
ཏྭ	-10561
ླང་བ་	-10562
རྡོ་རྗེ་འཆང་གི་	-10563
ཐལ་བ	-10564
ལ་ལྕ	-10565
ླུན་པོ་	-10566
གོང་ལྟར་	-10567
ཐོབ་པའི་བ	-10568
▁།བདག་དང་	-10569
▁བཅུ་དྲུག་	-10570
དང་ལྷན་ཅིག་ཏུ་	-10571
ཆི	-10572
ེ་བྷྱཿ	-10573
གཉིས་ཀར་	-10574
▁།ཤིང་	-10575
▁རང་ལ་	-10576
དཔར་	-10577
ལྟ་བ།	-10578
གཞུག་བ	-10579
སྦྱར་བ།	-10580
ཡིན་གསུངས།	-10581
ཅར་	-10582
▁།སྒོམ་	-10583
▁།སྤྱི་	-10584
▁བདག་གི་བ	-10585
▁སོགས་ནས།	-10586
གཏད་ལ།	-10587
ལྷུར་	-10588
ཅེས་པའི་	-10589
མཐའ་བྲལ་	-10590
དཔལ་རྡོ་རྗེ་	-10591
ཙམ་ཞིག་བ	-10592
གཏོགས།	-10593
འགེངས་	-10594
ལ་འབད་	-10595
སྣོད་བ	-10596
▁མཚུངས་	-10597
▁དབྱིབས་	-10598
འཇོམས་པའི་	-10599
མཉམ་དུ་	-10600
སློང་བ་	-10601
སྒྲོལ་བའི་	-10602
གྣ་	-10603
དབྱངས།	-10604
མཁའ་འགྲ	-10605
▁།སྐྱེས་	-10606
▁།གཞན་གྱི་	-10607
▁ཐམས་ཅད་ཀྱང་	-10608
རྡོ་རྗེ་འཆང་།	-10609
ཀཱི་ལི་ཀཱི་ལ་ཡ་	-10610
▁ཤྲཱི་	-10611
སད་པའི་	-10612
▁ཐེག་པ་ཆེན་པོའི་	-10613
▁རྨི་	-10614
་བཞིན།	-10615
▁ཕྲག་དོག་	-10616
དག་གིས་ནི་	-10617
▁།མྱ་ངན་འདས་	-10618
པ་དགྲ་བཅོམ་པ་	-10619
ཀུན་བཏགས་	-10620
▁མི་མཐུན་	-10621
སྲེ་	-10622
དྲན་བ	-10623
ལས་ཉམས་	-10624
▁།རྟོགས་	-10625
སེམས་བསྐྱེད་པ་	-10626
▁པྲ	-10627
ཡང་མེད།	-10628
ཐུགས་དགོངས་	-10629
▁རྒྱ་གར་གྱི་	-10630
▁ལྷ་ཡི་	-10631
རྒྱལ་བུ་	-10632
ཉེ་དུ་	-10633
ལ་འདུད།	-10634
སྡེ་དཔོན་	-10635
ནཾ་	-10636
འཕྲེང་བ་	-10637
སོ་བདུན་	-10638
▁།ཇི་ལྟར་བ	-10639
དང་ཉོན་མོངས་	-10640
འཇོག	-10641
ས་དང་པོ་	-10642
པ་བཞིན་དུ།	-10643
ཕས་	-10644
རྵ་	-10645
མྱོང་།	-10646
མི་བཟོད་	-10647
▁ཡེ་ཤེས་པ་	-10648
དུད་རྩིའི་བ	-10649
གལ་ཆེ་	-10650
▁བྷྲཱུ	-10651
རིག་གི་	-10652
སྤྱན་དྲ	-10653
ཕྱག་ཆེན་	-10654
▁འདི་ལྟར་བ	-10655
པར་བྱེད་ན་	-10656
རིག་འཛིན་བ	-10657
▁།འཁོར་འདས་	-10658
ཕུ	-10659
འཕྱེ་	-10660
རྡུལ་དུ་	-10661
▁།འདི་དག་	-10662
ལ་མཆོད་	-10663
པ་གང་ཞིག	-10664
སྦྱིན་པ་དང་།	-10665
པ་ཡ་	-10666
པར་བལྟའོ།	-10667
རྩོད་པའི་	-10668
▁དེས་བདག་	-10669
དྲག་སྔགས་	-10670
རྣམ་པར་འཕྲུལ་	-10671
རབ་རིབ་	-10672
མ་བཅིངས་	-10673
འཇུག་པར་	-10674
ཅོམ་ལྡན་འདས་བ	-10675
ཧ་ཡ་	-10676
▁;%-	-10677
འཕགས་མ་	-10678
ཤི་བའི་	-10679
ཀྱི་བློ་	-10680
པད་ཟླའི་	-10681
མྱི་དམྱི	-10682
ལམ་འབྲས་	-10683
པའི་ཆོས་ཉིད་	-10684
འཛིན་པའོ།	-10685
སྒྲུབ་པ་བ	-10686
གཉིས་གཉིས་	-10687
དགོངས་པའི་	-10688
དག་ཉིད་ཀྱི་	-10689
ཞེས་བརྗོད་དོ།	-10690
སཱ	-10691
ལ་ཐུག་	-10692
ླ་མ་དམ་	-10693
ར་པ་	-10694
སིལ་བ	-10695
▁བཅུ་གཉིས་	-10696
དབང་བསྐུར་བས།	-10697
ཧཱུྃ་གིས་མཚན་	-10698
འཚེ་	-10699
ཕྱིན་བ	-10700
▁ཟག་མེད་	-10701
པར་བྱས་པའི་	-10702
▁ཛཿ	-10703
ཉོན།	-10704
དེས་ནི་	-10705
འབུམ་གྱི་	-10706
སྤྲོས་མེད་	-10707
ཞེས་གསུངས་སོ།	-10708
སྲེད་པ་	-10709
▁ཀྱེ་མ་	-10710
ཆུ་སྲིན་	-10711
སུས་ཀྱང་	-10712
ཕོ་བྲང་ནས༔	-10713
▁།བཞི་པ་ནི།	-10714
རྟེན་འབྲེལ་བ	-10715
མངོན་པའི་	-10716
▁གཞན་གྱིས་	-10717
ཙོ་	-10718
ཞེན་པའི་	-10719
སྟེང༔	-10720
འཚོ་བའི་	-10721
པར་འདོད་ན་	-10722
ཞེས་སུ་གསོལ།	-10723
སོལ་	-10724
ྱས་བ	-10725
གཞིས་	-10726
ར་དང་	-10727
གདམས་པའི་	-10728
འབྱུང་སྟེ	-10729
པའི་ཚུལ་གྱིས་བ	-10730
ཇི་སྙམ་དུ་སེམས།	-10731
དགུ།	-10732
ཁྱོད།	-10733
ལས་ཚོགས་	-10734
ངོས་བཟུང་བ་	-10735
ལྡེམ་	-10736
སྒྲ་སྒྲོགས་	-10737
ཁག་	-10738
▁གདུག་	-10739
ློ་ལྡན་	-10740
ཤེས་པའོ།	-10741
སངས་རྒྱས་དང་།	-10742
ཀོར་	-10743
མཛད༔	-10744
▁ཀློང་	-10745
པའི་ཚེ༔	-10746
ཆེན་པོའོ།	-10747
དུས་འཁོར་	-10748
དབྱངས་ཀྱི་	-10749
པ་དེ་ལྟ་བུ་	-10750
▁བཀའ་སྩལ་པ།	-10751
▁འདི་དག་ནི་	-10752
སྐྱིལ་མོ་ཀྲུང་	-10753
ཆུ་བོའི་	-10754
ྱའོ་ཞེས་	-10755
དམིགས་ནས་	-10756
▁།དེ་ཡིས་	-10757
གཞན་གྱི་དོན་	-10758
ཐོས།	-10759
དཔག་པ་	-10760
▁།བྱས་	-10761
ཟུང་བས་	-10762
ལྡི	-10763
ཅི་སྟེ་	-10764
ཐུར་དུ་	-10765
ཧཱུཾ་ཕཊ།	-10766
གེགས་བྱེད་	-10767
▁།དྲུག་	-10768
▁མེད་པ་	-10769
▁བཟོད་པ་	-10770
▁སེང་གེ་	-10771
སྙེན་རྫོགས་	-10772
▁ཐབ་	-10773
▁ཞབས་བ	-10774
མངོན་པར་རྟོགས་པ་	-10775
▁དཔུང་	-10776
ཞེས་བྱ་བ་ནི།	-10777
ཚིག་དང་	-10778
▁།ཆོས་ཉིད་	-10779
དགོས་པ་དང་།	-10780
ཡིག་གི་	-10781
རྣམ་པར་བྱ	-10782
ཡོངས་སུ་དག་པ།	-10783
སྣུམ་	-10784
པའི་ཚད་	-10785
སྐོར་བར་	-10786
ཆོས་འཁོར་	-10787
སྐྱེས་བུ་བ	-10788
ཁྲེལ་	-10789
རུངས་	-10790
མཛད་ནས།	-10791
གཙང་མའི་	-10792
གྲུབ་ནས་	-10793
སྙིགས་མ་	-10794
▁བསྟན་པའི་	-10795
ེའོ།།	-10796
ཀྱང་རུང་	-10797
རྣམས་ལ་ནི་	-10798
པ་དང་མ་	-10799
▁གསུངས་	-10800
ཕན་ཡོན་བ	-10801
སྡོང་པོ་	-10802
▁བདུད་ཀྱི་	-10803
་རཀྵ	-10804
ལྷག་ཆད་	-10805
▁ཐོག་མ་	-10806
གང་ལ་ཡང་	-10807
ཞེས་པ་ནས་	-10808
པ་སོགས་ཀྱི་	-10809
སེར་མོ་	-10810
འདྲ་སྟེ།	-10811
ོའམ་	-10812
་བོ་དྷི་	-10813
▁བྱང་ཕྱོགས་	-10814
▁ཆར་	-10815
ང་རོ་	-10816
ཟང་པོར་	-10817
གསུམ་ན་	-10818
གསོལ་བའི་	-10819
▁།ཀ	-10820
▁ཏྲ	-10821
་བིགྷྣ	-10822
ཕྱེད་པ་	-10823
▁འོག་ཏུ་	-10824
ྱེ་བ་ཕྲག་བ	-10825
པྟ་	-10826
ཁྲིད།	-10827
ནུ་མ་	-10828
བྱེད།	-10829
སྲོང་བ	-10830
མཆོག་དང་	-10831
སྔོ་བའི་	-10832
▁རོལ་མོ་	-10833
རྗེས་སུ་མ་	-10834
འོད་དུ་ཞུ་ནས་	-10835
ཅའ་བ	-10836
ཨ་བ་	-10837
གཏམས་	-10838
▁།གསང་བའི་	-10839
▁རིགས་ཀྱི་བ	-10840
▁སྨད་	-10841
ཞལ་གདམས་	-10842
དབང་གིས་བ	-10843
སྐྱེ་ཞིང་	-10844
མཱ་མ་	-10845
ངང་ཚུལ་	-10846
འདུལ་བར་	-10847
མྱི་བྱའོ།	-10848
སྒོམ་བཟླས་	-10849
འཕྲང་	-10850
▁གསལ་བ་	-10851
པ་བཟློག་	-10852
གཟིགས་ནས་	-10853
ལེ་ལོ་	-10854
རྩ་འདབ་	-10855
རྒྱུད་སྡེ་བ	-10856
ཀྲམ་	-10857
མིར་	-10858
▁མཐོང་ལམ་	-10859
ལག	-10860
ལར་	-10861
▁ཁས་བ	-10862
གཅིག་གོ	-10863
▁གྲུབ་པའི་	-10864
འགོག་བ	-10865
གཉིས་པར་	-10866
ཕྱི་རོལ་ཏུ་	-10867
ནམ་མཁའི་ཁམས་	-10868
གཞི་ལ་	-10869
འགལ་ཏེ།	-10870
མི་འཛིན་	-10871
ྱེ་བ་ཕྲག་	-10872
▁ཉེ་བའི་	-10873
པའི་བསོད་ནམས་	-10874
▁།བློ་གྲོས་	-10875
▁དེ་ཁོ་ན་ཉིད་	-10876
སལ།	-10877
སོགས་དང་	-10878
▁དེ་དུས་	-10879
▁སྦྱོར་བའི་	-10880
▁ཐོ་	-10881
ཟིན་ནས་	-10882
རེས་འགའ་	-10883
སྣ་ཚོགས་པ་	-10884
▁སྐྱེ་བའི་	-10885
སྡུ་ན།	-10886
སློབ་པ་	-10887
▁ཕར་ཕྱིན་	-10888
ཚུལ་གྱིས་བ	-10889
ཧཱུྃ་ཧྲཱིཿ	-10890
པའི་ཕྲིན་ལས་	-10891
▁དེ་འདྲའི་	-10892
སྤོང་བ་དང་།	-10893
▁དེ་སྐད་དུ་	-10894
དམངས་	-10895
མདོ་བ	-10896
་་་་་་	-10897
ྲོ་བ	-10898
ལྕོགས་	-10899
དམར་པོ་བ	-10900
▁དེ་འདྲ་	-10901
གྱི་དཀྱིལ་འཁོར་	-10902
རིག	-10903
དང་ཁ་	-10904
པས་དེའི་	-10905
དབང་མཆོག་	-10906
▁།རྨི་ལམ་	-10907
པར་བྱ་ཞིང་།	-10908
སེར་བ་	-10909
▁།རྟགས་	-10910
མི་རུང་བ་	-10911
སྐྱ་རེངས་	-10912
པ་ཉིད་རྣམ་པར་དག་	-10913
ཙ་ན།	-10914
ལླི་	-10915
སྡུས༔	-10916
ལ་འགོད་	-10917
བཞིན་དུ་	-10918
རྗེས་འཇུག་	-10919
དེན་པ་གཉིས་	-10920
ཧ་ཧ་	-10921
རང་ལ་བ	-10922
རིང་བསྲེལ་	-10923
ཤེད་	-10924
ཐོག་བ	-10925
ཁྲིའི་	-10926
པའི་མི་	-10927
འཁོར་གསུམ་	-10928
པའི་ཆོས་རྣམས་	-10929
རྩོན་འགྲུས་ཀྱི་	-10930
རྙོག་	-10931
དུས་དང་	-10932
དག་འཛིན་	-10933
▁འདི་ཡང་	-10934
སྙིང་ག་ནས་	-10935
ཟུང་སྟེ་	-10936
▁སྡིག་པ་	-10937
གླིང་བཞི་	-10938
རྣལ་འབྱོར་མ།	-10939
ཕ་རོལ་དུ་ཕྱིན་པ་	-10940
ཡངས་པ་	-10941
ཤར་ནས་	-10942
▁།ཉིན་	-10943
ལས་འོད་	-10944
དག་ལ་ཡང་	-10945
མི་རུང་བའི་	-10946
དཱ	-10947
ཧྲི་	-10948
▁།གཅིག་	-10949
ྱུང་སྟེ་	-10950
རྒྱལ་རིགས་	-10951
སྦྱར་བ་ནི།	-10952
པར་གྱུར་ཏེ།	-10953
དེ་ཙམ་	-10954
▁གཞན་དག་	-10955
▁།ཅི་སྟེ་	-10956
དང་མི་མཐུན་	-10957
འཁྲུགས་པའི་	-10958
རྒྱ་གར་གྱི་	-10959
ལེགས་པར་བཤད་	-10960
▁།ཕ་	-10961
པ་མེད་པ།	-10962
▁དེས་ཀྱང་	-10963
པར་བསྟན་པའོ།	-10964
▁རྗེས་དཔག་	-10965
ླུག་	-10966
ཐོགས།	-10967
▁རྣམ་དག་	-10968
སག་	-10969
རྒས་	-10970
ེ་ཀ་	-10971
ཨ་ཏི་	-10972
གང་དུའང་	-10973
འབྲལ་བར་	-10974
ཞུགས་ཤིང་	-10975
ཐུགས་བསྐྱེད་	-10976
རྗོད་བྱེད་ཀྱི་	-10977
ཥྟ	-10978
དུ་བརྗོད་	-10979
འདོད་དོན་	-10980
ཆིབས་	-10981
▁ཡོད་པ་	-10982
སློབ་མ་ལ་	-10983
འདི་སྐད་དུ་	-10984
ི་ཤྭ་	-10985
གཟུགས་ནི་	-10986
ནས་བཟུང་སྟེ།	-10987
རང་བཞིན་ཅན་	-10988
ཁ།	-10989
ཕཊ྄་	-10990
ལྗང་ག	-10991
དག་བྱེད་	-10992
དུད་བཞི་	-10993
▁།རང་སེམས་	-10994
▁ཤཱཀྱ་	-10995
པ་ཙམ་དུ་	-10996
མཆོག་ལྡན་	-10997
▁།བསྟན་པ་	-10998
▁ཐབས་ཤེས་	-10999
དམ་ཚིག་དང་	-11000
ྱང་ཆུབ་སེམས་དཔས་	-11001
ལིང	-11002
ཞིང།	-11003
ཕྲུག་	-11004
མིན་ན་	-11005
སྐྱེས་ན་	-11006
གསོ་སྦྱོང་བ	-11007
▁།ཏིང་འཛིན་	-11008
སྤོབས་པ་	-11009
▁།འཁྲུལ་	-11010
གྱུར་པའི།	-11011
གེའི་	-11012
ཆེ་བ་བ	-11013
▁ལོག་པར་	-11014
དབྱུང་བ་	-11015
དཀོན་མཆོག་གསུམ་	-11016
གསལ་ལ་	-11017
མཉམ་པར་འཇོག་	-11018
▁།འོན་	-11019
གོ་ཞེས་	-11020
དང་སྦྱར་	-11021
པར་བསམ་ཞིང་།	-11022
ལེ་བ	-11023
པ་བྱ།	-11024
ཨཱ་ཡུ	-11025
▁བླ་མས་	-11026
སོགས་ནི་	-11027
འཐད་པ་	-11028
ཤེས་ཤིང་	-11029
▁གནོད་པ་	-11030
གཉེན་པོ་བ	-11031
ལས་མ་གཡོས་	-11032
▁།རི་	-11033
▁ཀློག་	-11034
▁།དེས་ནི་	-11035
▁སྐྱབས་འགྲོ་	-11036
མི་བསྐྱོད་པའི་	-11037
འཚོང་	-11038
རྩད་ནས་	-11039
ཚོགས་ལམ་	-11040
ཕྲེང་བས་བ	-11041
རྫོགས་པའི་སྐུ་	-11042
ས་ཡི་	-11043
▁ཚེས་	-11044
སྨྲིག་	-11045
གང་ཡིན།	-11046
མཐའ་དང་	-11047
གྲོགས་པོ་	-11048
འདི་བཞིན་	-11049
སྣ་ཚོགས་པའི་	-11050
སྟོད་དོ།	-11051
གསོལ་བ་འདེབས༔	-11052
▁ཆུབ་	-11053
སམ་པའི་	-11054
སྒོམ་པ།	-11055
ྱས་ཏེ	-11056
དང་ལྡན་ན་	-11057
▁བུ	-11058
ཤབྡ་	-11059
ཤིས།	-11060
དག་ལ།	-11061
མི་གཡོ་	-11062
མེད་པ་ཉིད་	-11063
ཡེ་ཤེས་ཀྱི་མེ་	-11064
ཉིད་ལས་	-11065
དག་ནི་བ	-11066
གྱིས་ཤིག་	-11067
ཟབ་ཅིང་	-11068
▁འགྲོ་བ	-11069
▁རི་རབ་	-11070
▁དམ་ཉམས་	-11071
▁དྲི་མེད་	-11072
▁སྔར་བཤད་	-11073
སྲིན་པོའི་	-11074
མཆོག་ཏུ་གྱུར་	-11075
▁གཞན་དུ་ན་	-11076
ལྟ་སྨོས་ཀྱང་	-11077
ཐོན།	-11078
མོན་	-11079
བྱའི་	-11080
▁སྦྱང་	-11081
མེ་ལྟར་	-11082
ཡོངས་སུ་འཛིན་	-11083
▁ཆོས་ལ་	-11084
▁།སྔགས་ཀྱི་	-11085
▁།གནོད་སྦྱིན་	-11086
དབྱེར་མེད་པའི་	-11087
གང་ཟག་བ	-11088
▁རྒྱུད་བ	-11089
ཤེས་པ་དེ་	-11090
འབའ་ཞིག་ཏུ་	-11091
ཁྱབ༔	-11092
མཇལ།	-11093
▁རེག་བ	-11094
ཟས་ཀྱི་	-11095
མ་དམིགས་པའི་	-11096
སྨོན་ལམ་བཏབ་	-11097
དབྱེ།	-11098
▁དགེ་ཚུལ་	-11099
▁དགེ་སློང་གི་	-11100
▁དམག་	-11101
ྷྲཱུྃ་	-11102
སྤང་བླང་	-11103
ཆོས་སྐོར་	-11104
▁།ཉན་ཐོས་	-11105
ལྐོག་གྱུར་	-11106
ཤེས་སྒྲིབ་	-11107
དང་བཅས་པས་བ	-11108
གོ༔	-11109
དོག་བ	-11110
ྱས་ན།	-11111
གཙོ་བོ་བ	-11112
▁གང་ལྟར་	-11113
སྟེང་འོག་	-11114
▁།རང་ཉིད་	-11115
▁།རྣམ་ཤེས་	-11116
▁།དེ་དག་གི་	-11117
ཉམས་ལེན་གྱི་	-11118
དོན་དུ་གཉེར་བ་	-11119
པར༔	-11120
▁ཕུན་	-11121
མ་རྣམས་	-11122
འོད་གསལ་བ་	-11123
▁མི་འཇིགས་	-11124
ལོངས་སྐུའི་	-11125
ེ་ཅ	-11126
ཎྜ་ལ	-11127
ལྟེ་	-11128
ཡམས་	-11129
སྐོང་བ	-11130
ོས་ནས་	-11131
ཤུགས་ལ་	-11132
ཕྲན་ཚེགས་	-11133
པའི་དོན་གྱི་	-11134
སྐྱེ་བར་འགྱུར།	-11135
ཏུལ་	-11136
དག་ན་	-11137
སྤང་བར་	-11138
རྟན་པའི་	-11139
སུ་གྱུར་	-11140
སེམས་པ་	-11141
རྒྱད་དུ་	-11142
དབྱེ་བ་ནི།	-11143
མི་ནུས་ཏེ།	-11144
ང་ཡི་	-11145
སྲེ་བ་	-11146
གཏེར་ཆེན་	-11147
ཐ་དད་པའི་	-11148
རང་གི་ལུས་	-11149
▁ནག་	-11150
ལྟ་བུ།་༼	-11151
▁།ཞེས་གསུངས་པས།	-11152
རྣམ་པ་ཐམས་ཅད་དུ་	-11153
ཞི་ཡི་	-11154
ནང་གསེས་	-11155
▁སྔོ་	-11156
དུས་ནས་	-11157
▁བསྙེན་པར་	-11158
སྒྲ་མི་རྟག་པར་	-11159
ལྷག་པའི་ལྷ་	-11160
སྒྲེ	-11161
ཡུངས་ཀར་	-11162
གྲི	-11163
▁མཉ	-11164
ཁུལ་	-11165
གསང་ཆེན་	-11166
ལྷ་འདྲེ་	-11167
ཁྲིད་ཡིག་	-11168
ལ་ཕུལ།	-11169
གཡས་ཀྱི་	-11170
རྐྱང་གི་	-11171
པོའི་ཤུལ་བ	-11172
པར་བྱེད་ཅིང་	-11173
ཕྱག་གི་	-11174
པར་བསྟན།	-11175
མ་གསུངས་	-11176
▁སྟོང་གསུམ་	-11177
ཉི་ཤུ་རྩ་གཅིག་	-11178
ོད་ལ་	-11179
འགྲུབ་པ་	-11180
འདོད་པ་ལ་	-11181
ཕྱོགས་བཞི་	-11182
མང་པོ་དང་།	-11183
པའི་ཚུལ་ལོ།	-11184
▁༠	-11185
ཆ་ཕྲན་	-11186
▁གླིང་	-11187
གཏན་ནས་	-11188
▁གཙུག་ཏོར་	-11189
ཕྲག་པ་	-11190
དྲི་མ་དག	-11191
▁བསྒྲུབ་	-11192
དྲངས་པའི་	-11193
ཇི་སྐད་དུ།	-11194
ཚུལ་བཞིན་བ	-11195
རྦད༔	-11196
མེད་ལམ་	-11197
སྲས་ཀྱི་	-11198
ུཥྚ	-11199
ཇི་སྐད་	-11200
པར་འོས་	-11201
ཀུན་གྱིས་བ	-11202
ཡེ་ཤེས་སོ།	-11203
ཤླཽ་ཀ་	-11204
▁ལྷུང་བ	-11205
▁དེ་དག་བ	-11206
ཁྲི་བཞི་སྟོང་	-11207
ཌོ	-11208
གདེང་	-11209
གཡེལ་	-11210
ནའང་།	-11211
▁ཆུང་	-11212
ཐོག་ཏུ་བ	-11213
དམར་བའི་	-11214
རྣམ་རོལ་	-11215
སྤང་བ་ནི།	-11216
▁ཁ་ཅིག་ནི་	-11217
ཁམས་གསུམ་གྱི་	-11218
ལུས་ནི་	-11219
ཅུ་རྩ་གཉིས་	-11220
གདོང་བ	-11221
དགེའི་	-11222
▁།སྙན་	-11223
སྤྱོད་པ།	-11224
▁པཎྜི་ཏ་	-11225
▁རོ།	-11226
རྡོག་	-11227
སྟིམ།	-11228
སྤྲོས།	-11229
▁མཚན་བ	-11230
ལ་དེའི་	-11231
གཏུམ་མོའི་	-11232
▁།དགེ་འདུན་	-11233
པ་མ་ཡིན་པའི་	-11234
ཁེ་	-11235
▁ནཱ་ག་	-11236
ླང་བའི་	-11237
གཏེར་དུ་	-11238
▁གྲུབ་ཆེན་	-11239
ར་བྱ་བ་དང་།	-11240
དབང་བསྐུར་བས་	-11241
ཕྱི་རོལ་གྱི་དོན་	-11242
ུད༔	-11243
ཀྱང་ནི་	-11244
གྱི་བའི་	-11245
འབྱུང་བར་འགྱུར།	-11246
གློ་	-11247
དང་རོ་	-11248
རྟག་པ་དང་	-11249
སྐྱེད་ཅིང་	-11250
སྦྱིན་སྲེག་གི་	-11251
གློ་བ	-11252
▁མིན་	-11253
པ་བཞིན་བ	-11254
རང་རྒྱལ་	-11255
མ་བྱས་པར་	-11256
སྔོ་སྨོན་	-11257
ཤཱནྟིཾ་ཀུ་རུ་	-11258
ཚོམ་	-11259
འདི་འདྲ་	-11260
ལྕང་	-11261
▁།གྲུབ་	-11262
སྦྱིན་ནོ།	-11263
▁རང་གི་མཚན་ཉིད་	-11264
དུཿ	-11265
ེའང་	-11266
ཀྱི་བར་དུ་བ	-11267
ཇི་བཞིན་དུ།	-11268
སྟོང་པ་ཉིད་ནི་	-11269
ལྡེང་	-11270
▁།བྱ་	-11271
གལ་ཆེ།	-11272
གང་དུ་བ	-11273
ས་སྐྱའི་	-11274
གཡོན་པས་	-11275
དུན་དང་།	-11276
ཡ་གྱ	-11277
རྩི་བ	-11278
རྒྱད་དང་	-11279
ལྷག་མའི་	-11280
ལྷ་སྐུ་	-11281
ལྷག་མ་བ	-11282
ླ་ན་མེད།	-11283
ཐུགས་རྒྱུད་བ	-11284
▁གསང་སྔགས་ཀྱི་	-11285
སྔོན་དུ་འགྲོ་བས་	-11286
པ་བཅས་	-11287
གཞི་བདག་	-11288
མི་ནུས་སོ།	-11289
སླབ་པར་བྱའོ།	-11290
གཏེར།	-11291
རྫིང་བ	-11292
གྲོད་པའི་	-11293
འི་བར་གྱི་	-11294
རྡོ་རྗེ་གདན་	-11295
▁སྟ	-11296
ཛམྦྷ་	-11297
པད་མའི་	-11298
▁རཾ་	-11299
པོའམ།	-11300
ལ་བསྟེན་	-11301
སེམས་ཅན་བ	-11302
ཡོངས་གྲུབ་	-11303
ལ་མངོན་པར་	-11304
གཡེང་བ་	-11305
▁།དཔེ་	-11306
ཐོབ་ཅིང་	-11307
▁རིམ་གྱིས་	-11308
སེང་གེ	-11309
ཀུན་དང་	-11310
ཧཱུྃ་ཧཱུྃ་ཕཊ།	-11311
ཧྲིཾ་	-11312
སྐྱུར་	-11313
▁མེད་ན་	-11314
མཐོང་ཞིང་	-11315
▁།ཀུན་ཏུ་	-11316
སྐྱེ་མཆེད་ཀྱི་	-11317
ཙོང་	-11318
དག་ནས་	-11319
▁ཧ་ཅང་	-11320
མ་ཡིན་པ།	-11321
▁བྱམས་པ་	-11322
མཆོད་ཅིང་	-11323
སྐྱེས་པས་	-11324
▁།ངེས་པར་	-11325
དབུ་བརྒྱན་	-11326
སྡུག་བསྔལ་བ་	-11327
ཙེ་	-11328
་བ་ལ་	-11329
ོ་བོ་རྗ	-11330
པ་གཉིས་ཀ་	-11331
ྱིན་བརླབ་	-11332
དངོས་བ	-11333
▁ཞུ་	-11334
▁སྤང་	-11335
སྔོའོ།	-11336
ཅུག་ནས་	-11337
སྒོམས་ནས་	-11338
མའང་	-11339
▁ཙིཏྟ་	-11340
ལམ་གྱི་བ	-11341
སོང་བ་དང་།	-11342
དཔག་ཏུ་མེད་	-11343
ཡོས་	-11344
འབྱུང༔	-11345
གནས་ནི་	-11346
▁ཇོ་བོ་	-11347
རྨོངས་པ་	-11348
▁མཚོན་བྱ་	-11349
མཚམས་སྦྱོར་	-11350
ཅེས་བྱ་བ་དང་།	-11351
མེད་པར་འགྱུར་རོ།	-11352
▁ཉ་	-11353
མི་ལ་	-11354
རིངས་	-11355
སྐུར་པ་	-11356
ངན་འགྲོ་	-11357
ལྷའི་རྣལ་འབྱོར་	-11358
དུག་གི་	-11359
མེ་ལྕེ་	-11360
ཡིན་ཀྱང་།	-11361
▁ཚུར་འདུས་	-11362
མི་བྱེད་དོ།	-11363
མཆོད་པ་འབུལ༔	-11364
ངད་	-11365
གྲང་བ་	-11366
དུན་དུ་	-11367
རང་དོན་	-11368
མེད་དགག་	-11369
འཁྱིལ་བ་	-11370
དོན་བསྡུས་	-11371
▁དོ།	-11372
ཁ་རཾ་	-11373
འགུལ་	-11374
དཀར་བ་	-11375
ཡང་གཞན་	-11376
སྣང་བ་ལ་	-11377
ཅེས་བཀའ་སྩལ་	-11378
དེ་ཁོ་ན་ཉིད་ཀྱི་	-11379
བའི་	-11380
▁ལེ་	-11381
དེ་དེ་	-11382
ྱས་སོ།	-11383
▁།རྐང་	-11384
ཡིན་ནམ།	-11385
པ་བཞི་པོ་	-11386
སྟོན་པའོ།	-11387
དང་ལྡན་པའོ།	-11388
▁།རྫོགས་པའི་	-11389
དཀྱིལ་འཁོར་དུ༔	-11390
ཚོལ་བ་	-11391
དུ་བཏགས་	-11392
ལས་གྲོལ་	-11393
དཔའ་བོའི་	-11394
པའི་གསུང་	-11395
རྡ་བ	-11396
་བ་དང་	-11397
རིག་མ་	-11398
ཐ་སྙད་ཀྱི་	-11399
སྒོམ་པ་ནི་	-11400
▁བསམ་གཏན་བ	-11401
▁སྐྱེ་མེད་	-11402
སྣང་བ་མཐའ་ཡས་	-11403
ུབ	-11404
ཐོ་བ	-11405
▁།ལྷ་མོ་	-11406
▁ཡོངས་སུ་བ	-11407
▁༡༢	-11408
ནྟུ།	-11409
རིག་པས་	-11410
དྲག་ཤུལ་	-11411
ཁྲོམ་	-11412
དེ་དང་།	-11413
རུང་གི་	-11414
▁།འཇིགས་	-11415
རྡུལ་དུ་རླ	-11416
པའི་དོན་ཏོ།	-11417
སྟོད་གཡོགས་	-11418
▁ཀྱཻ་	-11419
ཀའ་བབས་	-11420
ཅུ་དྲུག་གི་	-11421
▁།ཞེས་པ་ནས།	-11422
སྒྱུ་མ་ལྟ་བུའི་	-11423
དམ་སྲི་	-11424
དོན་དེ་	-11425
ལྷུང་བ་	-11426
▁བག་ཆགས་	-11427
ལས་གསུངས་	-11428
མི་རིགས་ཏེ།	-11429
ཐམས་ཅད་ཀྱི་བ	-11430
འཕན་	-11431
ས་ཏྭ་	-11432
ོ་དྷ་	-11433
སྤུའི་བུ་ག་	-11434
ནམ་བ	-11435
དེངས་	-11436
སྤྲིན་བ	-11437
▁ཁྱད་པར་བ	-11438
▁རྒྱུ་དང་	-11439
དཀྱིལ་ཆོག་	-11440
གཞི་ནི་	-11441
ལྟས་པས་	-11442
ཆེན་པོ་དང་	-11443
ངེས་འབྱུང་	-11444
ལས་སྐྱེ་བ་	-11445
ཕྱོགས།	-11446
གྱུར་བ་	-11447
འགྲོ་བ།	-11448
▁མ་བཅོས་	-11449
▁ཐུན་མོང་གི་	-11450
དཔག་ཏུ་མེད་པ་བ	-11451
ི་ལི་	-11452
ཕྲོགས་	-11453
ལ་མོས་	-11454
ྱང་ཞིང་	-11455
འོག་མའི་	-11456
མ་ཐག་པའི་	-11457
▁སྟེང་དུ་	-11458
ཤ་ཟ་	-11459
ཁྲིགས་	-11460
ཡོད་ཀྱི་	-11461
▁རྒྱུད་ཀྱི་	-11462
འ༔	-11463
འམ་ཅི་	-11464
མངལ་དུ་	-11465
འདོད་པ་ནི་	-11466
▁རྣམ་པར་ཐར་	-11467
▁རྦ	-11468
མདུན་གྱི་ནམ་མཁར་	-11469
མའམ།	-11470
ྲི་བ་	-11471
འདི་ལ།	-11472
སྙམ་པ་	-11473
དུ་གཞུག	-11474
འབྲིང་བ	-11475
རྣོན་པོ་	-11476
མཁའ་འགྲོ་མ།	-11477
ཉན་ཐོས་དང་རང་	-11478
▁།དེང་	-11479
སྡང་བའི་	-11480
▁སྟོང་པ་	-11481
སྦོམ་པོར་	-11482
▁ཀུན་ཀྱང་	-11483
▁ཡི་དྭགས་	-11484
གཟིར་	-11485
གཉན་པོ་	-11486
སྦྱར་བ་བ	-11487
སྲིན་ལག་	-11488
རླུང་གིས་བ	-11489
▁།ཕྱི་རོལ་	-11490
སྐྱའི་	-11491
པ་མེད་ན་	-11492
སྤྲུལ་ནས་	-11493
▁།ཕུང་པོ་	-11494
▁པུཥྤ	-11495
དག་ཏུ་བ	-11496
▁དབྱེར་	-11497
སྒྱུ་མར་	-11498
ཤུག་	-11499
ྱེད་ན།	-11500
རྒྱུ་མེད་	-11501
མ་རིག་པའི་	-11502
ལས་བརྩམས་	-11503
▁།ཅེས་གསུངས་སོ།	-11504
འཚམ་	-11505
ཡབ་ཡུམ་བ	-11506
ལ་འཇུག་པ་	-11507
▁།མཐར་ཐུག་	-11508
▁ཤར་ཕྱོགས་	-11509
རྒྱད་ཀྱིས་བ	-11510
▁༡༡	-11511
▁སུ།	-11512
ད་དུང་	-11513
ཕྱི་མར་	-11514
སོ་གཉིས་	-11515
▁།སྦྱོར་བ་	-11516
▁སྒོ་གསུམ་	-11517
▁ཨོཾ་མ་ཎི་པདྨེ་	-11518
ཟེར་ན་	-11519
གཞན་ནི་	-11520
ཕུལ་བས་	-11521
▁།གསུང་	-11522
▁ས་བཅུ་	-11523
སྭ་བྷཱ་ཝ་ཤུདྡྷ	-11524
སྡེ་པ་	-11525
▁།དམ་ཆོས་	-11526
རྡོ་རྗེ་ཕག་མོ་	-11527
ལྔ་ནི།	-11528
དེ་ཡང་བ	-11529
ལོ་བཅུ་	-11530
གཞི་ཤེས་	-11531
མཆོད་ཅིང་བ	-11532
▁།སྐུ་གསུམ་	-11533
མདོ།	-11534
གནས་ན་	-11535
མདུན་བ	-11536
རེ་རེས་	-11537
དྲག་པོ་བ	-11538
ཡོད་དོ་ཞེས་	-11539
རྗེས་སུ་དཔག་	-11540
ུྃ་	-11541
སྟན༔	-11542
ཆུ་ཡི་	-11543
ལྷ་མིན་	-11544
འཕྲལ་དུ་	-11545
རྒྱལ་མཚན་གྱི་	-11546
མ་ལུས་བ	-11547
ལེགས་པའི་	-11548
དྲུང་དུ།	-11549
རྣལ་འབྱོར་པས་	-11550
ཡོད་པ་མ་ཡིན་ཏེ།	-11551
ནང་།	-11552
དཀར་པོས་	-11553
ཅོམ་ལྡན་འདས།	-11554
རང་བཞིན་མེད་པ་	-11555
རྟི་	-11556
མཉྫུ་	-11557
མཱནྟ་	-11558
བས་པས་	-11559
ངེས་པས་	-11560
དབང་དྲག་	-11561
མཐའ་དག་བ	-11562
མཚོ་སྐྱེས་	-11563
ྱང་ཆུབ་སེམས།	-11564
▁འདི་ལྟ་སྟེ་	-11565
འབྱུང་བ་ཡིན་ནོ།	-11566
པའོ	-11567
གསལ་གྱི་	-11568
ངེས་ཀྱི་	-11569
▁རྟོགས་པ་	-11570
ཡོད་རེད།	-11571
རྟེན་པའི་	-11572
གཟུངས་ཀྱི་	-11573
དཔའ་བོ་དང་	-11574
པ་ཡིན་ཞིང་།	-11575
པའི་བྱང་སེམས་	-11576
མྱུ་ག	-11577
འདྲ་བ།	-11578
མཚམས་ནས་	-11579
པར་བསམ་ལ།	-11580
འཕྲོ་འདུ་	-11581
ཡོད་པར་ཐལ།	-11582
▁།ཨ	-11583
ཕོབ༔	-11584
མེ་ལྷ་	-11585
སེལ་བར་	-11586
དབང་དང་།	-11587
མཚན་ཉིད་དུ་	-11588
▁དབྱེ་ན་	-11589
▁འབྱུང་པོ་	-11590
▁ལྷུན་གྲུབ་	-11591
པོའང་	-11592
ེ་བ་བ	-11593
▁།ངག་	-11594
▁རཏྣ་	-11595
ཡིན་མིན་	-11596
པ་བྱེད་པ་	-11597
སྐྱོན་དུ་	-11598
རྒྱལ་པོའི་ཁབ་	-11599
སོ་སོར་ཐར་པའི་	-11600
དགོངས།	-11601
སྒྲོལ་བ	-11602
▁དེ་ཡིས་	-11603
འགྱུར་ཞེ་ན།	-11604
འདའ་བའི་	-11605
དེ་མཆོག་གི་	-11606
ཝཱི་	-11607
ངས་ཏེ་	-11608
མཐོ་བ་	-11609
དོན་ནོ།	-11610
རིགས་དང་	-11611
ཎ།	-11612
འབོགས་	-11613
ཕྲ་རགས་	-11614
▁།བླ་མེད་	-11615
▁རྣམ་སྣང་	-11616
མྱུར་བ་	-11617
སྟོན་པར་	-11618
པའི་ཆོ་ག་	-11619
ྱོ་	-11620
རྣག་	-11621
ནད་དང་	-11622
▁།ཐེག་པ་	-11623
▁དེ་ལ་ཡང་	-11624
ལྟ་ཅི་སྨོས།	-11625
གློ་བུར་གྱི་	-11626
གླགས་	-11627
འཐོབ་བོ།	-11628
སྙིགས་མའི་	-11629
▁བཅུ་གཅིག་	-11630
མཆོད་སྦྱིན་	-11631
མགུ་	-11632
གཏོང་།	-11633
འཁྲིལ་	-11634
འདོད་པར་	-11635
ནི་རབ་ཏུ་	-11636
གླ་	-11637
གཡའ་	-11638
ལ་བཞག	-11639
གཙོ་མོ་	-11640
▁ཤེས་བྱའི་	-11641
ཀླགས་	-11642
ལྷས་བ	-11643
ལྗང་ཁུ་	-11644
སྤྲུགས་	-11645
སྒྲ་དང་།	-11646
▁དོན་དམ་བ	-11647
▁།བུད་མེད་	-11648
▁རྒྱལ་མཚན་	-11649
ཕྱག་རྒྱ་དང་།	-11650
ཟླ་བས་	-11651
▁གླིང་བ	-11652
▁འབྱུང་བ	-11653
གསོལ་བ་བཏབ།	-11654
སྦྱར་བ་དང་།	-11655
མཁོ་	-11656
པ་ཐམས་ཅད་ལ་	-11657
ཡོད་པའི་ཕྱིར་	-11658
ལྡན་པས་	-11659
དང་མཚན་མ་	-11660
རྒྱུད་དེ་	-11661
རྩེ་གསུམ་	-11662
གྱི་སྒོ་ནས་	-11663
སྐྲད།	-11664
▁ཆུ་བ	-11665
▁དཔྱད་	-11666
པར་འདོད་པས་	-11667
ོཾ་	-11668
▁འགྲ	-11669
ང་ནི་	-11670
མ་ཆགས་	-11671
པ་ལྟར་བ	-11672
རྣམ་ཤེས་ཀྱི་	-11673
ཚུན་བ	-11674
▁གནྡྷ	-11675
ཕྱིར་རོ་	-11676
སྤེལ་ཚིག་	-11677
དེ་བླག་ཏུ་	-11678
▁སློབ་དཔོན་བ	-11679
ཽད་གལ་གྱི་བུ་	-11680
ཤིན་ཏུ་ཕྲ་བ་	-11681
ནྡེ་	-11682
རྣམས་ཀྱང་བ	-11683
སྤྱོད་པ་ལ་	-11684
▁ཞེས་བརྗོད་ཅིང་	-11685
ལི་བ	-11686
ཤིན་དུ་	-11687
ཕུར་པའི་	-11688
▁གཟུགས་མེད་	-11689
▁རི	-11690
▁ཕཊ་	-11691
▁།ཚངས་	-11692
གོ་བའི་	-11693
གཞན་དུ་བ	-11694
དམ་བཅའ་བ་	-11695
ཟིན་བྲིས་	-11696
དགོས་པ་ནི།	-11697
མཐའ་དག་གི་	-11698
མཆོག་སྦྱིན་	-11699
ཆུང་གི་	-11700
▁ནཱ་རོ་	-11701
ལས་སྦྱོར་	-11702
དེར་གཤེགས་	-11703
▁།འཇམ་དཔལ་	-11704
▁རྭ་	-11705
དེ་ཝ་	-11706
▁།ལུས་ཀྱི་	-11707
ཆེན་པོས།	-11708
མར་མེའི་	-11709
▁།མ་རིག་	-11710
རྣམ་པར་གཞག་པ་	-11711
▁གྱིས་	-11712
གསོད་པ་	-11713
སྣང་དུ་	-11714
▁།བྱ་བ་	-11715
▁ཡོ་བྱད་	-11716
ཡོན་བདག་	-11717
སྡེ	-11718
ཨ་ཝ་	-11719
ོལ་སོང་	-11720
ཐོབ་པ་ལ་	-11721
དངོས་སོ།	-11722
མང་པོས་བ	-11723
རྫོགས་ནས་	-11724
མཁྱེན་བརྩེ་	-11725
ཡིན་ནོ་ཞེ་ན།	-11726
▁འགལ་	-11727
ཤད་པ་ལ།	-11728
ཕྱིར་དུ་	-11729
མཁོ་བའི་	-11730
རིམ་གྲོ་	-11731
▁དེ་ལའང་	-11732
མིང་གིས་བ	-11733
པའི་མན་ངག་	-11734
▁མེ་ཏོག་གི་	-11735
མཉམ་པ་ཉིད་དུ་	-11736
གཟེངས་	-11737
ན་མོ་བ	-11738
▁།སྒོ་	-11739
རིན་ཆེན།	-11740
ཕ་རོལ་གྱི་	-11741
དང་པོ་གཉིས་	-11742
ཡུལ་ཅན་གྱི་	-11743
ཱ་ཡ་སྭཱ་ཧཱ།	-11744
སྦྱར་བར་བྱའོ།	-11745
མའོ་	-11746
འཕང་བ	-11747
མི་རྙེད་	-11748
ཞལ་སྔ་ནས་	-11749
ཀུན་ཏུ་བཟང་པོའི་	-11750
▁མཱ་ར་	-11751
ཡེ་ཤེས་ལ་	-11752
རྩལ་གྱིས་	-11753
མཚན་པའི་	-11754
▁ཡིད་ལ་བ	-11755
དད་བ	-11756
ཁྱེར་བ་	-11757
▁སྙིགས་	-11758
ཆོས་དྲུག་	-11759
པ་བཤགས་	-11760
འཛམ་བུ་	-11761
གསལ་འདེབས་	-11762
▁སྣང་སྟོང་	-11763
▁ཁྲོ་བ	-11764
ཅིངས་པ་	-11765
འཚལ་ལོ།	-11766
▁དམ་ཅན་	-11767
ནོར་བུ་བ	-11768
ཕུང་པོ་དང་།	-11769
ཅིང།	-11770
རཱུ་	-11771
▁།ནམ་	-11772
▁ཟག་བཅས་	-11773
སྟ་གོན་གྱི་	-11774
▁བདག་བསྐྱེད་	-11775
རྫོགས་བ	-11776
ཐིག་ལེར་	-11777
▁ཕོ་བྲང་	-11778
▁བདག་གཞན་	-11779
ཀྱི་བདེ་བ་	-11780
རྡོ་རྗེས་བ	-11781
པོ་བ་	-11782
འགྱུ་	-11783
▁ཁ་ཅིག	-11784
▁།འོད་གསལ་	-11785
ཕྱོགས་གཅིག་ཏུ་བ	-11786
རྒྱ་མཚོ་ཆེན་པོ་	-11787
རྐྱལ་	-11788
▁གདོང་	-11789
གུ་གུལ་	-11790
▁།ཡོངས་སུ་	-11791
ཁེ	-11792
གང་ལ་བ	-11793
▁།ལྷོ་	-11794
▁བདག་ཏུ་	-11795
▁གཟུགས་སོགས་	-11796
ཐེ་	-11797
▁དག་པའི་	-11798
གཡོན་གྱི་	-11799
འབྱུང་བའོ།	-11800
པའི་ཚུལ་གྱིས།	-11801
སྟེར་བ་	-11802
འོད་གསལ་བ	-11803
ྱས་པ་དང་།	-11804
▁ཕྱག་གཉིས་	-11805
འབུད་	-11806
▁སྡེ་བ	-11807
སོང་སྟེ།	-11808
གློ་བུར་དུ་	-11809
▁དཀའ་	-11810
ྱེ་བ་བ	-11811
▁།དྲན་	-11812
སྒྲུབས་པས་	-11813
སྟེར།	-11814
འཇའ་ལུས་	-11815
སྲིད་པར་	-11816
▁སྤྱི་གཙུག་	-11817
▁ཞེས་སྨོས་ཏེ།	-11818
རྡོ་རྗེ་ཐེག་པའི་	-11819
གྲོས།	-11820
རྨིས་	-11821
གུ་ཧྱ་	-11822
མཛུབ་མོ་	-11823
སེང་ལྡེང་	-11824
ལས་བྱུང་བ།	-11825
དབལ་	-11826
་བྷཱུ་	-11827
དབུ་སྐྲ་	-11828
▁།སྐྱེས་བུ་	-11829
པའི་ཕྱིར་དུ་	-11830
མི་འགྱུར་ཏེ།	-11831
གནས་སྐབས་ཀྱི་	-11832
གཙྪ	-11833
འདྲི	-11834
གྱུར་ཏེ་	-11835
འབྱུང་ཞིང་	-11836
རབ་ཏུ་གནས་	-11837
པར་བྱའོ་སྙམ་	-11838
ཁྱད་པར་ཅན་གྱི་	-11839
མྱེད་པའི་ཕྱིར།	-11840
ཆོས་ཀྱི་བདག་མེད་	-11841
སྔོན་དུ་འགྲོ་བས།	-11842
ཨ་ནུ་	-11843
ག་ལ་འགྱུར།	-11844
ཡོངས་འཛིན་	-11845
པའི་ཚུལ་དུ་	-11846
རྫས༔	-11847
▁ཞང་	-11848
དེན་གཉིས་	-11849
སྤྱན་གྱིས་	-11850
སྟོང་པ་ཉིད།	-11851
▁འཕགས་པའི་ལམ་	-11852
གསོལ་བ་བཏབ་པས་	-11853
ན་ཀ་	-11854
ཚོགས་དང་།	-11855
སྒོམ་ཆེན་	-11856
ཛྙཱ་ན་བཛྲ་	-11857
ཆོས་ཅན་གྱི་	-11858
▁སྤྱན་རས་གཟིགས་	-11859
གྲོལ་བ།	-11860
འབད་པས་	-11861
▁ཁས་བླངས་	-11862
ཏིང་འཛིན་བ	-11863
▁།འོད་ཟེར་	-11864
ཚུལ་ལ།	-11865
གསང་འདུས་	-11866
ཀའ་བརྒྱུད་	-11867
གསལ་བ་དང་།	-11868
▁9	-11869
▁=?	-11870
འགྱུར་ན།	-11871
སྡིག་ཅན་	-11872
ཧཱུྃ་ཕཊ྄ཿ	-11873
▁ཚ་	-11874
ཏ་ཡ་	-11875
དཀྱི	-11876
མེ་གྷ་	-11877
དེ་རིང་	-11878
ཡར་ལུད་	-11879
མ་གྲུབ་པ་	-11880
མི་འགྱུར་བའི་	-11881
ུཏྟ	-11882
▁ཏེ།	-11883
འཐུང་བ	-11884
ལམ་ནི་	-11885
ཁྲག་གིས་	-11886
དངོས་གྲུབ་ཐོབ་	-11887
▁མི	-11888
སྨིན་པ་	-11889
མ་བརྟགས་	-11890
སྙིང་ནས་	-11891
ཁྲིད་ཀྱི་	-11892
▁ཕྱག་འཚལ་	-11893
དཀྱིལ་འཁོར་དུ།	-11894
དངོས་པོ་ཐམས་ཅད་	-11895
ཆེ་ལ་	-11896
▁གཉན་	-11897
གྱི་རྒྱུ་	-11898
སྐྱེས་སོ།	-11899
▁དེའི་དུས་སུ་	-11900
མངས་	-11901
རྫི་	-11902
ཨཱ་ལོ་ཀེ་	-11903
སྒྲིབ་པ་ཐམས་ཅད་	-11904
ཚབས་	-11905
▁ཤཱཀྱ	-11906
ཡིག་ཆ་	-11907
▁བརྒྱད་པ་	-11908
སྟན་པ་ཡིན།	-11909
ཚོགས་པའི་	-11910
རྒྱས་པ་དང་།	-11911
གསེར་སྐྱེམས་	-11912
པ་བྱ་	-11913
གཞིའོ།	-11914
གཤེགས༔	-11915
ནང་གི་བ	-11916
ཤི་བ	-11917
ངེས་སོ།	-11918
གྱིད་དོ།	-11919
སྟོན་པ་ལ་	-11920
▁།འདོད་པ་	-11921
▁ཧཱུྃ་བྷྱ	-11922
ཅག་བ	-11923
ཞི་བརྒྱ་	-11924
ལ་ཁ	-11925
གདོལ་	-11926
དང་གནས་	-11927
པ་ལྟར་ན།	-11928
ཕུང་པོར་	-11929
ཧེ་རུ་ཀ༔	-11930
▁།སྙིང་པོ་	-11931
ཤ་བ	-11932
ས་མཚམས་	-11933
མ་དག་པའི་	-11934
ཤིང་རྟའི་	-11935
པ་བྱང་ཆུབ་	-11936
མི་བྱེད་པ་	-11937
▁བརྒྱ་བྱིན་	-11938
སྟོང་པ་ཉིད་བ	-11939
པའི་ཆོས་ཐམས་ཅད་	-11940
ཞི་པ།	-11941
རྒུད་	-11942
▁ྈྈྈྈ	-11943
▁ལས་བུམ་	-11944
གསོ་བ་	-11945
གཡོན་པ་	-11946
ནད་ཀྱི་	-11947
ཚད་ལྡན་	-11948
སྒོམ་བྱ་	-11949
ང་རིམ་	-11950
གཉིས་ཀས་	-11951
སྒོམ་པར་	-11952
ྲི་བར་བྱ།	-11953
▁།དེ་རིང་	-11954
▁རྣམ་མཁྱེན་	-11955
འདི་ལྟ་བུའི་	-11956
▁ལན་བ	-11957
▁དྲི་བ	-11958
འདྲ་བས་	-11959
འཐད་པར་ཐལ།	-11960
མ་ལགས།	-11961
གཞན་ལ་བ	-11962
ཕྲེང་བས་	-11963
▁འདིས་ནི་	-11964
▁ཐལ་འགྱུར་	-11965
ཅང་བ	-11966
▁།འོ་	-11967
འགྲུབ༔	-11968
ཆུ་སྐྱེས་	-11969
ཅེས་བྱ་བ་བ	-11970
▁དེའི་ཕྱིར།	-11971
པ་དང་ལྡན་པའི་	-11972
ལེནྡ	-11973
ཤམ་བ	-11974
སྦེད་	-11975
བས་ནས་	-11976
ཆོས་བསྟན་	-11977
་བྷྲཱུ	-11978
སེངྒེ་	-11979
ཆར་གྱི་	-11980
ཟུང་དུ་འཇུག་	-11981
དང་ལོངས་སྤྱོད་	-11982
▁ཚད་མེད་	-11983
དྲུང་དུ་བ	-11984
ལེའུ་སྟེ་བ	-11985
སྟན་པའི་ཕྱིར།	-11986
དུས་ཀྱི་འཁོར་ལོ་	-11987
དཔྱད་བ	-11988
འབུམ་བ	-11989
ལམ་རིམ་	-11990
སེམས་སོ།	-11991
▁ཕྱི་རོལ་གྱི་	-11992
ཡིན	-11993
འཁོབ་	-11994
མ་ནིང་	-11995
འཕྲད་པར་	-11996
དང་འགལ་བ་	-11997
འགྲོ་ཞིང་	-11998
ཞེས་བྱ་བ་ལ།	-11999
སྙིང་པོའི་བ	-12000
་རཱ	-12001
འཕགས།	-12002
མིན་པས་	-12003
རྗོད་པར་	-12004
ཅིངས།	-12005
▁ཡིད་བ	-12006
ཕྱི་མ་ལ་	-12007
དབེན་པའི་	-12008
མཆོག་གི་བ	-12009
རྒྱ་རྩ་བརྒྱད་བ	-12010
ས་ནས་	-12011
རྗེས་དྲན་	-12012
དཱི་	-12013
སྟོབས།	-12014
འཇུག་ཅིང་	-12015
▁གཏོར་མའི་	-12016
གསལ་ལོ།	-12017
▁སེམས་བ	-12018
▁མཁན་པོ་	-12019
གཉིས་པ་ལ་	-12020
ལུས་ངག་གི་	-12021
▁།དེ་རྣམས་	-12022
དབང་པོ་དང་།	-12023
▁།འགྲོ་ཀུན་	-12024
དང་དཔེ་བྱད་	-12025
ཉྫ་	-12026
ཚིལ་	-12027
ཛ་ཛཿ	-12028
▁པུ་	-12029
▁།རིག་པ་	-12030
▁བསླབ་པ་	-12031
ྱིན་གྱིས་རླབས་	-12032
གཡར་	-12033
ན་ཡ་	-12034
བ་པ་	-12035
ཞུས་པ།	-12036
འདུ་འཛ	-12037
དགྲ་ལ་བ	-12038
འབྲུའི་	-12039
ཀྱི་བཀའ་	-12040
▁གཅིག་ཏུ་	-12041
དམིགས་བསལ་	-12042
ཤེས་པ་ཉིད་	-12043
▁།ལེགས་པར་	-12044
ུ་བྷ	-12045
རྣམ་ཐོས་	-12046
▁དེ་སྐད་ཅེས་	-12047
▁བཅས་	-12048
མ་བྱས།	-12049
སྟོབས་ཆེན་	-12050
མཐའ་ཡས་པའི་	-12051
རབ་ཏུ་ཤེས་སོ།	-12052
རིགས་དང་།	-12053
གསལ་བར་བཤད་	-12054
འབད་པ་	-12055
ཅི་མཆིས་	-12056
དྷཱུ་པེ་	-12057
པ་དེ་ལས་	-12058
▁རང་གཞན་	-12059
ཐོར་ཚུགས་	-12060
འཛིན་པ་དང་	-12061
ཅུའོ།	-12062
མི་ལྡན་	-12063
ཡི་དགས་	-12064
རྒྱུའོ།	-12065
ཡུལ་འཁོར་	-12066
▁སྲོག་ཆགས་	-12067
▁།བདུད་རྩི་	-12068
གཏོང་བར་	-12069
གྲུབ་བོ་	-12070
པར་བཅས་པའི་	-12071
ད་ཧ་	-12072
རོལ༔	-12073
སྒོ།	-12074
སེར་བ	-12075
▁འདུན་	-12076
ཞིབ་ཏུ་	-12077
སྐམ་པོ་	-12078
ྱིན་ཕོབ་	-12079
▁གང་ཟག་གི་བ	-12080
▁ཉོན་མོངས་པའི་	-12081
▁དེ་རྣམས་ཀྱིས་	-12082
།བ	-12083
ཤྲི་	-12084
དབུལ་བ་	-12085
རྩལ་གྱི་	-12086
དེན་མེད་དུ་	-12087
ཕྲེང་བ་དང་།	-12088
ླ་ན་མྱེད་པ་	-12089
▁ལྷོ་ཕྱོགས་	-12090
▁།རྣལ་འབྱོར་བ	-12091
▁༼༧	-12092
▁དཔྱ	-12093
གཉི་ག་	-12094
སྲས་སུ་	-12095
དཀྱིལ་དུ་	-12096
སྤང་བ་དང་།	-12097
ཀྟ་	-12098
ཁྲབ་	-12099
ོད་གཏོང་	-12100
ལྟར་བྱའོ།	-12101
▁མ་གྲུབ་ན།	-12102
▁ཚིགས་སུ་བཅད་	-12103
ཡོན་ཏན་ཐམས་ཅད་	-12104
སྲིན་སྡེ་བརྒྱད་	-12105
སྩལ།	-12106
འདོད་པ།	-12107
སྙམ་པས་	-12108
▁མོས་གུས་	-12109
ཱ་རེ་	-12110
ཟླ་གམ་	-12111
དགེ་རྩ་	-12112
ཀྱི་གནས་	-12113
མྱེད།	-12114
པས་ནི།	-12115
སྤོང་།	-12116
ཧཱུཾ་བ	-12117
▁།ལྟ་བ་	-12118
ཁྱོད་ལ་བ	-12119
སྐྱོབ་པ་	-12120
ཡོངས་སུ་མི་	-12121
ངོགས་	-12122
འཕུར་	-12123
▁དཔག་	-12124
དར་དང་	-12125
ཟླ་བ་ལ་	-12126
རྗོད་ན་	-12127
ྱེ་བའི་	-12128
▁འཁོར་ལོའི་	-12129
▁P	-12130
མིས་	-12131
རྙིང	-12132
ཞེས་པ་བ	-12133
དབང་སྡུད་	-12134
ཧ་རི་ནི་ས་	-12135
▁དབུས་ཀྱི་	-12136
དགེ་བའི་ཆོས་	-12137
འཁོར་འདས་ཀྱི་	-12138
▁།གངས་	-12139
དང་འདྲ་བ	-12140
གསུམ་སྟེ་	-12141
ཀརྵ་	-12142
སྲད་བ	-12143
རེ་དོགས་	-12144
▁སྤྱི་བོའི་	-12145
ཧྱེ་	-12146
ཀྱིའོ།	-12147
སྦྱངས༔	-12148
པར་གྱིས་ཤིག	-12149
པར་བསྟན་པ་ནི།	-12150
ག་ཎ་	-12151
▁།བཅུ་	-12152
དག་པ་དང་།	-12153
▁རྩ་སྔགས་	-12154
མངོན་སྤྱོད་	-12155
འི་བྱེ་བྲག་	-12156
སྒྱུ་མ་ལྟ་བུར་	-12157
ཡང༔	-12158
སིནྡྷུ་	-12159
གུར་གྱི་	-12160
རས་བྲིས་	-12161
རྟེན་དང་	-12162
གྣ	-12163
སྒྲེང་	-12164
▁ཕུར་བ	-12165
ཐོབ་པའོ།	-12166
སོགས་ཏེ།	-12167
དུག་གསུམ་	-12168
མཚུངས་སོ།	-12169
གདུག་པ་ཅན་	-12170
ལིངྟ་	-12171
▁རིགས་བ	-12172
ཐུགས་དམ་བསྐང༔	-12173
ནྟི་	-12174
ཧུར་	-12175
འགལ་བས་	-12176
▁ཨརྒྷཾ་	-12177
འདོད་པས།	-12178
གདོན་མི་ཟ་བར་	-12179
ཧཱུྃ་ཕཊ་སྭཱ་ཧཱ།	-12180
གཤིན་རྗེའི་གཤེད་	-12181
མཻ་	-12182
ཤཱ་	-12183
ཏབ་པའི་	-12184
ཚུལ་དང་	-12185
འདུས་ནས་	-12186
ཤེལ་གྱི་	-12187
ཙུན་མོའི་	-12188
སྐུ་གཟུགས་	-12189
གདམ་	-12190
ཏང་བས་	-12191
ལས་ངན་	-12192
ཉོན་ཅིག	-12193
འོད་དང་	-12194
འགགས་པས་	-12195
འཕགས་པས་	-12196
སྐྱེད་པ་ལ་	-12197
སྔར་བཞིན་བ	-12198
སྐྱིལ་ཀྲུང་བ	-12199
མིན་པའི་ཕྱིར།	-12200
་བྷི་	-12201
▁ཕན་ཡོན་	-12202
དེ་དག་ཏུ་	-12203
སྤང་བྱའི་	-12204
སྟན་ཟིན་ཏོ།	-12205
▁།དུར་ཁྲོད་	-12206
▁མཱ་	-12207
མིང་གིས་	-12208
དུ་མ་དང་།	-12209
རང་བཞིན་ནོ།	-12210
གདུལ་བ	-12211
ོར་ནས་	-12212
▁ཙནྡན་	-12213
སྣ་བདུན་	-12214
མི་སྤྱོད།	-12215
ཞེས་བརྗོད།	-12216
སྒྲུབ་བྱར་	-12217
རྒྱུ་མཚན་གྱིས་	-12218
ཏྱ	-12219
ཎི།	-12220
ནཱཾ།	-12221
མགོར་	-12222
ལྟས་བ	-12223
སྒོང་	-12224
གྲུབ་ཟིན་	-12225
▁སྔོན་ཚེ་	-12226
▁སྤྲུལ་པ་	-12227
འདོད་ཆགས་ཀྱི་	-12228
▁མཉན་	-12229
ལ་དོན་	-12230
▁དམ་པ་	-12231
▁རང་དང་	-12232
▁རྟག་པ་	-12233
མ་གཏོགས་པའི་	-12234
རོས་	-12235
▁ཏི་	-12236
▁བརྒྱ་	-12237
འདོད་ལ།	-12238
ཆོས་བཞི་	-12239
རིམ་པར་བ	-12240
འདུ་ཤེས་དང་།	-12241
པོའི་ཤུལ་བཞག་	-12242
རྣམ་པར་འབྱེད་	-12243
དྲན།	-12244
པུས་མོ་	-12245
མེད་དང་།	-12246
འདི་དག་བ	-12247
▁པཎ་ཆེན་	-12248
སྟན་པ་དང་	-12249
མ་གྲུབ་པའི་	-12250
▁།ཁྱོད་ཀྱིས་	-12251
ཀའང་	-12252
ཟིན།	-12253
ཕག་མོའི་	-12254
མཐུ་རྩལ་	-12255
▁རལ་གྲི་	-12256
ནི་རྣམ་པ་	-12257
སམ་མི་ཁྱབ།	-12258
ངོ་བོ་གཅིག་	-12259
མས	-12260
གངས་ཅན་	-12261
ཡང་མ་ཡིན་	-12262
▁།བྱིན་རླབས་	-12263
▁ཅན་	-12264
སྐྱེད་པར་	-12265
ལ་སྔགས་	-12266
ི་ཤུདྡྷ	-12267
སློབ་མས་	-12268
▁བླ་མ་ལ་	-12269
▁དཔེར་ན་བ	-12270
▁ཁྲག་འཐུང་	-12271
ཀུན་ནས་བསླངས་	-12272
ྱས་ནས	-12273
▁ཅི་བ	-12274
▁ཏིལ་	-12275
ེ་ཅོན་	-12276
དག་གིས།	-12277
དྷཱ་ཏུ་	-12278
▁འབྱོར་	-12279
▁།ཡི་དམ་	-12280
▁བདུད་རྩིའི་	-12281
བྱོན་	-12282
གུས་པ་	-12283
▁།དེའི་ཚེ་	-12284
གྱིས་སྨྲས་པ།	-12285
རབ་ཏུ་བྱེད་པ་	-12286
མཱཾ་	-12287
ཞིང་༔	-12288
སྤྲུལ་བ	-12289
ཚོགས་སུ་	-12290
▁ལྐ	-12291
མཆིལ་	-12292
པྲ་ཏི་	-12293
པ་དག་ཀྱང་	-12294
མ་བྱུང་བ་	-12295
འགའ་ཞིག་བ	-12296
སྟོན་པར་བྱེད་	-12297
ཉམས་སུ་མྱོང་བའི་	-12298
ཉེ་གནས་	-12299
ལ་བཞི་ལས།	-12300
ལས་འབྱུང་བ་	-12301
འགའ་ཞིག་གིས་	-12302
ཞག་གི་	-12303
དུན་ཅུ་	-12304
རིན་ཐང་	-12305
▁འཁོར་བ	-12306
ཡུམ་ཆེན་	-12307
▁ཡབ་ཀྱི་	-12308
ལྟོས་པའི་	-12309
སྙིང་རྗེས་	-12310
▁མངོན་རྟོགས་	-12311
པ་དེ་ནི།	-12312
སྦྱངས་ནས་	-12313
▁ཐབས་ཀྱི་	-12314
གནས་གསུམ་དུ་	-12315
དང་བསྟན་བཅོས་	-12316
དག་ཉིད་ཆེན་པོ་	-12317
དབྱེར་མེད་ཀྱི་	-12318
▁ཀུ	-12319
གེ་སར་	-12320
▁སྒྲ་བ	-12321
དབང་བྱེད་	-12322
པར་འགྱུར་ཞིང་།	-12323
ཏི་བ	-12324
ལེའི་	-12325
▁།བཤད་	-12326
▁སེམས་ནི་	-12327
རྣམ་དག་གི་	-12328
སྐྱབས་སུ་མཆ	-12329
པའི་ཚེ་བ	-12330
དེན་འཛིན་	-12331
སྟན་པ་ཡིན་ནོ།	-12332
ཉམས་སུ་བླངས་པས་	-12333
▁།ཤར་	-12334
རུས་པ་	-12335
གྲགས་ཀྱི་	-12336
སྦྲུལ་གྱི་	-12337
དུ་མེད་པའི་	-12338
ཐོད་པ་བ	-12339
▁།སྐྱོན་	-12340
གྱུར་ཅིག།	-12341
ཤེ	-12342
མཛེ་	-12343
▁ཚར་	-12344
གཟོད་	-12345
རྟོན་	-12346
ནས་ཡང་	-12347
གྱུར་ནས	-12348
ཚུལ་འདི་བ	-12349
ལ་གཉིས་ལས།	-12350
ནས་ནི་	-12351
ལ་ཡང་བ	-12352
▁གཟི་བ	-12353
འདུ་བར་	-12354
▁དེ་ཐམས་ཅད་	-12355
ཞེས་པ་ལ་སོགས་	-12356
ཅུར་བ	-12357
ར་བྱ༔	-12358
དང་བདེ་བ་	-12359
སྒྲིབ་པའི་	-12360
▁།དྲི་མེད་	-12361
▁།སེམས་ཉིད་	-12362
གསུངས་པའི་ཕྱིར།	-12363
དཾ་	-12364
ིན༔	-12365
མངའ།	-12366
སླད་དུ་བ	-12367
▁སྙིང་པོའི་	-12368
མོས་ཤིག	-12369
▁ཚངས་པ་	-12370
སྲ་	-12371
རཱ་ག་	-12372
གཤེགས་པའི་	-12373
ླ་མ་ཡི་དམ་	-12374
སྒྲུབ་མཆོད་	-12375
▁བཙ	-12376
ནུར་	-12377
རིང་བར་	-12378
▁ཤར་གྱི་	-12379
རང་བཞིན་ནི་	-12380
ྱིན་གྱི་རླབས་	-12381
རྗི	-12382
སྤར་	-12383
▁པཱ་	-12384
▁ཞེ་	-12385
ར་བཛྲ་	-12386
ེ་བཛྲ་	-12387
▁རྣལ་འབྱོར་པ་	-12388
ཨརྒྷཾ་པྲ་ཏཱིཙྪ་	-12389
སླའོ།	-12390
མངའ་བ།	-12391
ས་བསྡུས་	-12392
▁གདུག་པ་	-12393
ཀ་དང་།	-12394
སྟག་གི་	-12395
མུན་པའི་	-12396
▁གཡོན་གྱི་	-12397
ལྕི་	-12398
▁2<-	-12399
གོང་བུ་	-12400
སྐྱེའི་	-12401
▁དགེ་བ་བ	-12402
ཚོགས་མཆོད་	-12403
རང་ཉིད་ཀྱི་	-12404
ཐམས་ཅད་ཀྱང་།	-12405
▁།ཤེས་	-12406
མ་བཞིན་	-12407
སྙིང་ཐིག་	-12408
▁ལོ་ཙཱ་བ་	-12409
དྷཱ་ཀི་ནཱི་	-12410
མི་སྐྱེ་བའི་	-12411
ཡོངས་སུ་དག་པ་	-12412
ལྷག་མ་ཡར་ལུད་	-12413
པའི་སེམས་ཀྱིས་	-12414
་རང་བ	-12415
ལས་གུད་	-12416
སྔ་དྲོ་	-12417
ག་རུ་	-12418
གཞི་དང་	-12419
དག་གིར་	-12420
▁གནས་ལུགས་	-12421
ཉེས་བྱས་སུ་	-12422
དགེ་འདུན་གྱིས་	-12423
གདོན་བགེགས་	-12424
ནག་པོ་ཆེན་པོ་	-12425
ལིའི་	-12426
ཁྲོ་མོ་	-12427
འཁོར་བ་ལས་	-12428
▁འདུ་ཤེས་དང་།	-12429
གདན།	-12430
ཐོས་སོ།	-12431
སྤྲོ་ན།	-12432
སྦྱར་ན་	-12433
ར་བྱ་སྟེ	-12434
▁མཚན་མོ་	-12435
ཐོབ་པ་ནི་	-12436
ཕྱེད་པའི་	-12437
མི་བྱ་སྟེ།	-12438
▁དེའི་ཚེ་བ	-12439
འདྲར་	-12440
ཚིགས་བ	-12441
དཔྱད་པ་	-12442
ར་བྱེད་པའོ།	-12443
▁འཇིག་རྟེན་པའི་	-12444
གུ	-12445
▁ཁྱད་	-12446
▁ཆེད་	-12447
▁།རྒྱ་	-12448
ལྟར་རོ།	-12449
འཕྲོས་པའི་	-12450
འཁོར་ལོ་རྩིབས་བ	-12451
ཡོར་	-12452
▁རྒ་	-12453
ངག་དབང་ཀུན་དགའ་བ	-12454
▁ཚེས་བ	-12455
མི་མངའ་	-12456
དག་ལ་ནི་	-12457
པ་གང་གིས་	-12458
▁ཐང་	-12459
ལྷུན་པོ་	-12460
འགྲེལ་པར་	-12461
▁དབང་ཆེན་	-12462
▁མཐོ་རིས་	-12463
▁བཅོམ་ལྡན་འདས་ལ་	-12464
ློ།	-12465
དབེན་པ་	-12466
པའི་དོན་ནི་	-12467
དོན་དམ་པའི་བདེན་	-12468
ལིངྒ་	-12469
▁ཚོན་	-12470
རིམ་པའོ།	-12471
ུ་བ་དང་།	-12472
རྩ་འགྲེལ་	-12473
▁།སོ་སོར་	-12474
▁ཆོས་ཀྱི་བ	-12475
འཚོལ་	-12476
▁མཆོད་པ་བ	-12477
དབང་བསྐུར་རོ།	-12478
རྗེས་སུ་འགྲོ་	-12479
མིད་	-12480
སོང་བས།	-12481
སྟན་ནས།	-12482
ནད་ཀྱིས་	-12483
ཚུལ་བཞིན་དུ་	-12484
འགལ་ལོ་ཞེ་ན།	-12485
རང་ཉིད་ཀྱིས་	-12486
གོར་	-12487
༼རྙིང	-12488
དང་ས་	-12489
ཚིམས་	-12490
ཡབ་ལ་	-12491
▁གྲུ་	-12492
རྒྱུན།	-12493
ཆོ་གའོ།	-12494
ཐོག་མའི་	-12495
ྱའི་ཕྱིར།	-12496
▁གདམས་ངག་	-12497
མཆོད་རྟེན་བ	-12498
བ་པའི་	-12499
སྤུ་གྲ	-12500
▁།ཆོ་ག་	-12501
པའི་བར་ཆད་	-12502
སངས་རྒྱས་པའི་	-12503
གོས།	-12504
ཉམས་པའི་	-12505
འགྲུབ་པར་བ	-12506
འབྲས་བུ་ལ་	-12507
ཇི་སྙེད་ཅིག་	-12508
པོད་	-12509
▁མཛད་	-12510
ལོག་ལྟ་	-12511
........	-12512
འབབ་པའི་	-12513
སོད་ནམས་བ	-12514
སྲུང་ཞིང་	-12515
སྤྲིན་ལྟར་	-12516
མ་ལས་	-12517
པ་གང་།	-12518
▁བདེན་བ	-12519
དེ་ཐམས་ཅད་	-12520
▁།སྔོན་གྱི་	-12521
སྒྲ་ཇི་བཞིན་	-12522
་རབས་	-12523
དགང་བ	-12524
ཁྱིམ་གྱི་	-12525
ཅན་གྱིས་བ	-12526
ཉིང་མཚམས་	-12527
▁ཆོས་ཐམས་ཅད་ཀྱི་	-12528
ེལ་བ་	-12529
ཀོད་ནས་	-12530
འབར་བར་	-12531
སྤྱད་པར་	-12532
▁བྲམ་ཟེའི་	-12533
སྤངས་རྟོགས་	-12534
▁།རབ་འབྱོར་	-12535
གཅེས།	-12536
ལོག་བ	-12537
ཉེ་བར་གཞག་	-12538
སིདྡྷི་ཧཱུྃ༔	-12539
རྫྙ	-12540
འུག་	-12541
ཕོ་ཉའི་	-12542
་་་་་་་་	-12543
སྐུ་གདུང་	-12544
▁དོན་དམ་པ་	-12545
▁ལས་དང་པོ་	-12546
པར	-12547
རང་ཤར་	-12548
དྲུག་གོ	-12549
▁།ཐུགས་རྗེའི་	-12550
ཞལ།	-12551
▁སེ་	-12552
མན་ངག	-12553
ཁྲི་སྲོང་	-12554
▁རྣམ་པར་བྱ	-12555
ལུང་བསྟན་པ་	-12556
དུག	-12557
▁༡༣	-12558
ས་མ་ཡེ་	-12559
མཐོང་བས།	-12560
འདོད་དེ།	-12561
འཇུག་ཡུལ་	-12562
འདིར་བཤད་	-12563
▁ལྷ་རྣམས་	-12564
ཚོར་བ་དང་།	-12565
དབྱེར་མེད་བ	-12566
མྱི་དམྱིགས།	-12567
ཚུལ་ཁྲིམས་བ	-12568
སིལ།	-12569
▁དྷ་	-12570
སྐེད་	-12571
ཐོས་པས་	-12572
ནུས་སོ།	-12573
པར་བྱ་བ	-12574
▁ལྷག་པར་	-12575
མ་མཐོང་བ་	-12576
སྐྱེས་ཏེ།	-12577
▁གཙོ་བོར་	-12578
▁།གཏི་མུག་	-12579
ཡོན།	-12580
དྲིའི་	-12581
ེང་རུས་	-12582
ྱུང་བ་བ	-12583
ཕྱག་འཚལ་བ་	-12584
འགྲོ་འདུལ་	-12585
རྣམ་པར་ཐར་པ་	-12586
▁བསོད་ནམས་ཀྱི་	-12587
ྭའི་	-12588
ཉུང་བ	-12589
མེས་བ	-12590
སྒྲོས་	-12591
སྦྱར་ལ།	-12592
དམན་པའི་	-12593
ནོར་གྱི་	-12594
པར་འདུག་	-12595
མཛད་ཅིང་	-12596
འོངས་ནས་	-12597
ལན་གཅིག་	-12598
འོད་ཟེར་བ	-12599
▁།དྲུག་པ་	-12600
དང་ཉེ་བའི་	-12601
དུ་བྱུང་བའི་	-12602
ཛ་ཡ་	-12603
རྙེས།	-12604
▁།ཐ་དད་	-12605
ཕན་བདེའི་	-12606
རྣམ་པར་གྲོལ་བའི་	-12607
འཁྲིལ༔	-12608
▁ལུང་བ	-12609
ངོས་སུ་	-12610
▁དོན་ཡོད་	-12611
▁འཆི་བའི་	-12612
ནུབ་ཕྱོགས་	-12613
པ་དང་མཐུན་	-12614
སྤྱན་དྲངས་ཏེ་	-12615
དེབ་	-12616
སྟབས་བ	-12617
གྱུར་ཏེ	-12618
མཚུངས་པ་	-12619
ནས་འབྱུང་བའི་	-12620
མི་ཡི་	-12621
ཚེ་དང་	-12622
▁གོམས་	-12623
ཅིག་ཏུ་	-12624
སྐྱོང་།	-12625
▁ཁྱབ་སྟེ།	-12626
▁ན་མོ་རཏྣ་	-12627
དགོས་པ་ཡིན།	-12628
ཨ་བྷི་ཥེ་ཀ་	-12629
སྐྱེས་པ་དང་།	-12630
སྔོན་དུ་འགྲོ་བ་	-12631
▁གུང་	-12632
▁ཨུཏྤ	-12633
ཆེན་དང་།	-12634
ཡིན་ཡང་།	-12635
ལྔ་བཅུ་རྩ་	-12636
▁མི་དགེ་བ་	-12637
ཙཎྜ་	-12638
▁།ཕན་	-12639
▁གཡང་	-12640
འཇུག་གོ	-12641
ལྡན་དང་།	-12642
སྦྱང་བའི་	-12643
མི་ཤེས་པའི་	-12644
ྲོས་	-12645
ད་ལྟའི་	-12646
ཆུ་གཏེར་	-12647
▁།གང་ཟག་	-12648
པར་བྱ་སྟེ་	-12649
ཀའ་བདེན་པ་དང་།	-12650
ནས་སུ།	-12651
ཛྭ་ལ་ར	-12652
▁།གོས་	-12653
གང་ལའང་	-12654
▁ཞལ་ཟས་	-12655
▁།རྐྱེན་	-12656
དག་ཅིང་	-12657
རྫུན་དུ་	-12658
དབང་མངོན་	-12659
▁།སྲིད་པ་	-12660
▁ལྷ་དང་མི་	-12661
ཐུག་བ	-12662
འདི་གཉིས་	-12663
རེར་	-12664
▁སི་	-12665
▁སྤྱོད་འཇུག་	-12666
མགོའི་	-12667
འགྲོ་འོང་	-12668
དམྱིགས་སུ་	-12669
ལོ་ཀ	-12670
ཉིའི་	-12671
ྱ་རོག་	-12672
▁བྱའོ།	-12673
ཉིད་དེ།	-12674
མོས་པས་	-12675
རྣམས་སུ།	-12676
ྱེད་ཅིང་	-12677
གསོལ་བཏབ་	-12678
ཞེས་པ་སྟེ་	-12679
དགོན་པར་	-12680
▁།རྒྱལ་སྲས་	-12681
▁ལྷུང་བཟེད་	-12682
རྔོག་	-12683
ལྡེབ།	-12684
གཅིག་ནི་	-12685
གོང་འོག་	-12686
སྤངས་ཏེ།	-12687
མི་འཇིགས་	-12688
▁མེད།	-12689
ལན་དུ་	-12690
པས་བསྟན།	-12691
མ་བྱས་ན་	-12692
མདོ་རྒྱུད་	-12693
ལ་བཀའ་སྩལ་པ།	-12694
དྲོའི་	-12695
ར་ཆད་བ	-12696
ངན་པའི་	-12697
མེ་འབར་	-12698
པ་དང༔	-12699
▁ཞུས་	-12700
མ་གྲུབ་ན་	-12701
ཀྱིས་གསུངས་	-12702
▁།ཞེས་བརྗོད་	-12703
▁ོ	-12704
ཕྱག་ཏུ་	-12705
ཆོས་མཆོག་	-12706
ཡིད་འཕྲོག་	-12707
ྱིན༔	-12708
▁།གཞན་དུ་	-12709
▁གདོད་ནས་	-12710
མགྲིན་པའི་	-12711
མཛད་དེ	-12712
དགུའི་བ	-12713
ཕྱི་ནས་	-12714
མཛད་པ་བ	-12715
མྱེད་ཅིང་	-12716
མི་རྟོག་པ་	-12717
▁རྒྱུན་དུ་	-12718
▁དུས་གསུམ་གྱི་	-12719
ྱང་།	-12720
ཀྲོ་ཏ་	-12721
གང་བས་	-12722
ཁང་བཟང་	-12723
ཚོགས་བཅས་	-12724
▁ཡིག་	-12725
རྨ་བྱའི་	-12726
སྦོམ་པོ་	-12727
ཡིན་པས་ཁྱབ་	-12728
རྒྱ་མཚོ་ཆེན་པོར་	-12729
སྦྱར་ལ་	-12730
དྲང་བའི་	-12731
ངས	-12732
▁དེ་ལྟ་བས་ན་	-12733
ཡོད་པ་ནི་	-12734
▁ཨོཾ་ཤྲཱི་	-12735
དེ་མ་	-12736
འཇིམ་	-12737
ཁྲུ་གང་	-12738
གཏུམ་པོ་	-12739
རྩ་བའི་བ	-12740
པའི་ཡན་ལག་	-12741
པདྨ་འདབ་མ་བ	-12742
གུ་རུས་	-12743
ཁོ་བོའི་	-12744
▁རང་སེམས་	-12745
▁སྙོམས་པར་	-12746
འབབ།	-12747
ཏ་བཛྲ་	-12748
ཡོ་གི་	-12749
▁།ཞབས་	-12750
པར་ཤོག༔	-12751
དམག་ཚོགས་	-12752
གེགས་བསྐྲད་	-12753
▁།དབང་བསྐུར་	-12754
ཨཱ་ཡུ་	-12755
ུམ་པར་	-12756
▁ཐོས་བ	-12757
ཐོབ་ཅིང་།	-12758
ཞེས་ཟེར་རོ།	-12759
མི་དམིགས་སོ།	-12760
▁ཤེས་བྱ་ཆོས་ཅན།	-12761
སྟི་བ	-12762
ྲིས་སྐུ་	-12763
པར་བྱས་ལ་	-12764
པ་རྣམས་དང་	-12765
▁།བྱེ་བྲག་	-12766
གླང་པོ་ཆེའི་	-12767
ཊྚ	-12768
▁ཁྱུང་	-12769
ང་མཛོད་	-12770
སྒོམས་ན་	-12771
▁།ལྷག་མ་	-12772
▁དབང་བཞི་	-12773
▁རེས་འགའ་	-12774
ཕྱིར་རྒོལ་	-12775
▁།སྐྱེ་བོ་	-12776
ལས་བྱས་པའི་	-12777
རྣམ་པར་གྲོལ་བ་	-12778
ཟས།	-12779
མེ་རི་	-12780
▁ཕོ་ཉ་	-12781
པར་བཅས་	-12782
ཡིན་ཞིང་	-12783
པར་བྱེད་པ་ནི་	-12784
སྔ་མ་བཞིན་ནོ།	-12785
སངས་རྒྱས་ཀྱི་སར་	-12786
ཥེ་	-12787
ཕྱེ།	-12788
འོ་བ	-12789
གྲུབ༔	-12790
རྒྱད༔	-12791
སེམས༔	-12792
ཐོབ་སྟེ།	-12793
མི་མངོན་	-12794
པ་ལྟ་བུའི་	-12795
ཐབས་དང་ཤེས་རབ་	-12796
ཐམ་	-12797
མནོས་	-12798
ཕུལ་ལ།	-12799
ལོགས་སུ་བ	-12800
འགྱུར་ལགས།	-12801
ཨོཾ་བཛྲ་ས་མཱ་ཛཿ	-12802
མ་ཏི་	-12803
དུན་པའི་	-12804
▁འཇིགས་བྱེད་	-12805
པའི་བདུད་རྩི་	-12806
ངོ༔	-12807
གནོན།	-12808
རྣམས་སུ་བ	-12809
ཊ།	-12810
ཅུད།	-12811
ཐུམ་	-12812
ཤ་དང་	-12813
སྐུར༔	-12814
སྒྲོམ་	-12815
ཀྱི་བསླབ་	-12816
▁རྟ་མགྲིན་	-12817
ལྷན་ཅིག་སྐྱེས་པ་	-12818
ཡྃ་	-12819
རྩེ།	-12820
▁།རྣམ་དག་	-12821
ངུར་སྨྲིག་	-12822
ཇི་སྙེད་པ་	-12823
▁།སྙིང་རྗེ་	-12824
མཆིམས་	-12825
ཅོ་ལྔའི་	-12826
ྱེད་པའོ།	-12827
▁སྟེང་གི་	-12828
ངེས་པ་དང་།	-12829
ཡང་དག་ལྡན།	-12830
མཉམ་པར་གཞག་	-12831
མྱིང་	-12832
ཟ་བར་	-12833
རྒྱག་	-12834
▁།མི་བ	-12835
འདྲ་བ་བ	-12836
ཁྱུ་མཆོག་	-12837
ལུས་ཐམས་ཅད་	-12838
ཟ་མ་	-12839
སླང་	-12840
ལ་བྱ་བ་	-12841
གཙུག་གི་	-12842
གླིང་པའི་	-12843
ལྟ་བར་བྱའོ།	-12844
དབང་དུ་བྱས་ན་	-12845
▁ཕམ་	-12846
ཕྲུགས་	-12847
རྒྱས་པ།	-12848
དོན་དམ་པ་	-12849
▁ཕྱག་མཚན་	-12850
ཤེས་པར་བྱ་བ་	-12851
ཕྱོགས་ཀྱི་ཆོས་	-12852
▁གསུམ་པ་ནི་	-12853
▁རིགས་ལྔའི་	-12854
པར་བྱེད་ཅིང་།	-12855
དགེ་ལེགས་འཕེལ།	-12856
▁གཟུགས་མེད་པའི་	-12857
སྤོས།	-12858
མི་ཐོགས་	-12859
འཆི་ལྟས་	-12860
▁།པདྨའི་	-12861
▁།རང་རིག་	-12862
ཕུང་པོ་དང་	-12863
1000024010000270	-12864
ཆེན་པོ་སྟེ།	-12865
མཐའ་གཅིག་ཏུ་	-12866
གཉིས་སུ་མེད་པ་	-12867
པར་བསྟན་པ་དང་།	-12868
ཁམས་ལ་	-12869
གྲྀཧྞ་	-12870
གཙང་བའི་	-12871
ལུགས་སུ་	-12872
པ་ལ་དགོངས་	-12873
▁ཁོ་བོ་ཅག་	-12874
▁ཐམས་ཅད་ཀྱི་	-12875
ལ་བར་ཆད་	-12876
རྟག་པ་དང་།	-12877
རྣམ་པ་དང་།	-12878
པར་གྱུར་ཅིག་	-12879
▁།རྡོ་རྗེ་འཆང་	-12880
ཕུགས་	-12881
རྒྱངས་	-12882
གྱིས་ཀྱང་	-12883
ཀུན་བརྟགས་	-12884
▁རབ་འབྱམས་	-12885
ན་པ་	-12886
ཏབ་ནས་	-12887
ལ་བསམ་	-12888
དམིགས་པས་	-12889
སྡུག་བ	-12890
ལ་ཕེབས་	-12891
▁གང་ཚེ་	-12892
▁ཤ་ཁྲག་	-12893
རིག་གནས་	-12894
གཉིས་སྣང་	-12895
པ་མི་འཐད་	-12896
ལྷ་ཚོགས་བ	-12897
▁གནས་བརྟན་	-12898
▁དངོས་པོར་	-12899
གང་ཡིན་པའོ།	-12900
པའི་བསམ་གཏན་	-12901
གུ་རུ།	-12902
▁ཆོས་དང་	-12903
ལ་ཁྱད་པར་	-12904
ཉམས་རྟོགས་	-12905
པའི་དངོས་པོ་	-12906
▁༡༤	-12907
ླ་བྲང་	-12908
ྲིས་ནས་	-12909
གནས་ཤིང་	-12910
ལྟ་བ་དང་	-12911
མཎྜལ་ཕུལ་	-12912
དུ་བྱུང་བ་	-12913
▁།ཀུན་རྫོབ་	-12914
ཞེས་བྱ་བའི་བར་	-12915
▁དེ་ལས་འོད་ཟེར་	-12916
སྤོངས་	-12917
སྲུངས།	-12918
སྐུ་དང་གསུང་དང་	-12919
རྫེས་	-12920
ཆོས་ཉན་	-12921
གནད་ཀྱིས་	-12922
▁།སྐལ་ལྡན་	-12923
ཞོན་པ་	-12924
མདུད་པ་	-12925
སྟོད་པ།	-12926
མ་བཞིན་དུ་	-12927
རྒྱལ་བ་སྲས་	-12928
▁ནུབ་ཕྱོགས་	-12929
ཏྟ	-12930
མ་བ་	-12931
ོལ་བ།	-12932
མཐའ་ལ་	-12933
མཆོད་པ།	-12934
ཞག་སྟེ།	-12935
སྟན་གྱི་	-12936
དབྱིངས་སུ་བ	-12937
ཟུང་བར་	-12938
ནུས་མཐུ་	-12939
འཆད་པའི་	-12940
▁དེ་ཡང་།	-12941
དུད་འདུལ་	-12942
འཛིན་མེད་	-12943
ལེགས་ལྡན་	-12944
རྡོར་དྲིལ་	-12945
པའི་ཕྱིར་ན་	-12946
གྲུབ་པའི་ཕྱིར།	-12947
རྩར་	-12948
▁སྐུ	-12949
▁བཅོས་	-12950
པ་འདི་ནི།	-12951
རྒྱད་སྟོང་	-12952
▁མི་འགྱུར་	-12953
▁མི་རྟག་པ་	-12954
ཆག་བ	-12955
དམན་པ་	-12956
ངང་དུ་བ	-12957
འགགས་པ་	-12958
སེ་གོལ་	-12959
རབ་འབྲིང་	-12960
མ་གྲུབ་པར་	-12961
ཉོན་མོངས་པ་དང་	-12962
མི་སྣང་	-12963
པ་དེ་དང་	-12964
དེ་བཞིན་ཉིད་ཀྱི་	-12965
▁ཏུ	-12966
མོའོ།	-12967
པར་ཞུ།	-12968
དེ་ཞིང་	-12969
▁ཇི་སྙེད་	-12970
ནི་སངས་རྒྱས་	-12971
▁མཁའ་འགྲོ་མ་	-12972
▁རྒྱུ	-12973
ཁྲིམས།	-12974
▁མངྒ་ལ	-12975
ར་བ་དང་	-12976
ཚོགས་དང་	-12977
དེ་དག་ལས་	-12978
ཕྲེང་བ་ལས།	-12979
▁གྲུབ་ཐོབ་	-12980
སྒྲུབས་པའི་	-12981
གརྦ	-12982
ྷནྡྷ	-12983
གཽ་ཏ་	-12984
རི་ལ་	-12985
ྲིའོ།	-12986
ཐ་ཚིག་	-12987
▁།རྩ་བ་	-12988
སིལ་སྙན་	-12989
ལྔ་བདུད་རྩི་	-12990
ཟིལ་གྱིས་མནན་	-12991
ཞེས་ཀྱང་	-12992
▁མུ་ཏིག་	-12993
གཞོན་ནུ་བ	-12994
རྡོ་རྗེ་ཐེག་	-12995
ཤོལ་	-12996
སྦྱོང་།	-12997
གཡོན་ནས་	-12998
དང་བཅས་བ	-12999
དེའི་ཚེ།	-13000
ལུང་གིས་	-13001
ཐུན་མཚམས་	-13002
མི་བདེ་བ་	-13003
རྒྱུ་ཞིང་	-13004
སེང་གདོང་	-13005
དགོས་པ་ནི་	-13006
དྲིལ་བུའི་	-13007
རྔ་ཡབ་	-13008
མཐའ་དག་ལ་	-13009
འཛིན་རྟོག་	-13010
ལེན་པ་དང་།	-13011
གཅོད་བ	-13012
▁དྭངས་	-13013
▁།ད་ལྟ་	-13014
ཞེས་བྱ་ལ།	-13015
▁ཐམས་ཅད་བ	-13016
ཡེ་ཤེས་ལྔ་	-13017
▁སྐལ་ལྡན་བ	-13018
གཏད༔	-13019
རྫུ་	-13020
དང་བུ་	-13021
དག་པོའི་	-13022
གནས་ཤིང་།	-13023
དག་ཅག་གིས་	-13024
དཀར་བའི་	-13025
▁བདག་ཀྱང་	-13026
རང་སངས་རྒྱས་	-13027
རྒྱུད་ལ་སྐྱེས་	-13028
ྱའོ་	-13029
སྐལ་བ་བ	-13030
ཕྱག་གཡས་	-13031
པའི་ཆོས་བ	-13032
▁ཞབས་གཉིས་	-13033
པདྨ་ཐོད་ཕྲེང་	-13034
གཟུང་འཛིན་གྱི་	-13035
ས་འོག་	-13036
ལས་འདས།	-13037
རབ་བརྟན་	-13038
▁སྒྲིབ་པ་	-13039
▁རབ་འབྱོར་བ	-13040
པའི་དུས་ཀྱི་	-13041
རྒྱུད་པའི་བླ་མ་	-13042
བོད་	-13043
འོག་བ	-13044
སྦྱངས་པ་	-13045
དགོས་ཀྱི་	-13046
འཇིགས་སུ་	-13047
▁ཁྱད་པར་གྱི་	-13048
ཟོ་བ	-13049
པ་ལས་གཞན་	-13050
▁ལོངས་སྐུ་	-13051
རྫུ་འཕྲུལ་གྱི་	-13052
ཐཱ་	-13053
གདུབ་	-13054
ཚར་གཅད་	-13055
གཅིག་པོ་	-13056
ཁྱེད་རྣམས་	-13057
སྒོམ་པ་ལ་དབང་།	-13058
གྲུབ་པ།	-13059
ན་བ་དང་།	-13060
ལན་བདུན་	-13061
རྗེས་ཆགས་	-13062
ཏང་ངོ་།	-13063
དབང་པོ།	-13064
པ་འདི་ཡང་	-13065
▁འབར་བའི་	-13066
རུས་པའི་རྒྱན་	-13067
མཉམ་པ་ཉིད་ཀྱི་	-13068
ངང༔	-13069
དྷ་ར	-13070
སྐུའོ།	-13071
▁སྒོ་བ	-13072
དབྱིངས༔	-13073
ཡིས་ནི།	-13074
སྒྲ་དབྱངས་	-13075
མྱ་	-13076
དེ་བ།	-13077
ལྷོའི་	-13078
▁།བོད་	-13079
ཕྱག་བཞེས་	-13080
དགོངས་འགྲེལ་	-13081
ཉེས་པ་མེད་དོ།	-13082
རིམ་པ་བཞིན་དུ་	-13083
▁འཕགས་པའི་བདེན་	-13084
ཀརྨ	-13085
གཙང་བ	-13086
ཉིན་བ	-13087
ཉུང་བ་	-13088
རྡོར་བ	-13089
ས་བཅད་	-13090
མངའ་རིས་	-13091
སྐྱེད་པ།	-13092
▁གཡོན་པ་	-13093
▁མ་རིག་པ་	-13094
ཞེས་སོགས་སོ།	-13095
▁ཡི་གེ་བརྒྱ་	-13096
སོམ་	-13097
ཅུ་དང་།	-13098
ལྕམ་དྲལ་	-13099
ར་བྱེད་ན་	-13100
མདོ་སྡེའི་	-13101
▁e	-13102
འཚེ་བ	-13103
▁སྔགས་དང་	-13104
▁།ཆོས་དབྱིངས་	-13105
▁དལ་	-13106
ཟླ་བ།	-13107
ཆད་པའི་	-13108
མི་མཉམ་	-13109
▁ཁྱེའུ་	-13110
མིང་བཏགས་	-13111
སྤོས་ཀྱི་	-13112
གསར་དུ་བ	-13113
དངོས་དང་	-13114
སྣང་བ་ནི་	-13115
▁མཚན་གཞི་	-13116
མེད་པ་ཡིན།	-13117
▁སྤྱོད་པའི་	-13118
ཐམས་ཅད་ཀྱིས།	-13119
སྒྱུ་མ་ལྟ་བུ་	-13120
▁ཨོཾ་བཛྲ་པུཥྤེ་	-13121
མཎྜ་ལ་	-13122
གྱིས་ན་	-13123
ྱེད་དེ།	-13124
▁།སྤྱིར་	-13125
▁འདི་ལ་བ	-13126
རྒྱལ་པོའི་བ	-13127
དབབ།	-13128
▁ལུས་བ	-13129
སོང་བར་	-13130
▁།མཐོང་	-13131
ཐུགས་ཀར་བ	-13132
དུ་ཡོད་པ་	-13133
ཟེར་བ་དང་།	-13134
རྐྱང་བསྐུམ་	-13135
▁ཡོད།	-13136
རྒྱ་དང་བ	-13137
ཉིས་སྟོང་	-13138
སྟོང་པའི་ངང་	-13139
སྤྲེལ་	-13140
དམ་ཉམས་	-13141
ཡུམ་དང་	-13142
ཆོ་ག་དང་།	-13143
ཐམས་ཅད་དང་	-13144
སྒྲ་མི་རྟག་	-13145
ཞི་ནི།	-13146
པའི་བཤད་	-13147
འབུལ་བར་	-13148
མཐར་གྱིས་	-13149
▁འཁོར་གྱི་	-13150
▁།ཞལ་	-13151
གྱ་ནོམ་	-13152
ཆགས་པས་	-13153
དཔའ་མོ་	-13154
སྟེང་དུ༔	-13155
ཁྱད་པར་རོ།	-13156
ལ་བརྟེན་ནས	-13157
▁དུས་འཁོར་	-13158
མཁས་བ	-13159
▁།ཟས་	-13160
གཞུང་ལས་	-13161
▁ཇི་ལྟར་ན་	-13162
▁དེ་བཞིན་ཉིད་	-13163
སྒྲུབ་བྱའི་ཆོས་	-13164
པོར།	-13165
ཞེད་པ་	-13166
ལག་པའི་	-13167
▁འོ་ན་བ	-13168
མངའ་བའི་	-13169
ནི་ཤིན་ཏུ་	-13170
ནམ་མཁའི་མཐའ་	-13171
རྒྱལ་མཚན་གྱིས་	-13172
གྱད་	-13173
གཉིས་པ།	-13174
ཐབ་ཁུང་	-13175
དང་ཟླ་བ་	-13176
▁དེ་ལས་བ	-13177
དབུས་གཙང་	-13178
དེ་དག་དང་།	-13179
དེ་ཆེན་གྱི་	-13180
དེ་དང་དེའི་	-13181
▁དེ་ལྟར་ན་བ	-13182
པ་ལ་སོགས་པ་བ	-13183
རྟོགས་པར་བྱའོ།	-13184
གསོར་	-13185
▁རྗེ་བ	-13186
པའི་སྔགས་	-13187
ཟླ༔	-13188
འདིར༔	-13189
དགོངས་བ	-13190
གོམས་པས་	-13191
རིང་ཐུང་	-13192
མཱ་ར་ཡ་རྦ	-13193
རིམ།	-13194
དགུ་པོ་	-13195
ཟབ་མོ་བ	-13196
སྒོམ་ཞིང་	-13197
པར་མ་གྱུར་	-13198
སྐྱེས་བུས་	-13199
སྦྱོར༔	-13200
▁འོག་གི་	-13201
▁བརྟུལ་ཞུགས་	-13202
ཏུར་	-13203
ཤངས་	-13204
▁བསང་	-13205
ཚད་དུ་	-13206
འགྲན་ཟླ་	-13207
ལྡང་བའི་	-13208
▁སྦྱིན་པ་	-13209
རྒྱུ་མཐུན་	-13210
ཙུགས།	-13211
སྟན་ཏེ	-13212
▁བཤགས་	-13213
རྡོ་རྗེ་མ།	-13214
ལ་མི་ལྟོས་	-13215
▁བྱང་སེམས་ཀྱི་	-13216
ཏཾ་	-13217
སླར་བ	-13218
ཕྱེ་ན་	-13219
རྣམ་ཀུན་	-13220
▁རི་བོང་	-13221
རིགས་ལྡན་	-13222
སོ་སོའི་བ	-13223
ྱ་བའི་ཕྱིར་	-13224
རྫོགས་པ་དང་།	-13225
▁ཏྲི་	-13226
མགོར་བ	-13227
མིང་དང་	-13228
དེན་མེད་	-13229
མེད་པ་དེ་	-13230
རིམ་པ་ནི།	-13231
ལ་བརྟེན་ནས་བ	-13232
ཡོན་ཏ	-13233
དབང་བ་	-13234
▁བསྐལ་པ་བ	-13235
འགྲུབ་པ་དང་།	-13236
མཚན་ལྡན་	-13237
གོང་འཕེལ་	-13238
ཏ་ཐཱ་ག་ཏ་	-13239
པར་བྱས་ཏེ།	-13240
མ་སྐྱེས་པ་	-13241
ལ་སོགས་པ་སྟེ།	-13242
འགལ་བའི་ཕྱིར་རོ།	-13243
སཱི་	-13244
ནུབ་བྱང་	-13245
▁།ཞེ་སྡང་	-13246
པའི་ཆོས་ཅན་	-13247
▁སྲིད་གསུམ་	-13248
ང་རྒྱལ་གྱིས་	-13249
འགྲུབ་པར་མཛོད༔	-13250
ཙཀ་	-13251
ཀྱུས་	-13252
▁གདུང་	-13253
རྐང་པའི་	-13254
དགེ་སྡིག་	-13255
ཞུགས་པའོ།	-13256
སྙིང་པོར་བ	-13257
འདི་སྙམ་དུ་	-13258
སྟོང་པ་ཉིད་དོ།	-13259
ཀི	-13260
སྔོ༔	-13261
ག་ལ་ཉལ་	-13262
རྒྱད་དོ།	-13263
▁གཟུང་བ་	-13264
ཕྱོགས་དང་	-13265
འཇོག་པའི་	-13266
སྐུ་གསུང་	-13267
སྒྲུབ་ཅིང་	-13268
མེད་པའི་དོན་	-13269
་བྷུ་	-13270
▁རྗེས་ཐོབ་	-13271
▁།སྣང་སྲིད་	-13272
ཀུལླ	-13273
དངོས་ནི།	-13274
མྱེད་པའོ།	-13275
▁བསྐྱེད་རྫོགས་	-13276
▁འཛམ་བུའི་གླིང་	-13277
:-	-13278
མ༴	-13279
པུཎ	-13280
དྲིལ།	-13281
▁།གནོད་	-13282
སྤྱི་བོས་	-13283
▁ཡིད་ཆེས་	-13284
ལ་བརྟེན་པ་	-13285
▁སྔགས་འཆང་	-13286
ཡིད་ལ་བྱ་བ་	-13287
དཔེ།	-13288
ཞི་བ།	-13289
འབེབས།	-13290
མ་མཆིས།	-13291
གཞུང་ལས།	-13292
པའི་ནང་དུ་	-13293
འགྲེལ་བཤད་	-13294
རྒྱལ་པོ་ལ་	-13295
གང་གིས་ཀྱང་	-13296
ལ་ཡ་	-13297
▁།དགྲ་	-13298
འབྱིན་པ་	-13299
▁སྤྲོ་ན་	-13300
མཐའ་གཉིས་	-13301
ད་ལྟར་གྱི་	-13302
རྒྱལ་མཚན་བ	-13303
ཡུད་ཙམ་	-13304
ཚུལ་འདི་	-13305
སྤྱད་པས་	-13306
▁རང་ལུས་	-13307
པའི་ཚོགས།	-13308
▁དབང་བསྐུར་བ་	-13309
ནྡ་	-13310
དམ་པར་	-13311
དཀར་ཆག་	-13312
ཆོས་བཤད་	-13313
▁།གལ་ཏེ་བ	-13314
སྐྱེད་པའོ།	-13315
ཅང་ཏེ	-13316
སུ་མི་	-13317
རྨི་ལམ་བ	-13318
སློབ་མ་བ	-13319
མཚོན་ཆའི་	-13320
▁རྣམ་གྲངས་	-13321
རང་རྒྱུད་ཀྱི་	-13322
དྱཾ་	-13323
ལ་ལས་	-13324
▁ཚོགས་བ	-13325
འགྲོ་བ་བ	-13326
▁།དེས་ན་བ	-13327
▁གསུམ་པ་ལ་	-13328
རྒྱུན་ཞུགས་	-13329
རང་བཞིན་དང་།	-13330
▁ནམ་མཁའ་ལྡིང་	-13331
▁རིགས་ཀྱི་བུ་མོ་	-13332
སྡང་བ	-13333
ག་ཡོད་	-13334
རོལ་པར་	-13335
གཙང་སྦྲ་	-13336
ལ་ཕྱག་འཚལ།	-13337
སྒྲུབ་པ་ལ།	-13338
▁དང་པོ་ལྟར་ན་	-13339
▁བསྙེན་སྒྲུབ་	-13340
པོའི་ཤུལ་བཞག་ལས།	-13341
ྒ་	-13342
དོན་མི་	-13343
གྲི་ཐོད་	-13344
དང་པོའོ།	-13345
▁སྐུ་ཡི་	-13346
▁།རིག་འཛིན་	-13347
ཡན་ལག་བཅུ་གཉིས་	-13348
ཐོས་བ	-13349
ཧ་ཡ་གྲ	-13350
འཛིན་པ་ནི་	-13351
སྒྲུབས་ནས་	-13352
ླ་མ།	-13353
▁ནོ།	-13354
རྫིང་	-13355
ཐོབ་ནས།	-13356
ེ་སྔགས་	-13357
གཞོན་ནུར་གྱུར་	-13358
ལི༔	-13359
▁གཏད་	-13360
དྷརྨཱ་	-13361
▁དར་དང་	-13362
དབྱིག་གཉེན་	-13363
ཟེའུ་	-13364
▁དགོན་	-13365
པར་བྱའོ༔	-13366
པའི་རྣམ་པ་	-13367
▁།ཁམས་	-13368
གསུང་བར་	-13369
ཊཱི་ཀ་ལས།	-13370
ལྔ་བཅུའི་	-13371
དུད་རྩིར་བ	-13372
ནས་བརྒྱུད་	-13373
དང་ལྡན་པའི་བ	-13374
སེམས་བསྐྱེད་ཀྱི་	-13375
ཡིག	-13376
རྒུའི་	-13377
ཞེས་གྲགས་	-13378
སྐོར་ཞིང་	-13379
▁མགྲིན་པ་	-13380
རྣམ་འགྲེལ་	-13381
ལུགས་ཀྱི་བ	-13382
▁སྒྱུ་མའི་	-13383
དགེ་བའི་ལས་	-13384
སྐྱབས་སུ་མཆི༔	-13385
ལས་བུམ་	-13386
▁འདིར་ཡང་	-13387
ཅན་དུ་བྱས་	-13388
ར་བྱའོ་ཞེས་	-13389
དབང་ཕྱུག་ཆེན་པོ་	-13390
▁ཁྱ	-13391
བུག་	-13392
གོམས་པ་	-13393
དུ་འགྲོ་བ་	-13394
ལ་རྡོ་རྗེ་	-13395
གསུངས་པ་ཡིན་ནོ།	-13396
ྷི་	-13397
ཡུམ༔	-13398
▁སྒྲའི་	-13399
མི་སྐྱེ་	-13400
▁མཐའ་ཡས་	-13401
ལུགས་དང་།	-13402
མཚུངས་པའི་	-13403
ཚངས་པར་སྤྱོད་པ་	-13404
དབྱེན་	-13405
སྔ་མས་	-13406
སྒྲལ་བ་	-13407
ལུང་རིགས་	-13408
▁ཞེས་པ་ནི་	-13409
པ་དེ་སྲིད་དུ་	-13410
▁དགེ་སློང་གིས་	-13411
ཁོམ་	-13412
▁ལྗང་	-13413
པ་བློ་	-13414
ཟིན་ན་	-13415
གཉིད་ལོག་	-13416
རྒྱལ་བ་སྲས་བཅས་	-13417
ལ་ཡིད་	-13418
▁ཐ་མར་	-13419
ཡོ་བྱད་བ	-13420
ཉིན་བྱེད་	-13421
ཏིང་ངེ་འཛིན་དང་།	-13422
ག་བྱེད་	-13423
མ་གྲུབ་པས་	-13424
▁དེའི་རྗེས་སུ་	-13425
རཀྵ་	-13426
ཀུན་དུ་བ	-13427
▁།སྐུ་མདོག་	-13428
པུཥྚ	-13429
ྷྱོ།	-13430
ས་མི་	-13431
རྡུལ་བ	-13432
རྫས་ཐ་དད་	-13433
པཉྩ་ཨ་མྲྀ་ཏ་	-13434
▁གཟུངས་ཀྱི་སྒོ་	-13435
ཀག་ནས་	-13436
རང་ལུས་	-13437
པའི་བསམ་པས་	-13438
▁དངོས་གཞིའི་	-13439
▁དཔལ་རྡོ་རྗེ་	-13440
གཡས་ནས་	-13441
འགོད་པའི་	-13442
▁དུད་འགྲོ་	-13443
ཐུན་མོང་བའི་	-13444
▁གཙུག་ལག་ཁང་	-13445
སྒྲུབ་པར་བྱ་བ་	-13446
▁གསོལ་བ་འདེབས་	-13447
པར་མི་འགྱུར་ཏེ།	-13448
▁མྱང་	-13449
དང་པོ།	-13450
ནི་བཤད་	-13451
མ་གཏོགས་པར་	-13452
ཐོག་མེད་	-13453
▁གཞལ་བྱ་	-13454
མྱི་རྟོག་	-13455
སྐྱེས་ཀྱི་	-13456
རྟོག་དཔྱོད་	-13457
པ་བཞི་བ	-13458
འཕྲོགས་	-13459
དཔལ་གྱིས་	-13460
པ་ཉིད་ནི་	-13461
མི་འཁྲུགས་	-13462
སྙིང་པོ་ལ་	-13463
ཚོགས་ཐམས་ཅད་	-13464
ཀྲ་ཤིས།	-13465
རང་བབས་	-13466
མི་སློབ་	-13467
པ་ལས་ཀྱང་	-13468
སྐོར་བར་བ	-13469
གཉིས་ཀྱི་བ	-13470
རབ་ཏུ་བྱུང་	-13471
▁།འདོད་པའི་	-13472
▁ལྟོས་	-13473
སྟན་པ་ནི་	-13474
རྒྱ་ཆེན་པོ་བ	-13475
སེམས་བསྐྱེད་བ	-13476
པའི་བརྟུལ་ཞུགས་	-13477
འཆག་	-13478
ཡའི་	-13479
གཞལ་བ	-13480
ཆེ་ན་	-13481
མཐུ་བ	-13482
▁སྦྱིན་བ	-13483
▁སྭ་བྷཱ་ཝས་	-13484
མགོན་མེད་ཟས་	-13485
▁ཐབས་དང་ཤེས་རབ་	-13486
སྲུབས་	-13487
མཚམས་བཅད་	-13488
སྒྱུར་ནས་	-13489
ཅེས་བརྗོད་	-13490
དྲུག་གིས་བ	-13491
▁།སྤྱོད་པ་	-13492
ྃ་བ	-13493
སྐམས་	-13494
ྷནྡྷ་	-13495
ངག་དང་	-13496
གཉིས་ཀ་བ	-13497
▁ངོ་མཚར་	-13498
ཆོས་ཀྱི་སྐུ།	-13499
དགོངས་སུ་གསོལ༔	-13500
མིན་ཏེ་	-13501
ལ་བསྟིམ།	-13502
དང་པོ་ནས་	-13503
སྐྱེད་པས་	-13504
མཉམ་པར་བཞག	-13505
▁སྤྲོས་བྲལ་	-13506
▁ཀུན་རྫོབ་ཏུ་	-13507
ཏུཏྟ	-13508
རྡལ་	-13509
འདོན་བ	-13510
▁ན་མོ༔	-13511
ལྷ་དང་མི་	-13512
སྦྱིན་པར་བྱ།	-13513
རྩེ་གཅིག་ཏུ་བ	-13514
སེང་གེའི་ཁྲི་	-13515
དྷི	-13516
མཐའ།	-13517
རྒྱལ་མཆོག་	-13518
སྙམ་པ་དང་།	-13519
པ་ཞེས་བྱའོ།	-13520
སྒྲུབ་པ་དང་	-13521
▁དམ་བཅའ་	-13522
▁ཤིན་ཏུ་བ	-13523
འབྱུང་གནས།	-13524
རྗོད་པ་ནི།	-13525
སྒྲ་སྒྲོག་	-13526
པདྨ།	-13527
མ་དྲ	-13528
དམིགས་ལ།	-13529
དྲང་དོན་	-13530
རིགས་འགྲ	-13531
རྨོངས་པའི་	-13532
སྐྱབས་གནས་	-13533
ཚ་བའི་	-13534
དགོས་ན་	-13535
སྟེགས་བུ་	-13536
▁ཀུན་རྫོབ་བ	-13537
ཐོགས་པ་མེད་པར་	-13538
ཧཱུྃ་ལས་འོད་ཟེར་	-13539
ཚ་བ	-13540
སླ་བ་	-13541
ཤགས་པ་	-13542
ྱེད་དང་།	-13543
འབྲས་བུའོ།	-13544
མི་དགོས་པར་	-13545
ཀློང་།	-13546
འདྲེན།	-13547
ར་བགྱི	-13548
སྐྱོ་བ	-13549
རྒྱུགས་	-13550
ངོ་བོ་ལ་	-13551
འབར་ཞིང་	-13552
▁ཨ་བྷི་ཥ	-13553
ཤེས་གཉེན་བ	-13554
ཅི་རིགས་པར་	-13555
ཆོས་རྣམས་ཀྱི་	-13556
▁སོང་	-13557
ལས་དེ་	-13558
▁ཤུགས་	-13559
ཀུན་ལ་བ	-13560
གཡོ་བར་	-13561
དེ་བ་ལ་	-13562
ཟའ་བའི་	-13563
མི་འོང་	-13564
▁བར་དོ་	-13565
▁ཡིད་ལ་	-13566
རྣམས་ཏེ།	-13567
▁།གང་ཕྱིར་	-13568
▁དངོས་དང་།	-13569
དྱཱ་	-13570
ཊཱིཀ་	-13571
འཕྲོ།	-13572
འི་བསམ་	-13573
▁སྐུ་ལ་	-13574
རྩ་སྔགས་	-13575
ཞེས་བགྱི་བ	-13576
▁དགྲ་བོའི་	-13577
རོ	-13578
འཁྲུལ་བར་	-13579
མངོན་སུམ་བ	-13580
▁ཁྲོ་རྒྱལ་	-13581
▁བརྗོད་བྱ་	-13582
ཡོངས་སུ་ཤེས་	-13583
ཐག་ཆོད་	-13584
▁བདག་གིས་བ	-13585
དངོས་པོ་དང་	-13586
ཁ་ཁ་ཁཱ་ཧི་ཁཱ་ཧི།	-13587
ཨ།	-13588
སྙོམ་	-13589
▁ཧཱུྂ	-13590
འབྲལ་བ་	-13591
གླིང་པས་	-13592
ཐོགས་ནས་	-13593
འཆད་པ་ནི།	-13594
▁ཤེར་ཕྱིན་	-13595
ཐོབ་པར་གྱུར་ཅིག	-13596
མིང་ནི་	-13597
སྐྲ་ཤད་	-13598
གཏེར་སྟོན་	-13599
སུ་གསོལ་བ་	-13600
ནཱ་ཐ	-13601
ལ་བཀོད།	-13602
▁དོར་བ་	-13603
▁གཅེར་བུ་	-13604
སྐེ་	-13605
ཀཱ་རོ་	-13606
ར་མའི་	-13607
▁བ་ལང་	-13608
འཚོ་བར་	-13609
ཡོད་ཅིང་	-13610
▁བྱིས་པ་	-13611
ྱེ་བ་ཁྲག་ཁྲིག་བ	-13612
▁ཇོ་	-13613
ཚོའི་	-13614
རིང་ལ་	-13615
དག་ཅག་གི་	-13616
འཛིན་པ་ལ་	-13617
▁ཁྱེད་ཅག་	-13618
ཤྭ་ར	-13619
▁ན་མ་	-13620
ཡ་མཱནྟ་	-13621
▁ཡེ་ནས་	-13622
གྲངས་ཅན་	-13623
དགེ་འདུན་བ	-13624
▁གསང་འདུས་	-13625
གསུངས་པ་ནི་	-13626
དང་བཅས་པ་ཐམས་ཅད་	-13627
པཱ་ཎི་	-13628
ཆོས་ཀྱང་	-13629
▁སྤྱི་དོན་	-13630
▁།ཅིའི་ཕྱིར་	-13631
ལན་ནི།	-13632
སྣང་བའོ།	-13633
ཅིག་ཅར་དུ་	-13634
རྡོར་སེམས་	-13635
འབོག་	-13636
▁སྟན་	-13637
འགྲེལ་བ	-13638
མི་བཞེད་	-13639
▁ནམ་མཁའ་ལ་	-13640
འགས་	-13641
དང་ལས་	-13642
▁།དཀར་	-13643
དྲི་མ་བ	-13644
སྨྲ་བ་བ	-13645
དར་རྒྱས་	-13646
སྤངས་ནས།	-13647
འཕེལ་ཞིང་	-13648
ལོ་ཀི་ཏེ་	-13649
དུད་རྩིས་བ	-13650
ཻཾ་	-13651
ཡཀྵ་	-13652
ངེས་བ	-13653
དེན་པས་	-13654
སེལ་གྱི་	-13655
པ་རྣམས་ལ་བ	-13656
མ་ཧཱ་ཀཱ་ལ་	-13657
འི་བསྟན་བཅོས་	-13658
སྐུར་པ་འདེབས་	-13659
ཆོས་མ་འདྲེས་པ་བཅ	-13660
རྒྱུན་མི་འཆད་པར་	-13661
འདུལ།	-13662
གཟུངས།	-13663
ལེའུའི་	-13664
▁སྤྱི་བ	-13665
གྱིས་མཚན་	-13666
ཇི་ལྟ་བར་	-13667
ཙམ་གྱིས་བ	-13668
ཡིན་ཅིང་།	-13669
ཀྴ	-13670
གླང་གི་	-13671
གསུམ་པ་ལ་	-13672
གཟུགས་སུ་བ	-13673
དང་ལྡན་པས།	-13674
▁དེ་གཉིས་ཀྱི་	-13675
▁༼༨	-13676
འཐོར་བ	-13677
མདོ་དང་	-13678
ནི་སེམས་	-13679
འབད་མེད་	-13680
▁གུ་གུལ་	-13681
ཤྲཱི་བཛྲ་	-13682
རེ་རེ་ཞིང་	-13683
ཞེས་པའི་སྒྲ་	-13684
ནམ་མཁའ་དང་མཉམ་	-13685
ལུང་།	-13686
པ་བཅད་	-13687
མཐོང་བ།	-13688
ཞུས་པས་	-13689
མ་ལགས་སོ།	-13690
▁ཐེག་དམན་	-13691
མ་ཧཱ་སུ་ཁ་	-13692
འགྱུར་གྱི།	-13693
དུ་འགྱུར་བ་	-13694
སྙིང་པོ་དང་།	-13695
▁དོན་དམ་པའི་	-13696
▁༡༥	-13697
ས་མ་ཡ༔	-13698
འདས་ནས་	-13699
འཕྲོ་བ།	-13700
དུ་གྱུར།	-13701
མི་ལྡོག་	-13702
▁།ས་བོན་	-13703
▁དཔྲལ་བར་	-13704
པཱ་ལི་	-13705
དག་ཀྱང་བ	-13706
ཀུན་སྤྱོད་	-13707
▁།འཆི་མེད་	-13708
▁གང་དང་ཡང་བ	-13709
ཐུང་བ	-13710
ཚིག་ཏུ་	-13711
སྐོར་ཏེ་	-13712
ཐུགས༴	-13713
ཕྱེ་བས་	-13714
ལག་ཏུ་བ	-13715
གཡས་སུ་བ	-13716
པ་སོགས་བ	-13717
སྐྱེ་བ་ལ་	-13718
ཅི་ཞིག་བྱ།	-13719
ཉེས་པ་མེད་	-13720
མཁའ་འགྲོ་བ	-13721
སྒྲུབ་ཐབས་ཀྱི་	-13722
▁ཨ་ཏི་	-13723
▁ན་མོ་བ	-13724
མ་བྱུང་།	-13725
འཛིན་པ་བ	-13726
སྐྱེ་བར་བ	-13727
གསུངས་པ་དེ་	-13728
པར་བྱེད་པ་ལ་	-13729
▁མི་མཐུན་ཕྱོགས་	-13730
མ་མཆིས་པའི་	-13731
ཤཱཀྱ་ཐུབ་པ་	-13732
▁དེ་ལྟར་ཡང་	-13733
སློབ་དཔོན་ལ་	-13734
ཞེས་བརྗོད་པས་	-13735
ཤད་པའི་རྒྱུད་	-13736
ཞུ་བའི་ཡོན་དུ་	-13737
ཟི་	-13738
▁ཞེན་	-13739
འདྲིལ་	-13740
སམ་མོ།	-13741
ུ་རོལ་	-13742
གདམས་པ།	-13743
▁།སྡོམ་	-13744
▁མཛོད་ལས།	-13745
དང་བཅས་པས།	-13746
རེ་རེ་ལ་ཡང་	-13747
གྱི་བཀའ་	-13748
སྐྱེས་ཏེ་	-13749
གཏོར་འབུལ་	-13750
འཕེལ་འགྲིབ་	-13751
རིན་པོ་ཆེ་དང་	-13752
ཞག་སྟེ་	-13753
སྐུ་ཚེ་	-13754
གྱིས་མྱི་	-13755
▁ཕྱིར་མི་	-13756
མྦུ་	-13757
▁ཟད་	-13758
▁ལྟ་	-13759
མ་ཐོབ་བ	-13760
གསོལ་བར་	-13761
རྩ་རྒྱུད་	-13762
ལ་ཕོག་པས་	-13763
སྐྱེ་བ་ལེན་	-13764
▁དེ་ནི་འདི་ལྟར་	-13765
▁ཤབྡ་	-13766
▁།ཡང་བ	-13767
འདུག་ནས་	-13768
དབྱར་གྱི་	-13769
པ་རྣམས་སུ་	-13770
རྗེས་སུ་འབྲངས་	-13771
གང་བ།	-13772
ེའང་བ	-13773
་རྐྱེན་	-13774
རོ་མཉམ་	-13775
ཉེ་འཁོར་	-13776
མ་བཅིངས་མ་	-13777
ཟང་པོ་དང་།	-13778
ཡིད་ཀྱིས་བ	-13779
▁།ཇི་སྲིད་	-13780
▁ཞིག་	-13781
▁སྒོམ་པ་	-13782
པ་གང་ཞིག་	-13783
མངོན་སུམ་དུ་བ	-13784
▁རྣལ་འབྱོར་མ་	-13785
▁ཀོ་	-13786
འཁོད།	-13787
ཡུ་བ་	-13788
ཤོག་བ	-13789
▁སྤྱི	-13790
ཞལ་གཟིགས་	-13791
མི་བྱེད་པར་	-13792
རྣལ་འབྱོར་ནི།	-13793
སྡུག་བསྔལ་གྱིས་	-13794
མ།་	-13795
དག་སྣང་	-13796
རེ་རེར་	-13797
མཐིལ་དུ་	-13798
ལུས་འདི་	-13799
▁།སྦྱིན་	-13800
▁ད་ལྟའི་	-13801
གྲོལ་བའོ།	-13802
ཟུང་འཇུག་བ	-13803
གསུངས་པ་དང་	-13804
འབྱུང་བ་དང་	-13805
ཆོས་སྟོན་ཏོ།	-13806
འགྲུབ་པར་ཤོག	-13807
་རྙ	-13808
ཤིང༔	-13809
ཀིའི་	-13810
པ་སྟེ།་	-13811
ོའི་བར་དུ་	-13812
རྩ།	-13813
▁ཧེ་	-13814
མཉམ་བ	-13815
ནུས་ན་	-13816
ཟླ་བར་	-13817
རྫྙཱ་ན་	-13818
དབང་ཕྱུག་དང་།	-13819
▁བཛྲ	-13820
པའི་ཆ་	-13821
ྱང་དུ་	-13822
རྣམ་དཔྱོད་	-13823
▁མཆོད་བསྟོད་	-13824
ཡ་ཛཿ	-13825
སྒམ་	-13826
འདྲི་བ་	-13827
▁འགག་པ་	-13828
པར་བསྒོམ་	-13829
དབྱིངས་ནས་	-13830
ྦ་	-13831
ཐེངས་	-13832
ཀའ་བཞིན་	-13833
གསོ་བའི་	-13834
དམག་དཔུང་	-13835
དམིགས་པ་ལ་	-13836
▁རྟེན་གྱི་	-13837
༼རྙིང༽་	-13838
ངང་ཉིད་	-13839
ཅི་ཡོད།	-13840
རོ་ལངས་	-13841
འཆི་མེད་བ	-13842
▁རྡུལ་ཚོན་	-13843
ཉིད་ཡིན་ནོ།	-13844
སྐད་བདག་གིས་	-13845
དར།	-13846
འཕྲོ༔	-13847
སྐྱེར་	-13848
བྱེ་བྲག་	-13849
▁ཕལ་ཆེར་	-13850
འཕྲོ་བའི་	-13851
སྤྲོ་བསྡུ་	-13852
ནས་བྱང་ཆུབ་	-13853
ཤེས་རབ་དང་།	-13854
གཞན་གྱིས་མི་	-13855
རྣམ་པར་དག་པའོ།	-13856
གམ་བ	-13857
ཟངས་ཀྱི་	-13858
ྱ་བ་བྱེད་	-13859
▁ཤེས་ལྡན་	-13860
གསུངས་པ་ནི།	-13861
གྲི་གུག་དང་	-13862
ཡིད་ལ་བྱའོ།	-13863
སེམས་བསྐྱེད།	-13864
ཆོས་ཐམས་ཅད་ལ་	-13865
མུ་ཁ་	-13866
སྡུའོ།	-13867
གཏད་དེ་	-13868
དོན་བཤད་	-13869
འཇུག་པའོ།	-13870
དང་ལྡན་པ་བ	-13871
▁དེའི་ནང་དུ་	-13872
དངོས་པོ་རྣམས་	-13873
གདུལ་	-13874
ཉལ་བ་	-13875
▁བསྡུ་ན་	-13876
མངའ་བརྙེས་	-13877
སྤངས་པ་དང་།	-13878
ཆོས་ཐམས་ཅད་ནི་	-13879
ཅན་ཏེ།	-13880
ཏུ་རེ་	-13881
པཾ་ལས་	-13882
ཁྱད་དུ་	-13883
མི་གསལ་	-13884
འགྱུ་བ་	-13885
སྔ་མ་ལ་	-13886
ཉེས་ལྟུང་	-13887
རིགས་མཆོག་	-13888
སྐྱེད་རིམ་གྱི་	-13889
ལན།	-13890
ཁྱེར།	-13891
ཤེས་དང་	-13892
གྲང་རེག་	-13893
ཞེངས་པའི་	-13894
འགོག་པ་ལ་	-13895
ཞེས་སུ་གསོལ༔	-13896
མ་འཁྲུལ་	-13897
སྔོན་མོ་	-13898
▁།གང་དུ་	-13899
མཁྱེན་རབ་	-13900
▁དགོངས་པ་	-13901
སྟབས་ཀྱིས་	-13902
ྃ་ཧོཿ	-13903
▁།རྟེན་	-13904
ངར་འཛིན་	-13905
པར་བྱས་སོ།	-13906
ཉེས་བྱས་སོ།	-13907
▁ཧཱུྃ་ཧཱུྃ་ཧཱུྃ༔	-13908
ལ༑	-13909
ཡས།	-13910
ཏྲ་ཡ	-13911
ནུབ་བ	-13912
པའང་།	-13913
ྱ་དང་	-13914
▁སྟོད་	-13915
ཅི་ཡིན་	-13916
རབ་གསལ་	-13917
སྐྱུགས་	-13918
གཏོགས་པ་	-13919
རྟོགས་པ་ལ་	-13920
འཁོར་ལོ་དང་།	-13921
མཁས།	-13922
ཙལ་བ	-13923
དག་ནི།	-13924
སྤྲིང་	-13925
ླ་དགས་	-13926
▁རྒྱང་	-13927
གང་དག་བ	-13928
ཉིན་པར་	-13929
ཉིན་མོ་	-13930
རྟགས་དང་	-13931
ས་མ་ཡ་སྟྭ	-13932
▁ཁྱེད་ཀྱིས་	-13933
དུར་ཁྲོད་ཀྱི་	-13934
འགྲིམ་	-13935
རྒ་ཤི་	-13936
དབྱེ་བའོ།	-13937
མྱེད་པ་སྟེ།	-13938
རྟེན་གྱི་གང་ཟག་	-13939
དྲི།	-13940
ཡ་གྱལ་	-13941
མདུན་ན་	-13942
མཉམ་མེད་	-13943
ཁྲོ་གཉེར་	-13944
དུན་ཅུ་རྩ་	-13945
རྒྱུན་བཤགས་	-13946
འོད་དུ་ཞུ་བ་	-13947
རྣལ་འབྱོར་པས།	-13948
སྣ་ཚོགས་རྡོ་རྗེ་	-13949
མཛེས་པ།	-13950
ཡང་རུང་	-13951
རྟོག་གེ་	-13952
སྦྱངས་པའི་	-13953
▁།ཞེས་གསུངས།	-13954
གཏད་ནས་	-13955
པ་བརྗོད།	-13956
ྱེ་བྲག་བ	-13957
རྒྱལ་ཁམས་	-13958
▁ཞེས་པ་སྟེ།	-13959
ཅོམ།	-13960
དིང་	-13961
རུམ་	-13962
སང་བ	-13963
གློད་	-13964
མཁན་བ	-13965
སྟེན་བ	-13966
སྙམ་ནས།	-13967
ཆུང་བའི་	-13968
དཔལ་བཟང་	-13969
ཕྱིན་ནས་	-13970
ར་བགྱིད་	-13971
ཞིང་སྐྱོང་	-13972
འཁྱིལ་བའི་	-13973
ཡེ་ཤེས་ནི།	-13974
▁བྱེད་པ་པོ་	-13975
▁རྣལ་འབྱོར་གྱི་	-13976
འཐོར།	-13977
གཞན་ནས་	-13978
མཆོད་པར་	-13979
སྟ་གོན་བ	-13980
ལྷ་ཚོགས་རྣམས༔	-13981
ཏབ་པས་	-13982
དག་ཏུ།	-13983
འཕེན་བ	-13984
གང་ལ་ལ་	-13985
▁རབ་ཀྱི་	-13986
སྙིང་ཁའི་	-13987
ྲལ་བས་མ་ཡིན་ནོ།	-13988
མོད་ལ་	-13989
ཞུགས།།	-13990
གནས་ཁང་	-13991
ཞུགས་ནས།	-13992
▁ཅེས་པས་	-13993
ཆོས་འཁོར་བ	-13994
འདི་བཞིན་དུ་	-13995
པར་འདོད་པ་དང་།	-13996
མཐིང་ག་	-13997
དང་པོ་ནི་	-13998
དངོས་འགལ་	-13999
པར་བྱས་པས་	-14000
པ་བསོད་ནམས་	-14001
ྱུག	-14002
ཀུག་ནས་	-14003
ལོ་ཏོག་	-14004
གཞུང་དུ་	-14005
ཤེས་ཀྱིས་	-14006
སྟོང་ཉིད་བ	-14007
དངོས་བསྟན་གྱི་	-14008
ཙམ་ན།	-14009
ཕུལ་བས།	-14010
སྐྱེད་པ་ནི།	-14011
▁༅	-14012
ཞར་ལ་	-14013
དམ་པས་	-14014
བྱས་ནས།	-14015
སྟེན་པའི་	-14016
ཐུགས་སྲོག་	-14017
▁།ཀུན་མཁྱེན་	-14018
▁།ཞེས་གསུངས་ཏེ།	-14019
འདིས༔	-14020
ལུའི་	-14021
ལོ་ལ་	-14022
ཟབ་ཆོས་	-14023
དྲུང་ནས་	-14024
དགོངས་པ་བ	-14025
ཙནྡྲ་	-14026
ཁྲིད་བ	-14027
ལོན་པ་	-14028
ླངས་པ་	-14029
ནག་པོ་བ	-14030
▁བྱང་གི་	-14031
ར་བྱེད་པ།	-14032
ཉམས་པ་དང་།	-14033
[...]
